<unk>	0
<s>	0
</s>	0
<pad>	0
<bos>	0
<eos>	0
.	-2.62053
,	-3.30873
▁the	-3.43889
▁to	-3.76693
▁I	-3.85699
'	-3.85851
s	-3.94443
▁a	-3.95943
▁you	-3.96137
▁and	-4.22403
▁is	-4.31229
▁of	-4.31647
▁it	-4.32616
?	-4.63486
▁in	-4.66664
▁for	-4.72338
▁that	-4.77515
▁can	-5.03831
▁are	-5.06863
▁It	-5.11802
▁with	-5.14085
▁your	-5.14322
▁have	-5.16997
▁be	-5.18957
▁we	-5.19625
▁this	-5.21708
▁will	-5.25004
t	-5.28717
▁We	-5.35581
-	-5.38829
▁	-5.46747
▁our	-5.4886
▁The	-5.51928
▁on	-5.52122
m	-5.62449
▁so	-5.66013
▁like	-5.68442
▁as	-5.70329
▁product	-5.82582
▁You	-5.83926
▁not	-5.8841
▁company	-5.88742
▁me	-5.89175
▁at	-5.95119
▁time	-5.96136
▁was	-5.96507
▁an	-5.97254
▁from	-5.97575
▁do	-6.01254
▁about	-6.02219
▁If	-6.0396
▁by	-6.06002
▁has	-6.0774
▁my	-6.08127
▁Yes	-6.08713
▁if	-6.09053
▁but	-6.10343
▁also	-6.10571
▁there	-6.10948
▁would	-6.14933
▁This	-6.17057
▁know	-6.18221
▁right	-6.18382
ing	-6.23563
ll	-6.23566
▁all	-6.26491
▁BBB	-6.2711
▁good	-6.29797
▁us	-6.33722
▁think	-6.33769
▁products	-6.34835
▁more	-6.379
▁please	-6.40997
▁or	-6.41663
▁want	-6.42149
!	-6.42621
▁What	-6.46436
re	-6.47284
▁FFF	-6.49185
▁been	-6.49261
▁AAA	-6.49944
▁one	-6.50144
▁very	-6.5372
▁out	-6.53845
▁don	-6.54928
▁Oh	-6.56271
▁That	-6.57307
▁when	-6.59237
▁Please	-6.64044
▁because	-6.65845
▁In	-6.6617
▁use	-6.67604
▁There	-6.68976
▁So	-6.6898
▁up	-6.70978
▁new	-6.71314
▁any	-6.72207
▁order	-6.7296
▁now	-6.75172
d	-6.76363
▁go	-6.76715
▁make	-6.76989
▁And	-6.7716
▁get	-6.78916
▁really	-6.79012
▁need	-6.79852
▁what	-6.80947
▁No	-6.8395
▁much	-6.84332
▁contact	-6.85601
▁But	-6.87392
▁first	-6.8882
▁business	-6.89676
▁who	-6.90044
▁other	-6.91134
▁lot	-6.91256
▁Thank	-6.91289
▁going	-6.92011
▁send	-6.94058
▁price	-6.95758
▁Our	-6.95866
▁just	-6.96375
▁only	-6.96452
▁possible	-6.96797
▁well	-6.97553
▁no	-6.97945
▁am	-6.98989
▁here	-6.99561
▁two	-6.99777
▁than	-7.00714
▁work	-7.00964
▁take	-7.06248
▁made	-7.07373
▁too	-7.07702
▁How	-7.07856
▁look	-7.08433
▁people	-7.0844
ed	-7.1017
▁see	-7.11057
▁should	-7.12436
n	-7.12482
▁how	-7.12852
▁check	-7.13241
▁many	-7.13318
▁after	-7.13822
▁next	-7.13956
▁used	-7.15847
▁they	-7.16247
▁However	-7.17074
▁Then	-7.17123
▁meeting	-7.17646
▁were	-7.17743
▁let	-7.17814
1	-7.18723
▁help	-7.19115
▁Korea	-7.20343
ve	-7.21372
▁them	-7.226
▁again	-7.23269
▁long	-7.24615
▁last	-7.25061
▁high	-7.28549
▁As	-7.28843
▁email	-7.2907
▁soon	-7.29459
▁Hello	-7.29926
▁A	-7.30125
▁hope	-7.30285
▁through	-7.31026
▁customers	-7.31721
▁week	-7.33092
▁give	-7.33548
▁such	-7.34692
▁day	-7.35109
▁come	-7.35248
▁team	-7.35899
▁days	-7.3737
▁even	-7.37554
▁contract	-7.37749
▁does	-7.38481
▁some	-7.38554
▁year	-7.38878
▁Do	-7.41753
▁did	-7.42635
▁information	-7.43764
▁food	-7.45053
▁best	-7.45244
▁won	-7.46849
▁Korean	-7.46988
▁delivery	-7.47593
▁Let	-7.4765
▁which	-7.48328
▁Wow	-7.4846
▁introduce	-7.48692
▁three	-7.50089
▁When	-7.50091
▁place	-7.50739
▁before	-7.5076
▁Can	-7.51451
▁service	-7.52263
▁today	-7.52344
2	-7.5238
▁over	-7.52546
▁feel	-7.53454
~	-7.5353
▁he	-7.53575
th	-7.54035
▁ask	-7.54117
▁buy	-7.54259
▁problem	-7.54949
▁number	-7.54959
▁little	-7.55283
▁eat	-7.56173
▁years	-7.57586
▁way	-7.57869
▁why	-7.58077
▁water	-7.59341
▁technology	-7.59792
▁design	-7.59977
▁3	-7.60624
▁may	-7.61119
▁said	-7.6192
▁sorry	-7.62676
▁reply	-7.62731
▁using	-7.63592
▁various	-7.64233
▁back	-7.65296
▁without	-7.65403
▁hard	-7.65423
▁looking	-7.6548
▁free	-7.65615
▁these	-7.65729
▁provide	-7.66068
▁customer	-7.66077
▁each	-7.66416
▁their	-7.6678
▁person	-7.6779
▁quality	-7.68206
▁sent	-7.68251
▁purchase	-7.68934
▁same	-7.68999
▁forward	-7.69131
▁could	-7.69894
▁tell	-7.70887
▁10	-7.70936
▁into	-7.71253
▁thank	-7.71274
▁didn	-7.72531
▁pay	-7.72879
▁most	-7.72938
y	-7.7308
▁First	-7.7318
▁Why	-7.73633
▁received	-7.75234
▁Hey	-7.75429
▁then	-7.75537
▁month	-7.75754
▁different	-7.75808
▁1	-7.76122
▁while	-7.76617
▁room	-7.76911
▁must	-7.77204
▁course	-7.77392
▁put	-7.785
▁had	-7.78527
▁questions	-7.79008
▁able	-7.79101
▁change	-7.79607
▁easy	-7.79661
▁receive	-7.80276
▁system	-7.80793
▁addition	-7.80851
▁better	-7.81238
▁away	-7.81373
▁where	-7.81937
▁date	-7.81969
▁Are	-7.83002
▁ordered	-7.83011
▁great	-7.8332
▁He	-7.83593
▁due	-7.83803
▁something	-7.83887
▁sales	-7.83915
▁home	-7.85416
▁already	-7.85486
▁schedule	-7.85553
▁e	-7.85631
▁For	-7.86315
▁2	-7.86335
▁set	-7.86573
▁companies	-7.87147
▁always	-7.87288
ly	-7.87978
▁payment	-7.88246
▁visit	-7.89467
▁They	-7.89656
▁market	-7.89992
▁down	-7.90033
▁okay	-7.9008
▁My	-7.90358
▁together	-7.90979
▁Okay	-7.91139
▁5	-7.91521
▁around	-7.9302
▁future	-7.93252
▁store	-7.93367
▁say	-7.93612
▁working	-7.93858
▁still	-7.93985
▁heard	-7.9435
▁skin	-7.94786
▁process	-7.95461
▁amount	-7.95992
▁case	-7.96461
▁sure	-7.96862
▁doing	-7.9722
▁cost	-7.97265
▁production	-7.97828
▁data	-7.98404
▁OK	-8.00195
▁meet	-8.00594
▁kind	-8.01047
▁services	-8.0109
▁house	-8.01303
▁find	-8.01619
▁keep	-8.02016
▁difficult	-8.02198
▁restaurant	-8.02209
▁hotel	-8.0231
▁Therefore	-8.0247
▁try	-8.02667
▁All	-8.02749
▁available	-8.03461
▁within	-8.03972
▁important	-8.05839
▁charge	-8.07242
▁Because	-8.07851
▁quickly	-8.0787
▁taste	-8.08033
▁car	-8.08135
▁understand	-8.08253
▁discount	-8.09013
▁Also	-8.0916
▁research	-8.09359
▁small	-8.09414
mail	-8.09648
er	-8.09734
▁color	-8.1102
▁"	-8.11536
▁money	-8.11876
▁Ah	-8.11988
▁large	-8.12369
▁overseas	-8.1267
▁off	-8.12969
▁once	-8.13133
▁real	-8.13137
▁world	-8.14256
▁things	-8.14656
▁materials	-8.14797
▁request	-8.1481
▁size	-8.14855
▁since	-8.15049
▁office	-8.15663
▁interested	-8.15803
▁sending	-8.16094
▁reservation	-8.16385
▁end	-8.16883
▁got	-8.17335
▁phone	-8.17425
▁website	-8.17467
▁plan	-8.17567
▁advance	-8.18284
▁making	-8.18683
▁4	-8.18927
▁offer	-8.1895
▁Your	-8.19003
▁during	-8.19252
▁thought	-8.20014
▁every	-8.20477
▁being	-8.20959
▁done	-8.211
▁came	-8.21268
al	-8.21536
▁yet	-8.21537
▁name	-8.21997
▁provides	-8.2308
▁easily	-8.23091
▁inform	-8.23135
▁additional	-8.23246
▁total	-8.23445
▁start	-8.23452
▁body	-8.23522
▁few	-8.238
▁call	-8.24501
▁sell	-8.24623
▁Dear	-8.24695
▁online	-8.24899
▁him	-8.25665
▁hair	-8.25703
▁care	-8.25878
▁Of	-8.26232
▁anything	-8.2635
▁both	-8.26363
▁part	-8.26379
▁air	-8.26688
▁recommend	-8.26692
▁life	-8.27404
▁per	-8.27543
e	-8.27658
▁power	-8.27673
▁seems	-8.28145
▁20	-8.28454
▁manager	-8.28565
▁situation	-8.28662
▁open	-8.28856
▁experience	-8.29834
▁shipping	-8.30072
▁material	-8.30148
▁stock	-8.30153
in	-8.30176
▁equipment	-8.30206
▁details	-8.30482
▁After	-8.30722
▁Now	-8.31052
▁talk	-8.31205
▁Since	-8.31241
▁between	-8.31682
▁project	-8.32244
▁own	-8.32278
▁big	-8.33233
▁To	-8.33673
▁enjoy	-8.33783
▁Don	-8.34004
▁development	-8.34083
▁nice	-8.34123
▁light	-8.34253
▁currently	-8.34296
▁space	-8.34484
▁those	-8.34555
▁insurance	-8.34839
▁Did	-8.3494
▁attached	-8.35171
▁another	-8.35723
▁function	-8.35972
▁bit	-8.36082
▁children	-8.36934
▁special	-8.37054
▁enough	-8.38188
▁everything	-8.38277
▁Good	-8.39155
▁side	-8.39256
▁management	-8.39315
▁event	-8.39473
▁Mr	-8.39572
▁With	-8.39912
▁rice	-8.40241
▁video	-8.40465
▁delivered	-8.40479
▁apologize	-8.40506
▁increase	-8.40718
▁sample	-8.41107
▁answer	-8.41507
"	-8.41984
▁area	-8.423
▁performance	-8.42834
▁wrong	-8.42847
▁ago	-8.42914
▁clean	-8.42937
▁show	-8.44426
▁interest	-8.44909
▁happy	-8.45307
▁delicious	-8.45522
▁items	-8.46096
▁tomorrow	-8.46289
▁far	-8.46708
▁ingredients	-8.4685
▁found	-8.46877
▁wholesale	-8.47144
▁wait	-8.47198
▁brand	-8.47552
▁popular	-8.47922
▁full	-8.48013
▁One	-8.48048
▁refund	-8.48168
▁These	-8.48926
▁thing	-8.4896
▁comfortable	-8.49237
▁hours	-8.49239
▁left	-8.49393
▁choose	-8.49789
▁period	-8.50066
▁minutes	-8.50199
▁trip	-8.50261
▁support	-8.50327
▁machine	-8.5135
▁control	-8.51862
▁software	-8.52261
▁according	-8.52502
▁contacting	-8.52578
▁months	-8.52843
▁device	-8.52865
▁type	-8.53011
▁comes	-8.53428
▁second	-8.53432
▁ship	-8.53587
r	-8.53621
▁appreciate	-8.53917
▁love	-8.54305
▁30	-8.54344
▁low	-8.54354
▁prepare	-8.54434
▁excellent	-8.54654
▁never	-8.54793
▁times	-8.54834
▁developed	-8.54917
g	-8.55095
▁game	-8.5519
▁result	-8.55856
▁morning	-8.56753
▁employees	-8.5692
▁expected	-8.57217
▁6	-8.57601
▁model	-8.57889
▁country	-8.58212
▁problems	-8.58323
▁soft	-8.58764
▁yes	-8.59114
▁coming	-8.59193
▁decided	-8.59457
▁100	-8.60222
▁hear	-8.6045
▁content	-8.60651
▁add	-8.60821
▁planning	-8.60867
▁went	-8.61219
▁fit	-8.61321
▁variety	-8.61384
▁Even	-8.61458
▁cannot	-8.61533
▁proceed	-8.61554
▁his	-8.61593
▁four	-8.61702
▁address	-8.61807
▁job	-8.61965
▁reason	-8.62156
▁Just	-8.62651
▁wear	-8.62729
▁until	-8.62914
▁factory	-8.6292
▁designed	-8.62921
▁discuss	-8.63195
▁oil	-8.63558
▁wanted	-8.6363
▁At	-8.64121
▁top	-8.64367
▁book	-8.64527
▁later	-8.64556
▁deliver	-8.6487
▁department	-8.65403
▁old	-8.65631
▁family	-8.65632
▁front	-8.66215
▁perfect	-8.66236
▁looks	-8.66608
▁prevent	-8.66932
▁staff	-8.6706
▁play	-8.67197
▁hand	-8.67219
▁stay	-8.67563
▁line	-8.678
▁main	-8.68015
▁industry	-8.68044
▁sold	-8.68203
▁asked	-8.68418
▁face	-8.69178
▁matter	-8.6919
▁makes	-8.69196
▁called	-8.69372
▁health	-8.70043
▁natural	-8.70252
▁told	-8.70329
▁strong	-8.7042
▁checked	-8.7044
▁live	-8.70444
▁head	-8.70476
▁related	-8.70624
▁five	-8.70777
▁quantity	-8.70895
▁mind	-8.714
▁rate	-8.71402
1,	-8.71423
▁card	-8.71453
▁catalog	-8.71607
▁black	-8.72036
▁quick	-8.7221
▁continue	-8.72217
▁saw	-8.72248
▁released	-8.72421
▁building	-8.72602
▁based	-8.72764
▁supply	-8.7284
▁colors	-8.73041
▁S	-8.7323
▁inconvenience	-8.73327
▁applied	-8.73514
▁existing	-8.73594
▁move	-8.7373
▁detailed	-8.74299
▁mean	-8.74549
▁become	-8.7457
▁sound	-8.74728
▁actually	-8.74811
▁results	-8.74946
ther	-8.7495
▁contacted	-8.75126
▁test	-8.75179
▁bad	-8.75269
▁yesterday	-8.7535
▁needs	-8.75376
▁requested	-8.75542
▁opportunity	-8.75734
▁types	-8.75781
D	-8.75821
▁create	-8.75993
▁Really	-8.75997
▁proposal	-8.76054
▁15	-8.76368
▁explain	-8.76532
▁several	-8.76722
▁close	-8.76731
▁account	-8.76748
▁worry	-8.7696
▁safe	-8.77143
▁item	-8.77558
▁changed	-8.7781
▁cooperation	-8.77894
▁hold	-8.77977
▁immediately	-8.78029
▁devices	-8.78251
▁believe	-8.78464
▁hot	-8.7851
▁suitable	-8.78601
▁usually	-8.78866
▁recommended	-8.78869
▁parts	-8.78954
▁fun	-8.78962
▁environment	-8.78967
▁including	-8.78997
▁headquarters	-8.79186
▁floor	-8.79391
▁watch	-8.79777
▁cool	-8.80089
▁fine	-8.80227
▁provided	-8.8024
▁current	-8.80342
▁less	-8.80526
▁list	-8.80651
▁Look	-8.80865
▁sir	-8.80878
l	-8.81042
▁deposit	-8.8106
▁leave	-8.81082
▁temperature	-8.81171
▁center	-8.81331
▁unit	-8.81426
▁convenient	-8.8164
▁method	-8.81683
▁construction	-8.8195
▁application	-8.82049
▁energy	-8.82141
▁million	-8.82229
S	-8.82263
es	-8.82324
▁point	-8.82372
▁fee	-8.82375
▁paid	-8.82452
▁inside	-8.82761
▁weeks	-8.82771
▁simple	-8.83018
▁under	-8.83119
▁waiting	-8.83193
▁particular	-8.83564
▁attention	-8.83647
▁completed	-8.83649
▁ready	-8.83781
▁past	-8.8388
▁conditions	-8.83908
▁features	-8.84002
▁safety	-8.84114
▁fabric	-8.84214
▁presentation	-8.84392
▁share	-8.84548
▁talking	-8.84675
▁8	-8.84679
▁camera	-8.84934
▁else	-8.84998
▁attend	-8.85001
▁review	-8.85122
▁coffee	-8.85327
▁Kim	-8.85398
3	-8.85473
▁program	-8.85494
▁steel	-8.85515
▁Well	-8.85586
▁picture	-8.85735
▁Here	-8.85851
▁box	-8.86001
▁battery	-8.86083
▁almost	-8.86701
▁computer	-8.86855
▁red	-8.86959
▁run	-8.86985
▁haven	-8.87057
▁return	-8.87119
▁mail	-8.87476
▁allows	-8.87697
▁arrive	-8.87822
▁file	-8.87911
▁pretty	-8.87997
▁smart	-8.88257
▁confirmed	-8.88426
▁minute	-8.88441
able	-8.88452
▁regarding	-8.88455
▁busy	-8.88587
▁dollars	-8.88779
▁contains	-8.88781
▁Today	-8.89072
▁read	-8.89108
▁directly	-8.89126
▁produce	-8.89231
▁couldn	-8.89281
▁meat	-8.89496
▁delay	-8.89643
▁fast	-8.89677
▁purchasing	-8.89703
▁50	-8.89759
▁Who	-8.9029
▁cold	-8.90463
▁p	-8.90628
▁prepared	-8.91108
▁apply	-8.91129
▁getting	-8.91156
▁sign	-8.91171
▁recently	-8.91708
▁bought	-8.91739
▁goes	-8.91817
▁refer	-8.91934
▁fact	-8.92029
▁security	-8.9204
▁terms	-8.92139
▁un	-8.92269
▁non	-8.92387
▁remember	-8.92412
▁idea	-8.92664
▁regular	-8.9271
▁electric	-8.92986
▁handle	-8.93109
▁everyone	-8.9311
▁saying	-8.93322
▁mobile	-8.93717
▁having	-8.93766
▁costs	-8.94005
▁located	-8.94024
▁Where	-8.94045
▁shipped	-8.94076
▁necessary	-8.94124
▁Huh	-8.94126
▁orders	-8.94639
▁pick	-8.94678
▁rooms	-8.94775
▁issue	-8.95004
▁field	-8.95292
▁bring	-8.95319
▁wish	-8.95402
▁app	-8.95511
▁soup	-8.95575
▁menu	-8.9593
▁short	-8.9612
▁further	-8.96942
▁marketing	-8.97028
▁famous	-8.97109
▁deal	-8.97233
▁By	-8.97424
▁added	-8.97544
▁unique	-8.98
▁difference	-8.98088
▁storage	-8.98536
▁trust	-8.98853
▁white	-8.99079
p	-8.99279
▁countries	-8.99561
▁taking	-8.99561
▁sauce	-8.99778
00	-8.99858
▁exchange	-8.99935
▁Come	-9.00325
▁mistake	-9.00424
▁B	-9.0057
▁form	-9.00879
▁caused	-9.00982
▁school	-9.01031
▁cut	-9.01056
to	-9.01071
▁expensive	-9.01092
▁wide	-9.01499
▁relationship	-9.01519
▁level	-9.01545
▁accept	-9.01739
▁raw	-9.01875
▁Have	-9.02202
▁someone	-9.02219
▁speed	-9.02248
▁latest	-9.02319
▁international	-9.02329
▁paper	-9.02409
▁demand	-9.02447
c	-9.02506
▁started	-9.02714
▁invoice	-9.02758
▁equipped	-9.02873
▁lower	-9.02983
▁news	-9.03156
▁purchased	-9.03255
▁takes	-9.03537
▁local	-9.03614
▁whe	-9.0364
▁dry	-9.03986
▁complete	-9.0435
▁might	-9.04452
▁definitely	-9.04455
▁similar	-9.04509
▁investment	-9.04905
▁guess	-9.04966
▁basic	-9.05206
▁kitchen	-9.05424
▁develop	-9.05464
▁trying	-9.05509
▁goods	-9.05515
▁rest	-9.05736
▁functions	-9.05966
▁9	-9.05971
▁included	-9.06103
▁night	-9.06286
▁cover	-9.06341
▁question	-9.06353
▁Isn	-9.06456
o	-9.06479
▁facilities	-9.06641
▁May	-9.06657
▁Not	-9.06738
▁Go	-9.06745
▁least	-9.06816
▁Lee	-9.06839
▁leader	-9.07135
▁site	-9.07207
▁Currently	-9.07401
▁medical	-9.07409
▁thinking	-9.07575
▁weight	-9.07579
▁eating	-9.07586
▁often	-9.07623
▁depend	-9.07672
▁From	-9.07694
▁media	-9.07706
▁heat	-9.07924
▁CEO	-9.0793
▁tried	-9.08111
▁damage	-9.08181
▁turn	-9.0832
▁Unit	-9.08356
▁drink	-9.08498
▁12	-9.08521
ic	-9.08831
▁season	-9.08985
▁near	-9.09104
▁communication	-9.09176
▁earlier	-9.09176
▁music	-9.09176
▁built	-9.09184
▁travel	-9.09418
▁prices	-9.09597
▁Seoul	-9.09716
▁delayed	-9.09814
▁curious	-9.09895
▁style	-9.09939
▁treatment	-9.09997
▁Once	-9.102
▁shipment	-9.10379
▁learning	-9.10878
▁held	-9.10927
▁bag	-9.10931
▁study	-9.11036
▁warehouse	-9.1117
▁Friday	-9.11472
▁amazing	-9.11655
▁quite	-9.11842
▁Thanks	-9.12087
quality	-9.12221
▁understanding	-9.12327
▁E	-9.12385
▁property	-9.12393
▁Internet	-9.12516
▁produced	-9.12554
C	-9.12577
▁cleaning	-9.12597
▁hands	-9.12859
▁late	-9.13151
▁healthy	-9.13202
▁hit	-9.13432
▁bank	-9.13675
▁Wait	-9.13759
▁screen	-9.13766
▁longer	-9.13767
▁vehicle	-9.13794
▁location	-9.13883
▁heart	-9.14269
▁warranty	-9.14324
▁learn	-9.14351
▁clothes	-9.14514
▁living	-9.14616
▁Right	-9.14638
▁tea	-9.14696
▁States	-9.14741
▁arrived	-9.14789
▁effect	-9.14938
▁improve	-9.14953
▁solve	-9.15091
▁documents	-9.15097
▁estimate	-9.15155
▁reduce	-9.15411
▁image	-9.15462
▁half	-9.15467
▁sincerely	-9.15727
▁enter	-9.15951
▁foreign	-9.16124
▁wonder	-9.16278
▁re	-9.16328
▁yourself	-9.16368
▁boss	-9.16461
▁daily	-9.16484
▁among	-9.16626
▁true	-9.16759
▁points	-9.16853
▁party	-9.16936
▁alone	-9.17064
▁table	-9.17269
▁below	-9.17275
▁higher	-9.17452
▁view	-9.17487
am	-9.17582
▁cooking	-9.17613
▁increased	-9.17701
▁cancel	-9.17762
▁selling	-9.17795
▁supplier	-9.17831
▁general	-9.1787
▁brother	-9.17918
▁samples	-9.17976
▁separate	-9.18147
▁touch	-9.18191
▁means	-9.18247
or	-9.18375
▁changes	-9.18381
▁meal	-9.1848
▁response	-9.18511
▁gave	-9.18764
▁gift	-9.18764
▁Hi	-9.18878
▁C	-9.18966
up	-9.19079
▁Somin	-9.19204
▁seen	-9.19531
▁warm	-9.19635
▁include	-9.19782
▁clear	-9.19807
▁introduced	-9.19857
▁On	-9.19861
▁filter	-9.19908
2,	-9.19958
▁cause	-9.19999
▁happened	-9.20013
a	-9.20103
▁writing	-9.20152
▁social	-9.20299
▁comfort	-9.20334
▁inventory	-9.20482
▁personal	-9.2049
▁nothing	-9.2055
▁professional	-9.20569
▁supplies	-9.20682
▁green	-9.20689
▁scheduled	-9.20726
▁partner	-9.20726
▁remove	-9.20742
ation	-9.20831
▁group	-9.20863
▁outside	-9.20964
5	-9.20995
▁position	-9.21053
▁automatically	-9.21086
▁access	-9.21142
▁Jong	-9.21277
▁worked	-9.21483
▁Man	-9.21508
▁range	-9.21594
▁needed	-9.21858
▁rent	-9.21865
▁careful	-9.21866
▁detail	-9.21869
▁baby	-9.21896
▁bulk	-9.22056
▁receiving	-9.22099
▁young	-9.22103
▁credit	-9.22305
▁her	-9.22405
▁New	-9.22442
▁completely	-9.22553
▁chicken	-9.22576
▁wireless	-9.22678
▁members	-9.227
▁single	-9.23058
▁ensure	-9.23096
▁worried	-9.23124
▁helps	-9.23161
▁specific	-9.23214
▁books	-9.23635
▁pressure	-9.23725
▁Or	-9.23776
▁report	-9.23813
▁According	-9.24053
▁cream	-9.24116
▁spicy	-9.24166
▁original	-9.24264
▁public	-9.24283
▁December	-9.24375
ers	-9.24485
▁decision	-9.24491
▁plastic	-9.24604
▁button	-9.24677
friendly	-9.25119
▁carefully	-9.25174
▁digital	-9.2524
▁choice	-9.25279
▁manufacturing	-9.25346
▁compared	-9.25372
▁solution	-9.2562
▁games	-9.2568
▁she	-9.25729
▁took	-9.25747
▁satisfied	-9.26197
▁estate	-9.26334
▁Sir	-9.26546
▁early	-9.26555
▁sale	-9.26568
▁separately	-9.26587
▁includes	-9.26744
on	-9.26882
▁write	-9.27047
▁consider	-9.27224
▁finish	-9.27398
▁inquiry	-9.27474
▁adjust	-9.27553
le	-9.27554
▁package	-9.27687
▁sleep	-9.28172
▁moment	-9.28341
▁checking	-9.2856
▁traditional	-9.28642
b	-9.28704
▁eyes	-9.28709
▁Does	-9.2887
▁internal	-9.28956
▁isn	-9.2911
▁Yeah	-9.2921
▁running	-9.29283
▁pork	-9.29722
▁manage	-9.2989
▁value	-9.29918
▁fresh	-9.30078
▁stop	-9.30378
▁installed	-9.30602
▁manufacturer	-9.30791
▁Like	-9.30828
▁global	-9.30936
▁employee	-9.31072
4	-9.3135
▁expect	-9.31361
▁condition	-9.31412
▁T	-9.31636
▁dog	-9.31814
▁representative	-9.31931
▁electronic	-9.32003
▁hey	-9.32203
▁dust	-9.32248
▁cell	-9.32398
▁age	-9.32513
▁voice	-9.327
▁platform	-9.32765
▁domestic	-9.32856
▁seat	-9.33213
▁friend	-9.33334
▁works	-9.33364
▁transaction	-9.33377
▁Unfortunately	-9.33382
▁packaging	-9.33688
▁students	-9.33724
▁owner	-9.33848
▁users	-9.34162
▁apartment	-9.34316
i	-9.34715
▁11	-9.34862
▁mentioned	-9.34877
▁winter	-9.34996
▁interior	-9.35225
▁machines	-9.35993
▁weather	-9.36168
▁cook	-9.36542
▁guide	-9.36666
▁powder	-9.36784
▁dishes	-9.36876
▁shoes	-9.36881
▁financial	-9.36986
▁probably	-9.37023
1.	-9.37039
▁women	-9.37102
▁save	-9.37158
▁processing	-9.37208
▁contents	-9.37329
▁anywhere	-9.37339
▁branch	-9.37403
▁comfortably	-9.37419
▁man	-9.37537
▁decide	-9.3762
▁plant	-9.37738
▁Uh	-9.38022
▁operation	-9.38042
▁standard	-9.38059
▁afternoon	-9.38134
▁export	-9.38297
▁human	-9.38398
▁eco	-9.38563
▁gas	-9.38644
▁sweet	-9.38818
▁child	-9.38851
▁fire	-9.38865
▁training	-9.39247
▁South	-9.39338
▁inspection	-9.39349
▁washing	-9.39352
▁fill	-9.39391
▁major	-9.39494
▁Next	-9.39499
▁suddenly	-9.39604
▁moisture	-9.39743
▁100%	-9.39926
▁required	-9.39978
▁above	-9.40067
▁properly	-9.40162
▁developing	-9.4026
▁shape	-9.40421
▁drive	-9.40469
▁dinner	-9.40638
2.	-9.40775
▁build	-9.41099
▁hello	-9.41296
▁double	-9.41343
▁ordering	-9.41492
▁Each	-9.41543
ion	-9.4157
▁correct	-9.41588
▁glad	-9.4167
I	-9.41726
▁200	-9.4183
▁network	-9.41845
▁consist	-9.41871
▁happen	-9.41926
▁win	-9.42113
▁driving	-9.42199
▁friends	-9.42214
▁TV	-9.42235
▁inquire	-9.42255
▁safely	-9.42276
▁kimchi	-9.42287
▁though	-9.42363
▁Some	-9.42424
▁fully	-9.42481
▁step	-9.4263
▁door	-9.42714
▁noise	-9.42733
▁positive	-9.42753
▁increasing	-9.42756
▁especially	-9.42788
▁reach	-9.42883
▁city	-9.42889
▁noodles	-9.43043
▁smell	-9.43065
▁pack	-9.43087
▁participate	-9.43091
▁middle	-9.43122
▁U	-9.4321
▁calling	-9.43255
▁Take	-9.43295
▁exactly	-9.43409
▁express	-9.43435
▁commercial	-9.43453
▁sense	-9.43458
▁capacity	-9.43517
▁opened	-9.43546
▁durable	-9.43627
▁user	-9.43679
▁offers	-9.4371
▁previous	-9.43758
▁blood	-9.43796
▁P	-9.44154
▁purpose	-9.44182
▁leather	-9.44558
▁Ji	-9.44602
▁volume	-9.4466
▁six	-9.44761
▁display	-9.44794
▁engine	-9.45093
▁premium	-9.45138
▁partners	-9.45197
▁fish	-9.45306
ri	-9.45434
▁structure	-9.45508
▁oh	-9.4552
▁fair	-9.45676
▁final	-9.45877
k	-9.46063
u	-9.46155
▁40	-9.46157
▁install	-9.46259
▁carry	-9.46272
▁itself	-9.46312
▁giving	-9.46361
▁improved	-9.46519
▁along	-9.46794
▁Monday	-9.46795
▁areas	-9.46881
▁feeling	-9.46918
▁newly	-9.46943
▁pet	-9.47001
▁wife	-9.47056
▁loss	-9.47303
▁highly	-9.47387
▁pre	-9.47582
▁listen	-9.47669
▁sit	-9.47858
▁advantage	-9.47959
x	-9.48155
▁welcome	-9.48346
▁history	-9.48462
▁China	-9.48462
▁risk	-9.48487
▁glass	-9.48535
▁cheese	-9.4855
▁blue	-9.48642
▁movie	-9.48681
▁maintain	-9.48684
▁R	-9.48696
▁message	-9.4878
▁launch	-9.48819
▁English	-9.4882
▁wine	-9.49153
▁mode	-9.49345
▁texture	-9.49414
▁D	-9.49458
pm	-9.49529
▁opening	-9.49551
▁example	-9.49787
▁shopping	-9.49799
▁ever	-9.49817
▁plans	-9.49848
▁wash	-9.49969
▁exact	-9.5012
▁invite	-9.50131
▁expand	-9.50227
▁consumers	-9.50257
▁benefits	-9.50274
0	-9.50315
▁anyone	-9.50397
▁mother	-9.50514
▁land	-9.50547
▁known	-9.50553
▁surface	-9.50609
▁letter	-9.50746
▁systems	-9.50801
▁faster	-9.50933
▁eye	-9.50974
G	-9.50979
▁whole	-9.51004
▁essential	-9.5106
▁men	-9.51089
▁pieces	-9.51095
▁rich	-9.51251
▁places	-9.51275
▁heavy	-9.51333
▁internet	-9.51333
▁scent	-9.51452
▁hurry	-9.51515
▁language	-9.51524
▁Would	-9.51607
▁follow	-9.51705
▁present	-9.5185
▁furniture	-9.51972
▁smooth	-9.51982
▁given	-9.52041
free	-9.52192
▁chance	-9.52339
ting	-9.52351
▁sea	-9.52393
▁entire	-9.52394
▁o	-9.52423
▁stand	-9.5247
▁break	-9.52622
▁surprised	-9.52643
▁song	-9.52663
time	-9.52737
end	-9.52743
▁units	-9.52996
A	-9.53003
▁match	-9.53066
▁options	-9.53136
▁key	-9.53235
▁airport	-9.53267
▁clients	-9.53269
ro	-9.53696
▁certain	-9.53784
▁confirm	-9.53816
▁Me	-9.53851
▁instead	-9.53915
▁effective	-9.5404
▁round	-9.54049
▁convenience	-9.54102
▁protection	-9.54297
▁restaurants	-9.54729
▁tour	-9.54955
▁director	-9.55006
▁golf	-9.55127
▁conference	-9.55231
▁contain	-9.55387
▁Kook	-9.55516
▁myself	-9.55523
▁uses	-9.55718
▁accommodation	-9.55813
▁seeing	-9.55853
▁Could	-9.55992
▁recent	-9.5605
▁connect	-9.56308
en	-9.56343
▁grow	-9.56352
▁memory	-9.56375
▁inquiries	-9.5647
▁distribution	-9.56568
▁charging	-9.56579
▁issues	-9.56643
▁analysis	-9.56758
▁Se	-9.56892
▁easier	-9.5695
▁flight	-9.57057
▁COVID	-9.57143
▁allow	-9.57311
▁protect	-9.57339
▁milk	-9.57433
▁either	-9.57529
▁self	-9.57603
▁Should	-9.57626
▁release	-9.57968
▁bottom	-9.58015
▁500	-9.58111
▁transportation	-9.58117
▁mouth	-9.58317
▁stainless	-9.58601
▁asking	-9.58674
▁technologies	-9.58796
▁deep	-9.58919
▁Be	-9.5899
▁signed	-9.59055
▁nervous	-9.59091
▁mainly	-9.59184
▁exercise	-9.5919
▁modern	-9.5919
▁providing	-9.59288
▁Anyway	-9.59289
▁abroad	-9.59485
▁connection	-9.59571
▁lunch	-9.59585
▁defective	-9.59587
L	-9.59713
▁guarantee	-9.59745
▁link	-9.5981
▁manual	-9.59845
▁focus	-9.59998
▁An	-9.60025
▁installation	-9.60091
▁cancer	-9.60296
▁growth	-9.60433
▁videos	-9.60511
▁robot	-9.60555
▁reliable	-9.60778
▁automatic	-9.6079
▁artificial	-9.60798
▁status	-9.60878
▁transfer	-9.61082
▁deadline	-9.6128
▁waste	-9.61322
est	-9.61367
▁invest	-9.61392
▁solar	-9.61532
▁Before	-9.61581
▁father	-9.61582
▁F	-9.61678
▁atmosphere	-9.61785
ness	-9.61866
▁boxes	-9.62018
▁words	-9.62166
▁cotton	-9.62188
▁efficiency	-9.62228
▁reasonable	-9.62327
▁state	-9.62424
▁Nice	-9.62494
▁mom	-9.62671
f	-9.62785
▁thanks	-9.62786
▁mission	-9.62825
▁confident	-9.62862
▁lose	-9.62943
▁web	-9.62964
▁note	-9.63044
▁vehicles	-9.63159
▁Kwangsoo	-9.63209
▁Put	-9.63211
cm	-9.63301
la	-9.63601
▁operating	-9.63624
▁models	-9.63851
▁24	-9.63869
▁class	-9.6395
▁president	-9.64032
▁launched	-9.6423
▁cake	-9.64301
▁shop	-9.64307
▁text	-9.64336
▁AI	-9.64356
▁aware	-9.64389
▁maximum	-9.6455
▁Jihyo	-9.64551
▁beautiful	-9.64616
▁post	-9.64686
▁explanation	-9.6484
▁progress	-9.64849
▁Use	-9.64873
▁replace	-9.64937
▁visiting	-9.64942
▁10%	-9.65004
▁K	-9.65046
▁ice	-9.65055
term	-9.65274
▁column	-9.6528
▁Most	-9.65283
▁beginning	-9.65384
▁culture	-9.65385
▁preparing	-9.65489
▁story	-9.65523
less	-9.65684
▁trouble	-9.65699
▁watching	-9.65738
▁urgent	-9.65872
▁normal	-9.66083
▁successful	-9.66086
▁activities	-9.66121
te	-9.6614
▁American	-9.6618
▁action	-9.66203
▁damaged	-9.66221
▁Seokjin	-9.66229
▁Will	-9.66235
▁Sure	-9.66272
▁durability	-9.66332
▁evening	-9.66658
▁rental	-9.66692
▁photos	-9.66808
▁huge	-9.66865
year	-9.66872
▁press	-9.67077
▁designs	-9.6713
▁Last	-9.67467
▁invitation	-9.67572
▁25	-9.67695
▁bed	-9.67759
▁strength	-9.67772
▁generation	-9.67996
▁promote	-9.68253
▁Everyone	-9.68363
▁common	-9.68541
▁supposed	-9.68584
▁helpful	-9.68721
▁Recently	-9.68795
▁option	-9.68795
▁hearing	-9.68827
▁hospital	-9.68829
▁monthly	-9.68834
▁beans	-9.68862
▁seminar	-9.68903
▁page	-9.68972
▁third	-9.69021
▁walk	-9.69059
▁smartphone	-9.69062
▁Chinese	-9.69234
▁crazy	-9.69338
▁Jae	-9.69341
▁Due	-9.69353
▁bathroom	-9.69625
▁feet	-9.69671
▁cars	-9.69687
▁buying	-9.69699
▁success	-9.6976
▁teacher	-9.69968
do	-9.70149
▁stage	-9.70235
▁wasn	-9.70374
▁limited	-9.70378
▁feels	-9.70427
▁Sechan	-9.7044
▁placed	-9.70479
▁carbon	-9.70674
▁rather	-9.70767
▁sizes	-9.70948
▁created	-9.70952
▁hour	-9.70953
▁respond	-9.71043
▁loan	-9.71076
▁confidence	-9.71097
▁Wednesday	-9.71211
▁lost	-9.71319
▁looked	-9.71331
▁secure	-9.71389
▁January	-9.71439
▁agree	-9.71449
▁passed	-9.7161
▁weekend	-9.71612
▁multi	-9.71813
▁avoid	-9.71823
▁dish	-9.71975
▁skills	-9.72075
▁vacation	-9.72101
▁highest	-9.72178
▁version	-9.72221
▁effects	-9.72231
R	-9.72232
▁Two	-9.72437
▁accurate	-9.72512
▁300	-9.72549
▁etc	-9.72565
▁impact	-9.72775
▁cable	-9.73137
▁18	-9.7316
▁thick	-9.73191
▁wind	-9.73198
▁advanced	-9.73318
▁length	-9.73369
um	-9.73373
▁fall	-9.73392
▁Japan	-9.73454
▁grateful	-9.73568
▁monitor	-9.73665
▁excited	-9.73682
▁receipt	-9.73682
▁lid	-9.73797
▁starting	-9.73874
▁considering	-9.73877
▁cells	-9.73948
▁trade	-9.74155
▁parking	-9.74228
▁summer	-9.74252
▁moving	-9.74253
▁budget	-9.74375
▁boasts	-9.74409
▁seconds	-9.74438
▁base	-9.74476
▁processed	-9.74625
▁feature	-9.74663
v	-9.74668
▁serious	-9.74904
▁November	-9.74948
▁wholesaler	-9.74973
h	-9.75051
▁connected	-9.75055
▁Try	-9.75065
▁board	-9.75101
▁role	-9.75173
▁ahead	-9.75186
▁ma	-9.75241
▁raise	-9.75298
▁19	-9.75373
▁promotion	-9.75446
▁import	-9.75452
▁ball	-9.75473
▁Sorry	-9.75636
▁charged	-9.75909
▁useful	-9.75931
▁Finally	-9.75984
▁Through	-9.75984
▁tastes	-9.76022
▁Seok	-9.76225
▁reading	-9.76332
▁ways	-9.76511
▁established	-9.76528
▁benefit	-9.76533
▁seem	-9.76559
▁suggest	-9.76636
▁Christmas	-9.76803
▁select	-9.76872
▁refrigerator	-9.77017
▁government	-9.77053
▁attach	-9.77098
▁error	-9.77136
M	-9.7714
▁promise	-9.77147
▁cloud	-9.77237
mm	-9.77298
▁selected	-9.77356
se	-9.77403
▁efficient	-9.77508
▁properties	-9.7751
▁uncomfortable	-9.7751
▁ideas	-9.77588
▁prefer	-9.77629
▁Get	-9.77774
▁pants	-9.7799
T	-9.78043
▁laptop	-9.781
▁kinds	-9.78409
▁Which	-9.78581
▁exhibition	-9.78581
▁favorite	-9.78702
▁vegetables	-9.78884
ne	-9.79
▁Give	-9.79095
▁North	-9.79124
▁nature	-9.7918
▁reserve	-9.79305
▁honest	-9.7934
▁operate	-9.79448
▁married	-9.79548
▁keeps	-9.7962
▁corporate	-9.79662
▁She	-9.79783
▁collection	-9.79796
▁L	-9.79948
▁disease	-9.80057
▁anytime	-9.80063
▁container	-9.80097
▁wearing	-9.8017
▁metal	-9.80334
▁copy	-9.80469
▁Hotel	-9.80634
based	-9.807
ra	-9.80729
▁extra	-9.80756
▁introduction	-9.80763
▁M	-9.80772
P	-9.80833
ol	-9.81077
▁sells	-9.81127
▁tools	-9.81219
▁actual	-9.81342
▁sounds	-9.81371
▁accident	-9.8143
▁via	-9.81465
▁waterproof	-9.81554
▁sudden	-9.81577
▁felt	-9.81627
▁art	-9.81707
▁stable	-9.81738
▁patients	-9.81741
▁maintenance	-9.81865
▁replacement	-9.81867
▁sensitive	-9.81893
▁funny	-9.81989
▁collaboration	-9.82233
▁individual	-9.8227
▁height	-9.82357
▁Dong	-9.82377
▁de	-9.82398
▁inquired	-9.8253
▁rubber	-9.82606
▁logo	-9.82675
▁caught	-9.8273
▁lead	-9.82819
▁responsible	-9.82855
clock	-9.82931
▁G	-9.82945
▁pepper	-9.82966
▁teeth	-9.82987
▁electricity	-9.82992
▁setting	-9.83002
▁official	-9.8304
▁multiple	-9.8312
▁agreement	-9.83217
▁kids	-9.83648
▁pictures	-9.83648
▁foot	-9.83752
▁beef	-9.83858
▁record	-9.83904
▁balance	-9.83994
▁wedding	-9.84045
▁drinks	-9.84252
▁logistics	-9.84282
▁direction	-9.84287
nd	-9.84303
▁bar	-9.84451
▁technical	-9.84452
▁cutting	-9.84509
▁cute	-9.84535
▁advertisement	-9.84614
▁increases	-9.84756
▁series	-9.84871
▁O	-9.84998
▁Hold	-9.85
▁cameras	-9.85083
▁stores	-9.85113
▁behind	-9.85382
▁foam	-9.85382
▁bottle	-9.85535
▁tired	-9.8555
▁collect	-9.85568
▁extend	-9.85618
▁intelligence	-9.85638
▁worth	-9.85638
▁repair	-9.85773
▁suit	-9.85816
▁code	-9.85857
▁shows	-9.85994
▁serve	-9.86041
▁finished	-9.86057
▁smoothly	-9.86076
▁projects	-9.86105
▁environmental	-9.86197
rd	-9.86259
▁word	-9.86439
▁movement	-9.8646
▁produces	-9.86662
▁require	-9.86715
▁search	-9.87028
▁virtual	-9.87153
▁opinion	-9.87234
▁simply	-9.8732
▁feedback	-9.87321
▁advertising	-9.8745
▁recognized	-9.87511
related	-9.87813
▁Thursday	-9.87843
▁weird	-9.87844
▁co	-9.87895
▁reduced	-9.8795
▁agency	-9.87974
▁motor	-9.88056
▁14	-9.88311
▁Yang	-9.88379
▁photo	-9.88435
li	-9.8849
ry	-9.88526
▁America	-9.8855
▁education	-9.88597
▁vacuum	-9.88633
▁anti	-9.8866
▁recording	-9.88704
▁ate	-9.8871
▁policy	-9.88765
▁i	-9.88781
▁interesting	-9.88796
▁driver	-9.88878
▁playing	-9.8889
▁master	-9.88899
▁following	-9.88914
▁solid	-9.8893
▁miss	-9.88977
▁experts	-9.89079
▁older	-9.89132
▁pass	-9.89254
▁specifications	-9.89402
▁film	-9.89529
▁husband	-9.89563
▁fruit	-9.89656
ity	-9.89666
▁fan	-9.89681
▁60	-9.89849
▁brush	-9.89947
▁Make	-9.89956
▁plate	-9.89961
coming	-9.90037
el	-9.90054
▁medium	-9.90232
▁degrees	-9.90286
▁goal	-9.90412
▁twice	-9.90501
▁changing	-9.90534
▁supports	-9.90539
il	-9.90541
▁fix	-9.91022
▁parents	-9.911
▁gives	-9.91121
▁remittance	-9.91312
▁batteries	-9.91448
▁requirements	-9.91574
▁partnership	-9.91593
▁growing	-9.91737
▁distance	-9.91758
▁informed	-9.91887
▁slightly	-9.92004
▁external	-9.9213
ive	-9.92166
▁cases	-9.92235
▁industrial	-9.92285
▁became	-9.92289
▁Among	-9.92405
▁subscription	-9.92437
▁against	-9.92548
▁cup	-9.92583
▁sports	-9.92627
▁moved	-9.92646
▁neck	-9.92739
▁paste	-9.92865
▁Jeju	-9.92955
▁speak	-9.92997
▁audio	-9.93093
▁applying	-9.93218
▁awesome	-9.93231
▁member	-9.93275
▁ability	-9.93501
▁broadcast	-9.93509
▁written	-9.93542
▁active	-9.93614
▁confirmation	-9.93662
▁While	-9.93787
▁met	-9.938
▁anyway	-9.93853
▁customized	-9.93963
▁affect	-9.93976
8	-9.94013
▁catch	-9.94302
▁Hyun	-9.94455
▁gaming	-9.94485
▁desk	-9.94542
▁iron	-9.94572
▁practice	-9.94574
▁tool	-9.94589
dong	-9.94596
▁luxurious	-9.94625
▁chair	-9.94678
▁medicine	-9.94686
▁images	-9.94764
▁legs	-9.94777
co	-9.94881
▁October	-9.94906
▁consultation	-9.94912
▁gain	-9.9497
▁angry	-9.95047
▁wood	-9.9508
ment	-9.95151
an	-9.95192
▁businesses	-9.95223
▁16	-9.95314
▁turned	-9.95524
▁outdoor	-9.95559
face	-9.95614
▁Manager	-9.95614
▁lightweight	-9.95629
▁facility	-9.95754
▁disappointed	-9.95911
▁camping	-9.9592
▁wall	-9.96171
▁son	-9.96183
▁remaining	-9.96267
▁Co	-9.96289
▁accessories	-9.96324
▁kept	-9.96324
▁fuel	-9.96424
▁tax	-9.96518
▁13	-9.96527
▁Jin	-9.96596
▁appropriate	-9.9661
▁Although	-9.9661
▁People	-9.9661
▁strategy	-9.9661
▁nearby	-9.96613
▁concept	-9.96712
30	-9.96839
▁character	-9.96854
▁happens	-9.969
O	-9.96988
▁chocolate	-9.9704
▁sugar	-9.9704
B	-9.9713
▁sensor	-9.97158
▁birthday	-9.97186
▁document	-9.97276
kg	-9.97332
ur	-9.97358
▁finally	-9.9739
▁remote	-9.97435
▁applications	-9.97446
6	-9.97482
▁adjusted	-9.97492
▁Start	-9.97649
▁overall	-9.97762
▁breakfast	-9.97762
▁producing	-9.97776
it	-9.97906
▁solutions	-9.97921
▁honor	-9.9797
▁harmful	-9.98052
▁brain	-9.98064
▁becomes	-9.98351
▁scared	-9.98359
▁profit	-9.98417
W	-9.98424
▁notice	-9.98448
▁talked	-9.98484
▁liquid	-9.98488
▁Jaeseok	-9.98491
▁frame	-9.98507
▁massage	-9.9858
▁reference	-9.98638
▁certification	-9.98927
▁fixed	-9.99024
▁cleaner	-9.99071
▁window	-9.99224
▁learned	-9.99264
▁sets	-9.99337
▁complex	-9.99347
▁mask	-9.99381
▁workers	-9.99505
▁stir	-9.99515
▁knowledge	-9.99648
▁cheaper	-9.99689
▁update	-9.99723
▁chat	-9.99803
▁advice	-9.9981
▁portable	-9.99821
▁says	-10.0003
E	-10.0018
▁lighting	-10.0038
▁manufactured	-10.0064
▁juice	-10.007
▁compatible	-10.0071
▁potential	-10.0085
▁printing	-10.0088
▁standards	-10.0114
▁Actually	-10.0115
▁gold	-10.0129
▁spring	-10.013
▁holding	-10.0137
▁hop	-10.0168
▁dark	-10.0171
ate	-10.0173
▁core	-10.0182
▁minimum	-10.019
▁Philippines	-10.0196
▁suggested	-10.0201
▁characteristics	-10.0224
▁bill	-10.0226
▁requires	-10.0231
▁organic	-10.0236
▁hall	-10.0241
▁efforts	-10.0248
▁conduct	-10.0253
▁thin	-10.0259
▁programs	-10.0272
▁chemical	-10.0275
▁draft	-10.0281
▁foods	-10.0284
▁concerns	-10.0302
▁clearly	-10.0305
▁H	-10.031
▁guests	-10.0311
▁impossible	-10.0312
▁ultra	-10.0312
▁bags	-10.0317
w	-10.0325
▁wants	-10.0331
▁student	-10.0335
▁join	-10.0337
▁across	-10.0342
▁introducing	-10.0358
▁hurt	-10.0366
▁forget	-10.0372
K	-10.0374
▁powerful	-10.0375
▁PC	-10.038
▁taken	-10.0391
▁leading	-10.0401
▁Saturday	-10.0404
▁consideration	-10.0406
▁certified	-10.0406
▁annual	-10.0411
▁conducted	-10.0427
Based	-10.0432
▁detergent	-10.0435
▁spend	-10.0446
▁5%	-10.045
▁target	-10.045
▁burden	-10.0457
▁flat	-10.0469
▁Re	-10.047
▁expenses	-10.0483
▁Aren	-10.0491
▁flavor	-10.0493
▁wrap	-10.0493
▁Hurry	-10.0497
▁Japanese	-10.0497
▁ground	-10.0499
▁Oppa	-10.0512
▁wouldn	-10.0517
▁aluminum	-10.0528
▁innovative	-10.0543
▁studio	-10.0543
▁desired	-10.0546
▁grown	-10.0558
▁heating	-10.0567
▁reality	-10.0578
▁sides	-10.059
▁Park	-10.06
▁lines	-10.0609
▁largest	-10.0613
▁brought	-10.0638
▁average	-10.0638
▁cash	-10.0653
▁Made	-10.0654
▁Ha	-10.0657
▁fat	-10.0665
▁bread	-10.0669
▁Only	-10.0678
▁integrated	-10.0687
▁direct	-10.0695
▁usage	-10.0697
▁dad	-10.0709
▁shoot	-10.0713
▁pot	-10.0714
▁patient	-10.0715
▁regulations	-10.0719
▁ramen	-10.0733
▁LED	-10.0734
▁cosmetics	-10.0737
▁funds	-10.0737
▁cards	-10.0742
▁closed	-10.0744
▁appointment	-10.0749
▁10,000	-10.0754
mi	-10.076
rs	-10.0777
lo	-10.0792
▁classic	-10.0796
▁lack	-10.0801
▁sometimes	-10.0813
▁considered	-10.0815
▁glasses	-10.0832
▁sister	-10.0832
▁register	-10.0867
▁mix	-10.0886
▁US	-10.0898
▁achieve	-10.0898
▁cheap	-10.0902
min	-10.0909
▁stability	-10.091
▁stored	-10.0912
ar	-10.092
▁establish	-10.0934
▁worn	-10.0942
ul	-10.0949
▁indoor	-10.0972
▁tight	-10.0974
▁beauty	-10.0976
▁switch	-10.0986
gu	-10.0989
▁combination	-10.0992
▁successfully	-10.0997
▁square	-10.1009
▁Both	-10.1016
▁flexible	-10.1024
▁physical	-10.1037
▁source	-10.1038
▁organize	-10.1053
▁limit	-10.1056
."	-10.1069
▁print	-10.1072
▁Company	-10.1073
▁output	-10.1075
▁lives	-10.1087
▁Second	-10.1103
▁computers	-10.1104
▁economic	-10.1105
▁laundry	-10.1106
▁straight	-10.1122
▁Instead	-10.1123
▁region	-10.1141
▁push	-10.1143
▁treat	-10.1145
▁events	-10.1167
▁lens	-10.1171
▁tasks	-10.1172
▁Introducing	-10.1173
ce	-10.1174
▁salt	-10.1177
▁trend	-10.1178
▁circumstances	-10.1178
▁stylish	-10.1186
▁flow	-10.1199
▁fried	-10.1205
▁1,000	-10.1206
us	-10.1209
▁hasn	-10.1209
▁Customer	-10.1217
▁housing	-10.1223
▁anymore	-10.1223
F	-10.1232
▁willing	-10.1248
▁Asia	-10.1254
▁measure	-10.1272
▁Bluetooth	-10.1273
▁20%	-10.1278
▁IT	-10.1284
▁ideal	-10.129
▁significantly	-10.1292
▁reviews	-10.1299
▁neat	-10.1303
▁York	-10.1324
▁plants	-10.1329
▁protein	-10.1338
▁wrote	-10.1341
▁fashion	-10.135
▁diseases	-10.1353
▁offering	-10.1358
▁pad	-10.1359
▁helped	-10.1359
▁paying	-10.1369
▁cancellation	-10.1375
▁community	-10.1375
▁accurately	-10.138
▁grade	-10.1387
▁stick	-10.1388
▁agricultural	-10.1409
-19	-10.1425
▁satisfaction	-10.1426
▁survey	-10.146
▁Tuesday	-10.146
▁sophisticated	-10.1461
▁failure	-10.1476
▁nose	-10.1479
▁promotional	-10.1481
▁V	-10.1485
▁bright	-10.1486
▁surgery	-10.1494
gi	-10.15
▁engineering	-10.1506
▁aren	-10.1506
▁defect	-10.1509
▁garlic	-10.1511
▁mine	-10.1516
▁road	-10.1517
▁rules	-10.1527
▁occur	-10.1527
▁eggs	-10.1539
▁competitive	-10.1542
▁client	-10.1545
▁biggest	-10.1546
▁chain	-10.1546
▁cm	-10.156
▁reduces	-10.1563
▁arrange	-10.1568
de	-10.1578
is	-10.1589
▁resolution	-10.159
▁radio	-10.16
▁quiet	-10.1629
▁mini	-10.1632
▁octopus	-10.1633
▁pizza	-10.1633
▁feed	-10.1641
the	-10.1651
▁guys	-10.1659
H	-10.1664
▁pain	-10.1668
▁difficulties	-10.167
▁naturally	-10.1684
com	-10.1684
▁cooked	-10.1692
mo	-10.173
▁familiar	-10.1738
▁private	-10.1738
▁responsibility	-10.1738
▁listening	-10.1759
▁daughter	-10.1773
▁vary	-10.1773
▁tested	-10.1774
▁files	-10.178
▁figure	-10.1783
▁Europe	-10.179
BBB	-10.1791
▁frozen	-10.1791
▁dedicated	-10.1791
▁wondering	-10.1792
▁canceled	-10.1795
▁Dur	-10.1805
▁signing	-10.1807
▁basis	-10.1809
▁organization	-10.1831
▁channel	-10.1853
V	-10.1857
▁grip	-10.1882
tic	-10.1887
▁makeup	-10.1893
▁lease	-10.1898
▁carried	-10.1898
▁fits	-10.1904
▁loved	-10.1911
▁Enjoy	-10.1916
▁liked	-10.1926
▁stress	-10.1927
▁N	-10.1928
▁dogs	-10.1929
▁cargo	-10.1936
me	-10.194
▁regret	-10.1952
▁station	-10.196
ter	-10.1961
▁opinions	-10.1963
▁planned	-10.1971
▁meals	-10.1976
▁cooperate	-10.1976
▁f	-10.1978
▁server	-10.198
▁god	-10.1982
▁fax	-10.1986
▁tone	-10.1987
▁registration	-10.1989
▁shown	-10.2016
▁Welcome	-10.2024
▁enable	-10.2028
one	-10.203
▁ingredient	-10.2032
▁suggestion	-10.2034
▁angle	-10.2049
▁perform	-10.205
▁bacteria	-10.2051
▁joint	-10.2056
▁spray	-10.2059
▁seeds	-10.206
▁creating	-10.206
ization	-10.2061
▁couple	-10.207
▁Wi	-10.2073
▁catalogue	-10.2079
▁clothing	-10.2086
▁accounting	-10.2087
▁Customers	-10.2105
▁description	-10.2108
▁trading	-10.2115
▁divided	-10.212
▁click	-10.2135
▁depends	-10.214
▁secret	-10.2147
▁broken	-10.2156
▁Yoo	-10.2163
▁promised	-10.217
▁throw	-10.2179
▁force	-10.2197
▁ride	-10.2202
▁drug	-10.2206
▁gone	-10.2225
▁Up	-10.223
▁rates	-10.2234
FFF	-10.2236
▁slowly	-10.2247
▁movies	-10.2254
▁precious	-10.2263
▁Unlike	-10.2281
▁throughout	-10.2287
▁determine	-10.229
▁initial	-10.2296
▁interview	-10.2299
▁dance	-10.2301
▁Other	-10.2302
type	-10.2316
▁improves	-10.232
▁alcohol	-10.2336
▁agreed	-10.2338
▁See	-10.2341
▁port	-10.2342
▁yellow	-10.2356
day	-10.2373
▁arrival	-10.2374
resistant	-10.2389
▁processes	-10.2389
▁notify	-10.24
▁More	-10.2401
▁originally	-10.2403
▁Ma	-10.2409
▁swimming	-10.2412
▁consumption	-10.2412
▁transactions	-10.2413
▁hyung	-10.2415
▁actively	-10.2417
▁CCTV	-10.2429
▁eight	-10.2433
▁patented	-10.2437
▁fiber	-10.2448
▁micro	-10.2453
▁leaves	-10.2453
9	-10.246
▁missing	-10.2478
▁methods	-10.2486
▁attractive	-10.2488
▁USB	-10.2488
▁operated	-10.2489
▁experienced	-10.2493
▁paint	-10.2523
▁sad	-10.2526
▁suits	-10.2542
▁adding	-10.2543
▁possibility	-10.2545
▁personnel	-10.2545
▁0	-10.255
▁attending	-10.2567
▁reflect	-10.2571
▁offered	-10.2571
▁mall	-10.2578
▁covers	-10.2579
▁Didn	-10.258
ho	-10.2582
▁empty	-10.2583
▁relieve	-10.2594
▁pets	-10.26
▁staying	-10.2601
▁Busan	-10.2603
▁guest	-10.2603
▁gratitude	-10.2622
▁entered	-10.2627
▁manufacture	-10.2629
▁kit	-10.2635
▁protects	-10.2636
▁pleasant	-10.2637
▁Department	-10.2641
▁mood	-10.2641
▁toothpaste	-10.2641
▁seafood	-10.2641
▁brown	-10.2642
▁dream	-10.2655
▁Team	-10.2666
▁visited	-10.267
▁relief	-10.268
▁phones	-10.2684
▁meetings	-10.2685
▁compensation	-10.2699
▁High	-10.2699
▁download	-10.2709
▁helping	-10.2711
▁defects	-10.272
▁household	-10.2722
▁Jeon	-10.2729
how	-10.2733
▁ten	-10.2737
▁assist	-10.2738
▁agent	-10.2742
▁dress	-10.2748
▁transport	-10.2748
▁regardless	-10.2758
▁August	-10.2758
▁effort	-10.2761
▁knew	-10.2777
▁entertainment	-10.2777
▁reducing	-10.2777
▁urgently	-10.2784
▁resolved	-10.2785
▁legal	-10.2795
▁mouse	-10.2797
▁Island	-10.2798
▁substances	-10.2801
▁mass	-10.2802
▁weak	-10.2806
▁fees	-10.2808
▁instructions	-10.2815
▁optimal	-10.282
▁likely	-10.2828
▁wire	-10.2832
▁spread	-10.2833
▁Check	-10.2835
▁greatly	-10.2839
▁license	-10.2844
▁speaker	-10.2846
▁suggestions	-10.2846
▁customs	-10.2851
▁meantime	-10.2859
▁showed	-10.2867
▁sites	-10.2869
▁continuous	-10.2871
▁Min	-10.2878
▁streaming	-10.2884
▁quotation	-10.2895
▁delighted	-10.2895
▁seasoning	-10.29
▁drinking	-10.29
▁measures	-10.2902
▁Eun	-10.2907
▁fight	-10.2907
▁mixed	-10.2908
▁pool	-10.2911
▁poor	-10.2915
▁markets	-10.2922
▁coupon	-10.2942
▁Mi	-10.2961
▁emergency	-10.2975
▁discounts	-10.2975
▁showing	-10.2978
▁covered	-10.2982
▁acid	-10.2994
▁animal	-10.3003
▁oven	-10.3004
▁pattern	-10.3006
▁advantages	-10.3008
▁quarter	-10.3011
▁shampoo	-10.3014
▁reduction	-10.3014
out	-10.3016
▁mat	-10.3016
▁whenever	-10.3018
▁track	-10.3019
▁purchases	-10.3027
▁others	-10.3034
line	-10.3039
▁drama	-10.3044
▁leaving	-10.3054
▁dryer	-10.3055
▁entering	-10.3055
▁score	-10.3074
▁choosing	-10.3074
▁minimize	-10.3089
po	-10.3101
▁calls	-10.3131
▁Still	-10.3135
▁afraid	-10.3135
▁hesitate	-10.3135
▁thoroughly	-10.3137
▁profile	-10.3137
▁pull	-10.3148
▁slow	-10.3149
▁valuable	-10.3155
▁coating	-10.3167
▁cafe	-10.3168
▁die	-10.3175
N	-10.3175
▁February	-10.3177
▁discussed	-10.3179
▁dried	-10.318
▁extract	-10.318
jin	-10.3196
ent	-10.3201
▁expert	-10.3209
▁telling	-10.3216
▁concern	-10.3223
▁forgot	-10.3237
▁appearance	-10.3237
▁profits	-10.3239
▁Shall	-10.3241
▁resources	-10.3244
▁sheet	-10.3272
▁larger	-10.3275
▁homes	-10.3277
▁seaweed	-10.3278
▁traffic	-10.3278
▁Haha	-10.3278
▁communicate	-10.3287
▁science	-10.33
▁popularity	-10.3302
▁broadcasting	-10.3307
▁briefly	-10.3322
ha	-10.3326
▁reasons	-10.3336
ary	-10.3339
▁drying	-10.3352
ge	-10.3354
▁inquiring	-10.3361
▁pleased	-10.3362
▁seats	-10.3363
▁fur	-10.338
▁national	-10.339
ch	-10.3392
▁fields	-10.3394
▁Another	-10.3402
▁International	-10.3402
▁meters	-10.3412
▁components	-10.3414
▁player	-10.3414
▁complaints	-10.3414
▁c	-10.3415
▁widely	-10.3416
▁cat	-10.3422
▁competition	-10.3423
▁robots	-10.3425
ant	-10.3429
▁buyers	-10.3437
▁sturdy	-10.3444
▁rise	-10.3445
▁resistance	-10.3446
▁raised	-10.3449
▁input	-10.3465
▁strap	-10.3484
▁Usually	-10.3486
▁removed	-10.3486
▁discussion	-10.3488
▁act	-10.3489
▁income	-10.3491
Fi	-10.3499
▁Sales	-10.3506
▁relevant	-10.3507
ia	-10.3507
▁Maybe	-10.3508
▁functional	-10.3511
▁attract	-10.3523
U	-10.3524
▁investing	-10.3526
▁anniversary	-10.3528
▁expression	-10.3528
▁shot	-10.353
▁foundation	-10.3534
ite	-10.3543
▁houses	-10.3543
▁accommodate	-10.3549
▁ones	-10.3549
ance	-10.3553
▁God	-10.3558
▁tests	-10.3561
▁recognition	-10.357
▁putting	-10.3581
▁gloves	-10.3582
▁exclusive	-10.3588
▁wow	-10.3591
▁platforms	-10.3596
▁diet	-10.3606
▁Three	-10.3612
▁Various	-10.3612
▁bigger	-10.3613
▁scale	-10.3618
▁quote	-10.3622
▁registered	-10.3623
▁testing	-10.3624
▁bottles	-10.3631
▁managed	-10.3646
ies	-10.3652
▁Those	-10.3655
▁W	-10.3664
▁capture	-10.3665
▁walking	-10.3672
▁shower	-10.3675
▁Until	-10.3698
▁dishwasher	-10.3698
▁dangerous	-10.3698
▁Song	-10.3703
▁continued	-10.3715
▁remind	-10.3715
▁conveniently	-10.3737
▁lights	-10.3738
▁buildings	-10.3738
▁About	-10.3741
▁seven	-10.3762
▁Food	-10.3763
per	-10.3768
▁freely	-10.3776
▁innovation	-10.3784
▁younger	-10.3793
▁smells	-10.3799
▁150	-10.3801
▁steps	-10.3802
▁fighting	-10.3805
▁ginseng	-10.3805
▁Hong	-10.3806
▁corner	-10.381
▁printer	-10.3813
▁lock	-10.3817
▁personally	-10.382
▁September	-10.3827
▁approval	-10.3828
▁chairs	-10.384
▁tracking	-10.3848
▁custom	-10.3849
pa	-10.3852
▁boil	-10.3852
▁pocket	-10.3856
▁brands	-10.3862
▁proper	-10.3867
▁super	-10.387
▁adults	-10.3873
▁requesting	-10.3878
▁played	-10.3894
▁microphone	-10.3899
▁sincere	-10.3903
▁conditioner	-10.3907
▁grill	-10.3909
10	-10.3919
▁pump	-10.3923
man	-10.3928
▁factors	-10.3931
▁Fortunately	-10.3936
▁Ouch	-10.3936
fried	-10.3938
▁behalf	-10.3939
▁preparation	-10.3943
▁ID	-10.3946
▁luxury	-10.3958
▁factories	-10.3959
▁enhance	-10.3959
▁executives	-10.3962
▁bowl	-10.3969
▁train	-10.397
▁Jung	-10.3974
▁improving	-10.398
▁Jongkook	-10.3981
▁turns	-10.3982
▁drugs	-10.3983
▁educational	-10.3986
▁30%	-10.3987
▁institute	-10.3988
▁Keep	-10.4025
▁themselves	-10.4025
▁animals	-10.4037
▁80	-10.4044
▁beer	-10.4047
▁pasta	-10.4052
▁characters	-10.4054
▁shared	-10.4057
▁rapidly	-10.4071
▁purposes	-10.408
▁panel	-10.4081
▁expanding	-10.4095
▁studying	-10.4096
▁complaint	-10.4101
no	-10.4107
▁pure	-10.4114
▁ok	-10.4117
▁50%	-10.4118
ist	-10.4119
ru	-10.4122
▁unexpected	-10.4132
▁perfectly	-10.4135
▁extension	-10.4136
▁savory	-10.4138
▁visual	-10.4142
di	-10.4144
ized	-10.4156
▁bean	-10.416
▁requests	-10.4161
▁Koreans	-10.4162
be	-10.4165
▁pan	-10.4166
▁begin	-10.4169
▁measurement	-10.417
ma	-10.4181
▁t	-10.4183
▁classes	-10.4184
▁era	-10.4187
▁stew	-10.4203
▁Lastly	-10.4211
▁certificate	-10.4216
▁tourist	-10.4216
ji	-10.4219
▁garden	-10.4226
▁Great	-10.4226
▁records	-10.4229
▁seriously	-10.4233
▁penalty	-10.4249
▁plug	-10.4251
▁rain	-10.4254
▁steam	-10.426
▁dumplings	-10.4266
▁claim	-10.4267
▁soy	-10.4269
▁oppa	-10.4271
▁friendly	-10.4283
▁enjoyed	-10.4292
▁occurred	-10.4294
▁filled	-10.4298
ver	-10.4304
▁compensate	-10.4305
▁totally	-10.4305
▁sharing	-10.4319
id	-10.4321
▁upper	-10.433
▁stocks	-10.4333
▁sleeping	-10.4333
▁approved	-10.4346
▁piece	-10.4348
▁block	-10.4354
▁vitamin	-10.4357
▁scalp	-10.4362
▁notification	-10.4364
▁firm	-10.4374
▁subject	-10.4378
▁soap	-10.4384
▁March	-10.4385
sized	-10.4399
▁reviewed	-10.4402
▁proud	-10.4405
▁expansion	-10.4408
▁section	-10.4409
▁star	-10.4418
▁compact	-10.4431
▁lie	-10.4436
ca	-10.4436
▁vision	-10.446
▁fishing	-10.4461
▁fruits	-10.4461
▁sing	-10.4461
go	-10.4466
▁snow	-10.4478
▁supplied	-10.4478
▁Year	-10.4478
▁July	-10.4479
▁electrical	-10.4494
▁procedure	-10.4495
▁tape	-10.4509
▁cushion	-10.4516
▁cables	-10.4521
50	-10.4521
▁Awesome	-10.4524
▁password	-10.4524
▁Canada	-10.4525
▁Stop	-10.4525
▁stated	-10.453
▁players	-10.4534
▁celebrate	-10.4536
▁gray	-10.4549
▁law	-10.4551
▁postpone	-10.4559
▁purifier	-10.4567
pe	-10.4576
▁speaking	-10.4584
▁Add	-10.4585
ling	-10.46
▁upgraded	-10.4603
▁stronger	-10.4611
▁consult	-10.4612
▁organized	-10.4613
▁activity	-10.4625
ful	-10.4629
▁moisturizing	-10.4641
▁consumer	-10.4664
▁Especially	-10.4665
▁embarrassed	-10.4665
▁starts	-10.4675
▁monitoring	-10.4681
▁leg	-10.4683
▁sick	-10.4688
▁prize	-10.4688
▁replaced	-10.4691
▁packs	-10.4706
of	-10.4706
▁capital	-10.471
▁evaluation	-10.4712
▁tissue	-10.4735
▁however	-10.4738
▁adjustable	-10.4743
0%	-10.4757
▁article	-10.4759
▁effectively	-10.4769
▁laser	-10.4784
▁hardware	-10.4786
age	-10.4794
▁carrier	-10.4807
as	-10.4811
▁maintaining	-10.4812
▁optimized	-10.4812
▁cooling	-10.4816
▁announce	-10.4816
▁signal	-10.4823
▁21	-10.4825
▁rough	-10.4828
▁billion	-10.4833
▁kindly	-10.4851
▁tank	-10.4855
▁branches	-10.486
▁appliances	-10.4866
▁closer	-10.4866
▁bio	-10.4888
▁rock	-10.4904
▁extent	-10.4904
▁potatoes	-10.4905
▁keyboard	-10.4907
▁charger	-10.4915
▁repay	-10.4927
▁opportunities	-10.4928
▁belly	-10.493
▁roll	-10.4934
▁reaction	-10.4956
▁practical	-10.4972
▁submit	-10.4975
ga	-10.4976
▁Master	-10.4977
▁load	-10.4981
tion	-10.4984
▁filters	-10.4992
▁assets	-10.5
▁pro	-10.5004
▁club	-10.5006
▁languages	-10.5023
▁everyday	-10.5029
▁farm	-10.5033
▁Was	-10.5046
▁transmission	-10.505
▁copies	-10.505
▁stone	-10.505
▁accumulated	-10.5055
▁ticket	-10.5055
ian	-10.5062
▁drop	-10.5064
▁specialized	-10.5065
▁luck	-10.507
▁sun	-10.5077
▁foreigners	-10.5078
▁Sit	-10.5083
▁wheel	-10.5093
▁industries	-10.5099
▁pension	-10.5099
▁advertisements	-10.51
▁Asian	-10.5118
▁Argh	-10.5124
▁Congratulations	-10.5124
▁conversation	-10.5131
▁ratio	-10.5136
▁lab	-10.514
▁follows	-10.5145
▁mirror	-10.5148
▁Feel	-10.5149
▁thermal	-10.5149
▁reviewing	-10.5152
▁updated	-10.5168
▁Alright	-10.5173
▁park	-10.518
▁hat	-10.5186
▁investors	-10.5193
▁hate	-10.5196
▁Vietnam	-10.5198
▁jacket	-10.5198
▁microwave	-10.5198
▁reached	-10.5201
speed	-10.5206
bo	-10.5212
▁Ho	-10.5217
▁retail	-10.5219
▁memories	-10.5223
▁conducting	-10.523
▁snack	-10.5232
ph	-10.5233
law	-10.5244
▁Everything	-10.5248
▁proven	-10.5252
▁Any	-10.5261
▁imported	-10.5266
▁tablet	-10.5274
▁Fighting	-10.5275
he	-10.5278
▁born	-10.5287
▁plane	-10.5289
way	-10.529
▁cross	-10.529
%	-10.5292
▁maker	-10.5296
▁continues	-10.5297
▁except	-10.5298
▁superior	-10.5298
house	-10.5305
▁band	-10.5306
▁egg	-10.5308
▁chose	-10.5316
▁laugh	-10.5321
▁Something	-10.5324
▁Pro	-10.5324
▁lotion	-10.5329
▁spaces	-10.5341
ize	-10.5347
▁cutlet	-10.5349
▁dial	-10.5351
▁normally	-10.5358
▁humans	-10.5369
▁broth	-10.5372
▁allowing	-10.5374
▁rear	-10.5376
▁guaranteed	-10.5378
▁continuously	-10.5379
▁creates	-10.538
▁vegetable	-10.5386
▁tree	-10.5386
▁counseling	-10.54
▁optical	-10.5401
▁Running	-10.5403
▁eaten	-10.5413
ung	-10.5413
▁exports	-10.542
▁stuff	-10.5421
▁100,000	-10.5435
▁belt	-10.544
▁kg	-10.545
▁Perhaps	-10.545
▁silver	-10.545
soo	-10.5455
Y	-10.5457
▁map	-10.5461
▁chemicals	-10.5464
▁bus	-10.5465
▁onions	-10.547
▁strict	-10.5472
▁album	-10.5476
▁sitting	-10.5478
▁salty	-10.5483
ine	-10.5499
▁street	-10.5502
▁inviting	-10.5502
▁varies	-10.5502
▁published	-10.5506
▁1,	-10.5507
▁label	-10.5507
▁solved	-10.5523
▁expanded	-10.5525
▁toothbrush	-10.5526
▁residential	-10.5527
▁exported	-10.5528
▁engineers	-10.5543
ta	-10.5548
▁usual	-10.5555
▁patent	-10.5561
▁causes	-10.557
na	-10.5573
▁degree	-10.5582
▁refreshing	-10.5584
▁frequency	-10.5588
▁apps	-10.5591
▁upon	-10.5598
▁allowed	-10.5601
▁calendar	-10.5605
▁transparent	-10.5606
▁booked	-10.5608
▁succeeded	-10.5612
▁smaller	-10.5614
▁holiday	-10.5622
▁fabrics	-10.5625
▁favor	-10.5629
▁Over	-10.5631
▁harder	-10.5633
▁nutrients	-10.5633
▁Designed	-10.5635
▁settings	-10.5638
da	-10.5648
▁consulting	-10.5652
▁layer	-10.5656
▁Consider	-10.5657
▁cozy	-10.5657
▁De	-10.5669
art	-10.5669
▁shock	-10.5673
▁returned	-10.5675
▁worrying	-10.5696
▁ourselves	-10.5709
▁reputation	-10.5709
▁vibration	-10.5712
ba	-10.5722
▁songs	-10.5727
▁sharp	-10.5729
▁audience	-10.5735
▁wake	-10.5736
▁scary	-10.5737
▁obtained	-10.5742
▁stages	-10.5745
ir	-10.5756
▁calm	-10.5765
un	-10.577
▁accidents	-10.5775
▁ring	-10.5776
▁controller	-10.5783
▁fell	-10.5788
▁somewhere	-10.5788
▁secured	-10.5789
▁levels	-10.5796
▁tip	-10.581
▁attachment	-10.581
▁Every	-10.5815
▁courier	-10.5815
▁coverage	-10.5816
▁pink	-10.5816
▁filming	-10.5827
▁g	-10.5829
▁fund	-10.5832
▁soybean	-10.5842
▁recovery	-10.5844
▁5,000	-10.5857
▁blade	-10.5865
▁joke	-10.5868
▁temple	-10.5868
▁slim	-10.5868
▁dual	-10.5868
▁Hyung	-10.5873
▁implement	-10.5892
▁displayed	-10.5893
▁infrastructure	-10.5894
▁affordable	-10.5896
▁90	-10.59
▁efficiently	-10.5903
▁extended	-10.5911
▁instrument	-10.5917
▁topic	-10.5918
▁pleasure	-10.5921
▁worldwide	-10.5922
▁carrying	-10.5928
▁Ok	-10.5941
▁listed	-10.5943
▁sufficient	-10.5944
▁society	-10.5948
▁diverse	-10.5948
▁hungry	-10.5948
ut	-10.5951
▁involved	-10.5952
minute	-10.5959
▁wrist	-10.5975
ad	-10.5975
▁beat	-10.5976
▁conventional	-10.5976
▁owners	-10.5982
▁generated	-10.5985
▁recorded	-10.5994
▁specializ	-10.5994
▁fault	-10.5997
▁drone	-10.5999
▁adjustment	-10.6001
▁mid	-10.6002
▁salary	-10.6002
▁European	-10.6002
▁silicone	-10.6003
board	-10.6006
▁contracts	-10.6027
▁alarm	-10.6028
▁heater	-10.6028
▁shelf	-10.6029
▁bike	-10.6029
▁relatively	-10.603
▁Tell	-10.6034
▁strive	-10.6048
▁spot	-10.6055
▁college	-10.6056
▁yeah	-10.6056
▁Originally	-10.6056
▁engines	-10.6063
▁d	-10.6078
▁April	-10.6083
▁Compare	-10.6083
▁capabilities	-10.6083
▁gym	-10.6083
▁challenge	-10.6083
▁membership	-10.6083
▁dental	-10.6083
book	-10.6087
▁shooting	-10.6089
performance	-10.6095
ah	-10.6096
▁reservations	-10.6102
ted	-10.6109
▁moist	-10.611
▁difficulty	-10.6113
ke	-10.612
▁hang	-10.6129
▁expectations	-10.6132
▁June	-10.6139
▁23	-10.6143
▁snacks	-10.6155
▁grab	-10.6156
▁trends	-10.6177
▁stomach	-10.6192
▁mold	-10.6194
▁task	-10.6197
▁Depend	-10.6198
▁22	-10.6203
hee	-10.6203
▁lived	-10.6218
▁mark	-10.6218
▁blanket	-10.6222
▁Germany	-10.6222
▁doctor	-10.6223
izing	-10.6228
▁collected	-10.6238
▁draw	-10.6244
▁intention	-10.6248
▁Salesperson	-10.6248
▁improvement	-10.6252
▁teach	-10.6259
▁attaching	-10.6266
▁maintained	-10.6273
▁Director	-10.6276
▁flower	-10.6284
ish	-10.6285
▁collaborate	-10.6292
▁prompt	-10.6299
▁term	-10.6302
class	-10.6316
▁soil	-10.6317
▁2,000	-10.6326
bi	-10.6327
▁hire	-10.6328
▁beneficial	-10.6331
▁beyond	-10.6331
▁measuring	-10.6331
▁Jang	-10.6331
▁scene	-10.6335
▁buyer	-10.6343
▁combined	-10.6343
▁upset	-10.6351
▁distribute	-10.6352
▁nights	-10.6352
▁generous	-10.6355
▁sunlight	-10.6359
▁designer	-10.6368
▁hurts	-10.6371
level	-10.6373
▁finance	-10.6387
▁UV	-10.6388
▁handling	-10.6389
▁cakes	-10.6398
▁Dr	-10.6404
▁keeping	-10.6406
▁manufacturers	-10.6407
▁washed	-10.6413
▁participants	-10.6414
▁President	-10.6415
▁brief	-10.642
▁appear	-10.6422
▁maximize	-10.6435
▁steadily	-10.6443
▁Real	-10.6445
▁shake	-10.6446
▁constantly	-10.6446
off	-10.6447
▁instruments	-10.6447
▁served	-10.645
su	-10.6451
▁trusted	-10.6458
▁hygiene	-10.6471
▁radish	-10.6471
▁sesame	-10.6471
▁hydrogen	-10.6472
▁objects	-10.6478
▁invited	-10.648
▁appears	-10.6494
▁failed	-10.6507
▁packaged	-10.6517
▁hole	-10.6518
▁Us	-10.652
▁narrow	-10.6528
▁Teacher	-10.6529
▁wipe	-10.6529
▁machinery	-10.6532
▁400	-10.6535
▁spoon	-10.6536
▁panels	-10.6545
▁senior	-10.6565
▁remov	-10.657
use	-10.6579
▁hiking	-10.6585
▁synthetic	-10.6585
▁Attached	-10.6587
▁thickness	-10.6587
▁destination	-10.6595
▁retailer	-10.6598
▁dealing	-10.6604
▁sofa	-10.6606
▁combines	-10.6615
▁wonderful	-10.6615
▁reported	-10.6619
▁installing	-10.6621
▁supplying	-10.6634
▁cap	-10.6638
▁quantities	-10.6643
▁Seung	-10.6643
▁frequently	-10.6645
▁Mom	-10.6653
▁Open	-10.6672
▁drawing	-10.6674
▁wool	-10.67
▁expiration	-10.67
▁university	-10.67
▁assistant	-10.6701
won	-10.6704
▁gets	-10.6714
▁gifts	-10.6727
▁neighborhood	-10.6729
▁Station	-10.673
▁recycled	-10.6732
▁decline	-10.6747
▁bedroom	-10.6749
▁bone	-10.6749
▁floors	-10.6751
▁achieved	-10.6752
▁deputy	-10.6759
fi	-10.6766
▁session	-10.6771
▁Center	-10.6788
▁inner	-10.6793
im	-10.6799
▁ear	-10.6803
ating	-10.6807
▁textbooks	-10.681
▁apartments	-10.6811
▁explained	-10.6814
▁environments	-10.6814
▁Experience	-10.6817
▁economy	-10.6817
▁elasticity	-10.6817
▁mechanical	-10.6821
▁cry	-10.6827
▁alternative	-10.6831
▁sector	-10.6831
▁honey	-10.6846
▁gear	-10.6846
▁guy	-10.6861
▁fly	-10.6869
▁faithful	-10.6872
▁gently	-10.6876
▁resort	-10.6876
▁headset	-10.6876
▁recognize	-10.6882
20	-10.6883
▁frying	-10.6893
▁identify	-10.6905
▁University	-10.6905
▁edition	-10.6906
▁engineer	-10.6911
▁respect	-10.6926
▁mushrooms	-10.6934
▁socks	-10.6935
▁lenses	-10.6937
▁truck	-10.6951
▁casual	-10.6961
▁entrance	-10.6964
▁hidden	-10.6964
▁stopped	-10.6965
▁Cool	-10.6965
▁labor	-10.6966
▁detection	-10.6967
▁arm	-10.6967
▁distributed	-10.6977
▁posted	-10.6988
▁guidance	-10.6994
▁lining	-10.6994
▁muscles	-10.7003
ring	-10.7007
▁runs	-10.701
▁dye	-10.7011
▁statement	-10.7013
▁succeed	-10.7016
▁caus	-10.702
▁reschedule	-10.7024
▁complicated	-10.7024
va	-10.7025
ty	-10.7026
▁slip	-10.7034
▁workshop	-10.7043
ak	-10.7046
▁sweat	-10.7047
▁percent	-10.7054
▁Sometimes	-10.7054
▁procedures	-10.7061
▁negotiations	-10.7065
▁filling	-10.7066
▁upgrade	-10.7068
▁channels	-10.7076
▁agents	-10.7078
▁containers	-10.7079
▁Un	-10.7082
▁creative	-10.7084
▁Provide	-10.7114
▁composition	-10.7114
▁plenty	-10.7114
▁tons	-10.7114
▁assistance	-10.7115
▁pen	-10.7116
▁occurs	-10.7116
▁matters	-10.7122
▁satisfy	-10.7125
▁ages	-10.713
▁mention	-10.7137
ated	-10.714
▁ceremony	-10.7144
▁military	-10.7144
ck	-10.7146
▁supplement	-10.7157
▁smartphones	-10.7161
▁mistakes	-10.7165
▁falling	-10.7166
▁uniform	-10.7171
▁host	-10.7173
ki	-10.7173
▁ventilation	-10.7175
▁worst	-10.7175
▁climate	-10.7175
▁loans	-10.718
▁traveling	-10.7182
▁researchers	-10.7199
▁updates	-10.7203
▁stories	-10.7205
▁copyright	-10.7205
▁drones	-10.7208
▁concerned	-10.7217
▁reflected	-10.7218
▁2,	-10.7226
▁recipe	-10.7227
▁operations	-10.7232
▁ease	-10.7237
▁internally	-10.7251
▁serving	-10.7258
▁principle	-10.7258
▁Baek	-10.7266
▁congratulations	-10.7266
▁connecting	-10.7267
▁assured	-10.7273
▁compare	-10.7285
▁count	-10.729
▁pamphlet	-10.7297
▁pandemic	-10.7297
▁professor	-10.7297
▁yarn	-10.7297
▁dead	-10.7297
▁Without	-10.73
▁wired	-10.7315
▁Young	-10.7318
▁shoe	-10.7322
▁doll	-10.7322
▁parcel	-10.7327
▁woman	-10.7327
▁evenly	-10.7342
▁patterns	-10.7345
▁pop	-10.7351
▁hint	-10.7358
▁basically	-10.7359
▁writer	-10.7361
▁bicycle	-10.7384
▁networks	-10.7389
▁death	-10.7389
▁Junho	-10.7389
▁insufficient	-10.7389
▁competitiveness	-10.739
ber	-10.7408
▁ink	-10.7413
▁warmth	-10.7414
▁pollution	-10.742
▁background	-10.7421
▁recommendation	-10.7427
▁precision	-10.7428
▁negotiate	-10.744
▁ears	-10.7444
▁Black	-10.7451
▁fatigue	-10.7451
▁piano	-10.7451
▁spacious	-10.7452
▁Way	-10.7452
sa	-10.7457
▁packages	-10.7466
▁Sa	-10.7468
▁comments	-10.7469
▁autonomous	-10.747
▁accounts	-10.7478
▁resume	-10.7483
▁diagnosis	-10.7487
▁specializes	-10.7505
▁acting	-10.7512
▁actor	-10.7513
▁colleagues	-10.7514
▁Easy	-10.7514
▁subtle	-10.7514
ac	-10.7516
▁boiled	-10.7528
▁previously	-10.7528
▁editing	-10.7528
▁analyze	-10.7529
▁award	-10.7535
▁3-	-10.7537
▁magazine	-10.7543
▁graphics	-10.7544
▁significant	-10.7545
▁Seunggi	-10.7546
▁unfortunately	-10.7548
▁fans	-10.7552
▁turning	-10.7554
▁teams	-10.7566
▁operates	-10.7571
▁strongly	-10.7575
ator	-10.7575
▁Da	-10.7576
▁birth	-10.7577
▁tteokbokki	-10.7577
utheast	-10.7577
▁Delivery	-10.7577
ju	-10.7583
▁supplements	-10.7587
ble	-10.7591
▁affected	-10.7596
▁valve	-10.7608
▁debt	-10.7609
▁database	-10.7609
▁interface	-10.7609
▁promoted	-10.7611
▁Han	-10.7622
▁butter	-10.7623
slip	-10.763
tra	-10.7632
▁inevitably	-10.764
▁booth	-10.7641
▁Seo	-10.7643
▁strengthen	-10.7646
▁adapter	-10.7646
▁strange	-10.7659
▁resolve	-10.7661
▁payments	-10.7665
▁fail	-10.7666
made	-10.7667
▁flowers	-10.767
▁focusing	-10.7671
▁semi	-10.7673
▁wooden	-10.7674
▁guarantees	-10.768
▁performed	-10.7687
▁cast	-10.7693
chi	-10.7695
▁precise	-10.7701
ial	-10.7701
▁afford	-10.7703
▁Turn	-10.7704
▁smile	-10.7704
▁surveillance	-10.7704
▁zone	-10.7709
▁lowest	-10.7711
▁maybe	-10.7711
▁menus	-10.7714
▁exporting	-10.7718
▁20,000	-10.7719
▁elements	-10.7721
▁toys	-10.7729
▁shall	-10.7736
▁auto	-10.7736
▁author	-10.7738
ster	-10.7739
▁removal	-10.7739
bu	-10.7741
▁graphic	-10.7741
▁resistant	-10.7745
▁publishing	-10.7749
▁textile	-10.7769
▁formula	-10.777
▁ceramic	-10.7771
▁lifestyle	-10.7771
▁alley	-10.7774
▁Eat	-10.7782
▁trusting	-10.7788
▁obtain	-10.7793
▁squid	-10.7801
▁meaningful	-10.7801
▁announcement	-10.7801
▁establishment	-10.7802
▁laptops	-10.7802
▁remain	-10.7808
▁shoulder	-10.7818
▁1000	-10.7822
▁sub	-10.7826
▁50,000	-10.7831
▁soccer	-10.7833
▁homepage	-10.7833
▁concentration	-10.7834
▁impressed	-10.7835
▁exposed	-10.7836
▁mixing	-10.784
▁experiment	-10.7843
▁finding	-10.7851
▁bills	-10.7852
and	-10.7856
▁loud	-10.7862
▁Again	-10.7866
▁Excuse	-10.7866
▁crisis	-10.7866
▁gradually	-10.7866
▁pricing	-10.7866
▁signature	-10.7866
▁Product	-10.7869
▁India	-10.7875
▁sky	-10.7898
▁studied	-10.7898
▁numerous	-10.7898
shaped	-10.7921
▁participating	-10.7931
▁apology	-10.7931
▁programming	-10.7931
▁race	-10.7931
▁relax	-10.7935
▁gather	-10.7936
▁satellite	-10.7938
▁worse	-10.794
▁honestly	-10.7941
▁particles	-10.7943
▁con	-10.7948
ng	-10.7959
▁continuing	-10.7964
▁pride	-10.7964
▁manpower	-10.7964
▁parties	-10.7968
▁virus	-10.7968
▁detect	-10.7971
▁seasoned	-10.7976
▁mountain	-10.7983
▁aging	-10.7987
▁closely	-10.7992
▁Perfect	-10.7997
▁aircraft	-10.7997
▁satisfactory	-10.7997
▁Otherwise	-10.7997
▁mineral	-10.8002
▁withstand	-10.8006
▁Bro	-10.8009
▁grain	-10.8014
▁missed	-10.8017
▁smoke	-10.8026
▁priority	-10.803
▁characterized	-10.803
▁pillow	-10.8037
▁sensors	-10.8037
▁vitamins	-10.8041
▁focused	-10.8057
▁centers	-10.8059
▁instant	-10.8059
▁negative	-10.8059
▁constant	-10.8059
▁28	-10.8062
▁temporarily	-10.8063
▁entry	-10.8063
▁confused	-10.8065
▁250	-10.8076
yeon	-10.8076
▁remains	-10.8093
▁Ugh	-10.8096
▁glance	-10.8096
▁Press	-10.8098
▁textbook	-10.8105
▁symptoms	-10.811
▁format	-10.8111
▁broke	-10.8111
▁jump	-10.8128
▁burdensome	-10.8129
▁handmade	-10.8131
▁discussing	-10.8134
▁lifetime	-10.8138
▁toilet	-10.8139
▁sheets	-10.8139
▁rid	-10.8142
▁Youngji	-10.8143
▁picked	-10.8148
▁estimated	-10.8157
▁clinical	-10.816
▁bath	-10.8163
▁French	-10.8163
▁overcome	-10.8165
ism	-10.8169
▁nutrition	-10.8177
▁positively	-10.8178
▁East	-10.8179
▁corn	-10.8179
▁factor	-10.8181
▁mortgage	-10.8196
▁managing	-10.8197
mp	-10.8197
▁importance	-10.8197
▁savings	-10.8219
▁Buy	-10.8221
▁Woo	-10.8223
▁king	-10.8226
▁thorough	-10.8226
▁mattress	-10.8228
▁Number	-10.823
▁stretch	-10.823
▁CCC	-10.823
▁printed	-10.8247
▁saving	-10.8251
▁speakers	-10.8256
▁Answer	-10.8264
▁conclusion	-10.8264
▁happiness	-10.8264
▁insulation	-10.8264
▁Sunday	-10.8264
▁madam	-10.8264
▁delivering	-10.8266
▁pharmaceutical	-10.8276
100	-10.8278
▁x	-10.8287
scale	-10.8289
generation	-10.829
▁realize	-10.8293
▁tall	-10.8296
▁onion	-10.8299
▁elastic	-10.8299
▁village	-10.8301
san	-10.8311
▁scissors	-10.8313
▁reports	-10.8314
▁beverages	-10.8314
▁Chan	-10.8323
▁cups	-10.8327
placing	-10.833
▁shrimp	-10.8332
▁selection	-10.8334
▁salesperson	-10.8335
▁implemented	-10.8342
▁lightly	-10.8342
3.	-10.8348
▁liver	-10.8348
▁delays	-10.8351
person	-10.8354
▁lips	-10.836
▁charm	-10.8366
▁studies	-10.8366
▁vegan	-10.8366
▁Rather	-10.8367
▁letters	-10.8368
▁outfit	-10.8372
▁lecture	-10.838
▁surrounding	-10.8387
▁mess	-10.8397
▁cultural	-10.84
▁spent	-10.84
▁mutual	-10.84
▁Airport	-10.84
▁brake	-10.84
▁promoting	-10.84
▁Whe	-10.8409
▁buttons	-10.8409
ping	-10.8417
▁competitors	-10.842
▁cleaned	-10.8422
▁deposited	-10.8428
▁represent	-10.8433
▁motion	-10.8434
▁winner	-10.8435
▁suppliers	-10.844
▁neatly	-10.8442
▁blocks	-10.8446
▁saved	-10.845
▁seller	-10.8454
old	-10.8455
▁earn	-10.8456
▁propose	-10.8457
▁Australia	-10.8461
-19.	-10.8462
ped	-10.8464
▁knife	-10.8469
▁Brother	-10.847
▁Kong	-10.8479
▁situations	-10.8482
▁priced	-10.8485
▁treated	-10.849
▁Honey	-10.8503
▁alive	-10.8504
▁scratch	-10.8509
▁predict	-10.8509
▁viewers	-10.8515
▁pyeong	-10.8518
▁brochure	-10.852
▁girl	-10.852
▁theater	-10.8521
▁earphones	-10.8526
▁kick	-10.853
ect	-10.8535
at	-10.8535
▁scan	-10.8538
▁accuracy	-10.8538
▁preferred	-10.8538
▁hose	-10.8539
▁gel	-10.8539
▁revised	-10.8547
▁upload	-10.8548
▁coat	-10.8552
▁accepted	-10.8554
▁Mo	-10.8557
200	-10.8569
▁Kwang	-10.8573
▁demonstration	-10.8573
▁automation	-10.8573
▁elderly	-10.8574
▁newspaper	-10.8592
▁cheer	-10.8608
▁Bank	-10.8608
▁hide	-10.8609
▁affiliate	-10.861
▁accordingly	-10.8611
▁individually	-10.8618
▁arms	-10.8623
ang	-10.8626
▁accepting	-10.8626
▁b	-10.8637
▁Cha	-10.8641
▁Woah	-10.8643
▁circulation	-10.8643
▁ordinary	-10.8643
▁vice	-10.8643
▁specifically	-10.8644
▁ribs	-10.8646
▁exclusively	-10.8649
▁lip	-10.8649
▁marked	-10.8653
▁maintains	-10.8659
▁artist	-10.8663
▁deals	-10.8665
▁crying	-10.8666
▁thoughts	-10.8668
foot	-10.8671
▁Research	-10.8677
▁Very	-10.8678
▁families	-10.8678
▁Besides	-10.8678
▁orange	-10.8678
▁humidity	-10.8678
ten	-10.8679
▁waist	-10.8684
▁kill	-10.8686
▁hospitals	-10.8698
▁technician	-10.8699
▁subscribe	-10.87
▁2022	-10.8715
▁tables	-10.8717
▁toy	-10.8724
▁returns	-10.8732
▁guidelines	-10.8735
▁determined	-10.8737
▁contribute	-10.8737
z	-10.8752
▁recover	-10.8753
▁losses	-10.8755
▁prevention	-10.8756
▁pages	-10.8769
▁blog	-10.8771
▁Bo	-10.8778
▁Four	-10.878
▁applies	-10.8785
▁irritation	-10.8785
style	-10.8788
▁tag	-10.8801
▁thousand	-10.8808
▁greater	-10.8811
▁LA	-10.8814
▁rapid	-10.8817
▁worries	-10.882
▁silk	-10.882
▁zipper	-10.8821
▁clearance	-10.8822
▁remit	-10.8825
▁grilled	-10.8837
▁pairs	-10.8841
▁pockets	-10.8848
▁particularly	-10.8849
▁exterior	-10.8856
▁guitar	-10.8856
▁losing	-10.8856
▁discovered	-10.886
▁muscle	-10.8881
▁semiconductor	-10.8881
▁towel	-10.8885
▁trial	-10.8886
▁boiling	-10.8888
▁autumn	-10.8892
▁babies	-10.8892
▁trailer	-10.8896
▁meter	-10.89
▁laws	-10.89
▁J	-10.8903
▁string	-10.8917
▁linked	-10.8922
GB	-10.8923
▁windows	-10.8928
▁marriage	-10.8928
▁revenue	-10.8928
▁aim	-10.8935
▁Meet	-10.8945
▁distributor	-10.8954
▁Choi	-10.8955
▁noticed	-10.8957
▁severe	-10.8961
▁stuck	-10.8964
▁PM	-10.8965
tech	-10.8968
▁correction	-10.8968
▁theme	-10.8976
▁generate	-10.898
ap	-10.8988
▁Long	-10.9001
▁personality	-10.9004
▁Cho	-10.9016
▁bear	-10.902
▁campaign	-10.9029
▁avail	-10.9036
▁elementary	-10.9037
▁spa	-10.9039
▁UK	-10.9039
nam	-10.904
▁Hmm	-10.9059
▁mounted	-10.9059
▁object	-10.9065
▁YouTube	-10.9066
▁ergonomic	-10.9074
▁radiation	-10.9074
▁strategies	-10.9074
▁colorful	-10.9079
ee	-10.9084
▁specially	-10.9084
▁tend	-10.9085
▁bother	-10.9087
▁26	-10.9087
hyung	-10.9092
▁tru	-10.9096
▁invested	-10.9104
▁participation	-10.9111
▁reliability	-10.9111
▁expertise	-10.9111
▁soju	-10.9114
▁relationships	-10.9121
▁goals	-10.9121
▁packing	-10.9122
▁deeply	-10.9125
▁meets	-10.9131
▁imagine	-10.9136
▁discounted	-10.9136
▁navigation	-10.9148
▁phenomenon	-10.9148
▁flour	-10.9148
ous	-10.9157
sir	-10.9161
▁weighs	-10.9165
▁announced	-10.9165
▁OOO	-10.9167
▁tire	-10.9167
▁offices	-10.9179
▁female	-10.9185
▁trademark	-10.9185
▁despi	-10.9185
▁marine	-10.9185
▁himself	-10.9185
▁sink	-10.9185
▁Someone	-10.9186
▁creation	-10.9188
▁leak	-10.9188
▁offline	-10.919
▁arrives	-10.9193
▁pickup	-10.9193
5,000	-10.9199
▁nutritional	-10.9206
▁regularly	-10.9212
▁120	-10.9216
▁odor	-10.922
si	-10.9221
▁canned	-10.9227
▁flavors	-10.9228
▁happening	-10.9235
▁consume	-10.9245
▁tickets	-10.9251
room	-10.9258
▁currency	-10.9259
▁dining	-10.9259
▁dynamic	-10.9262
ncludes	-10.929
▁adult	-10.9293
▁eliminate	-10.9295
▁association	-10.9297
▁counselor	-10.9297
▁width	-10.9297
▁freshness	-10.93
▁path	-10.93
▁rack	-10.9304
▁issued	-10.9305
▁sort	-10.9311
▁experiences	-10.9314
▁dioxide	-10.9334
▁St	-10.9345
▁groups	-10.9345
▁3,000	-10.9345
▁handled	-10.9345
▁supported	-10.9351
▁notes	-10.936
▁l	-10.9369
▁waves	-10.937
▁preventing	-10.9371
▁sterilization	-10.9372
▁injection	-10.9372
▁ran	-10.9397
ot	-10.9401
▁presented	-10.9406
▁convey	-10.9408
▁cooperative	-10.941
40	-10.9416
▁publisher	-10.9421
▁antibacterial	-10.9422
▁numbers	-10.9422
inch	-10.9435
like	-10.9441
▁raising	-10.9448
▁cycle	-10.9451
▁tips	-10.9456
▁winning	-10.9456
3,	-10.9456
▁sour	-10.9458
▁Am	-10.9462
▁Po	-10.9463
light	-10.9465
▁Africa	-10.9478
▁watched	-10.9479
▁Mountain	-10.9486
▁Rock	-10.9486
▁shine	-10.9486
▁fitness	-10.9493
▁remodeling	-10.9495
ton	-10.9496
▁combine	-10.9497
op	-10.9499
▁hosting	-10.9511
ory	-10.9516
▁Hand	-10.9516
▁baking	-10.9524
▁blind	-10.9525
▁chewy	-10.9527
▁Ta	-10.9528
▁AA	-10.953
ja	-10.9535
▁wheels	-10.955
▁facial	-10.9563
▁BB	-10.9566
▁officially	-10.9574
ide	-10.9582
▁formal	-10.9583
▁organizations	-10.9591
▁ERP	-10.9601
▁luggage	-10.9601
▁rush	-10.9601
▁versatile	-10.9601
▁subway	-10.9602
▁specified	-10.9602
▁attack	-10.9626
▁decrease	-10.9631
▁drain	-10.9632
▁Di	-10.9635
▁followed	-10.9636
▁5-	-10.9637
▁incident	-10.964
▁razor	-10.964
▁2021	-10.9648
▁35	-10.9666
▁Sung	-10.9667
▁advertise	-10.9667
▁loose	-10.9671
▁Service	-10.9679
▁absorption	-10.9679
▁fake	-10.9679
ti	-10.969
▁mostly	-10.9696
fry	-10.9697
▁lift	-10.9703
▁45	-10.9711
▁comprehensive	-10.9714
elecommunication	-10.9718
▁Children	-10.9718
▁patience	-10.9718
▁SEO	-10.9718
▁Back	-10.9719
▁magnetic	-10.9722
▁title	-10.9722
▁rose	-10.9723
tan	-10.9723
▁outstanding	-10.9723
▁nail	-10.9724
▁pads	-10.9727
ally	-10.9731
▁Na	-10.9735
▁calculate	-10.9746
tone	-10.9746
if	-10.9747
dimensional	-10.975
▁Red	-10.9752
▁talent	-10.9754
▁buffet	-10.9757
▁cabbage	-10.9757
▁understood	-10.9757
▁Talk	-10.9757
▁Earth	-10.9759
▁Yoon	-10.9762
▁chef	-10.9762
▁spare	-10.9774
ok	-10.9781
▁charges	-10.9781
▁reserved	-10.9795
▁closing	-10.9797
▁porridge	-10.9797
▁Safety	-10.9797
▁handsome	-10.9797
▁chairman	-10.9798
ure	-10.9801
ron	-10.9806
▁row	-10.982
▁coated	-10.982
▁sources	-10.9821
▁admit	-10.9836
▁Su	-10.9837
▁Air	-10.9854
▁surprise	-10.9864
▁valid	-10.9875
▁joy	-10.9876
▁perspective	-10.9876
▁console	-10.9876
▁duck	-10.9876
▁investments	-10.9881
▁whatever	-10.9881
▁30,000	-10.9893
▁absorb	-10.9899
▁Shin	-10.9901
▁hotels	-10.9911
young	-10.9912
▁exciting	-10.9916
▁questionnaire	-10.9916
▁banquet	-10.9916
▁Water	-10.9916
▁Out	-10.9916
▁mice	-10.9917
▁tube	-10.9918
▁dough	-10.9919
▁availability	-10.9923
▁managers	-10.9929
chan	-10.9932
▁measured	-10.9943
ray	-10.9944
▁renting	-10.995
▁Regard	-10.9955
▁flexibility	-10.9956
▁HaHa	-10.9956
▁Stay	-10.9956
▁functionality	-10.9957
▁dumpling	-10.9965
▁finger	-10.9965
▁La	-10.997
▁modes	-10.997
▁crystal	-10.9974
con	-10.9987
▁immune	-10.9996
▁polyester	-10.9996
▁sincerity	-10.9996
▁Wonhee	-10.9996
▁collar	-10.9998
▁youngest	-11
seok	-11.0005
▁lighter	-11.0006
▁automobile	-11.0006
▁trendy	-11.0006
▁began	-11.0011
▁mount	-11.0011
woo	-11.0016
▁begins	-11.0016
order	-11.0033
▁behavior	-11.0033
▁touching	-11.0035
▁salad	-11.0036
▁aroma	-11.0036
▁sustainable	-11.0036
▁net	-11.004
▁plates	-11.0045
▁realized	-11.0058
▁Incheon	-11.0059
▁Car	-11.0065
▁boost	-11.0066
▁grand	-11.0077
▁nine	-11.0077
▁rays	-11.0078
▁breath	-11.0081
▁quarantine	-11.0083
sh	-11.0087
▁boots	-11.0087
▁proposed	-11.009
▁wider	-11.0091
▁analyzed	-11.0092
▁meaning	-11.01
▁convert	-11.0107
▁developer	-11.0109
▁police	-11.0117
▁wallet	-11.0117
ml	-11.0118
▁emissions	-11.0126
▁banks	-11.0129
act	-11.0139
▁unfamiliar	-11.0158
▁chest	-11.0158
▁independent	-11.0163
▁2000	-11.0163
▁messages	-11.0176
▁fulfill	-11.0191
▁oral	-11.0191
▁sole	-11.0192
body	-11.0195
▁hygienic	-11.0199
▁World	-11.0199
▁electronics	-11.0212
▁react	-11.022
▁plays	-11.0232
▁vivid	-11.0237
▁surely	-11.0237
▁humidifier	-11.024
▁Italian	-11.024
▁bankruptcy	-11.024
ran	-11.0244
▁recommendations	-11.0247
▁beach	-11.0248
▁processor	-11.0257
▁forms	-11.0262
▁awkward	-11.0282
▁replying	-11.0282
▁shirt	-11.0295
▁briefing	-11.031
▁acquaintances	-11.0323
▁trash	-11.0323
▁enclosed	-11.0325
▁removable	-11.0325
▁inches	-11.0325
ities	-11.0327
▁errors	-11.033
▁precautions	-11.0343
▁regard	-11.0354
▁pair	-11.0355
ie	-11.0359
▁Mm	-11.0364
▁Honestly	-11.0365
▁rinse	-11.0365
▁strike	-11.0365
▁perfume	-11.0365
▁barley	-11.0365
▁posture	-11.0365
▁protective	-11.0367
▁intensity	-11.0368
wi	-11.0368
▁counter	-11.0376
lasting	-11.0383
▁styles	-11.0385
▁comment	-11.0389
▁Soo	-11.0391
▁Happy	-11.0407
▁Technology	-11.0407
▁facing	-11.0407
▁inconvenient	-11.0407
▁Western	-11.0407
▁Sangmin	-11.0407
▁Home	-11.0408
▁disadvantage	-11.0425
▁component	-11.0428
▁fairy	-11.0428
▁cam	-11.0428
▁trees	-11.0429
▁gained	-11.0431
▁encourage	-11.0437
▁figures	-11.044
▁Smart	-11.0449
▁breast	-11.0449
▁genetic	-11.0449
▁Anyone	-11.0449
▁renewal	-11.0451
▁assigned	-11.0452
▁City	-11.0452
▁greasy	-11.0452
▁15%	-11.0455
▁bite	-11.0456
▁launching	-11.0457
▁designated	-11.0459
▁walls	-11.0465
▁depth	-11.0469
der	-11.0471
▁insert	-11.0482
▁immediate	-11.0487
▁assembly	-11.0491
▁celebration	-11.0491
▁impressive	-11.0491
▁permission	-11.0491
▁lying	-11.0493
▁productivity	-11.0502
▁regions	-11.0512
▁designers	-11.0516
▁Sea	-11.052
▁gun	-11.0529
▁SNS	-11.0533
▁bulgogi	-11.0533
▁passion	-11.0535
▁blow	-11.054
▁attractions	-11.0547
▁restrictions	-11.0553
▁module	-11.0555
▁Yeon	-11.0558
▁visitors	-11.0569
▁cumbersome	-11.0576
▁Hope	-11.0577
▁softener	-11.0579
▁notified	-11.0589
▁beverage	-11.0598
▁twist	-11.061
▁forest	-11.0617
▁explore	-11.0618
▁oxygen	-11.0618
▁policies	-11.0618
▁species	-11.0618
▁skirt	-11.0619
▁privacy	-11.0619
▁venture	-11.0619
▁mart	-11.0619
▁Sigh	-11.0619
▁rare	-11.0623
▁farmers	-11.0624
▁preference	-11.0642
▁sneakers	-11.0647
▁minerals	-11.0653
▁values	-11.0654
ab	-11.0656
▁lamp	-11.0658
▁France	-11.0661
▁bridge	-11.0661
▁mild	-11.0661
▁accessory	-11.0663
▁headphones	-11.0663
▁attendance	-11.0664
▁delivers	-11.0666
▁Boss	-11.0666
▁Day	-11.0667
▁holder	-11.0671
▁holidays	-11.0677
▁manner	-11.0686
OO	-11.0691
▁calcium	-11.0705
▁perilla	-11.0705
▁Gangnam	-11.0705
▁festival	-11.0705
▁Show	-11.0708
▁workplace	-11.0708
▁Ba	-11.0709
▁collecting	-11.0727
,000	-11.0727
▁3%	-11.0733
▁His	-11.0737
▁falls	-11.0738
▁answers	-11.0738
▁tough	-11.0742
▁annoying	-11.0748
▁portfolio	-11.0748
▁timing	-11.0748
▁translation	-11.0748
▁television	-11.0748
▁emotional	-11.0758
▁touched	-11.0759
▁controlled	-11.0759
▁relaxed	-11.0759
▁outdoors	-11.0768
▁Si	-11.0769
je	-11.0774
▁boat	-11.0776
▁shorten	-11.0789
▁Power	-11.0791
▁National	-11.0791
▁diesel	-11.0791
▁Business	-11.0791
▁configuration	-11.0791
▁commemorate	-11.0792
▁capable	-11.0793
hour	-11.0794
▁tie	-11.0795
om	-11.0798
▁lucky	-11.0799
▁Send	-11.0801
▁individuals	-11.0807
▁exceed	-11.0811
▁negotiation	-11.0818
ard	-11.0831
▁crab	-11.0835
▁retain	-11.0835
▁shift	-11.0835
▁unnecessary	-11.0835
▁shaking	-11.0835
▁exposure	-11.0835
che	-11.084
▁thankful	-11.0843
▁ex	-11.0846
low	-11.085
shirt	-11.0866
▁fleece	-11.0879
▁Ra	-11.0879
▁wherever	-11.0886
▁edit	-11.0891
▁displays	-11.0891
▁approach	-11.0894
iliar	-11.0899
▁postponed	-11.0901
pi	-11.0908
▁kid	-11.0908
▁influence	-11.0909
▁10-	-11.0915
▁temperatures	-11.0916
▁Products	-11.0918
▁Third	-11.0923
▁investigation	-11.0923
▁irrevocable	-11.0923
▁impression	-11.0923
▁vote	-11.0924
▁circuit	-11.0927
▁joined	-11.0946
▁stands	-11.0953
ong	-11.0961
▁extreme	-11.0963
ical	-11.0967
▁cuisine	-11.0967
▁sauna	-11.0967
ability	-11.0973
▁Marketing	-11.098
▁answering	-11.0984
▁tap	-11.0986
▁war	-11.0995
▁desktop	-11.0998
▁restore	-11.1
▁proof	-11.1002
for	-11.1011
▁Set	-11.1022
▁designing	-11.1027
▁wrinkles	-11.1035
▁turbine	-11.1043
▁doubt	-11.1043
▁pressing	-11.1049
▁genuine	-11.1056
▁pencil	-11.1056
▁pursue	-11.1056
▁reconsider	-11.1056
▁outlet	-11.1056
▁accessible	-11.1057
▁therapy	-11.1064
▁Bio	-11.1071
ice	-11.1087
▁institutions	-11.1091
▁stream	-11.1092
▁potato	-11.11
▁Think	-11.1102
▁scratches	-11.1103
▁fourth	-11.1121
▁Accordingly	-11.1125
▁ah	-11.1134
▁formed	-11.1141
▁papers	-11.1142
▁combustion	-11.1146
▁punishment	-11.1146
▁Five	-11.1148
▁extremely	-11.115
▁dis	-11.1179
▁controls	-11.118
▁vaccine	-11.1181
▁thread	-11.1183
▁mental	-11.1188
▁Nevertheless	-11.1191
▁rust	-11.1191
driving	-11.1194
▁2020	-11.1195
▁voltage	-11.1196
▁identified	-11.1196
▁balls	-11.1211
son	-11.1216
▁honored	-11.1217
▁Con	-11.1235
▁clip	-11.1237
▁transferred	-11.1237
▁cord	-11.1238
▁deliciously	-11.1245
▁Sang	-11.1255
▁31	-11.126
▁ends	-11.1265
▁selecting	-11.1267
▁triple	-11.1268
ner	-11.1277
back	-11.1281
▁knit	-11.1281
▁minimal	-11.1282
▁although	-11.1282
▁inevitable	-11.1282
month	-11.1286
▁fastest	-11.1289
▁outer	-11.1295
ium	-11.1304
▁tofu	-11.1316
▁barrier	-11.132
▁executive	-11.1321
▁ski	-11.1322
▁Special	-11.1325
▁district	-11.1328
▁forgive	-11.1329
▁Ready	-11.133
▁Apply	-11.133
▁USA	-11.1331
uitable	-11.1331
▁magazines	-11.1332
▁taxes	-11.1333
▁aged	-11.1335
0,000	-11.1339
ya	-11.1343
by	-11.1345
▁technicians	-11.1347
▁holes	-11.1362
▁Light	-11.1371
▁central	-11.1374
▁Insurance	-11.1374
▁Ministry	-11.1374
▁Yesterday	-11.1374
▁category	-11.1374
▁nylon	-11.1374
▁rude	-11.1374
▁Thailand	-11.1374
▁booking	-11.1378
▁dirty	-11.1379
▁holds	-11.138
▁warning	-11.1381
▁architectural	-11.1383
▁ended	-11.1394
▁courses	-11.1395
▁standing	-11.1397
ud	-11.1409
ip	-11.1411
▁separated	-11.1412
▁dirt	-11.1416
▁split	-11.142
▁basket	-11.1421
▁drum	-11.1421
▁GPS	-11.1421
▁Sehyung	-11.1422
▁Sun	-11.1422
▁apple	-11.1424
▁1.5	-11.1424
▁v	-11.1426
▁tires	-11.1428
▁edge	-11.1453
▁tablets	-11.1456
▁faucet	-11.1462
▁obvious	-11.1463
▁roof	-11.1467
▁completion	-11.1467
▁diameter	-11.1467
▁detachable	-11.1468
▁mothers	-11.147
step	-11.1472
▁handles	-11.1472
▁odors	-11.1473
▁shoulders	-11.1473
▁relations	-11.1489
▁taxi	-11.1493
ship	-11.1499
▁teaching	-11.15
▁discharge	-11.1502
▁consistent	-11.1512
▁curry	-11.1514
▁entrust	-11.1514
▁eventually	-11.1514
▁population	-11.1514
▁wild	-11.1514
▁lithium	-11.1514
▁blades	-11.1522
▁talented	-11.1524
▁inspect	-11.1549
▁responding	-11.1549
▁revise	-11.155
wa	-11.1552
oo	-11.1552
▁Green	-11.1561
▁London	-11.1561
▁stove	-11.1561
▁shortage	-11.1563
cha	-11.1573
▁cleansing	-11.1576
▁treatments	-11.1582
▁safer	-11.1582
▁relieved	-11.1589
▁sand	-11.159
▁cushioning	-11.16
ow	-11.1602
▁noodle	-11.1606
▁gentle	-11.1608
▁aux	-11.1608
▁tenants	-11.161
▁novel	-11.1611
▁backpack	-11.1611
▁gotten	-11.1612
▁warmer	-11.1619
▁differently	-11.1625
▁600	-11.1628
▁spin	-11.1632
▁Clean	-11.1635
▁viewing	-11.1655
▁abundant	-11.1655
▁celebrity	-11.1655
▁scope	-11.1655
▁insulated	-11.1656
▁cities	-11.1656
▁tray	-11.1656
▁breathable	-11.1657
▁Whenever	-11.1659
▁rip	-11.166
ving	-11.1665
▁Won	-11.1665
▁participated	-11.1674
▁fry	-11.1679
▁ha	-11.1684
▁monitors	-11.169
▁absorbs	-11.169
▁assure	-11.1692
ze	-11.1695
▁supporting	-11.1696
▁200,000	-11.1699
▁cultivation	-11.1703
▁essence	-11.1703
▁franchise	-11.1703
▁verification	-11.1703
ig	-11.1703
▁comic	-11.1703
15	-11.1706
▁publish	-11.1711
▁premiums	-11.1713
▁cart	-11.172
uk	-11.1722
▁Ro	-11.173
▁Men	-11.1733
▁en	-11.1738
▁seasons	-11.1739
▁prove	-11.1746
▁excessive	-11.1748
▁acquaintance	-11.1751
▁colleague	-11.1751
▁besides	-11.1752
site	-11.1758
▁professionals	-11.1764
▁schedules	-11.1776
▁cloth	-11.1778
▁gum	-11.1781
▁k	-11.1791
▁blocking	-11.1792
▁log	-11.1794
▁career	-11.1797
▁compliment	-11.1799
▁dictionary	-11.1799
▁venue	-11.1799
▁chart	-11.1799
▁sunscreen	-11.1799
▁32	-11.1804
fa	-11.1807
▁calculated	-11.1813
▁folding	-11.1814
▁layers	-11.1815
▁teachers	-11.1818
▁passing	-11.1821
▁mo	-11.1823
▁asset	-11.1825
▁tooth	-11.1834
▁calories	-11.1835
▁2021.	-11.1837
▁led	-11.1844
ence	-11.1844
▁canceling	-11.1847
▁Institute	-11.1847
▁incredible	-11.1847
▁tourism	-11.1848
▁Cute	-11.185
▁wave	-11.1853
▁refrigerators	-11.1856
oid	-11.1857
▁riding	-11.1876
Woo	-11.1878
▁Available	-11.1896
▁ghost	-11.1896
▁prototype	-11.1896
▁Store	-11.1896
▁whitening	-11.1896
▁stains	-11.1896
▁hook	-11.1896
▁underwear	-11.1897
▁VR	-11.1903
▁servings	-11.1908
▁shipments	-11.1911
▁brushing	-11.1918
▁trips	-11.1919
▁judge	-11.1933
▁Aha	-11.1934
cy	-11.1936
▁rumors	-11.1943
▁bundle	-11.1945
▁imagination	-11.1945
▁ignition	-11.1949
▁rule	-11.195
▁floating	-11.1954
▁steamed	-11.1962
▁opens	-11.1968
▁breaks	-11.1974
▁appeal	-11.1975
▁coordinate	-11.1982
▁serves	-11.1983
▁unlike	-11.1992
▁prior	-11.1993
▁compatibility	-11.1994
▁recycling	-11.1994
▁tuna	-11.1994
▁confusion	-11.1994
▁Italy	-11.1994
▁closure	-11.1998
▁town	-11.1999
▁cats	-11.2001
▁Ga	-11.2001
▁decreased	-11.2008
▁differences	-11.2011
▁indoors	-11.2028
▁refill	-11.2031
▁slight	-11.204
▁technological	-11.2043
▁coding	-11.2043
▁inter	-11.2044
known	-11.2049
▁pipe	-11.205
▁Hang	-11.206
ative	-11.2068
▁achievements	-11.2073
▁beds	-11.2081
▁tail	-11.2092
▁experiencing	-11.2092
▁library	-11.2092
▁stroller	-11.2092
▁weekends	-11.2097
▁PCs	-11.2109
▁complain	-11.2113
▁Line	-11.2119
▁repaired	-11.2124
ni	-11.2132
war	-11.2133
▁suite	-11.2134
cr	-11.2136
▁signals	-11.2141
▁silhouette	-11.2142
▁spirit	-11.2142
▁Shipping	-11.2142
▁disposable	-11.2142
▁realistic	-11.2143
▁disappear	-11.2143
▁replacing	-11.2144
▁chosen	-11.2158
▁suffering	-11.2161
▁adhere	-11.2192
▁Payment	-11.2192
▁wallpaper	-11.2193
▁articles	-11.2193
▁corrosion	-11.2195
▁male	-11.2196
▁carrots	-11.2197
▁renewed	-11.22
pro	-11.2222
▁farming	-11.2233
▁29	-11.2237
▁towards	-11.2238
▁agencies	-11.2242
▁laboratory	-11.2242
▁Under	-11.2243
▁percentage	-11.2243
▁verified	-11.2243
▁mis	-11.2245
▁differentiated	-11.2247
AAA	-11.2249
ear	-11.2249
meter	-11.2251
▁specification	-11.226
cing	-11.2265
▁disc	-11.2272
▁desks	-11.2272
▁evaluate	-11.2281
▁customize	-11.2282
5%	-11.2289
▁Correct	-11.2293
▁steak	-11.2293
▁presence	-11.2293
▁examination	-11.2297
▁confirming	-11.2297
▁Gu	-11.2303
▁blend	-11.2317
▁lately	-11.2323
▁seal	-11.2324
▁movements	-11.233
▁reception	-11.2343
▁elegant	-11.2344
▁everywhere	-11.2344
▁freight	-11.2344
▁gasoline	-11.2344
▁immunity	-11.2344
▁hybrid	-11.2344
▁tripod	-11.2344
▁strawberry	-11.2344
▁twin	-11.2344
▁uh	-11.2344
▁crispy	-11.2345
▁Kindly	-11.2347
▁topics	-11.2354
▁decisions	-11.2355
▁nozzle	-11.2356
▁certainly	-11.2364
▁Their	-11.2365
▁drivers	-11.2366
▁beginners	-11.2375
500	-11.238
▁wires	-11.238
ible	-11.238
land	-11.2384
▁Wear	-11.2389
▁Singapore	-11.2395
▁liquor	-11.2395
▁retreat	-11.2395
▁Above	-11.2395
▁rising	-11.2395
▁modify	-11.2395
▁departure	-11.2395
▁waistband	-11.2395
▁Say	-11.241
▁Sounds	-11.2416
▁lowered	-11.2418
▁pour	-11.2419
▁expecting	-11.2426
▁pressed	-11.2434
▁Malaysia	-11.2438
▁OO	-11.2438
▁harm	-11.2445
▁agenda	-11.2446
▁stem	-11.2446
▁Hyo	-11.2446
▁Time	-11.2448
▁contrast	-11.2448
▁golden	-11.2448
▁Soft	-11.245
▁sooner	-11.245
▁suspended	-11.245
▁renewable	-11.2451
▁cleanser	-11.2453
▁disappointing	-11.2459
▁terminal	-11.246
▁artists	-11.2469
▁24-	-11.2469
▁island	-11.2478
▁printers	-11.2491
▁quit	-11.2495
▁pouch	-11.2496
▁California	-11.2498
▁Vietnamese	-11.2498
▁returning	-11.25
▁appreciated	-11.2517
▁generally	-11.2527
let	-11.2533
▁grains	-11.2539
▁reactions	-11.2542
▁ultimate	-11.2546
ex	-11.2549
▁barbecue	-11.2549
▁lounge	-11.2549
▁makgeolli	-11.2549
▁court	-11.2549
▁shortcomings	-11.2549
▁ISO	-11.2549
▁40%	-11.2557
▁Ms	-11.2566
▁dessert	-11.2566
▁thousands	-11.2568
eng	-11.2576
▁reward	-11.2591
▁delicate	-11.2598
▁amenities	-11.2601
▁settlement	-11.2602
▁submitted	-11.2602
▁earnest	-11.2602
▁defense	-11.2603
▁Bring	-11.2604
▁seed	-11.2606
▁subscribers	-11.2608
sales	-11.2612
▁Rest	-11.2613
▁remotely	-11.2615
vo	-11.2616
▁strings	-11.2617
cheon	-11.2626
▁newspapers	-11.2626
▁suffer	-11.2626
edge	-11.2629
▁sum	-11.2631
▁adapt	-11.2634
▁states	-11.2639
▁highlight	-11.2639
▁masks	-11.2649
▁Blue	-11.2654
▁bathtub	-11.2654
▁messenger	-11.2654
▁sunglasses	-11.2654
▁alloy	-11.2654
▁Choose	-11.2654
▁Yo	-11.2654
▁absolutely	-11.2655
▁girlfriend	-11.2657
▁specialize	-11.2671
▁endless	-11.2671
▁renew	-11.2675
▁Pa	-11.2677
▁gap	-11.2677
▁reveal	-11.2679
▁flying	-11.2689
▁mesh	-11.2691
▁manages	-11.2696
▁Plus	-11.2696
▁protected	-11.2698
▁moves	-11.2701
▁Cut	-11.2705
▁associate	-11.2706
▁storing	-11.2706
▁architecture	-11.2706
▁yoga	-11.2707
▁Moreover	-11.2707
▁urge	-11.2715
ea	-11.272
▁hearts	-11.2721
▁hi	-11.2723
star	-11.2726
▁chew	-11.2735
▁ships	-11.2739
▁drill	-11.274
▁Design	-11.2751
▁compete	-11.2752
▁techniques	-11.2754
▁Too	-11.2754
▁zero	-11.2759
▁proportion	-11.2759
▁advantageous	-11.276
▁brightness	-11.2761
▁80%	-11.2763
▁lovely	-11.2764
▁breaking	-11.2765
▁detected	-11.2772
▁root	-11.2781
▁approaching	-11.2783
▁medicines	-11.279
▁died	-11.2793
over	-11.2797
▁closet	-11.2797
▁Dad	-11.2807
▁Compatible	-11.2813
▁landlord	-11.2813
▁incurred	-11.2813
▁classified	-11.2814
▁aspects	-11.2814
▁rank	-11.2816
▁cooler	-11.2818
▁tailored	-11.2819
qu	-11.2823
▁inspired	-11.2826
▁slide	-11.2827
▁finishing	-11.2851
▁seemed	-11.2852
▁pin	-11.286
grade	-11.2865
▁microfiber	-11.2866
▁pumpkin	-11.2866
▁vegetarian	-11.2866
▁officetel	-11.2866
▁tension	-11.2866
▁Free	-11.2866
▁Ne	-11.2869
ors	-11.2874
▁readers	-11.2876
av	-11.2885
▁hundred	-11.2889
▁mop	-11.2892
▁speeds	-11.2911
pt	-11.2911
▁academy	-11.292
▁concrete	-11.292
▁phase	-11.292
▁padded	-11.292
▁directions	-11.2921
▁straps	-11.2925
point	-11.2932
▁schools	-11.2936
▁coins	-11.2937
nic	-11.294
▁crops	-11.2946
-19,	-11.2948
▁Dae	-11.2956
▁answered	-11.2956
ue	-11.296
ware	-11.2967
▁General	-11.297
▁infection	-11.2974
▁bamboo	-11.2974
▁modified	-11.2974
▁Basically	-11.2974
▁Things	-11.2974
▁resin	-11.2975
▁Gary	-11.2976
▁herbal	-11.2976
▁Hoon	-11.2976
▁balanced	-11.2977
▁shy	-11.2977
▁adhesive	-11.298
▁apples	-11.2981
▁folded	-11.2981
▁analyzing	-11.2985
▁sticky	-11.2988
▁clock	-11.2996
▁stamp	-11.3002
▁beam	-11.3008
▁picking	-11.3015
▁settle	-11.3016
▁Additional	-11.3024
▁frequent	-11.3024
▁unfortunate	-11.3024
▁exam	-11.3027
▁nano	-11.3027
▁matte	-11.3028
▁strain	-11.3028
▁baseball	-11.3029
▁Data	-11.3029
▁browser	-11.3031
▁Online	-11.3031
▁speech	-11.3031
▁Wash	-11.3032
▁observed	-11.3037
▁trials	-11.3045
ny	-11.3055
▁modules	-11.3055
▁painting	-11.3058
▁coupons	-11.3061
▁roller	-11.307
▁tradition	-11.3073
▁German	-11.3078
▁inexpensive	-11.3083
▁pregnant	-11.3083
▁copper	-11.3083
▁rechargeable	-11.3083
▁fermented	-11.3084
▁expressed	-11.3084
▁freezer	-11.3085
▁zoom	-11.3087
▁guard	-11.3111
▁singer	-11.3118
ile	-11.3119
▁Remove	-11.3125
▁vintage	-11.3138
▁nationwide	-11.3138
▁pollack	-11.3138
▁fear	-11.3138
proof	-11.3142
▁al	-11.3145
du	-11.3151
▁undergo	-11.3156
▁jobs	-11.3158
▁dip	-11.3161
▁HD	-11.3164
80	-11.3165
▁keys	-11.3165
▁gene	-11.3167
▁departments	-11.3176
▁Gi	-11.3191
▁deluxe	-11.3193
▁lobby	-11.3193
▁jajangmyeon	-11.3193
▁Paris	-11.3193
▁outsole	-11.3193
▁organizing	-11.3193
▁Full	-11.3194
▁Kimchi	-11.3195
▁touches	-11.3206
▁Port	-11.3211
side	-11.3213
▁2%	-11.3227
▁retailers	-11.3233
▁emphasize	-11.3237
▁Big	-11.3239
▁manufactures	-11.3243
▁intend	-11.3243
▁typical	-11.3245
▁tomato	-11.3248
▁evidence	-11.3249
▁unlimited	-11.3249
▁Find	-11.3249
▁induction	-11.3249
▁Thus	-11.3249
▁Never	-11.3249
60	-11.3253
▁Electronics	-11.3254
▁bitter	-11.3256
▁Al	-11.3259
▁Chang	-11.3275
▁apart	-11.3284
ff	-11.3291
▁researching	-11.3293
▁developers	-11.3298
▁origin	-11.3301
▁identity	-11.3304
▁pedal	-11.3304
▁intake	-11.3305
▁secretary	-11.3305
▁viruses	-11.3307
▁pity	-11.3311
▁Tae	-11.3324
▁Hit	-11.3325
▁ho	-11.3329
▁Nam	-11.3329
▁bones	-11.3337
▁accumulate	-11.3349
▁habits	-11.3351
km	-11.3351
▁800	-11.3357
▁peace	-11.336
▁malls	-11.336
▁White	-11.3361
▁elevator	-11.3361
▁steady	-11.3361
▁opposite	-11.3361
▁sewing	-11.3361
▁grass	-11.3363
▁r	-11.3367
▁tech	-11.3372
piece	-11.3373
▁watches	-11.338
▁towels	-11.338
fine	-11.3382
▁arise	-11.3388
ain	-11.3389
▁waited	-11.339
▁greet	-11.3398
▁conversion	-11.3417
▁criteria	-11.3417
▁hanok	-11.3417
▁nutritious	-11.3417
▁escape	-11.3417
▁peak	-11.3417
▁Super	-11.3417
oriented	-11.3417
▁visible	-11.3417
▁cordless	-11.3418
▁incorrectly	-11.3419
▁router	-11.3423
▁solving	-11.3427
,500	-11.3427
ari	-11.3427
▁misunderstand	-11.3441
▁roots	-11.3451
▁stations	-11.3453
▁boast	-11.3453
▁resource	-11.3453
▁rating	-11.3463
▁gums	-11.3473
▁allergies	-11.3474
▁applicable	-11.3474
▁exercising	-11.3474
▁ocean	-11.3474
▁compressor	-11.3475
food	-11.3488
ball	-11.3488
▁shares	-11.3489
▁extracted	-11.3497
▁nuts	-11.3501
000	-11.3504
▁importing	-11.3513
▁none	-11.3524
▁dimensions	-11.3528
▁musical	-11.3531
▁quant	-11.3531
▁imaging	-11.3531
▁kiss	-11.3533
▁crafted	-11.3536
▁banking	-11.3537
▁San	-11.3541
▁exist	-11.3542
▁shapes	-11.3544
▁Y	-11.3545
▁gosh	-11.3548
▁soda	-11.3552
▁bedding	-11.3559
▁route	-11.3563
▁pores	-11.3571
▁rod	-11.3575
▁rotation	-11.3577
▁assemble	-11.3582
▁Greetings	-11.3589
▁Restaurant	-11.3589
▁dancing	-11.3589
▁grew	-11.3589
▁utilization	-11.3589
▁concluded	-11.3594
▁curved	-11.3595
▁360	-11.3596
▁truth	-11.3597
profit	-11.3604
▁risen	-11.3611
cal	-11.3611
▁Jeong	-11.3614
▁dramas	-11.3618
▁se	-11.3628
ology	-11.3634
▁reporting	-11.3635
▁coin	-11.3639
▁Middle	-11.3646
▁Trust	-11.3646
▁gimbap	-11.3646
▁grandmother	-11.3646
▁Rice	-11.3648
▁frames	-11.365
▁awareness	-11.365
▁proceeding	-11.366
io	-11.3661
effective	-11.3661
▁emotions	-11.3663
▁ranking	-11.3673
▁bare	-11.3673
▁enjoyable	-11.3675
ries	-11.3678
▁weekly	-11.3681
▁NFT	-11.3687
▁installment	-11.3691
yl	-11.3694
▁residents	-11.3696
▁organ	-11.3697
▁shut	-11.3704
▁burger	-11.3704
▁chili	-11.3704
▁concert	-11.3704
▁stably	-11.3704
▁economical	-11.371
▁exchanged	-11.3712
▁roughly	-11.3714
▁finest	-11.3717
▁House	-11.3722
▁risks	-11.3731
▁correctly	-11.3731
▁utilize	-11.3735
▁cooker	-11.3736
▁lectures	-11.3738
▁Work	-11.3742
300	-11.3747
▁arrangement	-11.3749
▁develops	-11.375
▁Russia	-11.3755
ern	-11.3756
▁flash	-11.3761
▁ceiling	-11.3763
▁debris	-11.3763
▁vinegar	-11.3763
▁yogurt	-11.3763
▁Create	-11.3763
▁animation	-11.3763
▁VIP	-11.3763
▁integration	-11.3763
▁grams	-11.3764
▁Features	-11.3764
▁90%	-11.3766
▁hassle	-11.3766
▁sweetness	-11.3768
▁congratulate	-11.3773
▁chips	-11.3776
port	-11.3779
ka	-11.3802
▁divide	-11.3803
▁substance	-11.3807
▁cosmetic	-11.3807
▁characteristic	-11.3807
▁laughing	-11.3808
▁tear	-11.3815
▁Celsius	-11.3822
▁tennis	-11.3822
▁ankle	-11.3822
tric	-11.3824
▁favorable	-11.3825
▁Such	-11.3827
▁appeared	-11.3839
▁acids	-11.3855
▁mats	-11.3858
▁setup	-11.3864
▁indicator	-11.3867
▁TVs	-11.387
▁vertical	-11.3877
▁cryptocurrency	-11.3881
▁microscope	-11.3881
▁inflation	-11.3881
▁Ltd	-11.3881
▁chip	-11.3893
▁somehow	-11.39
▁shops	-11.3901
▁commonly	-11.3901
▁hired	-11.3906
▁seedlings	-11.392
400	-11.3921
▁limitations	-11.3925
▁households	-11.393
▁aid	-11.393
yo	-11.3939
▁Information	-11.394
▁Taiwan	-11.394
▁motorcycle	-11.3941
▁haha	-11.3941
▁confidential	-11.3941
ub	-11.3941
▁tower	-11.3942
▁colored	-11.3942
▁leaf	-11.3945
▁exhausted	-11.3947
led	-11.3947
▁packed	-11.3948
▁fryer	-11.3953
▁doors	-11.3953
▁Act	-11.3955
paper	-11.3957
▁remover	-11.3971
▁hundreds	-11.3974
▁bu	-11.3976
▁Je	-11.3982
▁ta	-11.3985
▁LCD	-11.4
▁celebrities	-11.4
▁knitwear	-11.4
▁Whew	-11.4001
▁bars	-11.4001
myeon	-11.4003
▁heads	-11.4005
▁rejected	-11.4007
▁focuses	-11.4009
12	-11.4012
▁48	-11.4016
▁Call	-11.4016
▁activated	-11.4017
▁burn	-11.4028
▁adjusting	-11.4043
▁Ten	-11.4056
▁2-	-11.4056
▁cabinets	-11.406
▁somewhat	-11.4061
▁bomb	-11.4061
▁Exist	-11.4061
▁respectively	-11.4062
▁stayed	-11.4064
▁embarrassing	-11.4065
head	-11.4073
▁Hee	-11.4074
▁bra	-11.4078
▁tourists	-11.4089
▁bro	-11.4091
▁shell	-11.4095
▁hanging	-11.4104
▁conditioners	-11.4113
▁extensive	-11.4117
▁plus	-11.4121
▁earliest	-11.4121
▁lemon	-11.4121
▁umbrella	-11.4121
▁lipstick	-11.4121
▁Run	-11.4123
fer	-11.4126
▁suffered	-11.4131
▁connections	-11.4134
▁tiles	-11.4139
▁notifications	-11.4142
ned	-11.4145
▁transform	-11.4148
▁timer	-11.4156
misunderstanding	-11.4157
▁bringing	-11.4166
ier	-11.4171
▁candidate	-11.4174
▁commission	-11.4174
?"	-11.4177
▁interact	-11.4181
▁strategic	-11.4182
▁battle	-11.4182
▁kalguksu	-11.4182
▁contamination	-11.4184
▁Mother	-11.4185
men	-11.4185
▁dollar	-11.419
atic	-11.419
selling	-11.4191
▁provider	-11.4194
▁bend	-11.4194
▁seek	-11.4197
▁heel	-11.4198
▁backup	-11.4201
capacity	-11.4201
▁density	-11.4217
▁gate	-11.4242
▁horse	-11.4243
▁Hyuk	-11.4244
▁Suddenly	-11.4244
▁collaborating	-11.4244
▁securing	-11.4244
▁unavoidable	-11.4244
▁wore	-11.4244
▁index	-11.4244
▁Hye	-11.4245
▁approximately	-11.4246
▁CD	-11.425
▁intended	-11.4253
▁decorated	-11.4254
large	-11.4264
▁aims	-11.4268
handed	-11.4269
▁servers	-11.4281
▁tonight	-11.4282
▁locally	-11.4284
ink	-11.4287
▁detects	-11.4294
▁softer	-11.4294
▁DNA	-11.4305
▁acquisition	-11.4305
▁harsh	-11.4305
▁negligence	-11.4305
▁primary	-11.4305
▁securities	-11.4305
▁Always	-11.4305
▁suspension	-11.4305
▁Kang	-11.4306
have	-11.4309
▁notebook	-11.4315
▁transmit	-11.4315
▁principles	-11.4321
J	-11.4325
gen	-11.4337
▁AS	-11.4339
▁weekdays	-11.4353
▁wins	-11.4354
uck	-11.436
▁fragrance	-11.4362
▁interfere	-11.4367
▁School	-11.4367
▁welding	-11.4367
▁urban	-11.4367
▁coast	-11.4367
▁apologies	-11.4368
▁layout	-11.4368
▁Pick	-11.4368
▁tableware	-11.4369
▁referring	-11.437
ero	-11.4373
▁secondary	-11.4373
▁skilled	-11.4376
▁Taking	-11.4376
▁sh	-11.4378
sided	-11.4388
box	-11.4389
han	-11.4396
▁skill	-11.4401
▁pumps	-11.4412
▁survive	-11.4418
▁explode	-11.4418
▁worker	-11.4426
▁Except	-11.443
▁temporary	-11.443
▁reverse	-11.443
▁brokerage	-11.443
▁Hanok	-11.443
▁Gold	-11.4432
▁loop	-11.4437
▁hitting	-11.4438
▁harvest	-11.4454
▁fold	-11.4456
▁Save	-11.4467
▁ham	-11.4478
rain	-11.448
▁blankets	-11.4488
▁adventure	-11.449
▁aspect	-11.4491
▁tenant	-11.4492
▁toast	-11.4492
▁scientific	-11.4493
▁comply	-11.4493
▁frustrating	-11.4493
▁sausage	-11.4493
▁palm	-11.4493
▁retirement	-11.4493
▁Human	-11.4493
▁BPA	-11.4493
▁farms	-11.4494
▁flag	-11.4494
▁awards	-11.4498
▁airline	-11.4501
ach	-11.4508
▁insist	-11.4509
effectiveness	-11.4514
▁producer	-11.4515
▁blocked	-11.4515
so	-11.4516
▁motors	-11.4522
▁knee	-11.4522
▁neutral	-11.4527
▁spill	-11.4528
▁bedrooms	-11.4529
▁conditioning	-11.4531
▁marks	-11.4551
books	-11.4554
▁500,000	-11.4555
▁System	-11.4556
▁Association	-11.4556
▁denim	-11.4556
▁recipient	-11.4556
▁taught	-11.4556
▁division	-11.4556
▁appreciation	-11.4556
▁braised	-11.4556
▁Vice	-11.4557
▁stain	-11.4557
▁collision	-11.4558
▁wise	-11.4563
▁gathered	-11.4572
touch	-11.4578
▁breathe	-11.4579
45	-11.4582
night	-11.4596
▁projector	-11.4598
▁borrow	-11.46
▁Pre	-11.4607
▁dispatch	-11.4612
yang	-11.4617
▁helmet	-11.462
▁Drug	-11.462
▁intelligent	-11.462
▁plain	-11.462
▁quiz	-11.462
▁cabinet	-11.462
▁reasonably	-11.4621
▁screw	-11.4621
▁duty	-11.4627
▁cleanly	-11.4633
▁theft	-11.4633
▁sticks	-11.4633
▁Ye	-11.4635
▁writers	-11.4636
▁installments	-11.4638
▁mug	-11.4646
▁mounting	-11.4651
hi	-11.4654
▁bi	-11.4655
▁sometime	-11.4663
▁Le	-11.4672
▁additives	-11.4676
▁ambiguous	-11.4684
▁struggling	-11.4684
▁scanning	-11.4684
▁bookstore	-11.4684
▁Chi	-11.4684
▁composed	-11.4685
▁carpet	-11.4685
▁gloss	-11.4686
▁Ideal	-11.4689
▁Solar	-11.4696
▁Ja	-11.4696
▁rented	-11.4697
▁officials	-11.4698
▁evaluated	-11.4699
▁stressed	-11.4713
▁knowing	-11.4718
▁funding	-11.4731
▁Indonesia	-11.474
cor	-11.4748
▁correspond	-11.4748
▁Support	-11.4748
▁bodies	-11.4748
▁promising	-11.4748
▁stationery	-11.4748
▁noisy	-11.4748
▁flip	-11.4748
▁boring	-11.4749
▁tent	-11.4751
▁cuts	-11.4759
lin	-11.4761
▁liters	-11.477
▁lawn	-11.4771
▁manually	-11.4773
▁regards	-11.4786
▁grind	-11.4787
▁rely	-11.4788
▁silicon	-11.4811
▁Has	-11.4812
▁Life	-11.4813
▁Group	-11.4813
▁challenges	-11.4813
▁century	-11.4813
▁mafia	-11.4813
▁residue	-11.4813
▁summary	-11.4813
▁verify	-11.4813
▁absence	-11.4813
▁boom	-11.4814
▁dating	-11.4814
▁mint	-11.4814
▁foldable	-11.4815
▁booklet	-11.4816
▁greenhouse	-11.4816
living	-11.4817
▁instruction	-11.4818
▁academic	-11.4818
▁firmly	-11.4824
▁converted	-11.4826
▁judged	-11.4829
▁leads	-11.4829
ups	-11.4835
▁ba	-11.4845
▁w	-11.485
▁stops	-11.485
▁dolls	-11.4851
▁internationally	-11.4857
cur	-11.4866
▁refuse	-11.4867
▁desire	-11.4867
▁connects	-11.4867
▁bibimbap	-11.4879
▁cleanliness	-11.4879
▁comparison	-11.4879
▁mechanism	-11.4879
▁survival	-11.4879
▁utensils	-11.4879
▁shiny	-11.4879
▁slippers	-11.4879
▁intermediate	-11.4879
▁dropped	-11.4879
▁Previously	-11.4879
▁disrupted	-11.4882
▁extinguisher	-11.4882
▁Along	-11.4883
▁toward	-11.4884
ail	-11.4889
▁powered	-11.4905
bong	-11.4909
▁boards	-11.4911
▁Market	-11.4925
▁curtains	-11.4925
▁crack	-11.4926
cut	-11.4933
▁roads	-11.4937
▁decreases	-11.494
▁trap	-11.4944
▁categories	-11.4944
▁jealous	-11.4944
▁fermentation	-11.4945
▁hiring	-11.4945
▁swing	-11.4945
▁cookware	-11.4945
▁linen	-11.4946
▁mattresses	-11.4947
▁chin	-11.4949
▁technique	-11.4951
▁generator	-11.4951
▁boy	-11.4954
▁dig	-11.4955
▁utilized	-11.4958
▁cushions	-11.4958
▁consumed	-11.4965
temperature	-11.4968
▁labels	-11.4971
bit	-11.4976
▁founded	-11.498
▁gathering	-11.4984
▁n	-11.4987
▁bowls	-11.4989
▁arranged	-11.4989
▁choices	-11.5007
▁Street	-11.5011
▁friction	-11.5011
▁mobility	-11.5011
▁releasing	-11.5011
▁injury	-11.5011
▁Desp	-11.5012
▁footage	-11.5012
▁jam	-11.5012
▁Connect	-11.5014
▁accountant	-11.5016
▁Order	-11.502
ign	-11.5023
tang	-11.5024
▁joining	-11.5029
▁infants	-11.5032
▁arts	-11.5033
▁listing	-11.5035
▁Done	-11.5039
ification	-11.5041
▁forced	-11.5044
▁Pi	-11.5076
▁Video	-11.5077
▁allergic	-11.5077
▁consecutive	-11.5077
▁fantastic	-11.5077
▁hypoallergenic	-11.5077
▁lawyer	-11.5077
▁lifespan	-11.5077
▁native	-11.5078
▁patch	-11.5081
▁300,000	-11.5083
▁fibers	-11.5083
▁Multi	-11.5086
▁pig	-11.5093
▁discharged	-11.5094
▁comb	-11.5105
▁joints	-11.5114
▁Sam	-11.5115
▁beard	-11.5115
▁180	-11.5133
▁contained	-11.5135
▁Health	-11.514
▁Kind	-11.5141
▁Gwang	-11.5144
▁clarify	-11.5144
▁false	-11.5144
▁nuclear	-11.5144
▁shame	-11.5144
▁suspicious	-11.5144
▁syrup	-11.5144
▁Room	-11.5145
▁Beach	-11.5145
▁protecting	-11.5145
▁bulletin	-11.5146
▁Additionally	-11.5149
56	-11.5153
▁magnet	-11.5153
▁excuse	-11.5155
▁washable	-11.5155
▁Yong	-11.516
▁recipes	-11.5162
▁arrangements	-11.5163
▁sticker	-11.5167
▁birds	-11.5168
commerce	-11.5169
▁sprouts	-11.5172
▁wings	-11.5186
▁Change	-11.5188
▁peel	-11.5189
▁bin	-11.519
▁sl	-11.5197
▁grows	-11.5199
▁meticulous	-11.5208
hyun	-11.5209
▁surfaces	-11.5211
▁Protect	-11.5211
▁Hopefully	-11.5212
▁jeans	-11.5212
▁journal	-11.5212
▁basketball	-11.5212
▁brothers	-11.5213
▁floss	-11.5213
▁tomatoes	-11.5214
▁diabetes	-11.5214
▁2-3	-11.5216
▁specialty	-11.5218
▁Hav	-11.5223
▁habit	-11.5224
▁softness	-11.5225
▁rainy	-11.5225
▁tightly	-11.5228
cc	-11.5228
▁spending	-11.523
▁Whoo	-11.5236
▁pitch	-11.5236
▁chewing	-11.5237
▁promotions	-11.5239
89	-11.5244
▁pushed	-11.5245
▁explaining	-11.5247
▁repeat	-11.5248
Hz	-11.525
▁hem	-11.5261
work	-11.5266
▁warming	-11.5276
▁CPU	-11.528
▁Tokyo	-11.528
▁compound	-11.528
▁cradle	-11.528
▁crew	-11.528
▁purple	-11.528
▁salon	-11.528
▁kidding	-11.528
▁jewelry	-11.528
▁Baby	-11.528
▁compression	-11.528
▁Goodbye	-11.5281
▁implementation	-11.5283
▁basement	-11.5283
▁smoking	-11.5292
▁vaccines	-11.5295
▁tab	-11.5304
stick	-11.5308
▁reminder	-11.5319
▁Listen	-11.5329
▁scents	-11.5335
▁Electric	-11.5348
eputy	-11.5348
▁charcoal	-11.5349
▁margin	-11.5349
▁serum	-11.5349
▁specify	-11.5349
▁stimulate	-11.5349
▁volleyball	-11.5349
▁gonna	-11.5349
▁Watch	-11.5349
▁River	-11.5349
▁Users	-11.5354
▁civil	-11.5357
▁j	-11.536
▁institution	-11.5361
▁tale	-11.5364
▁turbines	-11.5368
▁pollutants	-11.5372
▁Jun	-11.5374
▁claims	-11.5375
pping	-11.5376
▁fixing	-11.5379
▁Ki	-11.538
ction	-11.5381
▁zip	-11.5381
▁broadcasts	-11.539
▁metals	-11.5392
▁observe	-11.5406
▁sleeves	-11.5406
ase	-11.5407
▁Overseas	-11.5417
▁SUV	-11.5417
▁antenna	-11.5417
▁scenario	-11.5417
▁sleek	-11.5417
▁warehousing	-11.5417
▁yield	-11.5417
▁freedom	-11.5418
▁simulation	-11.5418
▁Help	-11.5418
▁lung	-11.5418
▁00	-11.5418
▁bow	-11.5418
▁candy	-11.5421
▁systematic	-11.5422
▁detector	-11.5424
▁dispatched	-11.5426
▁absorbed	-11.5431
▁calculation	-11.5433
▁investor	-11.5441
▁entirely	-11.5446
▁Bu	-11.5446
▁additionally	-11.5458
▁Dog	-11.5478
▁lever	-11.5484
▁poster	-11.5485
▁Meanwhile	-11.5487
▁statistics	-11.5487
▁historical	-11.5487
▁portability	-11.5488
▁downtown	-11.5488
▁assume	-11.5488
▁analog	-11.5488
▁underway	-11.5491
▁cutter	-11.5492
▁feelings	-11.5493
▁rarely	-11.5493
▁posts	-11.5501
▁refunded	-11.5522
▁filmed	-11.553
▁kilograms	-11.553
▁stat	-11.5544
▁Built	-11.5557
▁distributing	-11.5557
▁ridiculous	-11.5557
▁attempt	-11.5557
▁leakage	-11.5557
▁alert	-11.5558
▁soothing	-11.5562
▁pose	-11.5562
pu	-11.5564
▁bid	-11.557
cho	-11.557
▁compartment	-11.5576
▁deeper	-11.5578
▁combin	-11.5582
aging	-11.5585
800	-11.5586
▁extending	-11.5593
▁authentic	-11.5596
▁drops	-11.5598
▁enhanced	-11.5598
pil	-11.5614
▁sandwich	-11.5626
▁structures	-11.5627
▁cartoon	-11.5627
▁dormitory	-11.5627
▁philosophy	-11.5627
▁rope	-11.5627
win	-11.5628
▁freeze	-11.5631
▁personalized	-11.5633
▁reinforced	-11.5634
▁locations	-11.5637
AS	-11.5637
▁revealed	-11.5638
▁brings	-11.5638
lar	-11.564
▁36	-11.5641
▁peppers	-11.5642
▁Pet	-11.5646
▁yard	-11.5648
▁bubble	-11.5648
▁curtain	-11.5648
▁workout	-11.566
▁pretend	-11.5679
▁accord	-11.5679
▁attended	-11.5679
▁decorate	-11.5687
▁warehouses	-11.5694
▁pajamas	-11.5695
▁bold	-11.5695
▁Contact	-11.5698
▁Mobile	-11.5698
▁agriculture	-11.5698
▁crime	-11.5698
▁diagnostic	-11.5698
▁gauge	-11.5698
▁metabus	-11.5698
▁nowadays	-11.5698
▁oriental	-11.5698
▁utility	-11.5698
▁minor	-11.5698
▁expressions	-11.5702
▁concentrated	-11.5708
▁representatives	-11.5714
ax	-11.5719
▁algorithm	-11.572
▁token	-11.5721
▁cookies	-11.5727
▁intestines	-11.5737
▁warmly	-11.5738
our	-11.5739
▁herbs	-11.5757
▁preserve	-11.5758
▁singing	-11.5759
▁surprising	-11.5766
▁recall	-11.5767
kook	-11.577
▁Simply	-11.577
▁facilitate	-11.577
▁outsourcing	-11.577
▁visibility	-11.577
▁Dream	-11.577
▁forecast	-11.577
▁lay	-11.577
▁glow	-11.577
▁connectivity	-11.577
▁authority	-11.5771
▁portion	-11.5773
▁cater	-11.5776
▁baked	-11.5778
▁climbing	-11.5783
25	-11.5784
▁folder	-11.5788
car	-11.5791
▁episode	-11.5793
▁chopsticks	-11.5796
▁Ca	-11.5797
▁mountains	-11.5799
▁breathing	-11.5804
▁hip	-11.5829
▁dreams	-11.5829
▁villa	-11.5839
▁Nigeria	-11.5842
▁Professor	-11.5842
▁completing	-11.5842
▁computing	-11.5842
▁cried	-11.5842
▁expedite	-11.5842
▁gender	-11.5842
▁judgment	-11.5842
▁Excellent	-11.5842
▁electromagnetic	-11.5842
▁Unnie	-11.5843
▁healthier	-11.5844
▁encountered	-11.585
▁mussels	-11.5859
▁thicker	-11.586
▁earphone	-11.5867
▁Mrs	-11.5871
▁Jo	-11.5875
▁pace	-11.5887
▁dryers	-11.589
▁bubbles	-11.5893
▁encounter	-11.5906
▁straw	-11.5914
▁automotive	-11.5914
▁criminal	-11.5914
▁crowdfunding	-11.5914
▁styling	-11.5914
▁threw	-11.5914
▁padding	-11.5914
▁grasp	-11.5915
▁reflecting	-11.5915
▁brighten	-11.5917
high	-11.5918
▁donation	-11.5923
▁oily	-11.5925
▁amounts	-11.5926
▁ports	-11.5927
▁tasted	-11.5936
▁Aside	-11.5936
▁sport	-11.5938
▁capsule	-11.5941
▁cafes	-11.5943
▁wirelessly	-11.5954
▁dyeing	-11.5962
▁involve	-11.5975
▁timely	-11.5978
▁kits	-11.598
▁stickers	-11.598
▁names	-11.5984
▁loyal	-11.5987
▁contribution	-11.5987
▁dementia	-11.5987
▁plaque	-11.5987
▁routine	-11.5987
▁sponge	-11.5987
▁Remember	-11.5987
▁vest	-11.5988
▁Micro	-11.5989
▁unlikely	-11.5993
▁Ex	-11.5993
▁drives	-11.5995
▁ongoing	-11.6001
▁beginner	-11.6016
▁achievement	-11.6018
ger	-11.6019
▁manners	-11.6019
▁sang	-11.6023
▁searching	-11.6024
▁van	-11.6024
▁officer	-11.6032
▁math	-11.6034
▁Contain	-11.6037
shi	-11.6038
jang	-11.6043
▁loading	-11.6046
▁symbol	-11.6053
The	-11.6057
rim	-11.6058
▁occasion	-11.606
▁GPU	-11.6061
▁assurance	-11.6061
▁collagen	-11.6061
▁ecosystem	-11.6061
▁punk	-11.6061
▁structural	-11.6061
▁suction	-11.6061
▁acts	-11.6062
▁classroom	-11.6062
ake	-11.6063
▁coach	-11.6065
▁precisely	-11.6069
▁cow	-11.6069
▁ample	-11.607
▁Head	-11.6071
▁considerable	-11.6075
▁Move	-11.6076
▁magic	-11.6082
▁kindness	-11.6085
▁covering	-11.6086
1"	-11.6087
▁bathrooms	-11.6088
▁fingerprint	-11.6091
density	-11.6092
▁glove	-11.6092
size	-11.6093
▁wound	-11.6096
▁demanding	-11.6096
▁discover	-11.6103
▁named	-11.6106
pack	-11.6112
▁molding	-11.6113
▁finalize	-11.6126
ek	-11.6129
▁vessels	-11.6129
▁hood	-11.6131
▁random	-11.6131
▁Follow	-11.6135
▁frustrated	-11.6135
▁hobby	-11.6135
▁conflict	-11.6135
▁profitable	-11.6142
▁discussions	-11.6142
▁hacking	-11.6147
▁bicycles	-11.6147
ko	-11.6148
row	-11.6148
▁Dry	-11.615
▁Price	-11.6151
▁upside	-11.6152
▁enterprise	-11.6166
▁hanger	-11.6178
▁faces	-11.6182
▁rolling	-11.6194
▁Hm	-11.6195
▁acquire	-11.62
▁exhaust	-11.6201
▁intuitive	-11.6206
▁la	-11.6209
▁attitude	-11.6209
▁duration	-11.6209
▁fifth	-11.6209
▁surgical	-11.6209
▁encryption	-11.6209
▁bakery	-11.621
▁Eye	-11.6211
▁obviously	-11.6215
▁MRI	-11.6216
▁screening	-11.6217
▁coal	-11.6225
▁ads	-11.6228
life	-11.6229
▁striv	-11.623
stop	-11.6231
▁virtually	-11.6231
▁variable	-11.6243
▁corporation	-11.6243
band	-11.6244
▁licensed	-11.6253
▁wig	-11.6254
▁spoons	-11.6263
▁Indian	-11.6263
▁fingers	-11.6266
▁basics	-11.6269
▁repairs	-11.6269
▁rolls	-11.6274
▁fool	-11.6276
▁Chicken	-11.6284
▁Control	-11.6284
▁arriving	-11.6284
▁itinerary	-11.6284
▁probability	-11.6284
▁tumbler	-11.6284
▁Overall	-11.6284
▁Small	-11.6284
▁bacon	-11.6285
▁PDF	-11.6285
▁Hahaha	-11.6285
▁tractor	-11.6285
▁2019	-11.6286
▁Mix	-11.6288
▁goodbye	-11.6289
▁consistently	-11.629
▁Hu	-11.6296
▁shabu	-11.6298
▁lacking	-11.6301
oc	-11.6307
power	-11.6308
▁bonds	-11.6309
▁gra	-11.6311
▁Play	-11.6338
▁responses	-11.6342
▁Hall	-11.6344
▁reject	-11.6351
▁corners	-11.6354
set	-11.6355
only	-11.6358
▁opt	-11.6359
▁Digital	-11.636
▁John	-11.636
▁bonus	-11.636
▁negotiating	-11.636
▁shaving	-11.636
▁vinyl	-11.636
▁dramatically	-11.636
▁rotating	-11.636
▁starch	-11.6361
▁scenery	-11.6362
▁pickled	-11.6362
▁2016	-11.6362
▁enabl	-11.6366
bin	-11.6371
▁targeting	-11.638
▁makers	-11.6389
▁El	-11.6393
down	-11.6393
▁element	-11.6397
▁former	-11.6412
▁strengths	-11.6413
ious	-11.6424
really	-11.6425
quipped	-11.6433
▁stocked	-11.6436
▁Industrial	-11.6437
▁Thanksgiving	-11.6437
▁boyfriend	-11.6437
▁buckle	-11.6437
▁tremendous	-11.6437
▁burst	-11.6437
▁lactobacillus	-11.6437
▁livestock	-11.6437
▁harmless	-11.6438
▁skincare	-11.6438
▁spraying	-11.6442
vid	-11.6447
▁explanations	-11.6452
▁bo	-11.6454
▁environmentally	-11.6462
▁downloaded	-11.647
▁trucks	-11.647
▁pancake	-11.6475
▁command	-11.6477
yu	-11.6481
pan	-11.6482
▁crop	-11.6483
log	-11.6484
▁forth	-11.6493
▁distinguish	-11.6505
▁Natural	-11.651
▁Office	-11.651
▁objective	-11.6511
▁Already	-11.6513
▁Slowly	-11.6513
▁fortune	-11.6513
▁stairs	-11.6513
▁strawberries	-11.6513
▁varieties	-11.6513
▁issuance	-11.6513
▁residence	-11.6514
▁indeed	-11.6514
▁smartwatch	-11.6514
▁Color	-11.6515
▁Fine	-11.6516
▁views	-11.6517
▁torn	-11.6518
▁controlling	-11.652
▁adopted	-11.6521
▁concepts	-11.6535
▁slot	-11.6544
▁55	-11.6544
aged	-11.6546
▁genes	-11.655
▁uncle	-11.6554
▁envelope	-11.6554
▁disaster	-11.6554
▁decade	-11.6555
▁heated	-11.6556
▁fart	-11.6572
▁Non	-11.6586
▁incorporate	-11.6586
▁cl	-11.6588
rise	-11.659
▁Android	-11.6591
▁accelerate	-11.6591
ular	-11.6591
▁Phew	-11.6591
▁consent	-11.6591
▁unconditionally	-11.6592
▁poly	-11.6594
seong	-11.6598
▁described	-11.6601
▁gamers	-11.6601
▁sealed	-11.6604
▁lasting	-11.6606
▁melt	-11.6608
▁strengthened	-11.6611
▁Ti	-11.6612
▁weigh	-11.6614
▁citizens	-11.6615
▁contractor	-11.6625
▁Mu	-11.6631
▁parent	-11.6635
▁soak	-11.6639
▁preparations	-11.6645
▁exporter	-11.6645
1,000	-11.6648
making	-11.6651
mun	-11.6652
▁acknowledge	-11.6657
▁advise	-11.6657
▁AM	-11.6659
▁experiments	-11.6661
▁Old	-11.6666
read	-11.6668
▁JIHYO	-11.6669
▁aesthetic	-11.6669
▁creativity	-11.6669
▁default	-11.6669
▁identification	-11.6669
▁lyrics	-11.6669
▁pilot	-11.6669
▁samgyetang	-11.6669
▁bracelet	-11.6669
▁torque	-11.6669
▁Gangwon	-11.6669
▁wrapped	-11.667
▁Raise	-11.6672
6%	-11.6674
▁editor	-11.6675
stage	-11.6678
▁seasonal	-11.6678
▁leaks	-11.6681
▁pushing	-11.6683
ob	-11.6685
▁imports	-11.6695
guk	-11.6695
ient	-11.6702
cost	-11.6709
▁appliance	-11.6714
rate	-11.6716
▁strengthening	-11.6717
▁remodel	-11.672
▁experimental	-11.6732
▁congratulat	-11.6734
▁investigate	-11.6736
ark	-11.6737
▁generators	-11.674
▁versions	-11.6742
ick	-11.6745
▁horizontal	-11.6747
▁balloon	-11.6748
▁earthquake	-11.6748
▁gopchang	-11.6748
▁queries	-11.6748
▁rescue	-11.6748
▁bored	-11.6748
▁thermometer	-11.6748
▁rooftop	-11.6748
▁ownership	-11.6749
▁prohibited	-11.675
▁medal	-11.6751
▁spots	-11.6751
▁Best	-11.6766
▁catering	-11.6769
spec	-11.677
▁grinding	-11.6772
list	-11.6772
▁u	-11.6778
▁recommending	-11.678
igh	-11.678
▁catalogs	-11.6791
▁waterproofing	-11.6794
▁sprout	-11.6794
▁casting	-11.6796
▁searched	-11.6798
▁disappoint	-11.6799
layer	-11.6812
▁keyboards	-11.6819
▁pots	-11.6827
▁transit	-11.6827
▁Premium	-11.6827
▁Several	-11.6827
▁Type	-11.6827
▁accompany	-11.6827
▁bracket	-11.6827
▁captain	-11.6827
▁flesh	-11.6827
▁journey	-11.6827
▁scooter	-11.6827
▁unusual	-11.6827
▁river	-11.6827
▁Kyung	-11.6827
▁committed	-11.6827
▁Excel	-11.6831
▁MC	-11.6834
▁forever	-11.6835
▁websites	-11.6837
▁strictly	-11.6839
▁emailed	-11.684
▁matches	-11.684
▁African	-11.6844
▁imp	-11.6852
▁extracts	-11.6854
▁emit	-11.6859
degree	-11.6865
▁pm	-11.6876
▁350	-11.6878
▁mill	-11.6882
80,000	-11.6882
▁conversations	-11.6885
▁effectiveness	-11.6887
ual	-11.6887
gil	-11.6888
▁65	-11.6894
▁bouquet	-11.6907
▁chronic	-11.6907
▁cyber	-11.6907
▁fossil	-11.6907
▁purification	-11.6907
▁volunteer	-11.6907
▁shuttle	-11.6907
▁telephone	-11.6907
▁Almost	-11.6907
▁Self	-11.6907
▁interactive	-11.6908
▁revision	-11.6908
▁Below	-11.6908
▁automated	-11.6912
wan	-11.6923
▁demo	-11.6926
iva	-11.6929
▁highway	-11.6929
▁infrared	-11.693
▁uploaded	-11.6931
▁confidently	-11.6937
▁salted	-11.6947
▁fishy	-11.6948
▁junior	-11.6957
▁minimized	-11.6961
▁wipes	-11.6965
▁Ju	-11.6967
▁donate	-11.6968
▁groom	-11.6969
▁Li	-11.6969
▁memorize	-11.6976
▁demonstrate	-11.6976
▁delete	-11.6976
▁King	-11.6976
ric	-11.698
ify	-11.6981
▁clinic	-11.6985
ler	-11.6987
▁Double	-11.6988
▁annoyed	-11.6988
▁circle	-11.6988
▁squeeze	-11.6988
▁aggressive	-11.6988
▁stereo	-11.6988
▁ultrasonic	-11.6988
▁Sungrok	-11.6988
▁disinfectant	-11.6988
▁sundae	-11.6988
▁dentist	-11.6988
▁Fair	-11.6988
▁tempered	-11.6993
▁glossy	-11.6993
ui	-11.7
3,000	-11.701
▁distributors	-11.701
▁semiconductors	-11.7013
▁tears	-11.7015
▁pulled	-11.7021
▁statements	-11.7021
▁workbook	-11.7021
▁certificates	-11.7025
▁preferences	-11.7025
electric	-11.7027
resolution	-11.7027
▁overtime	-11.7035
▁1,500	-11.7036
▁bird	-11.7041
ay	-11.7045
ib	-11.7047
ple	-11.7055
▁optimize	-11.7061
▁Inter	-11.7069
▁Canadian	-11.7069
▁Hospital	-11.7069
▁challenging	-11.7069
▁germs	-11.7069
▁naengmyeon	-11.7069
▁semester	-11.7069
▁polymer	-11.7069
▁welcoming	-11.7069
▁bidding	-11.7069
▁accessibility	-11.707
▁traded	-11.707
▁mining	-11.7071
▁insole	-11.7071
▁USD	-11.7071
▁OEM	-11.7074
▁shots	-11.7074
▁engaged	-11.7076
▁60%	-11.7077
▁complained	-11.7083
▁Seong	-11.7088
▁wraps	-11.7089
fit	-11.7089
▁films	-11.709
top	-11.71
▁33	-11.71
▁pigments	-11.7112
▁lineup	-11.7113
▁scrap	-11.7118
▁vendor	-11.7124
▁desserts	-11.7125
▁liter	-11.7134
▁damages	-11.7135
▁advisor	-11.7147
jeong	-11.7148
▁researcher	-11.7149
▁spreading	-11.715
▁Star	-11.7151
▁Detaile	-11.7151
▁comparing	-11.7151
▁elsewhere	-11.7151
▁kidney	-11.7151
▁medicinal	-11.7151
▁principal	-11.7151
▁welfare	-11.7151
▁tongue	-11.7151
▁chemistry	-11.7151
▁banner	-11.7151
▁Apple	-11.7152
▁interaction	-11.7152
▁authentication	-11.7152
▁simultaneously	-11.7152
▁knees	-11.7153
▁hospitality	-11.7155
▁constructed	-11.7156
▁portal	-11.7163
▁excluded	-11.7167
▁meant	-11.7168
fish	-11.7172
▁acceptable	-11.7172
▁bond	-11.718
▁Close	-11.7183
▁patents	-11.7184
▁derived	-11.7186
▁fairly	-11.7187
jo	-11.7187
▁clearer	-11.7188
purpose	-11.7191
▁shade	-11.7207
▁infant	-11.7208
▁longest	-11.721
come	-11.7211
▁si	-11.7228
▁icon	-11.7234
▁deciding	-11.7234
▁emerging	-11.7234
▁karaoke	-11.7234
▁sensibility	-11.7234
▁Corona	-11.7234
▁copier	-11.7234
▁snap	-11.7234
▁flagship	-11.7234
▁recruitment	-11.7234
▁fever	-11.7234
zz	-11.7235
▁beta	-11.7236
▁photography	-11.7237
▁cylinder	-11.7239
▁performing	-11.7241
▁Reduce	-11.7245
▁Whatever	-11.725
fu	-11.7253
▁40,000	-11.726
▁boiler	-11.7282
▁presents	-11.7289
▁tile	-11.7293
que	-11.7299
▁activate	-11.7306
▁leisure	-11.7313
▁British	-11.7317
▁Companies	-11.7317
▁elaborate	-11.7317
▁fragile	-11.7317
▁nickname	-11.7317
▁piston	-11.7317
▁sashimi	-11.7317
▁unfair	-11.7317
▁oxide	-11.7317
▁sodium	-11.7317
▁auction	-11.7317
▁hygienically	-11.7317
▁vitality	-11.7317
▁shout	-11.7318
▁border	-11.7318
▁Series	-11.7318
▁greedy	-11.7318
▁steering	-11.732
▁extraction	-11.7321
▁4-	-11.7322
▁detached	-11.7322
▁Game	-11.7325
▁actors	-11.7325
▁examples	-11.7326
tter	-11.7327
▁candidates	-11.7329
ever	-11.7332
▁na	-11.7336
stro	-11.7344
▁securely	-11.7345
▁vendors	-11.7345
▁pens	-11.7346
j	-11.7348
▁trained	-11.7348
▁optional	-11.7348
20,000	-11.735
▁begun	-11.7362
▁remembered	-11.7369
we	-11.7377
▁instructor	-11.7377
▁fertilizer	-11.7378
▁spoke	-11.7393
uick	-11.7398
▁abnormal	-11.74
▁compromise	-11.7401
▁malfunction	-11.7401
▁renovation	-11.7401
▁terrace	-11.7401
▁molecular	-11.7401
▁Chuseok	-11.7401
▁Cloud	-11.7401
▁backrest	-11.7401
▁Management	-11.7401
▁hostel	-11.7403
▁toothbrushes	-11.7406
▁25%	-11.741
▁successor	-11.741
qui	-11.7412
▁edges	-11.7412
▁Oil	-11.742
▁4,000	-11.7422
▁dealer	-11.7433
▁earrings	-11.7447
▁ra	-11.7451
ook	-11.7453
▁boot	-11.7465
▁memo	-11.7467
▁bugs	-11.7471
▁distributes	-11.7472
▁drawer	-11.7473
▁surge	-11.7473
▁concentrate	-11.7474
▁definite	-11.7482
▁elder	-11.7482
▁reache	-11.7486
▁Details	-11.7486
▁Pork	-11.7486
▁Strong	-11.7486
▁Travel	-11.7486
▁calculating	-11.7486
▁injured	-11.7486
▁lonely	-11.7486
▁trigger	-11.7486
▁domain	-11.7486
▁Reply	-11.7486
▁accidentally	-11.7487
▁restricted	-11.7488
▁App	-11.7489
inous	-11.749
▁surprisingly	-11.749
▁fusion	-11.7492
▁deepen	-11.7492
▁Pass	-11.7492
▁script	-11.7493
▁tones	-11.7494
▁Bar	-11.7496
▁disappeared	-11.75
▁Love	-11.7505
▁augmented	-11.7506
▁cleaners	-11.751
workers	-11.7514
▁travelers	-11.7519
▁Lim	-11.7519
ose	-11.7529
▁bulky	-11.754
ik	-11.7548
▁lend	-11.7555
und	-11.7562
▁adopt	-11.7562
▁insights	-11.7566
▁condominium	-11.7571
▁goosebumps	-11.7571
▁illegal	-11.7571
▁sync	-11.7571
▁minus	-11.7571
▁comedian	-11.7571
▁statistical	-11.7571
▁silent	-11.7571
▁contrary	-11.7571
▁laid	-11.7572
▁strengthens	-11.7572
▁consultant	-11.7573
▁pray	-11.7574
▁woke	-11.7576
▁costume	-11.758
▁bass	-11.7581
▁harvested	-11.7583
▁sensitivity	-11.7584
▁Inside	-11.7593
▁huh	-11.7593
▁pear	-11.7595
▁mm	-11.7605
iness	-11.7606
arm	-11.7609
▁measurements	-11.7614
▁burdened	-11.7617
▁inhibit	-11.762
99	-11.7621
▁scientists	-11.7626
▁rotate	-11.7627
▁bump	-11.7637
rtificial	-11.764
▁Olympics	-11.7648
▁lively	-11.765
▁Being	-11.7656
▁screws	-11.7656
▁blank	-11.7658
▁Entertainment	-11.7658
▁dissatisfied	-11.7658
▁mower	-11.7658
▁practicing	-11.7658
▁punch	-11.7658
▁tasting	-11.7658
▁Shopping	-11.7658
▁deformation	-11.7658
▁Kids	-11.7658
▁passport	-11.7658
▁Music	-11.7659
▁sterilizer	-11.7662
▁Durable	-11.7664
▁digit	-11.7667
▁greeting	-11.7668
hand	-11.7671
▁pills	-11.7674
eo	-11.7678
▁ga	-11.7678
▁su	-11.7683
▁broker	-11.7683
▁exceeds	-11.7688
▁decades	-11.7699
mul	-11.7703
▁IP	-11.7705
▁organizer	-11.7705
sun	-11.773
▁decorations	-11.7731
▁humid	-11.7744
▁jelly	-11.7744
▁scoop	-11.7745
▁adverse	-11.7745
▁blockchain	-11.7745
▁typhoon	-11.7745
▁vast	-11.7745
▁teenagers	-11.7745
▁outerwear	-11.7745
▁literally	-11.7745
▁resend	-11.7745
▁breakdown	-11.7745
▁fatty	-11.7746
▁showcase	-11.7746
▁sta	-11.7748
▁throwing	-11.775
hydrate	-11.775
▁moisturizer	-11.775
run	-11.7751
▁inspected	-11.776
▁deserve	-11.7764
▁advertised	-11.7771
▁subscribed	-11.7773
▁slacks	-11.7776
bed	-11.7777
▁preservatives	-11.7781
▁sprayed	-11.7784
It	-11.7785
▁ovens	-11.7791
tune	-11.7796
▁mixer	-11.7802
▁depart	-11.7804
PS	-11.7805
▁seniors	-11.7805
▁microphones	-11.7808
▁AR	-11.7812
▁surround	-11.7813
▁weapon	-11.7816
▁satellites	-11.7818
▁replenish	-11.7824
uality	-11.7826
▁bullet	-11.783
▁DVD	-11.7832
▁SBS	-11.7832
▁anxious	-11.7832
▁cardigan	-11.7832
▁clarity	-11.7832
▁consignment	-11.7832
▁flustered	-11.7832
▁sightseeing	-11.7832
▁SSD	-11.7832
▁Shoot	-11.7832
▁freezing	-11.7832
▁flap	-11.7832
▁sushi	-11.7832
▁actions	-11.7834
▁stopping	-11.7835
▁Building	-11.7839
▁instantly	-11.7842
▁critical	-11.7849
▁stranger	-11.7859
▁burning	-11.7861
▁networking	-11.7863
▁creators	-11.7873
▁rap	-11.7873
▁proposals	-11.7878
depth	-11.7878
▁km	-11.788
▁minimiz	-11.7891
▁mist	-11.7892
▁entertain	-11.7905
▁shave	-11.7906
▁robust	-11.792
▁Ultra	-11.792
▁spark	-11.7921
▁exception	-11.7921
▁Refund	-11.7921
▁abilities	-11.7921
▁clarification	-11.7921
▁drank	-11.7921
▁loving	-11.7921
▁synergy	-11.7921
▁Large	-11.7921
▁Pull	-11.7921
▁Stand	-11.7921
▁optimization	-11.7921
▁idol	-11.7921
▁underground	-11.7921
▁Gasp	-11.7921
watt	-11.7921
▁formulated	-11.7922
▁vent	-11.7922
▁99%	-11.7922
▁cancelled	-11.7922
▁unknown	-11.7923
▁compressed	-11.7925
▁lamps	-11.7928
▁switches	-11.7929
▁ending	-11.7934
bal	-11.7936
▁restored	-11.7944
▁collector	-11.7946
▁condo	-11.7949
▁beautifully	-11.7953
specific	-11.796
angle	-11.7962
▁relaxing	-11.7974
sung	-11.7978
▁pointed	-11.799
▁2.5	-11.7993
▁passenger	-11.7997
▁describe	-11.7998
▁tilt	-11.8002
600	-11.8008
▁Push	-11.801
▁bleach	-11.801
▁fluorescent	-11.801
▁maturity	-11.801
▁translator	-11.801
▁ugly	-11.801
▁universal	-11.801
▁intense	-11.801
▁membrane	-11.801
▁cooperating	-11.801
▁diary	-11.801
▁Daegu	-11.8011
▁amplifier	-11.8012
▁repeated	-11.8017
▁grinder	-11.8019
▁passes	-11.802
ori	-11.8025
▁brighter	-11.8026
2"	-11.8026
▁secretly	-11.8028
▁leaked	-11.803
▁stays	-11.8031
▁protector	-11.8032
▁NFTs	-11.8036
▁hydro	-11.8037
▁subjects	-11.8039
den	-11.804
sang	-11.8041
▁trim	-11.8044
▁tours	-11.8053
3%	-11.8054
king	-11.8064
uring	-11.8065
▁diagnose	-11.8089
▁phrase	-11.8089
▁expense	-11.809
▁endure	-11.8095
par	-11.8096
▁complement	-11.81
▁Coffee	-11.81
▁Obviously	-11.81
▁acrylic	-11.81
▁adhesion	-11.81
▁depression	-11.81
▁eligible	-11.81
▁fierce	-11.81
▁heaven	-11.81
▁penetrate	-11.81
▁Wireless	-11.81
▁spy	-11.81
▁dying	-11.81
▁hammer	-11.81
hyo	-11.81
▁slipping	-11.8101
▁Hair	-11.8102
▁tissues	-11.8103
▁subsidiary	-11.8104
▁wheat	-11.8107
▁sticking	-11.8113
▁recruiting	-11.8114
▁sight	-11.8117
▁rail	-11.8121
▁proteins	-11.8123
▁8,000	-11.8123
▁alcoholic	-11.813
▁Ar	-11.8133
▁fitting	-11.8133
▁Sp	-11.8153
8,000	-11.8155
▁generations	-11.8159
▁pressured	-11.8162
dol	-11.8167
yeong	-11.8179
▁diaper	-11.8181
▁lovers	-11.8181
▁locking	-11.8182
▁disruption	-11.8182
▁carrot	-11.8182
▁exceptional	-11.819
▁99.9%	-11.8191
▁Exactly	-11.8191
▁Jenny	-11.8191
▁harness	-11.8191
▁misunderstood	-11.8191
▁possibilities	-11.8191
▁substitute	-11.8191
▁alright	-11.8191
▁supermarket	-11.8191
▁rub	-11.8191
▁Construction	-11.8191
▁passionate	-11.8192
▁wrapping	-11.8192
ranging	-11.8193
▁sanitizer	-11.8196
ew	-11.8203
▁Web	-11.8203
▁Boo	-11.8212
▁Part	-11.8218
▁smallest	-11.8219
▁approve	-11.8238
payment	-11.8239
definition	-11.824
scissors	-11.824
▁corporations	-11.8242
▁bent	-11.8246
▁indicate	-11.8264
▁disappears	-11.8266
▁suppress	-11.8266
▁importer	-11.8267
▁sat	-11.8271
▁nutrient	-11.8275
▁sebum	-11.8283
▁Spicy	-11.8283
▁aviation	-11.8283
▁conferencing	-11.8283
▁nitrogen	-11.8283
▁shelves	-11.8283
▁thief	-11.8283
▁voucher	-11.8283
▁infinite	-11.8283
▁amino	-11.8283
▁intellectual	-11.8283
▁Craft	-11.8283
▁disk	-11.8284
▁messy	-11.8295
▁earned	-11.8305
▁hips	-11.8305
▁Hot	-11.8321
2%	-11.8327
35	-11.833
▁shorter	-11.8335
cess	-11.8342
mL	-11.8345
air	-11.8348
▁exclud	-11.8353
▁38	-11.8354
▁scenes	-11.8361
▁craft	-11.8363
▁accommodations	-11.8364
▁invention	-11.837
▁kilo	-11.8375
▁Jeolla	-11.8375
▁Half	-11.8375
▁Science	-11.8375
▁acoustic	-11.8375
▁inflammation	-11.8375
▁puzzle	-11.8375
▁socket	-11.8375
▁ultrasound	-11.8375
▁hairtail	-11.8375
▁spinning	-11.8375
▁Taste	-11.8375
▁breach	-11.8375
▁Ramen	-11.8376
▁aloe	-11.8376
▁Drink	-11.8376
▁Regardless	-11.8377
▁Nothing	-11.8377
▁groupware	-11.8377
▁valves	-11.8378
▁teamwork	-11.8384
▁producers	-11.8387
▁hitch	-11.8391
▁quietly	-11.8395
▁Australian	-11.8397
▁Safe	-11.8404
▁SD	-11.841
▁demands	-11.8417
▁loaded	-11.8425
▁hero	-11.8428
▁bands	-11.8428
ternal	-11.8433
▁soles	-11.8439
▁implementing	-11.8444
▁1.2	-11.8456
▁equal	-11.8462
▁pulling	-11.8465
▁headphone	-11.8466
▁stiff	-11.8468
▁Different	-11.8469
▁Village	-11.8469
▁administrator	-11.8469
▁barcode	-11.8469
▁curriculum	-11.8469
▁drew	-11.8469
▁fascinating	-11.8469
▁necklace	-11.8469
▁observation	-11.8469
▁purified	-11.8469
▁residual	-11.8469
▁airplane	-11.8469
▁overdue	-11.8469
▁bland	-11.8469
▁lump	-11.8469
▁transition	-11.847
▁wealth	-11.847
dae	-11.8471
▁mailbox	-11.8471
▁Rose	-11.8472
▁playback	-11.8472
▁screens	-11.8474
▁presentations	-11.8475
▁planner	-11.8475
flavored	-11.8476
▁restocked	-11.8476
▁brushes	-11.8479
▁bound	-11.848
▁Americano	-11.8481
▁stars	-11.8486
▁physically	-11.849
▁electrode	-11.8498
▁mistaken	-11.8513
Together	-11.852
23	-11.8525
▁digest	-11.8528
lock	-11.8558
▁Furthermore	-11.8563
▁Palace	-11.8563
▁Stainless	-11.8563
▁competing	-11.8563
▁discomfort	-11.8563
▁merchandise	-11.8563
▁museum	-11.8563
▁vacant	-11.8563
▁ginger	-11.8563
▁east	-11.8563
▁Hahahaha	-11.8564
▁Six	-11.8566
▁meticulously	-11.8568
▁toppings	-11.857
▁owned	-11.857
▁promises	-11.8572
▁matching	-11.8573
▁links	-11.8573
▁incorrect	-11.8579
▁earth	-11.858
▁assembled	-11.8582
33	-11.8583
▁wondered	-11.8589
ute	-11.8606
▁sessions	-11.8616
▁disadvantages	-11.8616
▁hell	-11.8619
▁colder	-11.862
▁steal	-11.8639
▁fare	-11.8646
▁pipes	-11.8646
▁destroy	-11.865
▁flu	-11.8654
eal	-11.8654
▁dense	-11.8655
▁Awards	-11.8655
▁reproduce	-11.8655
▁directors	-11.8656
▁operator	-11.8658
▁broad	-11.8658
▁Metabus	-11.8658
▁Square	-11.8658
▁biotechnology	-11.8658
▁courage	-11.8658
▁impurities	-11.8658
▁prioritize	-11.8658
▁wiring	-11.8658
▁jack	-11.8658
▁beige	-11.8658
▁Express	-11.8658
▁execution	-11.8659
▁fluid	-11.8659
▁referred	-11.8659
▁Jaehoon	-11.8659
▁provision	-11.8659
▁classification	-11.8659
long	-11.866
ane	-11.8661
▁equally	-11.8662
▁analyzes	-11.8666
▁deliveries	-11.8666
▁Pay	-11.8667
▁intestin	-11.8668
▁passengers	-11.8672
▁outcome	-11.8675
▁acquired	-11.8677
zo	-11.8681
▁codes	-11.8682
▁viewed	-11.8683
ae	-11.8686
▁useless	-11.8693
wear	-11.8709
▁aiming	-11.8711
ME	-11.8715
▁nor	-11.8716
▁entrepreneur	-11.872
▁bye	-11.8723
▁automobiles	-11.8731
▁partnerships	-11.875
▁coconut	-11.8755
▁cultivator	-11.8755
▁disabled	-11.8755
▁mayonnaise	-11.8755
▁ambien	-11.8755
▁south	-11.8755
▁hub	-11.8755
▁thermo	-11.8755
▁omission	-11.8755
▁Advanced	-11.8756
▁withdrawal	-11.8757
▁obstacles	-11.8757
▁butlers	-11.8758
▁rumor	-11.8758
▁War	-11.8758
▁telescope	-11.8759
▁cardboard	-11.876
▁IoT	-11.8762
▁translated	-11.8766
▁lessons	-11.8767
▁Russian	-11.8768
▁Ask	-11.877
▁treating	-11.8771
▁gases	-11.8773
▁130	-11.8778
▁expires	-11.878
▁fuels	-11.8784
▁foreigner	-11.8801
▁lifting	-11.8803
▁reader	-11.8815
▁float	-11.8833
pp	-11.8833
▁fi	-11.8846
▁carpets	-11.885
▁Beauty	-11.8852
▁Shanghai	-11.8852
▁Sweet	-11.8852
▁chapter	-11.8852
▁contaminated	-11.8852
▁drunk	-11.8852
▁espresso	-11.8852
▁harmony	-11.8852
▁landscape	-11.8852
▁ultraviolet	-11.8852
▁forklift	-11.8852
▁tartar	-11.8852
▁Donghun	-11.8852
▁hangover	-11.8852
▁Award	-11.8855
▁mushroom	-11.8855
▁2015	-11.8858
▁brass	-11.8858
▁publicity	-11.8859
▁CCTVs	-11.8861
▁praised	-11.8863
▁enthusiasts	-11.8866
▁flowing	-11.8868
▁microorganisms	-11.8874
neck	-11.8874
▁tied	-11.8878
▁fertilizers	-11.8879
▁smoother	-11.8883
▁richer	-11.8883
▁boats	-11.8891
check	-11.8899
view	-11.89
▁scar	-11.891
au	-11.8912
SA	-11.8915
2,000	-11.8922
▁pioneer	-11.893
▁West	-11.8931
▁picky	-11.8933
▁nation	-11.894
▁sellers	-11.8944
▁ancient	-11.895
▁circular	-11.895
▁clause	-11.895
▁decent	-11.895
▁etiquette	-11.895
▁groundbreaking	-11.895
▁invisible	-11.895
▁newborn	-11.895
▁hydraulic	-11.895
▁farewell	-11.895
▁urine	-11.895
▁abnormalities	-11.895
▁interruption	-11.895
▁Hwang	-11.8951
▁cheapest	-11.8954
▁Che	-11.8954
▁insight	-11.8956
▁permanent	-11.896
hop	-11.8963
▁publication	-11.8969
▁Ri	-11.8969
bar	-11.897
DA	-11.8972
nquiries	-11.8972
▁Sha	-11.898
▁locked	-11.8987
▁selfie	-11.8988
32	-11.8998
▁receiver	-11.9002
▁algorithms	-11.9018
▁pillows	-11.9027
▁123	-11.9043
ified	-11.9043
hwa	-11.9044
▁approximate	-11.9045
responsibilities	-11.9049
▁Imagine	-11.9049
▁bandwidth	-11.9049
▁defend	-11.9049
▁disabilities	-11.9049
▁fragrant	-11.9049
▁throat	-11.9049
▁universities	-11.9049
▁waffle	-11.9049
▁lottery	-11.9049
▁Cream	-11.9049
▁Heechul	-11.9049
▁commitment	-11.9049
▁balm	-11.9049
▁biological	-11.9049
▁filing	-11.9049
▁Step	-11.9049
ists	-11.905
▁iconic	-11.905
▁overwhelming	-11.905
▁transformation	-11.905
▁paperwork	-11.905
▁15,000	-11.9054
▁chatting	-11.9054
"?	-11.9056
▁genre	-11.9056
▁123456	-11.9056
▁vessel	-11.9056
▁expired	-11.9056
▁requirement	-11.906
▁Test	-11.9061
jae	-11.9065
▁interviews	-11.9066
▁exceeded	-11.9067
▁healing	-11.9068
▁Miss	-11.9069
▁EV	-11.9069
▁recovered	-11.9072
▁MP	-11.9077
▁drawers	-11.9078
▁ion	-11.9084
▁ratings	-11.9086
▁dietar	-11.9086
▁tags	-11.9086
▁po	-11.9093
▁surroundings	-11.9107
▁employ	-11.9114
OS	-11.9117
▁hats	-11.9119
actic	-11.9132
▁Soon	-11.9133
▁sprinkle	-11.9137
▁translate	-11.9137
▁bottled	-11.9139
▁attacks	-11.9139
1%	-11.9141
▁grapes	-11.9142
▁Pack	-11.9144
▁skate	-11.9148
▁Professional	-11.9149
▁cashmere	-11.9149
▁grandfather	-11.9149
▁happily	-11.9149
▁puppy	-11.9149
▁refrain	-11.9149
▁rural	-11.9149
▁assessment	-11.9149
▁Dude	-11.9149
▁forgotten	-11.915
▁OS	-11.915
▁healthcare	-11.915
▁deck	-11.915
▁regeneration	-11.9152
ack	-11.9152
▁novels	-11.9154
▁Oops	-11.9155
90	-11.9155
ise	-11.9158
▁carton	-11.9159
▁jet	-11.9159
▁fog	-11.9161
22	-11.9172
▁Art	-11.9178
▁recorder	-11.9181
▁someday	-11.9182
▁seeking	-11.919
▁skip	-11.9193
▁melts	-11.9195
▁spine	-11.9199
▁pesticides	-11.9207
▁spices	-11.9213
▁researched	-11.9217
▁worsen	-11.9223
▁cleans	-11.9223
IN	-11.9228
▁110	-11.923
▁withdraw	-11.9239
▁suspend	-11.9242
woven	-11.925
▁Machine	-11.925
▁RAM	-11.925
▁companion	-11.925
▁crude	-11.925
▁dairy	-11.925
▁garbage	-11.925
▁radar	-11.925
▁stroke	-11.925
▁thumb	-11.925
▁tiger	-11.925
▁motel	-11.925
▁pulse	-11.925
▁leasing	-11.925
▁Daejeon	-11.925
▁lint	-11.925
▁operators	-11.925
▁retro	-11.9251
▁Production	-11.9252
▁Meat	-11.9252
▁partial	-11.9254
24	-11.9255
▁Vi	-11.9256
▁surged	-11.9264
▁Cheer	-11.9264
play	-11.9267
▁dull	-11.9268
▁oldest	-11.9268
▁inserted	-11.9269
▁inspiration	-11.9273
rich	-11.9281
▁Fri	-11.93
▁startup	-11.9302
▁professionally	-11.9306
▁hormones	-11.9309
▁1%	-11.9311
▁restock	-11.9324
▁cope	-11.9331
▁practiced	-11.9334
▁doctors	-11.9342
▁staple	-11.9345
▁hug	-11.9349
▁glut	-11.9351
▁Daniel	-11.9352
▁Prevent	-11.9352
▁Trade	-11.9352
▁blame	-11.9352
▁lavender	-11.9352
▁pharmacy	-11.9352
▁prescription	-11.9352
▁utilizing	-11.9352
▁Anything	-11.9352
▁dashboard	-11.9352
▁Jihye	-11.9352
▁contest	-11.9353
▁formulation	-11.9353
▁Personally	-11.9354
▁airflow	-11.9354
ara	-11.9356
▁graduated	-11.9362
▁hamburger	-11.9365
▁Bon	-11.9367
▁photographer	-11.9379
▁Students	-11.9381
▁drawn	-11.9382
▁laughed	-11.9385
place	-11.9397
▁contracted	-11.9399
▁Interesting	-11.9401
▁sweating	-11.9419
▁terminals	-11.9426
▁featur	-11.9433
▁chefs	-11.9441
▁heal	-11.9445
▁guides	-11.9451
▁Gangneung	-11.9455
▁chrome	-11.9455
▁excitement	-11.9455
▁salmon	-11.9455
▁sensuous	-11.9455
▁webtoon	-11.9455
▁Gyeonggi	-11.9455
▁dries	-11.9455
▁Wake	-11.9455
▁Minseok	-11.9456
▁Fish	-11.9457
▁lu	-11.946
▁herb	-11.9461
imed	-11.9466
▁productive	-11.9467
▁rises	-11.9469
▁investigated	-11.947
▁soothe	-11.947
cell	-11.947
▁resident	-11.9471
▁indicated	-11.9472
▁decoration	-11.9472
▁lined	-11.9475
▁settled	-11.9477
▁Heat	-11.948
AR	-11.9483
▁billing	-11.9484
pop	-11.9487
▁capsules	-11.952
cover	-11.9521
colored	-11.9525
▁holders	-11.9525
▁photograph	-11.9527
▁responded	-11.9531
▁sleeve	-11.9537
▁sterilize	-11.9542
▁Pe	-11.9546
ological	-11.9548
▁trick	-11.9555
▁pearl	-11.9556
eat	-11.9559
▁Click	-11.9559
▁Simple	-11.9559
▁appetite	-11.9559
▁catalyst	-11.9559
▁dawn	-11.9559
▁dizzy	-11.9559
▁exploration	-11.9559
▁lantern	-11.9559
▁struggle	-11.9559
▁turbo	-11.9559
▁unpaid	-11.9559
▁upgrading	-11.9559
▁vulnerable	-11.9559
▁Enter	-11.9559
▁coronavirus	-11.9559
▁olive	-11.9559
▁lime	-11.9559
▁telecom	-11.9559
▁anticancer	-11.9559
▁breathability	-11.9559
▁comedy	-11.956
▁disinfection	-11.956
▁Spain	-11.9561
▁Land	-11.9562
▁Hence	-11.9563
▁intensive	-11.9564
9%	-11.9564
▁curve	-11.9565
▁overview	-11.9565
▁deducted	-11.9565
▁optic	-11.9576
▁illustration	-11.9577
▁quarterly	-11.9579
▁initially	-11.958
▁bug	-11.958
pyeong	-11.9591
▁shocked	-11.9592
▁bearings	-11.9593
▁attracted	-11.96
color	-11.9601
▁dressed	-11.9603
▁releases	-11.9604
▁guided	-11.9609
▁belts	-11.961
▁liner	-11.9614
tae	-11.9618
▁Hae	-11.9629
▁locks	-11.9642
▁wax	-11.9645
▁sized	-11.9646
shin	-11.9651
MI	-11.9654
▁bake	-11.9656
graph	-11.9656
▁prime	-11.9661
▁drip	-11.9664
kyung	-11.9664
▁Avoid	-11.9664
▁Focus	-11.9664
▁Security	-11.9664
▁equivalent	-11.9664
▁suede	-11.9664
▁titanium	-11.9664
▁diamond	-11.9664
▁slope	-11.9664
▁trunk	-11.9664
▁tunnel	-11.9664
▁Short	-11.9664
▁Chairman	-11.9664
▁ripped	-11.9665
▁guardian	-11.9665
▁friendship	-11.9666
▁Lower	-11.9667
▁departed	-11.9674
▁Social	-11.9675
▁shortened	-11.9684
▁twisted	-11.9685
▁grades	-11.9686
▁modifications	-11.9686
▁Cup	-11.9687
▁reform	-11.9691
▁peeling	-11.9695
▁signs	-11.9696
ced	-11.9699
lent	-11.9699
▁Going	-11.97
▁pouring	-11.9705
9001	-11.9707
uff	-11.9714
▁angles	-11.9716
▁pancakes	-11.9717
mounted	-11.9718
through	-11.9728
wing	-11.9739
yong	-11.9743
▁refresh	-11.9743
▁shareholders	-11.9747
▁clubs	-11.9751
▁climb	-11.9751
▁listened	-11.9763
▁assign	-11.9763
▁fortunate	-11.9767
▁Unni	-11.9769
▁provisions	-11.977
▁Energy	-11.9771
▁Spanish	-11.9771
▁amazed	-11.9771
▁opponent	-11.9771
▁pronunciation	-11.9771
▁font	-11.9771
▁offended	-11.9771
▁Face	-11.9771
▁Estate	-11.9771
▁flame	-11.9771
▁remitted	-11.9771
▁lane	-11.9772
▁TP	-11.9772
▁RGB	-11.9773
▁minced	-11.9773
hoo	-11.9773
▁roasting	-11.9777
▁2010	-11.9786
date	-11.9791
lite	-11.9795
RO	-11.9819
buk	-11.9821
▁disasters	-11.9822
▁pans	-11.9827
▁practices	-11.9828
gun	-11.9829
wide	-11.9835
ft	-11.9836
Oh	-11.984
▁applicants	-11.9844
▁erase	-11.9863
▁mu	-11.9868
▁brew	-11.987
▁shirts	-11.9871
▁Leg	-11.9878
▁lacquer	-11.9878
▁Easily	-11.9878
▁afterwards	-11.9878
▁applause	-11.9878
▁bucket	-11.9878
▁political	-11.9878
▁replied	-11.9878
▁sliding	-11.9878
▁Breakfast	-11.9878
▁monkfish	-11.9878
▁acne	-11.9878
▁traction	-11.9879
▁Yoonji	-11.9879
▁sandwiches	-11.988
▁alike	-11.9881
▁horsepower	-11.9882
▁repeatedly	-11.9883
▁terminated	-11.9883
▁Cover	-11.9883
▁refrigerated	-11.9883
▁dryness	-11.9891
▁filler	-11.9894
notch	-11.9897
▁attachments	-11.9901
▁postcard	-11.9903
▁targets	-11.9907
▁eel	-11.991
▁welcomed	-11.9912
▁incur	-11.9915
▁negotiated	-11.9919
inary	-11.9921
▁30-	-11.9921
▁moisturizes	-11.9934
dda	-11.9939
▁hackers	-11.9939
50,000	-11.9943
efficiency	-11.9945
ole	-11.9955
flow	-11.9962
▁lover	-11.9964
▁Cheong	-11.9965
ily	-11.9965
▁Interest	-11.9968
▁slice	-11.9975
▁grant	-11.9979
PA	-11.9982
▁Definitely	-11.9987
▁ambitious	-11.9987
▁calculator	-11.9987
▁caravan	-11.9987
▁chlorine	-11.9987
lk	-11.9987
▁Wipe	-11.9987
▁admission	-11.9987
▁dare	-11.9987
earby	-11.9987
▁Kwon	-11.9989
▁dear	-11.9991
▁mala	-11.9993
▁chief	-11.9995
lib	-12.0005
▁registering	-12.001
▁campaigns	-12.0013
▁bulb	-12.0014
▁scanner	-12.0014
▁Lu	-12.0025
▁Ya	-12.0027
▁6,000	-12.0029
▁spam	-12.0029
pen	-12.0031
▁audit	-12.0032
▁pat	-12.0036
▁toner	-12.0041
▁limits	-12.0044
▁paintings	-12.0045
loved	-12.0053
ivity	-12.0054
▁largely	-12.0057
▁keywords	-12.0059
pot	-12.006
▁revitalize	-12.0074
MS	-12.0088
gla	-12.0089
▁Fast	-12.0094
▁Low	-12.0095
▁drag	-12.0096
▁England	-12.0097
▁Mexico	-12.0097
▁abrasion	-12.0097
▁crash	-12.0097
▁easiest	-12.0097
▁encyclopedia	-12.0097
▁fountain	-12.0097
▁genius	-12.0097
▁ivory	-12.0097
▁muffler	-12.0097
▁nickel	-12.0097
▁paprika	-12.0097
▁pesos	-12.0097
▁retrieve	-12.0097
▁unpleasant	-12.0097
▁crypto	-12.0097
▁forehead	-12.0097
▁Deep	-12.0097
▁resist	-12.0097
▁Aiki	-12.0097
▁99	-12.0097
▁systematically	-12.0097
▁farmland	-12.0097
▁headache	-12.0098
▁Subin	-12.0098
▁customization	-12.0099
▁repayment	-12.01
▁shadow	-12.0101
▁42	-12.0103
▁clicking	-12.0104
▁tro	-12.0105
▁generously	-12.0112
▁0.5	-12.0112
▁needing	-12.0113
▁purifiers	-12.0115
▁Cheon	-12.012
▁badge	-12.012
ome	-12.0124
▁shades	-12.0132
▁Wan	-12.0132
▁flows	-12.0141
▁gladly	-12.0147
▁Yu	-12.0151
▁Plan	-12.0152
▁brochures	-12.0153
▁alternatives	-12.0154
▁bat	-12.0156
▁prints	-12.0157
pped	-12.016
▁coloring	-12.0164
pressure	-12.0166
standing	-12.0168
ix	-12.0172
chang	-12.0173
hu	-12.0178
▁ding	-12.0191
▁hyper	-12.0196
oma	-12.0196
▁transplant	-12.0207
▁Carbon	-12.0208
▁Medical	-12.0208
▁Organization	-12.0208
▁Relax	-12.0208
▁Stock	-12.0208
▁commute	-12.0208
▁groove	-12.0208
▁kelp	-12.0208
▁puppies	-12.0208
▁unmanned	-12.0208
▁vocabulary	-12.0208
▁Alternative	-12.0208
▁garage	-12.0208
▁periodically	-12.0208
▁hospitalized	-12.0211
▁HR	-12.0212
▁leisurely	-12.0213
▁Byung	-12.0213
▁pH	-12.0217
▁agreements	-12.0224
▁irritating	-12.0228
▁blender	-12.0231
▁Cam	-12.0235
▁utilizes	-12.0239
▁nerve	-12.024
▁implant	-12.0241
▁Yeo	-12.0242
▁specialist	-12.0251
eon	-12.0252
▁declined	-12.0253
▁aids	-12.0259
borne	-12.0259
▁rat	-12.0259
heat	-12.0259
▁PD	-12.0263
BG	-12.027
print	-12.0276
material	-12.0278
▁suggesting	-12.0282
party	-12.0282
can	-12.0293
66	-12.0307
▁recogniz	-12.0308
bra	-12.0311
her	-12.0313
▁plastics	-12.0316
▁hung	-12.0317
▁corrected	-12.0319
▁differ	-12.032
▁Stretch	-12.032
▁Computer	-12.032
▁Individual	-12.032
▁administration	-12.032
▁feminine	-12.032
▁injuries	-12.032
▁jokbal	-12.032
▁malicious	-12.032
▁mixture	-12.032
▁palette	-12.032
▁childhood	-12.032
▁racing	-12.032
▁transmitted	-12.0321
▁reproduction	-12.0321
▁1234	-12.0323
▁exclude	-12.0326
▁soul	-12.0329
▁promptly	-12.0335
▁weapons	-12.0341
▁hosted	-12.0351
▁outlets	-12.0353
▁tumor	-12.0355
▁resting	-12.0362
▁filed	-12.0365
▁Tri	-12.0367
▁34	-12.0369
▁recognizes	-12.0377
▁12-	-12.0384
hole	-12.0388
▁drawings	-12.0392
dding	-12.0397
late	-12.0397
▁ranges	-12.0406
▁onto	-12.0412
▁AC	-12.0429
you	-12.043
▁Studi	-12.0433
megapixel	-12.0434
▁Haeundae	-12.0434
▁affairs	-12.0434
▁anxiety	-12.0434
▁deficit	-12.0434
▁excellence	-12.0434
▁initiative	-12.0434
▁knock	-12.0434
▁treasure	-12.0434
▁humor	-12.0434
▁antique	-12.0435
▁lace	-12.0435
▁unlock	-12.0436
▁Jiyoung	-12.0436
▁tricky	-12.0439
▁documentation	-12.0442
▁owe	-12.0443
▁overnight	-12.0444
▁Los	-12.0445
▁pine	-12.0449
▁Noodles	-12.0455
▁closest	-12.046
▁bosses	-12.0461
65	-12.0462
▁bolts	-12.0464
▁permit	-12.0472
tier	-12.0475
▁transported	-12.0482
,000,000	-12.0496
▁Ahn	-12.0497
▁earning	-12.0499
noki	-12.0502
hoon	-12.0504
demand	-12.0506
▁institutes	-12.0507
▁Live	-12.0518
▁150,000	-12.052
▁h	-12.0523
AP	-12.0524
▁du	-12.0528
▁raining	-12.0533
aking	-12.0533
▁posting	-12.0534
▁relate	-12.0544
▁blinds	-12.0545
▁suites	-12.0547
▁Collect	-12.0548
▁Thai	-12.0549
sanitary	-12.0549
▁Earlier	-12.0549
▁Fresh	-12.0549
▁Leave	-12.0549
▁Seriously	-12.0549
▁Women	-12.0549
▁cholesterol	-12.0549
▁confusing	-12.0549
▁defrost	-12.0549
▁explosive	-12.0549
▁plywood	-12.0549
▁preservation	-12.0549
▁slippery	-12.0549
▁template	-12.0549
▁zombie	-12.0549
▁Body	-12.0549
▁bidet	-12.0549
▁Standard	-12.0549
▁absent	-12.0549
▁till	-12.0549
▁debts	-12.0549
▁employment	-12.0549
▁Stir	-12.055
▁cocoa	-12.055
▁swear	-12.055
▁Guest	-12.055
▁reorder	-12.0552
▁para	-12.0553
▁engraved	-12.0555
▁inventions	-12.0556
55	-12.0556
▁examine	-12.0557
▁independently	-12.0559
ato	-12.0561
lim	-12.0562
▁army	-12.0566
▁strongest	-12.0568
▁rotates	-12.0575
▁220	-12.0578
▁insects	-12.0579
▁generates	-12.0581
▁rings	-12.0581
▁Du	-12.0587
▁keyword	-12.0589
▁smoked	-12.0589
▁dyed	-12.0594
▁aside	-12.0594
▁Anti	-12.0598
▁integrates	-12.0601
▁Ge	-12.0603
itis	-12.0603
jeon	-12.0623
▁positions	-12.0627
▁boarding	-12.0629
▁Bur	-12.0636
▁tighten	-12.065
▁199	-12.0654
▁catche	-12.0661
▁relative	-12.0662
▁moderate	-12.0663
▁vital	-12.0665
▁Grand	-12.0665
infectious	-12.0665
▁Exchange	-12.0665
▁Tomorrow	-12.0665
▁communicating	-12.0665
▁rhythm	-12.0665
▁wardrobe	-12.0665
▁Left	-12.0665
▁iPhone	-12.0665
▁Break	-12.0665
▁Fill	-12.0666
▁fries	-12.0666
▁suck	-12.0667
▁Sign	-12.0668
ition	-12.067
▁randomly	-12.0671
ana	-12.0673
CT	-12.0673
▁Allow	-12.0674
▁Bus	-12.0675
olong	-12.0676
TB	-12.0677
ai	-12.0678
▁completeness	-12.0679
▁presenting	-12.068
▁span	-12.0681
▁Card	-12.0688
▁accessed	-12.069
▁considerate	-12.07
▁Bong	-12.07
▁plum	-12.07
▁arrow	-12.0701
▁toxic	-12.0705
ON	-12.071
▁induce	-12.0712
▁di	-12.0714
▁Her	-12.0725
▁singers	-12.0727
▁Gr	-12.0732
water	-12.0738
plastic	-12.074
▁destinations	-12.0744
11	-12.0755
▁needle	-12.0765
▁collapse	-12.0771
▁graduate	-12.0771
▁Custom	-12.0778
write	-12.0779
▁Write	-12.078
▁Featur	-12.0781
▁swallow	-12.0783
▁Discount	-12.0783
▁cocktail	-12.0783
▁contaminants	-12.0783
▁kimbap	-12.0783
▁swollen	-12.0783
▁syndrome	-12.0783
▁unstable	-12.0783
▁bestseller	-12.0783
▁competent	-12.0783
▁sedan	-12.0783
▁budae	-12.0783
▁rotary	-12.0783
▁disposal	-12.0783
▁mouthwash	-12.0783
▁FDA	-12.0784
▁artwork	-12.0784
▁dozens	-12.0784
▁Alley	-12.0786
▁fragrances	-12.0792
new	-12.0794
gated	-12.0801
tract	-12.0813
▁tri	-12.0829
▁kilogram	-12.0829
▁198	-12.0829
▁im	-12.0831
▁couples	-12.0836
▁candles	-12.0837
▁maps	-12.0839
▁wigs	-12.0848
▁biscuits	-12.0854
▁3.5	-12.0854
erial	-12.0856
▁Per	-12.0858
▁Install	-12.0859
front	-12.086
joo	-12.086
▁revive	-12.0862
part	-12.0867
▁toilets	-12.0869
▁importantly	-12.0872
▁inlet	-12.0887
▁titles	-12.0888
▁camp	-12.089
▁branding	-12.0901
▁Develop	-12.0901
▁faith	-12.0902
▁Bulgogi	-12.0902
▁billiard	-12.0902
▁cardiovascular	-12.0902
▁circulate	-12.0902
▁condolences	-12.0902
▁curiosity	-12.0902
▁cutlery	-12.0902
▁ethanol	-12.0902
▁gallon	-12.0902
▁mileage	-12.0902
▁monster	-12.0902
▁pregnancy	-12.0902
▁reluctant	-12.0902
▁romantic	-12.0902
▁victory	-12.0902
▁yeast	-12.0902
▁therefore	-12.0902
▁lazy	-12.0902
▁terrain	-12.0902
▁foil	-12.0902
▁Investment	-12.0902
▁wage	-12.0902
▁bionic	-12.0902
▁Sister	-12.0902
▁underwater	-12.0903
▁crunchy	-12.0904
▁standby	-12.0904
▁countless	-12.0904
▁static	-12.0904
▁boxing	-12.0914
▁Cooking	-12.0917
press	-12.0917
ano	-12.0919
▁sharply	-12.0919
▁switching	-12.0925
▁60,000	-12.093
PE	-12.0937
olic	-12.0937
▁shocks	-12.0939
▁wing	-12.0939
▁renewing	-12.0946
▁Firstly	-12.0952
▁6-	-12.0955
Exit	-12.0956
10,000	-12.0961
▁girls	-12.0963
▁sectors	-12.0964
uri	-12.0973
uc	-12.0975
weight	-12.0977
centered	-12.098
▁invitations	-12.0982
▁dope	-12.0987
ER	-12.0989
▁Cla	-12.0989
▁dispose	-12.0997
▁Ai	-12.1
▁bowling	-12.1009
▁Manufacture	-12.1009
▁summarize	-12.1011
▁LEDs	-12.1013
▁recharge	-12.1022
▁danger	-12.1022
▁Challenge	-12.1022
▁Monica	-12.1022
▁crucial	-12.1022
▁dispenser	-12.1022
▁efficacy	-12.1022
▁metabolic	-12.1022
▁niche	-12.1022
▁pedestal	-12.1022
▁queen	-12.1022
▁recurrence	-12.1022
▁treadmill	-12.1022
▁violation	-12.1022
▁wiping	-12.1022
▁overheating	-12.1022
▁avatar	-12.1022
▁loyalty	-12.1023
▁illness	-12.1023
▁Seven	-12.1023
▁mature	-12.1024
▁exit	-12.1024
▁Salt	-12.1024
▁dorm	-12.1025
▁disinfect	-12.1026
▁countryside	-12.1027
▁Older	-12.1027
▁affection	-12.1029
▁ruined	-12.1029
▁bleeding	-12.103
lessly	-12.1043
story	-12.1046
▁formation	-12.1053
▁eyebrows	-12.1057
▁wishes	-12.1057
▁resell	-12.1059
▁wearable	-12.1067
▁anger	-12.1068
EA	-12.1072
▁pesticide	-12.1074
▁competitor	-12.1074
▁tracks	-12.1082
▁guards	-12.1082
▁sealing	-12.1085
▁connector	-12.1086
TE	-12.1101
product	-12.1101
derived	-12.1102
wheel	-12.1102
wanted	-12.1102
coated	-12.1108
▁gadgets	-12.1112
▁mari	-12.1113
▁flood	-12.1116
▁illustrations	-12.1124
▁breed	-12.1125
TA	-12.1126
▁inject	-12.1131
▁molds	-12.1137
▁promo	-12.1137
▁Complete	-12.114
▁Bae	-12.1141
▁Switch	-12.1144
▁appraisal	-12.1144
▁avocado	-12.1144
▁fridge	-12.1144
▁gourmet	-12.1144
▁incredibly	-12.1144
▁irregular	-12.1144
▁navy	-12.1144
▁prettier	-12.1144
▁radiator	-12.1144
▁respirator	-12.1144
▁subscribing	-12.1144
▁Smile	-12.1144
▁preliminar	-12.1144
▁asap	-12.1144
soluble	-12.1144
▁Throw	-12.1144
▁neurons	-12.1144
▁Grab	-12.1144
▁Calm	-12.1144
▁peaceful	-12.1145
▁donuts	-12.1145
▁intact	-12.1146
▁surveys	-12.1146
▁2018	-12.1147
▁stepping	-12.1147
▁Join	-12.1148
▁beads	-12.1149
▁mango	-12.1149
game	-12.115
▁acidic	-12.1151
▁noticeable	-12.1156
▁furnished	-12.1159
▁peeled	-12.1159
▁latex	-12.1159
▁cheating	-12.1161
▁deleted	-12.1162
nearly	-12.1166
▁burns	-12.1167
▁trainer	-12.117
gang	-12.1176
▁booster	-12.1177
▁pretending	-12.1178
▁votes	-12.1183
▁imagined	-12.1183
▁Kit	-12.1187
▁partition	-12.1201
▁businessman	-12.1201
▁globally	-12.1206
being	-12.121
etal	-12.1216
▁fingerprints	-12.1217
▁brushed	-12.1219
▁par	-12.1219
ey	-12.122
▁Mac	-12.1223
▁Ka	-12.1223
▁Eating	-12.1223
▁theory	-12.1227
cate	-12.1229
ace	-12.1235
▁cracks	-12.1251
inflammatory	-12.1268
▁Cheese	-12.1268
▁Filter	-12.1268
▁Halloween	-12.1268
▁HeeChul	-12.1268
▁PVC	-12.1268
▁Terminal	-12.1268
▁Vitamin	-12.1268
▁Warranty	-12.1268
▁allergy	-12.1268
▁heavily	-12.1268
▁scream	-12.1268
▁teammates	-12.1268
▁vague	-12.1268
▁zinc	-12.1268
▁Sleep	-12.1268
▁attendees	-12.1268
▁bristles	-12.1268
▁Export	-12.1268
▁dressing	-12.1268
▁manipulation	-12.1268
▁Auto	-12.1269
▁Jihoon	-12.1269
▁domestically	-12.1271
▁motherboard	-12.1271
▁approaches	-12.1272
▁fist	-12.1273
▁Fit	-12.1274
hold	-12.1274
cryptocurrencies	-12.1275
▁fallen	-12.1275
▁carbonated	-12.1276
▁setback	-12.1278
▁topper	-12.1278
▁neuro	-12.1282
▁iced	-12.1283
▁Mall	-12.1286
▁cons	-12.1286
▁advised	-12.1286
6,000	-12.1293
▁pools	-12.1295
▁Ph	-12.1295
▁predicted	-12.1297
▁orbit	-12.13
▁helper	-12.1301
▁graph	-12.1306
▁firms	-12.1307
▁eliminated	-12.1313
▁drilling	-12.1314
▁commemorati	-12.1316
▁Employees	-12.1318
▁85	-12.1326
▁pigment	-12.1328
▁intestine	-12.1329
▁Gam	-12.133
▁killing	-12.1337
▁te	-12.1337
uiet	-12.1338
ply	-12.1338
▁nap	-12.1343
▁donated	-12.1344
turn	-12.1346
cooked	-12.1349
toxic	-12.135
▁shortly	-12.1357
ura	-12.136
▁avoiding	-12.1361
▁labeling	-12.1362
ata	-12.1363
ade	-12.1363
▁pee	-12.1364
▁recruit	-12.1364
▁optim	-12.1367
▁strip	-12.1371
98	-12.1371
▁achiev	-12.138
▁Class	-12.138
▁startups	-12.1384
▁crush	-12.1384
▁unfold	-12.1385
▁44	-12.139
seo	-12.139
dan	-12.139
▁nourish	-12.1391
▁Automatic	-12.1393
▁spoil	-12.1393
▁Failed	-12.1393
▁Representative	-12.1393
▁binoculars	-12.1393
▁countermeasure	-12.1393
▁craze	-12.1393
▁decompose	-12.1393
▁filtration	-12.1393
▁penalties	-12.1393
▁perception	-12.1393
▁quartz	-12.1393
▁horn	-12.1393
▁crown	-12.1393
▁poem	-12.1393
▁pulp	-12.1393
▁wrench	-12.1393
▁Communication	-12.1393
▁Lightweight	-12.1393
-20	-12.1393
▁Development	-12.1393
▁colon	-12.1393
▁lake	-12.1393
cial	-12.1395
▁Later	-12.1395
▁prolonged	-12.1396
▁hacked	-12.1397
▁View	-12.1397
▁Apart	-12.1399
▁majority	-12.1401
▁workload	-12.1402
▁prevented	-12.1403
▁yo	-12.1405
150	-12.1408
ably	-12.1415
▁Te	-12.1419
▁DB	-12.1419
▁900	-12.142
hwan	-12.1422
served	-12.1425
ou	-12.143
jung	-12.1434
load	-12.1441
▁planet	-12.1443
▁descriptions	-12.1444
▁bang	-12.1445
▁moisturize	-12.1445
▁wrinkle	-12.1452
▁risky	-12.1454
▁targeted	-12.1459
▁cure	-12.1459
▁mutations	-12.1461
▁Tea	-12.1464
▁sentence	-12.1465
▁slides	-12.1465
istic	-12.1472
▁fork	-12.1475
frequency	-12.1477
phone	-12.1479
▁bulbs	-12.1488
powered	-12.1489
q	-12.149
▁fatal	-12.1495
▁cleanses	-12.1495
▁subscriptions	-12.1496
▁Read	-12.1497
lon	-12.1501
16	-12.1502
▁Heo	-12.1504
▁ignore	-12.1508
▁differentiate	-12.1508
case	-12.1508
▁educate	-12.1511
▁driven	-12.1517
▁betray	-12.1518
▁Dynasty	-12.1519
▁Place	-12.1519
▁ashamed	-12.1519
▁chandelier	-12.1519
▁composite	-12.1519
▁corru	-12.1519
▁dinosaur	-12.1519
▁encouraging	-12.1519
▁shield	-12.1519
▁slogan	-12.1519
▁velvet	-12.1519
▁Steel	-12.1519
▁flies	-12.1519
▁swimsuit	-12.1519
▁Madam	-12.1519
▁Specifically	-12.1519
▁clump	-12.1519
▁thyroid	-12.1519
▁restructuring	-12.1519
▁braking	-12.1519
▁Milk	-12.152
▁spotlight	-12.152
▁interpretation	-12.152
▁Raw	-12.152
▁validity	-12.1521
▁massive	-12.1522
▁relaxation	-12.1523
chu	-12.1524
▁insured	-12.1524
▁refined	-12.1525
▁generat	-12.1525
▁authorized	-12.1525
▁Bean	-12.1525
▁Moon	-12.1526
▁puff	-12.1531
▁Friend	-12.1536
▁stuffy	-12.1541
▁jointly	-12.1546
▁GB	-12.1547
▁Gang	-12.1557
▁exists	-12.1563
▁definition	-12.1579
▁commands	-12.1579
AI	-12.1587
▁obligations	-12.1596
▁rider	-12.1603
▁Got	-12.1606
9,000	-12.1619
EN	-12.1622
8%	-12.1627
▁arch	-12.163
▁improvements	-12.1635
▁suspect	-12.1639
▁praise	-12.1644
▁pixels	-12.1646
▁Brazil	-12.1647
▁cherish	-12.1647
▁Failure	-12.1647
▁Global	-12.1647
▁caffeine	-12.1647
▁liking	-12.1647
▁mercury	-12.1647
▁necessarily	-12.1647
▁poultry	-12.1647
▁pursuing	-12.1647
▁stimulation	-12.1647
▁storm	-12.1647
▁thrive	-12.1647
▁visa	-12.1647
▁Father	-12.1647
▁arcade	-12.1648
▁bezel	-12.1648
▁Joseon	-12.1648
▁Guys	-12.1648
▁Stick	-12.1648
▁Ooh	-12.1648
▁dislike	-12.1648
▁authorities	-12.1648
▁disappointment	-12.1648
▁multipurpose	-12.1648
▁discontinued	-12.165
▁Boil	-12.165
▁kitchenware	-12.165
▁nourishes	-12.165
▁Jihee	-12.1651
▁homework	-12.1655
▁qualified	-12.1655
▁clamp	-12.1656
▁beep	-12.1657
▁cue	-12.1661
▁formally	-12.1665
nce	-12.1667
wall	-12.1671
▁Intel	-12.1671
▁Goodness	-12.1677
ula	-12.168
▁Care	-12.1682
▁encouraged	-12.1683
logy	-12.1683
▁doubts	-12.1685
▁bending	-12.169
▁Shi	-12.1698
▁dyes	-12.1699
▁biometric	-12.1715
▁leaking	-12.1716
▁relation	-12.1716
▁fluctuations	-12.1717
▁candle	-12.1719
▁backwards	-12.172
▁ranks	-12.1725
▁3-4	-12.1728
▁rewards	-12.1735
▁spreads	-12.1736
safe	-12.1737
▁banding	-12.1748
▁stack	-12.175
bacterial	-12.1751
▁Ball	-12.1757
▁talents	-12.1761
▁partnering	-12.1764
▁engage	-12.1765
▁ceramics	-12.1769
▁debut	-12.1769
za	-12.1773
▁eager	-12.1774
▁mad	-12.1775
▁excess	-12.1777
▁Project	-12.1777
▁almond	-12.1777
▁cherry	-12.1777
▁duties	-12.1777
▁hobbies	-12.1777
▁lettuce	-12.1777
▁literature	-12.1777
▁palace	-12.1777
▁peanut	-12.1777
▁porcelain	-12.1777
▁ribbon	-12.1777
▁spandex	-12.1777
▁cement	-12.1777
▁babycam	-12.1777
▁drastically	-12.1777
▁duvet	-12.1777
▁craftsmanship	-12.1777
▁omitted	-12.1777
▁sustainability	-12.1777
▁Daily	-12.1778
▁Yeosu	-12.1778
▁Software	-12.1778
▁helmets	-12.1778
▁serial	-12.1778
▁thinner	-12.1779
▁unveiled	-12.178
▁practicality	-12.178
▁documentary	-12.178
▁electron	-12.1782
4,000	-12.1784
▁crushed	-12.1786
cap	-12.1791
▁1-2	-12.1791
▁defined	-12.1792
▁diagnosed	-12.1794
▁Butler	-12.1796
▁Ear	-12.1801
▁advancement	-12.1803
har	-12.1804
icle	-12.181
raft	-12.1812
▁dancer	-12.1821
▁Working	-12.1821
ache	-12.1833
▁scores	-12.1837
▁cucumber	-12.1848
▁creator	-12.1848
▁Hana	-12.1863
family	-12.1867
boo	-12.187
appointed	-12.1883
▁roses	-12.1894
▁curse	-12.1897
▁stabilize	-12.1898
▁swim	-12.1909
saturated	-12.1909
▁Corporation	-12.1909
▁Financial	-12.1909
▁Hallasan	-12.1909
▁Heungbu	-12.1909
▁Kitchen	-12.1909
▁anticipate	-12.1909
▁hesitation	-12.1909
▁imitate	-12.1909
▁mascara	-12.1909
▁nephew	-12.1909
▁peroxide	-12.1909
▁regulator	-12.1909
▁resemble	-12.1909
▁thermostat	-12.1909
▁Memory	-12.1909
▁abalone	-12.1909
▁psychological	-12.1909
▁banana	-12.1909
▁instance	-12.1909
▁Sports	-12.1909
▁blink	-12.1909
▁clay	-12.1909
▁proprietary	-12.1909
▁voting	-12.191
▁Paper	-12.191
▁Making	-12.191
▁hometown	-12.191
▁Catch	-12.191
▁meaningless	-12.1911
ina	-12.1911
▁hinge	-12.1912
▁thighs	-12.1913
▁campus	-12.1913
▁Wave	-12.1913
▁paints	-12.1914
▁athletes	-12.1915
▁scolded	-12.1916
▁alarms	-12.1917
▁hiding	-12.1918
▁complexes	-12.1922
▁phrases	-12.1925
▁goose	-12.1927
MB	-12.1933
▁240	-12.1936
▁conscious	-12.1938
▁parabens	-12.1939
▁Parking	-12.1942
▁weighing	-12.1942
▁rains	-12.1956
▁blending	-12.196
lor	-12.1963
▁regional	-12.1967
▁enzymes	-12.1967
▁Roll	-12.1968
▁integrate	-12.1974
▁guns	-12.1975
▁overlap	-12.1983
▁antioxidant	-12.1983
▁enzyme	-12.1983
▁outage	-12.199
▁rim	-12.1991
▁catching	-12.1993
▁realiz	-12.1994
▁tumors	-12.2001
drive	-12.2005
▁Joon	-12.2006
▁seams	-12.2013
▁sisters	-12.2016
ria	-12.202
▁nails	-12.2024
ES	-12.2025
▁faced	-12.2027
▁regulate	-12.2031
plan	-12.2033
▁contour	-12.2034
▁Ko	-12.2036
▁smelled	-12.2039
▁latte	-12.204
▁exhibit	-12.2041
▁bankrupt	-12.2042
▁foster	-12.2042
▁Industry	-12.2042
▁Tower	-12.2042
▁garment	-12.2042
▁honeymoon	-12.2042
▁marble	-12.2042
▁memorable	-12.2042
▁query	-12.2042
▁salaries	-12.2042
▁scheme	-12.2042
▁sweep	-12.2042
▁plot	-12.2042
▁damaging	-12.2042
▁tropical	-12.2042
▁Select	-12.2042
▁lawsuit	-12.2042
▁Property	-12.2042
▁clue	-12.2042
▁Spray	-12.2043
▁Temple	-12.2043
▁conductivity	-12.2043
▁multifunctional	-12.2043
▁corona	-12.2043
▁breakthrough	-12.2043
▁slap	-12.2045
▁coke	-12.2045
▁moon	-12.2045
▁Totally	-12.2045
▁Ryu	-12.2045
▁prediction	-12.2045
▁soldier	-12.2046
▁aunt	-12.2047
▁conclude	-12.2047
▁coil	-12.2047
▁artistic	-12.2048
▁invented	-12.2048
▁crowded	-12.2048
▁interpreter	-12.2051
▁compliance	-12.2051
▁failures	-12.2053
▁refreshed	-12.2053
gar	-12.2053
▁fooled	-12.2057
cul	-12.2058
▁threats	-12.2065
▁Mine	-12.2066
▁jjigae	-12.2068
▁organs	-12.2069
▁emphasized	-12.207
▁grooming	-12.2075
▁robotics	-12.2078
▁Nu	-12.2082
▁mono	-12.2087
▁scraps	-12.2088
▁Together	-12.2103
▁fate	-12.2112
▁Easter	-12.2112
▁dock	-12.2131
▁shocking	-12.2143
grain	-12.2145
▁cu	-12.2148
All	-12.215
01	-12.2152
▁caring	-12.2156
▁64	-12.2162
▁impress	-12.2168
48	-12.2169
▁Ban	-12.217
▁rep	-12.2175
▁Adjust	-12.2176
▁Visit	-12.2177
▁Cross	-12.2177
▁KRW	-12.2177
▁Museum	-12.2177
▁Ocean	-12.2177
▁Sunbae	-12.2177
▁VAT	-12.2177
▁acceleration	-12.2177
▁assembling	-12.2177
▁communities	-12.2177
▁comparable	-12.2177
▁consequences	-12.2177
▁eldest	-12.2177
▁embroidery	-12.2177
▁frequencies	-12.2177
▁manuscript	-12.2177
▁molecules	-12.2177
▁protocol	-12.2177
▁urethane	-12.2177
▁Prepare	-12.2177
▁autograph	-12.2178
▁discoloration	-12.2178
▁itchy	-12.2178
▁Absolutely	-12.2178
▁terrible	-12.2178
ealand	-12.2178
▁framework	-12.2178
▁hike	-12.2178
▁plush	-12.2179
▁pole	-12.2181
▁stolen	-12.2181
▁otherwise	-12.2183
▁prosperity	-12.2184
▁revolution	-12.2188
pic	-12.2188
▁problematic	-12.2189
▁Speaking	-12.2192
▁diapers	-12.2192
▁fiction	-12.2194
▁stretchy	-12.2195
▁breeding	-12.2199
▁visually	-12.22
▁140	-12.2204
▁respected	-12.2215
▁greatest	-12.2232
▁Bed	-12.224
▁freshly	-12.2247
▁enterprises	-12.2256
▁scored	-12.2256
▁understandable	-12.2265
▁gaps	-12.2266
atch	-12.227
week	-12.2272
ography	-12.2281
▁tales	-12.2285
▁tubes	-12.2288
▁reopen	-12.2296
▁360-	-12.2297
▁trail	-12.2301
▁tick	-12.2302
▁irritate	-12.2303
▁expose	-12.2303
▁bloom	-12.2306
▁traces	-12.2308
duct	-12.2313
▁hazard	-12.2314
▁Merry	-12.2314
▁Nowadays	-12.2314
▁Pretty	-12.2314
▁belief	-12.2314
▁bluetooth	-12.2314
▁buffer	-12.2314
▁complications	-12.2314
▁grocery	-12.2314
▁tobacco	-12.2314
▁harmonize	-12.2314
▁relay	-12.2314
▁Hades	-12.2314
▁immersive	-12.2314
▁Cheongyang	-12.2315
▁campsite	-12.2315
▁repurchase	-12.2315
▁cuff	-12.2315
▁classify	-12.2315
▁Eunwoo	-12.2316
▁LAN	-12.2316
▁charity	-12.2316
▁fade	-12.2316
▁occurring	-12.2316
▁knitting	-12.2317
▁reporter	-12.2317
▁Kung	-12.2318
▁Jongwon	-12.2319
▁belong	-12.232
▁responsive	-12.232
biotic	-12.2321
▁Generally	-12.2324
▁Yi	-12.2329
▁blended	-12.2337
▁union	-12.2337
▁Hwa	-12.2345
▁controllers	-12.2346
▁annually	-12.2348
round	-12.2351
▁tapes	-12.2353
▁201	-12.2354
▁PO	-12.2364
▁juniors	-12.2367
▁collaborated	-12.2372
jong	-12.2376
▁providers	-12.2377
▁envelopes	-12.238
▁caps	-12.2384
▁directed	-12.2386
bling	-12.2388
▁damp	-12.2389
▁CE	-12.239
18	-12.2394
▁decorati	-12.2399
▁headquarter	-12.2401
ddy	-12.2403
▁implants	-12.2412
▁burnt	-12.2431
▁excuses	-12.2432
▁cent	-12.2436
▁grilling	-12.2438
▁retire	-12.2441
▁39	-12.2444
▁ruin	-12.2445
▁Administration	-12.2453
▁Beef	-12.2453
▁Kingdom	-12.2453
▁Wrong	-12.2453
▁Yukgaejang	-12.2453
▁bronze	-12.2453
▁chestnut	-12.2453
▁complie	-12.2453
▁crumb	-12.2453
▁elbow	-12.2453
▁exploring	-12.2453
▁faux	-12.2453
▁fraud	-12.2453
▁gravity	-12.2453
▁occupant	-12.2453
▁prosthetic	-12.2453
▁barrel	-12.2453
▁modular	-12.2453
▁diving	-12.2453
▁afar	-12.2453
▁Geum	-12.2454
▁separation	-12.2454
▁grace	-12.2454
▁fellow	-12.2454
▁deduction	-12.2454
▁debit	-12.2454
▁sequentially	-12.2455
▁Touch	-12.2455
▁laughter	-12.2455
▁fox	-12.2455
▁mindset	-12.2456
▁acidity	-12.2457
▁outline	-12.2458
▁Hard	-12.246
▁fashionable	-12.2465
▁melted	-12.2468
▁repellent	-12.247
▁Boy	-12.247
▁feeding	-12.2471
▁loosen	-12.2474
▁learners	-12.2476
cation	-12.2477
▁ter	-12.248
250	-12.248
▁paired	-12.2481
▁darker	-12.2481
13	-12.2481
▁oysters	-12.2482
▁steamer	-12.2488
▁blogs	-12.2506
▁massager	-12.2512
jun	-12.2516
▁Bri	-12.2525
▁PR	-12.2526
LE	-12.2526
▁valued	-12.2534
-3	-12.254
lie	-12.2543
▁cookie	-12.2546
▁particle	-12.2546
efficient	-12.2551
national	-12.2552
▁yards	-12.2553
▁Post	-12.2572
▁interpret	-12.2576
▁deduct	-12.2586
▁Foreign	-12.2593
▁Chicago	-12.2594
▁Demand	-12.2594
▁Gyeongbokgung	-12.2594
▁Logistics	-12.2594
▁Measure	-12.2594
▁Shampoo	-12.2594
▁Slightly	-12.2594
▁cognitive	-12.2594
▁commuting	-12.2594
▁embedded	-12.2594
▁gesture	-12.2594
▁ketchup	-12.2594
▁knives	-12.2594
▁magnesium	-12.2594
▁navigate	-12.2594
▁phishing	-12.2594
▁qualification	-12.2594
▁souvenir	-12.2594
▁trauma	-12.2594
▁twenty	-12.2594
▁vaccination	-12.2594
▁vibe	-12.2594
▁viral	-12.2594
▁diversity	-12.2594
▁vapor	-12.2594
▁Skin	-12.2594
▁funeral	-12.2594
▁Down	-12.2594
▁Saerok	-12.2594
▁trimmer	-12.2594
▁whip	-12.2594
▁relieving	-12.2594
▁interference	-12.2594
▁Woojae	-12.2594
▁stake	-12.2594
▁emitted	-12.2595
▁fluent	-12.2595
▁antivirus	-12.2595
▁Yeonsu	-12.2595
▁firewall	-12.2595
▁scarf	-12.2595
▁fancy	-12.2596
▁95	-12.2597
▁stimulating	-12.26
▁56	-12.26
▁blessing	-12.2601
▁stacked	-12.2603
▁timeshare	-12.2603
▁pending	-12.2604
▁Grill	-12.2605
▁binding	-12.2606
▁warn	-12.2607
▁mustard	-12.2608
▁resellers	-12.2608
▁sliced	-12.2609
▁consuming	-12.261
▁burner	-12.2624
▁indicators	-12.2628
▁molded	-12.2636
▁operational	-12.2643
▁Sh	-12.2648
▁workshops	-12.2648
▁blower	-12.265
hye	-12.2651
▁addresses	-12.2652
▁enhanc	-12.2653
▁nut	-12.2669
CC	-12.2674
▁Butter	-12.2676
MR	-12.2681
▁consumables	-12.2685
95	-12.2695
▁agreeing	-12.2702
▁Tak	-12.272
▁filtering	-12.2726
▁detach	-12.2727
▁deploy	-12.2728
suing	-12.2735
▁Voice	-12.2737
▁bibim	-12.2737
▁occurrence	-12.2737
▁Agricultural	-12.2737
▁Hannah	-12.2737
▁Itaewon	-12.2737
▁Local	-12.2737
▁Tteokbokki	-12.2737
▁buckwheat	-12.2737
▁equity	-12.2737
▁essay	-12.2737
▁fluffy	-12.2737
▁indispensable	-12.2737
▁infringement	-12.2737
▁lady	-12.2737
▁liberal	-12.2737
▁marry	-12.2737
▁persimmon	-12.2737
▁polyurethane	-12.2737
▁radioactive	-12.2737
▁supervisor	-12.2737
▁surfactant	-12.2737
▁unreasonable	-12.2737
▁keen	-12.2737
▁Though	-12.2737
▁influencers	-12.2737
▁Soobin	-12.2737
▁Saori	-12.2737
▁masterpiece	-12.2738
▁rejection	-12.2739
deok	-12.2739
▁digestion	-12.2739
shirts	-12.2739
▁pub	-12.274
▁primer	-12.2741
▁allowance	-12.2742
▁Dual	-12.2742
▁partially	-12.2742
▁polished	-12.2742
▁crafts	-12.2743
▁straighten	-12.2743
,900	-12.2744
▁Size	-12.2747
▁adjustments	-12.2748
▁erased	-12.2754
▁ace	-12.2761
cheong	-12.2762
▁lies	-12.2771
▁Improve	-12.2773
rio	-12.2777
▁Clo	-12.2778
▁Marine	-12.2783
▁carbohydrates	-12.2784
▁contributed	-12.2784
▁upgrades	-12.279
bang	-12.2792
rrow	-12.2801
▁Reservations	-12.2812
▁wounds	-12.2823
rac	-12.2829
▁66	-12.283
▁cone	-12.2832
▁eliminat	-12.2834
▁citizen	-12.2836
charge	-12.2839
maker	-12.284
saving	-12.2841
▁attraction	-12.2841
▁Ahhhhh	-12.2842
28	-12.2844
▁nozzles	-12.2847
▁calculations	-12.2848
▁construct	-12.2853
iff	-12.2854
nie	-12.2854
sil	-12.2863
▁Consumers	-12.2863
▁cheat	-12.2864
46	-12.2872
▁mugs	-12.2881
▁Agency	-12.2882
▁Beijing	-12.2882
▁Camera	-12.2882
▁abdominal	-12.2882
▁cruise	-12.2882
▁diffuser	-12.2882
▁epidemic	-12.2882
▁interchangeable	-12.2882
▁jjamppong	-12.2882
▁necessity	-12.2882
▁neither	-12.2882
▁omega	-12.2882
▁parsley	-12.2882
▁trillion	-12.2882
▁unacceptable	-12.2882
▁Amazon	-12.2882
▁Resources	-12.2882
▁caramel	-12.2882
▁rabbit	-12.2882
▁segment	-12.2882
▁ventilator	-12.2882
▁Eyy	-12.2882
▁ribbed	-12.2882
▁wavelength	-12.2882
▁hydration	-12.2882
▁gluten	-12.2883
▁Shake	-12.2883
employed	-12.2888
▁encrypted	-12.2889
▁emerged	-12.2889
▁acceptance	-12.289
▁Um	-12.2893
MP	-12.2896
▁disruptions	-12.2897
▁sufficiently	-12.2902
▁landing	-12.2906
▁oat	-12.2907
▁barriers	-12.2907
▁pastel	-12.2914
▁bearing	-12.2915
▁routes	-12.2931
▁9,000	-12.2935
▁Environmental	-12.2935
lely	-12.2938
▁DC	-12.294
▁doubled	-12.2942
▁geo	-12.2943
▁Yut	-12.2951
chon	-12.2958
▁dots	-12.2959
tex	-12.296
▁presenter	-12.2963
▁Creat	-12.2976
▁2012	-12.2977
▁Th	-12.2978
4%	-12.298
▁tint	-12.2982
dang	-12.2982
screen	-12.2985
▁crystals	-12.2994
▁5000	-12.301
▁satisfie	-12.3017
▁None	-12.3018
▁sponsor	-12.3021
▁enroll	-12.3021
▁seamless	-12.3025
▁polite	-12.3025
▁listings	-12.3025
▁Hawaii	-12.3028
▁explosion	-12.3029
▁jjajang	-12.3029
▁Introduce	-12.3029
▁Level	-12.3029
▁ammonia	-12.3029
▁cavities	-12.3029
▁dakgalbi	-12.3029
▁dispute	-12.3029
▁enamel	-12.3029
▁enemy	-12.3029
▁feather	-12.3029
▁metabolism	-12.3029
▁motivation	-12.3029
▁repetitive	-12.3029
▁rookie	-12.3029
▁sirloin	-12.3029
▁Cotton	-12.3029
▁Strawberry	-12.3029
▁jaw	-12.3029
▁freshener	-12.3029
▁awake	-12.3029
▁rug	-12.3029
▁Gyeongju	-12.3029
▁LNG	-12.3029
▁IPO	-12.303
▁Normally	-12.3031
▁tries	-12.3032
▁Arin	-12.3033
▁discarded	-12.3033
▁referrals	-12.3036
▁sporty	-12.3038
▁beforehand	-12.3038
▁surfing	-12.304
▁flex	-12.3042
▁cursed	-12.3042
▁Classic	-12.3049
▁neighbors	-12.3054
▁Gun	-12.3062
▁protest	-12.3065
wood	-12.3075
▁expressing	-12.3075
▁belongs	-12.3089
▁blowing	-12.3097
▁hardest	-12.31
▁emotion	-12.3101
▁captured	-12.311
▁Note	-12.312
▁cartridge	-12.3135
▁eyebrow	-12.3136
infrared	-12.3136
seon	-12.3139
▁bloggers	-12.315
▁soothes	-12.3156
▁swe	-12.3166
▁disclose	-12.3167
▁recycle	-12.3167
▁convention	-12.3172
pul	-12.3172
▁browse	-12.3176
▁Comfort	-12.3177
▁respective	-12.3177
aneous	-12.3178
▁Steam	-12.3178
▁witness	-12.3178
▁Doctor	-12.3178
▁Education	-12.3178
▁Province	-12.3178
▁accelerator	-12.3178
▁cumulative	-12.3178
▁desert	-12.3178
▁fought	-12.3178
▁handicraft	-12.3178
▁investigating	-12.3178
▁joking	-12.3178
▁metallic	-12.3178
▁obesity	-12.3178
▁province	-12.3178
▁retention	-12.3178
▁scroll	-12.3178
▁slept	-12.3178
▁stabilization	-12.3178
▁grid	-12.3178
▁rehabilitation	-12.3178
▁cattle	-12.3178
▁Guess	-12.3178
▁bounce	-12.3178
▁submission	-12.3178
▁southern	-12.3178
▁multivitamin	-12.3178
▁election	-12.3179
▁sunny	-12.3179
▁drainage	-12.3179
▁Jump	-12.3179
▁confidentiality	-12.3179
▁conform	-12.318
▁painful	-12.3181
▁roasted	-12.3182
▁quilted	-12.3184
▁flawless	-12.3184
▁handy	-12.3193
▁slower	-12.32
▁rated	-12.3201
verge	-12.3204
▁finalized	-12.3209
▁Joo	-12.3211
▁wiper	-12.3216
▁2011	-12.3216
▁Uncle	-12.3225
ride	-12.3231
▁flooring	-12.3235
▁hill	-12.3235
care	-12.3241
▁thrown	-12.3244
▁modeling	-12.3245
▁ondol	-12.3246
▁Book	-12.3249
▁painted	-12.3253
▁450	-12.3261
▁partitions	-12.3263
▁creamy	-12.3272
▁expire	-12.3278
▁Ice	-12.3283
▁tokens	-12.3283
app	-12.3285
strength	-12.3287
distance	-12.3287
▁bolt	-12.329
▁postcards	-12.3295
▁insect	-12.3297
▁Key	-12.3299
▁shea	-12.3304
TO	-12.3306
▁robotic	-12.3307
gung	-12.3312
wind	-12.3316
▁43	-12.3317
▁scold	-12.3322
sea	-12.3322
▁sketch	-12.3328
▁tang	-12.3328
▁Dragon	-12.333
▁Google	-12.333
▁Kakao	-12.333
▁balcony	-12.333
▁cheonggukjang	-12.333
▁fifty	-12.333
▁glue	-12.333
▁heavier	-12.333
▁housewives	-12.333
▁mackerel	-12.333
▁orientation	-12.333
▁perhaps	-12.333
▁potassium	-12.333
▁spatula	-12.333
▁sterilizing	-12.333
▁watermelon	-12.333
▁Money	-12.333
▁liability	-12.333
▁droplets	-12.333
▁trimming	-12.333
▁blemishes	-12.333
▁PET	-12.333
▁Santa	-12.333
▁cellphone	-12.3331
▁flute	-12.3331
▁preview	-12.3331
gae	-12.3332
▁headband	-12.3333
▁Government	-12.3335
lee	-12.3335
▁pounds	-12.3338
▁evolved	-12.3339
▁dermatologists	-12.334
▁1080	-12.3342
▁Tech	-12.3345
open	-12.3349
▁hemorrhoids	-12.3349
▁planted	-12.3351
▁exploded	-12.3358
▁greetings	-12.3364
▁designate	-12.3366
010	-12.3393
▁stamps	-12.3405
▁compensated	-12.3408
▁themes	-12.3414
▁connectors	-12.3421
▁detecting	-12.3421
▁cows	-12.3422
▁episodes	-12.3433
88	-12.3435
ene	-12.3441
priced	-12.3441
▁divid	-12.3442
▁belongings	-12.3446
▁mussel	-12.3446
▁matched	-12.3465
▁convince	-12.3472
▁fundamental	-12.348
chul	-12.3482
▁Commercial	-12.3484
▁Delicious	-12.3484
▁Festival	-12.3484
▁Night	-12.3484
▁Seaweed	-12.3484
▁administrative	-12.3484
▁committee	-12.3484
▁diversify	-12.3484
▁picnic	-12.3484
▁platinum	-12.3484
▁stood	-12.3484
▁Nolbu	-12.3484
▁Respect	-12.3484
▁chalk	-12.3484
▁macro	-12.3484
▁psychology	-12.3484
▁arranging	-12.3484
▁Jehoon	-12.3484
▁Cell	-12.3484
▁premises	-12.3484
▁subtract	-12.3484
▁Powerful	-12.3485
▁ergonomically	-12.3485
▁itching	-12.3485
▁rotor	-12.3486
▁Minji	-12.3486
▁fruitful	-12.3487
▁leadership	-12.3487
zi	-12.3488
tial	-12.3489
▁brilliant	-12.349
82	-12.349
ella	-12.349
▁buses	-12.3493
▁vertically	-12.3493
gan	-12.3496
▁destroyed	-12.3497
nia	-12.3497
▁tilted	-12.3498
▁faucets	-12.3501
ural	-12.3502
▁Radio	-12.3506
▁centered	-12.3507
scopic	-12.351
▁infected	-12.3511
▁edited	-12.3512
▁legally	-12.3514
▁pioneering	-12.3514
▁cheaply	-12.3519
cast	-12.3522
▁desktops	-12.3531
▁rolled	-12.3536
▁MB	-12.3539
▁rewarding	-12.3542
DC	-12.3544
▁Wall	-12.355
▁Founde	-12.3557
30,000	-12.3561
▁theaters	-12.3563
▁ill	-12.3576
▁Geo	-12.3577
range	-12.3581
▁headlights	-12.3583
▁160	-12.3585
alcoholic	-12.3597
season	-12.3597
▁dim	-12.36
ventilated	-12.3602
▁paraben	-12.3604
▁blends	-12.3604
▁mechanic	-12.3619
▁Cook	-12.3624
▁Mart	-12.3628
▁fails	-12.363
▁scholar	-12.364
▁Corporate	-12.364
▁Girl	-12.364
▁Resort	-12.364
▁Scared	-12.364
▁Senior	-12.364
▁Windows	-12.364
▁butterflies	-12.364
▁continent	-12.364
▁duplicate	-12.364
▁fluctuate	-12.364
▁kilometers	-12.364
▁newlyweds	-12.364
▁occupation	-12.364
▁offshore	-12.364
▁peripheral	-12.364
▁spaghetti	-12.364
▁underneath	-12.364
▁Golf	-12.364
▁beggar	-12.364
▁leap	-12.364
▁racket	-12.364
▁Flip	-12.364
▁multimedia	-12.364
▁recreation	-12.364
▁accompanied	-12.3641
▁Jeonju	-12.3642
▁DJ	-12.3642
▁dividend	-12.3642
▁microbi	-12.3642
▁dramatic	-12.3643
▁programmer	-12.3644
▁moderately	-12.3645
▁landline	-12.3646
▁Same	-12.3648
▁modem	-12.3649
▁suspected	-12.365
▁granted	-12.3652
▁blackout	-12.3653
▁CDs	-12.3658
▁Win	-12.3658
▁pod	-12.3659
▁cracked	-12.3659
▁replaceable	-12.3661
▁stockings	-12.3662
▁heels	-12.3663
▁CA	-12.3666
▁tightening	-12.3666
cade	-12.367
rok	-12.367
▁killed	-12.3676
▁Arm	-12.3681
▁traveler	-12.3682
85	-12.3683
▁Bin	-12.3683
▁illuminate	-12.3685
14	-12.3688
▁Player	-12.3688
94	-12.369
▁tender	-12.37
itch	-12.3701
▁complaining	-12.3702
▁ties	-12.3706
▁simpler	-12.3707
AD	-12.3716
▁256	-12.3733
▁fresher	-12.3749
▁monitored	-12.3753
▁Tan	-12.3756
together	-12.3756
▁oyster	-12.3766
▁modification	-12.3766
▁emission	-12.3769
▁tangerines	-12.3772
▁lean	-12.3779
▁CM	-12.3781
▁soften	-12.3785
▁0.3	-12.379
▁publications	-12.3791
▁chill	-12.3795
ncluding	-12.3797
▁info	-12.3798
▁Success	-12.3798
▁royal	-12.3798
▁Battery	-12.3799
▁Convenient	-12.3799
▁Cosmetics	-12.3799
▁Leader	-12.3799
▁absurd	-12.3799
▁accumulation	-12.3799
▁breeze	-12.3799
▁brick	-12.3799
▁cereal	-12.3799
▁chives	-12.3799
▁customizable	-12.3799
▁homeowner	-12.3799
▁incidence	-12.3799
▁mankind	-12.3799
▁neutrino	-12.3799
▁plating	-12.3799
▁preferential	-12.3799
▁subtitle	-12.3799
▁synthesis	-12.3799
▁termination	-12.3799
▁tournament	-12.3799
▁neural	-12.3799
▁tasty	-12.3799
▁Smell	-12.3799
▁banned	-12.3799
▁Complex	-12.3799
▁tutorial	-12.3799
▁legendary	-12.3799
▁scanned	-12.3799
▁biology	-12.3799
▁EVA	-12.38
▁Kyu	-12.38
▁Dark	-12.38
▁Adjustable	-12.38
▁encouragement	-12.38
▁postponement	-12.3802
▁objection	-12.3802
▁tester	-12.3803
▁poop	-12.3803
▁linkage	-12.3803
▁fortunately	-12.3804
▁mic	-12.3804
▁Side	-12.3808
▁butcher	-12.3809
▁commercialized	-12.381
IM	-12.3813
▁Cat	-12.3818
▁reset	-12.3819
▁meta	-12.382
▁stripe	-12.3827
▁2.4	-12.3831
▁qua	-12.3831
▁viewer	-12.384
▁supplemented	-12.3842
▁Top	-12.3842
▁textured	-12.3847
▁Warm	-12.386
▁Combin	-12.3863
▁Ni	-12.3872
▁Meeting	-12.3885
▁Main	-12.3886
▁mute	-12.3886
▁recovering	-12.3887
▁Bang	-12.3901
▁Hani	-12.3904
wash	-12.392
produced	-12.3924
▁pigs	-12.3925
▁pill	-12.393
▁finely	-12.3933
▁deriv	-12.3941
▁Ei	-12.3948
clean	-12.3951
▁caf	-12.3956
nspired	-12.3958
▁scrub	-12.396
▁Cheorwon	-12.396
▁Executive	-12.396
▁Greek	-12.396
▁Massage	-12.396
▁Pizza	-12.396
▁Virtual	-12.396
▁collateral	-12.396
▁cramp	-12.396
▁decreasing	-12.396
▁enormous	-12.396
▁hanbok	-12.396
▁mugwort	-12.396
▁ointment	-12.396
▁pollen	-12.396
▁rugged	-12.396
▁panoram	-12.396
▁saddle	-12.396
idibidibidibidib	-12.396
▁Gyeongsang	-12.396
▁Single	-12.396
▁Walk	-12.396
▁regenerate	-12.396
▁ASAP	-12.396
▁abide	-12.396
▁tendency	-12.396
▁Program	-12.396
▁handwriting	-12.396
▁Myeong	-12.396
▁capability	-12.3961
▁Fire	-12.3961
▁Chef	-12.3961
▁discipline	-12.3961
▁downloading	-12.3961
▁fence	-12.3961
ntegrated	-12.3962
▁desperately	-12.3963
▁Yeong	-12.3963
lined	-12.3971
NG	-12.3971
pin	-12.3976
▁attaches	-12.3981
▁Fourth	-12.3984
▁rob	-12.3987
▁refused	-12.399
bari	-12.3993
▁lag	-12.3993
▁intern	-12.3996
▁kicked	-12.3998
00,000	-12.3998
fused	-12.4
▁cul	-12.4003
▁Ke	-12.4004
izer	-12.4004
▁54	-12.4021
▁yearly	-12.4023
▁Mar	-12.4028
▁transformer	-12.403
▁cucumbers	-12.4035
▁combat	-12.404
gul	-12.4041
caus	-12.4052
▁bathing	-12.4055
OR	-12.4056
▁Pan	-12.4066
▁forming	-12.4066
▁Sound	-12.4079
function	-12.4081
noise	-12.4093
▁threat	-12.4096
▁neighbor	-12.4096
▁magnets	-12.4099
▁hamburgers	-12.4103
▁Cheers	-12.4108
IP	-12.4108
▁boys	-12.4109
▁integrat	-12.4111
▁violate	-12.4112
▁disrupt	-12.4115
▁champion	-12.4124
▁Photo	-12.4124
▁cabin	-12.4124
▁Bitcoin	-12.4124
▁Equipment	-12.4124
▁Material	-12.4124
▁Regular	-12.4124
▁Typical	-12.4124
▁apparel	-12.4124
▁contributing	-12.4124
▁dandruff	-12.4124
▁dissatisfaction	-12.4124
▁dumbbell	-12.4124
▁expenditure	-12.4124
▁eyeliner	-12.4124
▁fantasy	-12.4124
▁legitimate	-12.4124
▁lobster	-12.4124
▁monoxide	-12.4124
▁murder	-12.4124
▁persuade	-12.4124
▁reborn	-12.4124
▁recyclable	-12.4124
▁victim	-12.4124
▁Sky	-12.4124
19	-12.4124
▁Yeonkyung	-12.4124
▁existence	-12.4124
▁spit	-12.4125
▁dump	-12.4125
▁Studio	-12.4125
▁Block	-12.4126
▁Fold	-12.4127
▁seamlessly	-12.4128
▁abandoned	-12.4129
▁hospitalization	-12.4129
▁ATM	-12.413
▁Knowing	-12.413
▁canvas	-12.4131
▁2013	-12.4131
▁folds	-12.4133
▁recruited	-12.4135
▁informally	-12.4135
▁82	-12.4139
▁remodeled	-12.4141
▁negatively	-12.4142
▁sprinkler	-12.4143
▁128	-12.4146
▁proceeded	-12.4155
▁starter	-12.4157
▁perfection	-12.4158
▁Farm	-12.4161
▁deer	-12.4163
69	-12.4165
pad	-12.4174
bok	-12.4176
-10	-12.4177
▁dam	-12.4183
▁Chu	-12.4187
▁braces	-12.4187
ised	-12.419
minated	-12.4194
▁purposely	-12.4197
▁antioxidants	-12.4197
▁2002	-12.4201
absorbing	-12.4202
▁Far	-12.4203
▁slots	-12.4205
▁Plant	-12.4208
▁appetizers	-12.421
▁variables	-12.4216
▁stretching	-12.422
▁Wood	-12.4229
▁commerce	-12.4229
▁nerves	-12.4243
leading	-12.4248
sensitive	-12.4248
Joo	-12.4248
96	-12.4251
▁seals	-12.4253
▁Mars	-12.4255
rine	-12.426
▁cigarettes	-12.4266
▁founder	-12.4268
seater	-12.4269
yeol	-12.4271
▁accessing	-12.4273
▁confuse	-12.4279
▁inspire	-12.4279
eun	-12.4283
▁Mal	-12.4284
▁crisp	-12.4286
▁Total	-12.4288
▁batch	-12.429
▁Construct	-12.429
▁Basic	-12.429
▁Captain	-12.429
▁Luckily	-12.429
▁confess	-12.429
▁dishwashing	-12.429
▁fingertips	-12.429
▁grease	-12.429
▁kettle	-12.429
▁kindergarten	-12.429
▁mobiliz	-12.429
▁mountaineering	-12.429
▁mysterious	-12.429
▁occupy	-12.429
▁plasma	-12.429
▁rinsing	-12.429
▁sluggish	-12.429
▁snail	-12.429
▁stethoscope	-12.429
▁sulfur	-12.429
▁unavailable	-12.429
▁workforce	-12.429
▁asleep	-12.429
▁inverter	-12.429
▁marinated	-12.429
▁Exhibition	-12.429
phenol	-12.429
▁podcast	-12.429
▁trimmed	-12.429
▁chopping	-12.4291
▁spatial	-12.4291
MO	-12.4291
▁airbag	-12.4292
▁football	-12.4292
▁unified	-12.4293
▁stressful	-12.4293
▁cube	-12.4294
▁powdered	-12.4297
▁hunting	-12.4297
▁adventures	-12.4298
▁Around	-12.4299
▁boldly	-12.4299
▁Core	-12.4303
▁dresses	-12.4303
▁galbi	-12.4307
tap	-12.4308
▁aired	-12.4308
▁cleared	-12.4329
door	-12.4329
▁Mode	-12.4333
▁Pad	-12.4338
▁layered	-12.4343
▁nicely	-12.4345
▁timeless	-12.435
▁Gyeong	-12.4358
IT	-12.4361
creasingly	-12.4363
39	-12.4365
huh	-12.4367
▁sorting	-12.4379
directional	-12.4397
▁satisfying	-12.44
▁villas	-12.4403
right	-12.4403
▁400,000	-12.4414
cellular	-12.4417
length	-12.4417
precision	-12.4417
▁incentives	-12.4418
▁Sae	-12.442
▁pins	-12.4432
▁regulation	-12.4439
▁Tap	-12.4449
▁Engineer	-12.4454
▁Dubai	-12.446
▁Foam	-12.446
▁Francisco	-12.446
▁Garlic	-12.446
▁Inventory	-12.446
▁LPG	-12.446
▁Penalty	-12.446
▁Print	-12.446
▁Ulsan	-12.446
▁Vehicle	-12.446
▁biodegradable	-12.446
▁crayon	-12.446
▁culprit	-12.446
▁horror	-12.446
▁knob	-12.446
▁lukewarm	-12.446
▁manicure	-12.446
▁predecessor	-12.446
▁stagnant	-12.446
▁sympathize	-12.446
▁unparalleled	-12.446
▁valley	-12.446
▁variant	-12.446
▁variation	-12.446
▁versatility	-12.446
▁divorce	-12.446
▁penthouse	-12.446
▁relocate	-12.446
▁Smith	-12.446
▁accent	-12.446
▁insulin	-12.446
▁pause	-12.446
▁conjunction	-12.446
▁metropolitan	-12.446
▁tariff	-12.446
▁Modern	-12.446
▁revert	-12.446
▁shredder	-12.446
▁overclocking	-12.446
▁roommate	-12.446
▁immersion	-12.446
▁Sample	-12.446
▁packet	-12.446
▁Jinhyuk	-12.446
▁Sungjae	-12.446
▁Space	-12.446
▁citron	-12.446
▁Faci	-12.4461
▁midnight	-12.4461
▁laver	-12.4461
▁clipper	-12.4461
▁bowel	-12.4461
▁sake	-12.4462
▁guesthouse	-12.4462
▁2014	-12.4464
▁transferring	-12.4464
▁tents	-12.4464
cepti	-12.4465
▁Tax	-12.4465
▁intensively	-12.4466
▁endorse	-12.4467
uickly	-12.4468
▁cultivated	-12.4469
▁discovery	-12.447
rated	-12.4474
▁lesson	-12.4475
▁bumper	-12.4477
▁soaked	-12.4478
▁burned	-12.4483
▁End	-12.4485
▁bossam	-12.4488
▁addressed	-12.4492
▁creatures	-12.4495
▁shells	-12.4498
▁offset	-12.4508
▁sorted	-12.4512
core	-12.4523
▁toddlers	-12.4526
▁usability	-12.4528
ley	-12.4529
▁4%	-12.4529
▁sanding	-12.4531
▁ensur	-12.4532
▁biometrics	-12.4543
stand	-12.4564
▁contractors	-12.4564
▁Jja	-12.458
▁clams	-12.4581
▁2,500	-12.4585
▁59	-12.4591
around	-12.4591
▁markers	-12.46
▁pearls	-12.4605
▁knead	-12.4613
▁Orders	-12.4613
▁Electronic	-12.4614
changing	-12.4619
▁genres	-12.4621
jip	-12.4622
▁subscriber	-12.4624
▁distinct	-12.4631
▁latch	-12.4631
▁volcan	-12.4631
▁entrepreneurs	-12.4632
▁prosper	-12.4632
▁outsource	-12.4632
▁synap	-12.4632
▁Accurate	-12.4632
▁Barbie	-12.4632
▁FOB	-12.4632
▁Genuine	-12.4632
▁Moisture	-12.4632
▁Patients	-12.4632
▁Plastic	-12.4632
▁Pohang	-12.4632
▁Surprising	-12.4632
▁attorney	-12.4632
▁bookshelf	-12.4632
▁bungalow	-12.4632
▁collaborative	-12.4632
▁decay	-12.4632
▁envy	-12.4632
▁mandatory	-12.4632
▁mozzarella	-12.4632
▁oxidation	-12.4632
▁phenomena	-12.4632
▁prominent	-12.4632
▁shaft	-12.4632
▁smiling	-12.4632
▁ssamjang	-12.4632
▁wisdom	-12.4632
▁wrestling	-12.4632
▁API	-12.4632
▁Alzheimer	-12.4632
▁Heavy	-12.4632
▁caution	-12.4632
▁clutch	-12.4632
▁handkerchief	-12.4632
▁typing	-12.4632
▁typo	-12.4632
▁Brand	-12.4632
▁mystery	-12.4632
▁hardened	-12.4632
▁jackpot	-12.4632
▁lamb	-12.4632
▁eyeshadow	-12.4632
▁tangled	-12.4632
▁edible	-12.4632
▁hydrated	-12.4632
▁musicians	-12.4632
▁exchanging	-12.4632
▁Round	-12.4633
▁countertop	-12.4633
▁dormant	-12.4633
▁transporting	-12.4633
▁stickiness	-12.4633
▁oversee	-12.4633
▁trainee	-12.4634
▁adaptive	-12.4634
▁Anyang	-12.4636
▁submitting	-12.4638
▁conveyor	-12.4641
▁debuted	-12.4643
▁ripen	-12.4644
▁convinced	-12.4645
▁ml	-12.4649
▁indicates	-12.4649
▁followers	-12.4652
▁Learning	-12.4657
▁Needles	-12.4659
▁classical	-12.4665
▁190	-12.4672
▁Taehyun	-12.4672
▁hatch	-12.468
▁pie	-12.4684
▁earbuds	-12.4686
▁Charge	-12.4696
gyu	-12.4697
▁Soyeon	-12.4698
▁fighter	-12.4702
▁3000	-12.4707
suk	-12.4714
▁financially	-12.4715
▁metric	-12.4716
▁Personal	-12.4718
▁reporters	-12.4727
▁jumping	-12.4735
bul	-12.4739
▁Chun	-12.4743
railway	-12.4751
gye	-12.4756
▁compartments	-12.4761
hae	-12.4764
▁scanners	-12.4765
▁flyer	-12.4765
catching	-12.4765
mentioned	-12.4765
written	-12.4765
What	-12.4765
copy	-12.4765
▁ions	-12.4767
▁coolly	-12.4779
▁curves	-12.4779
bone	-12.4785
▁splash	-12.4787
▁costly	-12.479
▁rib	-12.4793
▁reseller	-12.4796
atu	-12.4804
▁wearer	-12.4806
▁Blend	-12.4808
▁Access	-12.4808
▁DIY	-12.4808
▁Pharmaceutical	-12.4808
▁Texas	-12.4808
▁blouse	-12.4808
▁cybersecurity	-12.4808
▁evaluating	-12.4808
▁floral	-12.4808
▁gangster	-12.4808
▁glucose	-12.4808
▁hesitant	-12.4808
▁patronage	-12.4808
▁primarily	-12.4808
▁revenge	-12.4808
▁scheduling	-12.4808
▁transparency	-12.4808
▁lodging	-12.4808
▁shelter	-12.4808
▁tuning	-12.4808
OOOOOO	-12.4808
▁udon	-12.4808
▁Film	-12.4808
▁Tongyeong	-12.4808
▁updating	-12.4808
▁angel	-12.4808
▁humidification	-12.4808
▁chipset	-12.4808
▁ramp	-12.4808
▁Yujin	-12.4808
▁dude	-12.4808
▁ouch	-12.4808
▁clog	-12.4808
▁Log	-12.4809
▁blueprint	-12.4809
▁dropping	-12.4809
▁respectful	-12.481
▁vend	-12.481
▁95%	-12.4812
▁motivated	-12.4813
elling	-12.4813
▁Goja	-12.4813
▁farmer	-12.4815
▁Hwan	-12.4817
▁showroom	-12.4818
▁wisely	-12.4818
34	-12.4819
▁polishing	-12.4824
▁stitching	-12.4826
▁Gas	-12.483
▁dependent	-12.4834
▁Lab	-12.4836
▁Direct	-12.484
▁lender	-12.4844
▁tid	-12.4854
▁instructors	-12.4858
▁cartridges	-12.4859
▁PU	-12.4863
▁noon	-12.4863
▁dose	-12.4865
▁ironing	-12.4878
▁Ham	-12.4879
▁await	-12.4885
hhhhhhhhhhhhh	-12.4887
oom	-12.4902
PF	-12.4904
▁Cham	-12.4908
▁overdo	-12.4911
▁Lie	-12.4915
▁seating	-12.4923
▁manipulat	-12.4933
▁mod	-12.4936
plate	-12.494
watch	-12.4943
market	-12.4944
dollar	-12.4944
added	-12.4945
ati	-12.4947
▁CS	-12.4948
soft	-12.4952
▁CT	-12.4957
▁dine	-12.496
▁dermatologist	-12.4974
▁deteriorate	-12.4975
▁pound	-12.4977
▁concerning	-12.4978
▁desperate	-12.4983
amine	-12.4984
▁weaken	-12.4984
▁disorders	-12.4985
▁sheep	-12.4986
▁CIF	-12.4986
▁Mexican	-12.4986
▁Public	-12.4986
▁VPN	-12.4986
▁analytics	-12.4986
▁dissolve	-12.4986
▁financing	-12.4986
▁flexibly	-12.4986
▁guiding	-12.4986
▁newsletter	-12.4986
▁recession	-12.4986
▁unauthorized	-12.4986
▁vanilla	-12.4986
▁microplastics	-12.4986
▁Pasta	-12.4986
▁alliance	-12.4986
▁giant	-12.4986
▁argue	-12.4986
▁Performance	-12.4986
▁canopy	-12.4986
▁bride	-12.4987
▁criticized	-12.4987
▁vase	-12.4987
▁shipbuilding	-12.4987
▁hahaha	-12.4987
▁tapping	-12.4987
▁seawater	-12.4987
▁handbag	-12.4987
▁Certainly	-12.4988
▁speechless	-12.4988
▁sweatshirt	-12.4989
▁Box	-12.499
▁passage	-12.499
▁immersed	-12.4993
▁Robots	-12.4996
▁Model	-12.4996
▁forgetting	-12.4996
▁informative	-12.4996
▁deployed	-12.4997
▁distant	-12.4997
▁loosened	-12.4997
▁severely	-12.5005
▁homemade	-12.5009
▁bonding	-12.5029
▁Spa	-12.5053
▁tearing	-12.5053
rae	-12.5061
▁overlaps	-12.5067
hak	-12.507
▁evolution	-12.5092
▁bam	-12.5095
▁Mini	-12.5103
ancy	-12.5117
stream	-12.5124
carbon	-12.5126
raised	-12.5129
▁electro	-12.513
▁maximiz	-12.5136
You	-12.5141
40,000	-12.5151
logical	-12.5154
ducing	-12.5154
afe	-12.5155
▁88	-12.5156
▁evolve	-12.5157
▁Robot	-12.5158
▁referral	-12.5159
▁athlete	-12.5159
▁align	-12.516
▁trans	-12.5164
▁assignments	-12.5167
▁Monitor	-12.5168
▁Pfizer	-12.5168
▁Samgyetang	-12.5168
▁Toronto	-12.5168
▁allergens	-12.5168
▁anchovies	-12.5168
▁arbitrarily	-12.5168
▁elegance	-12.5168
▁fracture	-12.5168
▁globe	-12.5168
▁hologram	-12.5168
▁leggings	-12.5168
▁lesion	-12.5168
▁miracle	-12.5168
▁naked	-12.5168
▁nonsense	-12.5168
▁reliably	-12.5168
▁resilience	-12.5168
▁reusable	-12.5168
▁screwdriver	-12.5168
▁triangular	-12.5168
▁wifi	-12.5168
▁ABC	-12.5168
▁faint	-12.5168
▁methane	-12.5168
▁gown	-12.5168
▁nowhere	-12.5168
▁sunset	-12.5169
▁footprint	-12.5169
▁PPL	-12.5169
▁1999	-12.517
▁occupie	-12.5172
▁stitch	-12.5173
▁Publishing	-12.5173
▁Lip	-12.5174
▁runner	-12.5175
▁Para	-12.5175
▁RV	-12.5176
▁dice	-12.5177
▁willingness	-12.5178
▁skinny	-12.518
▁localization	-12.518
▁delicately	-12.5181
▁poisoning	-12.5185
▁solo	-12.5186
berry	-12.5187
▁KC	-12.5187
▁renowned	-12.5188
▁2005	-12.5192
▁permanently	-12.5194
CO	-12.5197
▁stylishly	-12.521
▁proved	-12.5213
▁rot	-12.523
▁cushioned	-12.5233
▁digesti	-12.5237
▁placement	-12.524
SS	-12.5252
▁Haven	-12.5252
▁abs	-12.5259
▁sentences	-12.5265
ima	-12.5265
▁washer	-12.5274
ility	-12.5285
▁tier	-12.5287
▁needles	-12.5289
connect	-12.5303
▁specialists	-12.5305
link	-12.5311
bedroom	-12.5311
famous	-12.5311
▁hated	-12.5317
▁PP	-12.5318
away	-12.5319
▁Speak	-12.5334
49	-12.5336
ette	-12.5337
▁reorganize	-12.5341
pun	-12.5344
▁obstacle	-12.5348
▁thigh	-12.5349
▁nurse	-12.5353
▁jewel	-12.5353
▁architect	-12.5353
▁surpass	-12.5353
▁Brush	-12.5353
▁Family	-12.5353
▁Little	-12.5353
▁Precise	-12.5353
▁Search	-12.5353
▁athletic	-12.5353
▁circulating	-12.5353
▁context	-12.5353
▁cowhide	-12.5353
▁euros	-12.5353
▁excavator	-12.5353
▁feast	-12.5353
▁flew	-12.5353
▁grammar	-12.5353
▁innovate	-12.5353
▁medication	-12.5353
▁nursing	-12.5353
▁pediatric	-12.5353
▁possibly	-12.5353
▁remarkable	-12.5353
▁syringe	-12.5353
▁trousers	-12.5353
▁Stream	-12.5353
▁sediment	-12.5353
▁stunning	-12.5353
▁Common	-12.5353
▁Continuous	-12.5353
▁upward	-12.5353
▁blush	-12.5353
▁waybill	-12.5353
▁sought	-12.5354
▁exert	-12.5354
▁reinforcement	-12.5354
▁OMR	-12.5354
cia	-12.5354
▁Fix	-12.5355
▁absorbent	-12.5355
▁Active	-12.5355
▁visualization	-12.5356
▁Mapo	-12.5357
▁Setting	-12.5358
▁backbone	-12.5358
▁bench	-12.5359
▁midst	-12.536
▁passive	-12.536
▁2009	-12.5361
key	-12.5363
▁Accounting	-12.5365
▁withdrawn	-12.5368
▁rails	-12.5371
▁knowledgeable	-12.5371
▁collapsed	-12.5372
▁sterilized	-12.5374
▁Engineering	-12.5375
▁backlight	-12.5377
▁faithfully	-12.5377
▁230	-12.538
▁wasted	-12.5391
reum	-12.5391
▁stall	-12.5392
▁fungi	-12.5395
29	-12.5398
▁butler	-12.5403
PM	-12.5403
▁manipulate	-12.5408
▁tin	-12.5417
▁tar	-12.5422
▁Items	-12.5459
▁communicated	-12.546
▁pile	-12.547
▁counting	-12.5473
lop	-12.5475
▁permits	-12.5478
▁props	-12.5496
wha	-12.5497
vision	-12.5498
note	-12.5506
sale	-12.5507
▁Die	-12.5507
▁expresse	-12.5512
▁disturb	-12.5514
▁cooled	-12.5519
▁Learn	-12.5522
rgan	-12.5523
▁fuse	-12.5526
▁compress	-12.553
▁Attach	-12.5534
EPA	-12.5534
▁Drive	-12.5538
▁dozen	-12.554
▁Maintain	-12.5542
▁cluster	-12.5542
▁coexist	-12.5542
▁flick	-12.5542
fledged	-12.5542
▁ABS	-12.5542
▁Application	-12.5542
▁Pardon	-12.5542
▁Prize	-12.5542
▁Securities	-12.5542
▁Washington	-12.5542
▁abrasive	-12.5542
▁backyard	-12.5542
▁bellflower	-12.5542
▁butterfly	-12.5542
▁caliper	-12.5542
▁contemporary	-12.5542
▁controversy	-12.5542
▁coordination	-12.5542
▁dehumidifier	-12.5542
▁dignity	-12.5542
▁initiate	-12.5542
▁magnification	-12.5542
▁osteoporosis	-12.5542
▁parallel	-12.5542
▁restoration	-12.5542
▁soggy	-12.5542
▁varnish	-12.5542
▁Parents	-12.5542
▁Pension	-12.5542
▁armrest	-12.5542
▁overcharged	-12.5542
www	-12.5542
▁Forward	-12.5542
▁Shoes	-12.5542
▁logging	-12.5542
▁unused	-12.5542
▁galbitang	-12.5542
▁vocal	-12.5542
▁IOT	-12.5542
▁Wrap	-12.5542
▁rotten	-12.5542
▁citrus	-12.5542
▁Prime	-12.5542
▁luster	-12.5542
▁Glad	-12.5543
▁Draw	-12.5543
▁Import	-12.5544
volt	-12.5544
▁Nine	-12.5546
▁instructed	-12.5547
▁breakage	-12.5548
▁intuitively	-12.5552
▁login	-12.5552
▁2008	-12.5553
ku	-12.5555
▁outbreak	-12.5555
▁regulated	-12.5559
▁cave	-12.556
▁injected	-12.5561
▁Mark	-12.5562
▁Wind	-12.5562
▁splashing	-12.5563
1000	-12.5569
▁survived	-12.5578
▁softens	-12.558
▁filtered	-12.5585
▁melting	-12.559
▁inch	-12.5593
▁employer	-12.5598
▁Paul	-12.5605
▁8%	-12.5615
26	-12.5623
▁dreamed	-12.5623
123	-12.5624
fashioned	-12.5624
▁neutralize	-12.5639
▁Eco	-12.5639
100,000	-12.5641
reach	-12.5647
▁lap	-12.5648
risk	-12.5669
▁shaped	-12.568
▁vs	-12.5684
conscious	-12.5692
channel	-12.5692
school	-12.5692
dried	-12.5692
▁checkup	-12.571
▁synthesize	-12.5714
▁Wang	-12.5721
▁Central	-12.5734
▁DREAM	-12.5734
▁Filipino	-12.5734
▁Hanseung	-12.5734
▁Jessie	-12.5734
▁Vegetable	-12.5734
▁adequate	-12.5734
▁chronograph	-12.5734
▁chueotang	-12.5734
▁copied	-12.5734
▁cycling	-12.5734
▁feasible	-12.5734
▁graduation	-12.5734
▁idiot	-12.5734
▁napkin	-12.5734
▁obsessed	-12.5734
▁reconfirm	-12.5734
▁refrigeration	-12.5734
▁sensing	-12.5734
▁spike	-12.5734
▁stubborn	-12.5734
▁sunbae	-12.5734
▁swivel	-12.5734
▁trophy	-12.5734
▁typewriter	-12.5734
▁unprecedented	-12.5734
▁Economic	-12.5734
▁Foot	-12.5734
▁Front	-12.5734
▁Speed	-12.5734
▁sentiment	-12.5734
▁spore	-12.5734
▁webcam	-12.5734
▁whiskey	-12.5734
▁sweetener	-12.5734
▁immuno	-12.5734
▁anode	-12.5734
▁Sungjoo	-12.5735
▁Taesung	-12.5735
▁western	-12.5735
▁limb	-12.5735
▁asthma	-12.5735
▁Orange	-12.5735
▁uneven	-12.5735
-1234	-12.5736
▁Comfortable	-12.5736
▁conch	-12.5736
▁pixel	-12.5736
▁profitability	-12.5736
▁disorder	-12.5737
▁assignment	-12.5737
▁reassured	-12.5737
▁detective	-12.5737
▁devoted	-12.5738
▁Patented	-12.5739
▁hunter	-12.5739
▁stopper	-12.5743
▁whiteboard	-12.5743
▁Max	-12.5743
▁dragon	-12.5744
▁influencer	-12.5745
▁365	-12.5746
Co	-12.575
▁Cold	-12.575
▁Wide	-12.5752
▁OLED	-12.5753
EC	-12.5755
▁resolv	-12.5759
trip	-12.5763
▁Mina	-12.5766
▁unexpectedly	-12.5767
▁CO	-12.5795
▁Dumplings	-12.5798
▁Sook	-12.5802
▁Case	-12.5807
foreseen	-12.5811
zy	-12.5818
▁jumper	-12.5823
road	-12.5824
▁nipples	-12.5832
▁flaws	-12.5832
▁sprayer	-12.5845
▁Books	-12.5851
▁danced	-12.5856
iz	-12.5869
▁marking	-12.5873
▁UI	-12.5875
▁Hous	-12.5877
AL	-12.5887
winning	-12.5888
controlled	-12.5888
▁PT	-12.589
went	-12.5892
▁1,200	-12.5902
▁rounded	-12.5906
▁enabled	-12.5908
▁Par	-12.5918
▁crowd	-12.5922
▁invent	-12.5922
proving	-12.5923
▁indirect	-12.5927
▁Original	-12.5927
▁sustain	-12.5929
▁interrupt	-12.593
▁monk	-12.593
▁turtle	-12.593
▁crawl	-12.593
genital	-12.593
▁Egg	-12.593
▁Instagram	-12.593
▁Scientist	-12.593
▁Switzerland	-12.593
▁adjacent	-12.593
▁anchovy	-12.593
▁fluoride	-12.593
▁frog	-12.593
▁identical	-12.593
▁latency	-12.593
▁necessities	-12.593
▁paradigm	-12.593
▁petroleum	-12.593
▁prevalen	-12.593
▁radiant	-12.593
▁sacrifice	-12.593
▁thawing	-12.593
▁tweezer	-12.593
▁vacancy	-12.593
▁vibrant	-12.593
▁yukgaejang	-12.593
▁midsole	-12.593
▁Record	-12.593
▁motto	-12.593
▁permeate	-12.593
▁Motor	-12.5931
▁foreclosure	-12.5931
▁Tourism	-12.5931
▁slush	-12.5931
▁Winter	-12.5931
▁mink	-12.5931
▁Lisa	-12.5931
▁engagement	-12.5931
▁suitcase	-12.5931
▁chop	-12.5931
▁sportswear	-12.5931
▁chase	-12.5932
▁Report	-12.5932
▁Drop	-12.5932
▁composer	-12.5932
▁specs	-12.5932
▁Lake	-12.5933
▁Geol	-12.5934
▁combo	-12.5934
▁gameplay	-12.5934
▁merger	-12.5935
▁tidy	-12.5935
▁reflective	-12.5935
▁Writer	-12.5936
▁Early	-12.5936
▁participant	-12.5937
▁overlooked	-12.5938
▁Dance	-12.5938
▁reflection	-12.5939
rous	-12.5941
▁inspector	-12.5945
▁summarized	-12.595
▁Poly	-12.595
▁clinically	-12.5953
plated	-12.5954
diluted	-12.5956
▁practically	-12.5961
▁incorporated	-12.5968
36	-12.5978
erie	-12.5986
▁sowing	-12.5996
▁vo	-12.6009
▁cheeks	-12.6011
▁visualize	-12.6035
▁digitally	-12.6037
▁KT	-12.604
TM	-12.6049
▁fixtures	-12.605
ency	-12.6056
uch	-12.6057
68	-12.6065
▁Revolution	-12.6066
process	-12.6069
wel	-12.6072
▁magical	-12.6072
▁winding	-12.6076
▁avoided	-12.6077
Korean	-12.6088
keeping	-12.6088
▁Seol	-12.609
▁prospects	-12.6093
fast	-12.6096
▁relie	-12.6102
▁leftovers	-12.6105
▁badly	-12.6106
bab	-12.6117
▁warrant	-12.6126
ibility	-12.613
▁procure	-12.613
operative	-12.613
▁scam	-12.613
historic	-12.613
▁scout	-12.613
▁Chapter	-12.613
▁Chief	-12.613
▁Fashion	-12.613
▁Lock	-12.613
▁Octopus	-12.613
▁Wife	-12.613
▁captivate	-12.613
▁fencing	-12.613
▁frustration	-12.613
▁gamjatang	-12.613
▁grandchildren	-12.613
▁gukbap	-12.613
▁helicopter	-12.613
▁integral	-12.613
▁japchae	-12.613
▁longevity	-12.613
▁lubricant	-12.613
▁multiplayer	-12.613
▁nanotechnology	-12.613
▁perovskite	-12.613
▁prejudice	-12.613
▁prosecutor	-12.613
▁siblings	-12.613
▁subdivided	-12.613
▁sujebi	-12.613
▁upstairs	-12.613
▁vascular	-12.613
▁veteran	-12.613
▁Brown	-12.613
▁Snow	-12.613
▁antibiotics	-12.613
▁eyesight	-12.613
▁probiotics	-12.613
▁Automobile	-12.613
▁Damus	-12.613
▁Tomato	-12.613
▁hyaluron	-12.613
▁coral	-12.613
▁IPTV	-12.613
▁graphene	-12.613
▁railroad	-12.613
▁interworking	-12.6131
▁criticism	-12.6131
▁HDMI	-12.6131
▁gigabytes	-12.6131
destructive	-12.6131
▁thus	-12.6131
▁assess	-12.6131
▁deployment	-12.6131
▁sparkling	-12.6131
▁salespeople	-12.6131
▁1960	-12.6133
▁HDR	-12.6133
▁Proper	-12.6133
▁concealer	-12.6133
▁suicide	-12.6134
▁neglected	-12.6135
▁celebrating	-12.6136
▁workspace	-12.6136
▁musk	-12.6138
▁horizontally	-12.614
▁Chae	-12.614
▁trace	-12.6141
▁pajama	-12.6141
▁hoodie	-12.6141
▁renovated	-12.6142
▁computerized	-12.6143
▁capitalist	-12.6147
▁2004	-12.6153
▁purity	-12.6154
uction	-12.6169
▁Table	-12.6169
inc	-12.6171
▁Tire	-12.6173
▁plea	-12.6175
▁Secondly	-12.6176
▁dimension	-12.6181
▁appropriately	-12.6184
▁bun	-12.6185
▁humble	-12.6185
NF	-12.6196
▁5.0	-12.6196
▁260	-12.6197
▁grabbe	-12.6198
▁49	-12.6198
▁Jam	-12.6199
234	-12.6205
▁aqua	-12.6205
▁appealing	-12.6212
▁intervals	-12.622
▁CC	-12.6223
hoe	-12.6225
▁pairing	-12.6226
ngji	-12.6249
▁copying	-12.6254
gged	-12.6269
rack	-12.629
tight	-12.6291
world	-12.6292
production	-12.6292
adjust	-12.6296
▁2.0	-12.6297
tmost	-12.6304
▁determin	-12.6306
▁steaming	-12.6307
▁authoriz	-12.6307
ryong	-12.6313
nvesting	-12.6325
▁absolute	-12.6331
▁Glass	-12.6333
▁Dental	-12.6335
▁Gently	-12.6335
▁Gomtang	-12.6335
▁Graphic	-12.6335
▁Limited	-12.6335
▁Nature	-12.6335
▁Organic	-12.6335
▁Pilates	-12.6335
▁Pretend	-12.6335
▁audiovisual	-12.6335
▁bathrobe	-12.6335
▁chaotic	-12.6335
▁defeat	-12.6335
▁distortion	-12.6335
▁enthusiasm	-12.6335
▁exotic	-12.6335
▁expedition	-12.6335
▁heritage	-12.6335
▁influential	-12.6335
▁leash	-12.6335
▁sunflower	-12.6335
▁therapeutic	-12.6335
▁turmeric	-12.6335
▁unpredictable	-12.6335
▁wheelchair	-12.6335
▁Squid	-12.6335
▁boundaries	-12.6335
focal	-12.6335
▁Point	-12.6335
▁rocket	-12.6335
▁Ulleungdo	-12.6335
▁Packaging	-12.6335
▁array	-12.6335
▁alkaline	-12.6335
▁scrubber	-12.6335
▁exemption	-12.6335
▁yen	-12.6335
▁pests	-12.6335
▁capacities	-12.6335
▁disability	-12.6335
▁yut	-12.6335
▁consistency	-12.6335
▁Board	-12.6335
▁Lotte	-12.6335
▁soaring	-12.6335
▁Bright	-12.6336
▁audition	-12.6336
▁EMS	-12.6336
▁collectible	-12.6337
▁latter	-12.6338
▁princess	-12.6338
▁gripper	-12.6338
▁clap	-12.6339
▁lion	-12.6339
suming	-12.6341
▁pierce	-12.6342
spiring	-12.6344
▁configured	-12.6346
▁grape	-12.635
US	-12.635
▁ignored	-12.6353
▁35%	-12.6356
▁bark	-12.6359
▁commissioned	-12.6362
▁rewarded	-12.6367
▁competitively	-12.6379
▁safest	-12.6381
▁oversized	-12.6385
▁nanoparticles	-12.6385
osis	-12.6389
▁influenced	-12.6389
▁Listening	-12.6394
▁projection	-12.6395
▁Clinical	-12.6401
▁windy	-12.6414
▁tracked	-12.6419
▁coli	-12.6424
Man	-12.6432
▁84	-12.6437
▁Gil	-12.6438
▁repairing	-12.6442
▁predicting	-12.6452
Singing	-12.646
break	-12.6486
▁handed	-12.6491
delivery	-12.65
frame	-12.65
▁critic	-12.6503
small	-12.6504
▁incorporat	-12.6516
processing	-12.6521
flat	-12.6524
▁renovate	-12.6531
▁dieting	-12.6536
▁execute	-12.6536
▁atmospher	-12.654
▁dispers	-12.6542
▁Bird	-12.6543
▁Chemical	-12.6543
▁Course	-12.6543
▁Crazy	-12.6543
▁Defense	-12.6543
▁Establish	-12.6543
▁Hunter	-12.6543
▁Jirisan	-12.6543
▁aggregate	-12.6543
▁anatomical	-12.6543
▁capturing	-12.6543
▁cathode	-12.6543
▁cautious	-12.6543
▁incomplete	-12.6543
▁integrity	-12.6543
▁jujube	-12.6543
▁liabilities	-12.6543
▁miniature	-12.6543
▁patties	-12.6543
▁physics	-12.6543
▁pledge	-12.6543
▁purify	-12.6543
▁receivable	-12.6543
▁romance	-12.6543
▁stadium	-12.6543
▁submarine	-12.6543
▁tactile	-12.6543
▁telecommuting	-12.6543
▁uncertain	-12.6543
▁unchanged	-12.6543
▁vaccinated	-12.6543
▁Display	-12.6543
▁Present	-12.6543
▁refreshments	-12.6543
▁Secure	-12.6543
▁Transfer	-12.6543
▁misleading	-12.6543
▁browsing	-12.6543
▁prostate	-12.6543
▁sandals	-12.6543
▁extinction	-12.6543
▁soared	-12.6543
▁Spring	-12.6543
▁Transportation	-12.6543
▁Lot	-12.6544
▁earthen	-12.6544
▁collectively	-12.6545
▁Chung	-12.6545
▁sail	-12.6546
▁snugly	-12.6546
▁evolving	-12.6546
▁dustproof	-12.6546
▁merit	-12.6547
▁curly	-12.6547
▁standardized	-12.6551
▁programmed	-12.6552
▁Offer	-12.6552
▁Compl	-12.6552
▁hotline	-12.6559
▁mixes	-12.6562
▁Sand	-12.6564
kwon	-12.6564
▁linear	-12.6566
▁acknowledged	-12.6574
loaded	-12.6577
uffle	-12.6578
▁preserved	-12.6579
▁brightly	-12.6589
going	-12.6591
pong	-12.6593
PP	-12.6596
▁laminate	-12.6597
rage	-12.6612
ump	-12.6614
▁corne	-12.6622
▁ON	-12.6624
▁FA	-12.6644
geun	-12.6645
ortic	-12.6649
▁Cast	-12.6665
position	-12.6675
Re	-12.6675
▁amicabl	-12.6677
500,000	-12.6679
UN	-12.6679
▁58	-12.6689
current	-12.6713
shipment	-12.6715
38	-12.6722
▁Bok	-12.6743
▁Name	-12.675
▁merge	-12.6751
▁mosquito	-12.6754
▁Need	-12.6754
▁Child	-12.6755
sumption	-12.6755
▁miles	-12.6755
▁moral	-12.6756
▁Eventually	-12.6756
▁HACCP	-12.6756
▁Makgeolli	-12.6756
▁Mugunghwa	-12.6756
▁Participant	-12.6756
▁Remote	-12.6756
▁Unconditionally	-12.6756
▁commodity	-12.6756
▁congestion	-12.6756
▁frost	-12.6756
▁harmonious	-12.6756
▁housewarming	-12.6756
▁kiosk	-12.6756
▁ladle	-12.6756
▁meditation	-12.6756
▁penetration	-12.6756
▁politics	-12.6756
▁portrait	-12.6756
▁psychiatri	-12.6756
▁render	-12.6756
▁volatile	-12.6756
▁chunk	-12.6756
▁litter	-12.6756
▁mimic	-12.6756
▁squat	-12.6756
▁Boston	-12.6756
▁nogari	-12.6756
▁filial	-12.6756
▁imprint	-12.6756
▁glare	-12.6756
▁isolation	-12.6756
▁overlapping	-12.6756
▁Replace	-12.6756
▁skateboard	-12.6756
▁Club	-12.6756
▁cough	-12.6756
▁relocation	-12.6756
▁procurement	-12.6756
▁Dongjun	-12.6756
▁janggu	-12.6757
▁Sejong	-12.6757
▁bait	-12.6757
▁GHz	-12.6757
▁1998	-12.6757
▁transplantation	-12.6758
▁deny	-12.6758
▁unclear	-12.6758
▁Protection	-12.6758
▁1990	-12.6758
plugged	-12.6759
▁bunker	-12.676
▁jab	-12.676
▁privilege	-12.676
▁Ansan	-12.676
▁600,000	-12.6761
▁referee	-12.6764
▁threaten	-12.6767
▁Joy	-12.6769
▁diver	-12.6769
▁miller	-12.6772
▁scented	-12.6774
▁Chew	-12.6776
▁Olympic	-12.6779
▁skit	-12.6779
▁25,000	-12.6781
▁Parkin	-12.6788
▁Heart	-12.6789
▁borrower	-12.6794
▁MT	-12.6795
▁12,000	-12.6799
▁skewers	-12.6817
▁Bad	-12.682
▁Pig	-12.6823
86	-12.6825
geum	-12.6827
▁0.1	-12.683
▁Gae	-12.6831
▁revealing	-12.6836
Gb	-12.6855
▁Want	-12.6857
▁converting	-12.686
kka	-12.6865
▁Choo	-12.6867
▁beating	-12.6873
▁polar	-12.6874
▁quoted	-12.6874
▁3.0	-12.6878
▁overlook	-12.6879
▁cooperated	-12.6896
▁Environment	-12.6897
▁opener	-12.6897
hair	-12.6904
▁Fund	-12.6908
source	-12.6915
mission	-12.6923
stock	-12.6928
volume	-12.6931
factor	-12.6931
second	-12.6931
▁hack	-12.6942
▁polish	-12.6945
user	-12.6949
▁curl	-12.695
▁Laugh	-12.6953
▁poison	-12.6953
▁spell	-12.6953
▁revolutionize	-12.6956
▁separat	-12.6957
▁cultivate	-12.6961
▁suppose	-12.6961
▁expo	-12.6963
▁accomplish	-12.6965
▁reuse	-12.697
▁chic	-12.6972
▁tutor	-12.6973
▁horizon	-12.6973
Commerce	-12.6973
▁Attention	-12.6973
▁Audio	-12.6973
▁Bridge	-12.6973
▁DDR	-12.6973
▁Gimbap	-12.6973
▁JUNHO	-12.6973
▁Leather	-12.6973
▁Lunch	-12.6973
▁Manufacturing	-12.6973
▁Movie	-12.6973
▁Official	-12.6973
▁Polish	-12.6973
▁Require	-12.6973
▁Silver	-12.6973
▁Summer	-12.6973
▁True	-12.6973
▁Yeouido	-12.6973
▁abdomen	-12.6973
▁acupressure	-12.6973
▁analyst	-12.6973
▁clogging	-12.6973
▁dazzling	-12.6973
▁dermatitis	-12.6973
▁downstairs	-12.6973
▁ethics	-12.6973
▁exaggeration	-12.6973
▁garnish	-12.6973
▁marathon	-12.6973
▁rehearsal	-12.6973
▁sampling	-12.6973
▁sensible	-12.6973
▁tarnish	-12.6973
▁unattended	-12.6973
▁unloading	-12.6973
▁violent	-12.6973
▁myocardi	-12.6973
▁Medium	-12.6973
▁Airlines	-12.6973
▁Text	-12.6973
▁disassemble	-12.6973
▁liable	-12.6973
▁cliff	-12.6973
▁Triple	-12.6973
▁Unique	-12.6973
▁presume	-12.6973
▁prosperous	-12.6973
▁Jooyoung	-12.6973
▁pirate	-12.6973
▁checkered	-12.6974
▁Sunyoung	-12.6974
▁nonfiction	-12.6974
▁RPM	-12.6974
▁mock	-12.6974
▁Jongwook	-12.6974
▁Rich	-12.6974
▁OST	-12.6974
▁Nose	-12.6974
▁sex	-12.6975
▁Bill	-12.6976
▁skyrocketed	-12.6976
▁enhancement	-12.6978
▁politely	-12.6979
▁satin	-12.6979
▁deformed	-12.6979
▁Completely	-12.698
▁weakened	-12.6983
▁Naturally	-12.6984
▁travelling	-12.6984
▁Roman	-12.6984
▁mania	-12.6985
▁coolant	-12.6989
▁Bag	-12.699
▁binder	-12.6991
▁eraser	-12.6992
▁worm	-12.6993
▁comprehensively	-12.6994
▁independence	-12.7001
▁Consumer	-12.7001
▁additive	-12.7002
▁transformed	-12.7003
▁reopening	-12.7004
▁Reading	-12.7007
▁leftover	-12.7009
▁Headquarters	-12.701
eye	-12.7017
▁patiently	-12.7025
▁ventilate	-12.7026
▁awarded	-12.703
▁cellular	-12.7031
▁weeds	-12.7036
▁ban	-12.704
▁spilling	-12.7041
▁tract	-12.7049
sleeved	-12.7054
most	-12.7056
▁Fun	-12.7057
350	-12.7068
▁maximized	-12.7074
eci	-12.709
▁63	-12.7096
▁loser	-12.7104
▁GO	-12.7109
well	-12.711
▁angled	-12.7115
▁Koo	-12.7124
▁Increase	-12.7132
wook	-12.7133
chip	-12.7137
▁mud	-12.7139
jjigae	-12.7153
scented	-12.7153
energy	-12.7153
eul	-12.7156
▁1980	-12.7164
▁prospect	-12.7174
▁Fight	-12.7176
▁quilt	-12.7187
atisfaction	-12.7194
▁Trans	-12.7195
▁supple	-12.7195
▁DBDBDBDIP	-12.7195
▁Dishwasher	-12.7195
▁Dutch	-12.7195
▁Hollywood	-12.7195
▁Protein	-12.7195
▁Recommend	-12.7195
▁Similar	-12.7195
▁Sokcho	-12.7195
▁Visual	-12.7195
▁announcing	-12.7195
▁antibodies	-12.7195
▁argument	-12.7195
▁baggage	-12.7195
▁chores	-12.7195
▁clumsy	-12.7195
▁compost	-12.7195
▁declining	-12.7195
▁fragment	-12.7195
▁idiom	-12.7195
▁intervention	-12.7195
▁motif	-12.7195
▁prestigious	-12.7195
▁radius	-12.7195
▁reputable	-12.7195
▁shiitake	-12.7195
▁shrink	-12.7195
▁stipulate	-12.7195
▁substantial	-12.7195
▁translucent	-12.7195
▁troubleshoot	-12.7195
▁wanna	-12.7195
▁parameters	-12.7195
▁Carrot	-12.7195
▁yolk	-12.7195
▁ballet	-12.7195
▁Sugar	-12.7196
▁Tiger	-12.7196
▁parasite	-12.7196
▁hazardous	-12.7196
▁Geumak	-12.7196
▁Finger	-12.7196
▁pleasing	-12.7196
▁Dongyeop	-12.7196
▁gentlemen	-12.7196
▁Process	-12.7196
▁childcare	-12.7196
▁resale	-12.7197
▁Law	-12.7198
▁dart	-12.7198
▁pond	-12.7198
▁probe	-12.7198
▁dent	-12.7198
▁WiFi	-12.7199
▁Nano	-12.7199
▁patches	-12.72
▁polystyrene	-12.7201
▁Page	-12.7204
▁daycare	-12.7205
▁Party	-12.7206
▁Rent	-12.7206
▁hypertension	-12.7208
▁tub	-12.7208
▁deteriorated	-12.721
▁Pour	-12.721
▁Sub	-12.7225
▁reproduced	-12.7231
▁Malaysian	-12.7231
▁cigarette	-12.7236
▁rotational	-12.7241
▁Jia	-12.7241
empt	-12.7251
▁Bye	-12.7266
▁bot	-12.7297
ough	-12.7316
▁Gwa	-12.7319
▁blast	-12.7322
die	-12.7324
▁cop	-12.7326
▁sleepy	-12.7331
▁lotus	-12.7334
▁sweater	-12.734
▁walked	-12.7366
43	-12.7369
HP	-12.7372
▁bind	-12.7377
▁teache	-12.7377
field	-12.738
claim	-12.7385
▁304	-12.7386
▁pumping	-12.7398
▁acquir	-12.7406
▁Finish	-12.7414
▁prince	-12.7419
hyang	-12.742
ynthetic	-12.7422
Whistle	-12.7422
▁Assistant	-12.7422
▁Credit	-12.7422
▁Guarantee	-12.7422
▁Major	-12.7422
▁Morning	-12.7422
▁Prior	-12.7422
▁Republic	-12.7422
▁Sesame	-12.7422
▁cafeteria	-12.7422
▁centimeters	-12.7422
▁chamber	-12.7422
▁constitution	-12.7422
▁decisive	-12.7422
▁delicacy	-12.7422
▁deterioration	-12.7422
▁happier	-12.7422
▁housewife	-12.7422
▁impaired	-12.7422
▁ladder	-12.7422
▁negotiable	-12.7422
▁rectify	-12.7422
▁scalability	-12.7422
▁sequence	-12.7422
▁situated	-12.7422
▁snorkeling	-12.7422
▁steep	-12.7422
▁unisex	-12.7422
▁Training	-12.7422
▁ambulance	-12.7422
▁clasp	-12.7422
▁digging	-12.7422
▁griddle	-12.7422
▁lymph	-12.7422
▁pallet	-12.7422
▁rival	-12.7422
▁Network	-12.7423
▁Nordic	-12.7423
▁Thankfully	-12.7423
▁regrettable	-12.7423
▁Detect	-12.7423
▁DBMS	-12.7423
▁specialties	-12.7423
▁emergencies	-12.7423
▁veterinarian	-12.7423
▁goggles	-12.7423
▁Yebin	-12.7423
▁incomparable	-12.7423
▁reconstruction	-12.7423
▁minimalist	-12.7423
▁Namsan	-12.7424
▁keycap	-12.7424
▁freshwater	-12.7424
▁Duck	-12.7426
▁billboard	-12.7426
▁hairpin	-12.7426
▁dug	-12.7427
▁postage	-12.7429
▁Eight	-12.7431
▁exceptionally	-12.7432
▁secretion	-12.7433
▁stretches	-12.7433
▁316	-12.7434
▁examin	-12.7435
▁FM	-12.7435
▁2006	-12.7436
▁analyzer	-12.744
▁overflowing	-12.744
▁retired	-12.7442
Do	-12.7452
▁calmly	-12.7455
▁Share	-12.7459
▁tangerine	-12.7461
looking	-12.747
▁finishes	-12.7471
▁hum	-12.7474
▁stretched	-12.7479
▁thinly	-12.7479
▁counted	-12.7484
▁Bob	-12.7484
▁Yeom	-12.7486
▁Disc	-12.7492
RT	-12.7499
▁raft	-12.7509
▁overcoming	-12.7517
▁Cleaning	-12.7518
▁1.3	-12.7522
▁2003	-12.7531
ita	-12.7532
▁seeker	-12.7532
eller	-12.7543
▁thesis	-12.7545
▁125	-12.7556
install	-12.7563
▁smarter	-12.7564
▁gastro	-12.7572
▁Nak	-12.7581
▁logic	-12.7588
oh	-12.7589
▁calming	-12.7595
coat	-12.76
OC	-12.7603
ground	-12.7608
development	-12.7612
developed	-12.7613
block	-12.7615
flu	-12.7619
cious	-12.7629
▁indicat	-12.7641
▁engrave	-12.7643
▁snug	-12.7652
▁automate	-12.7652
▁carbonate	-12.7652
▁Mount	-12.7655
vertebra	-12.7655
▁Blood	-12.7655
▁Branch	-12.7655
▁Clear	-12.7655
▁Delay	-12.7655
▁Dongdaemun	-12.7655
▁Future	-12.7655
▁KAIST	-12.7655
▁Marvel	-12.7655
▁Option	-12.7655
▁Pepper	-12.7655
▁Roughly	-12.7655
▁Traditional	-12.7655
▁Trainee	-12.7655
▁Transform	-12.7655
▁Turkey	-12.7655
▁Woman	-12.7655
▁Yellow	-12.7655
▁Yulmu	-12.7655
▁accumulating	-12.7655
▁carelessness	-12.7655
▁circumference	-12.7655
▁comparative	-12.7655
▁condensation	-12.7655
▁diploma	-12.7655
▁embrace	-12.7655
▁feasibility	-12.7655
▁pomegranate	-12.7655
▁pronounce	-12.7655
▁proposing	-12.7655
▁rectangular	-12.7655
▁sulfate	-12.7655
▁tablespoon	-12.7655
▁unemployment	-12.7655
▁unforgettable	-12.7655
▁vesicle	-12.7655
▁windshield	-12.7655
▁tricycle	-12.7655
▁Month	-12.7655
▁convergence	-12.7655
▁Latin	-12.7655
▁annex	-12.7655
▁Chuncheon	-12.7655
▁Gibok	-12.7655
▁housemate	-12.7655
▁Mask	-12.7655
▁streamlined	-12.7655
▁acute	-12.7655
▁afore	-12.7655
▁Samsung	-12.7655
▁Living	-12.7655
▁Wa	-12.7656
▁Tourist	-12.7656
▁Arabic	-12.7656
▁Apartment	-12.7656
▁eyelashes	-12.7656
▁drawback	-12.7656
▁footwear	-12.7656
▁abnormality	-12.7656
▁String	-12.7656
▁Judg	-12.7657
▁Collection	-12.7657
▁slit	-12.7657
▁playground	-12.7657
▁Corn	-12.7657
▁hail	-12.7658
▁vein	-12.7658
▁cage	-12.7658
▁discolored	-12.7659
▁blessed	-12.766
▁poke	-12.766
▁abuse	-12.766
▁redesigned	-12.7662
▁Match	-12.7662
▁softly	-12.7663
rban	-12.7665
worker	-12.7667
▁typically	-12.7671
city	-12.7672
▁quad	-12.7673
▁Specially	-12.7674
▁contractual	-12.7674
▁Relat	-12.7676
▁thoughtful	-12.7683
▁endured	-12.7686
▁redness	-12.7688
▁highlighted	-12.7692
▁2030	-12.7697
▁blogger	-12.7699
▁stealing	-12.7704
▁Ack	-12.7707
▁weave	-12.7709
No	-12.7709
rospective	-12.7721
frying	-12.7731
▁ox	-12.7733
▁consulted	-12.7738
hong	-12.7747
▁Rain	-12.7752
Phone	-12.7774
▁lacked	-12.7776
▁Late	-12.778
▁Cost	-12.7787
▁sixth	-12.7805
▁Fan	-12.7808
hun	-12.7814
MM	-12.7816
▁researches	-12.7817
joon	-12.7818
▁sourced	-12.7824
▁Must	-12.7825
▁Nei	-12.7833
▁EU	-12.7837
fresh	-12.785
irritating	-12.785
certified	-12.7851
drying	-12.7851
virus	-12.7853
▁locker	-12.7858
topic	-12.7862
▁tracker	-12.7874
▁RF	-12.7878
▁define	-12.7884
▁Char	-12.7888
volving	-12.7889
▁Pen	-12.7892
▁Operat	-12.7893
▁cinema	-12.7893
▁Admit	-12.7893
▁Afterward	-12.7893
▁Animal	-12.7893
▁Competition	-12.7893
▁Mushroom	-12.7893
▁Nintendo	-12.7893
▁Occasionally	-12.7893
▁Seattle	-12.7893
▁ampoule	-12.7893
▁clutter	-12.7893
▁constipation	-12.7893
▁depressed	-12.7893
▁destruction	-12.7893
▁embossed	-12.7893
▁emphasis	-12.7893
▁evil	-12.7893
▁flakes	-12.7893
▁fundraising	-12.7893
▁heartbreaking	-12.7893
▁introductory	-12.7893
▁jogger	-12.7893
▁luminous	-12.7893
▁recreate	-12.7893
▁reminiscent	-12.7893
▁simplify	-12.7893
▁tackle	-12.7893
▁tuition	-12.7893
▁universe	-12.7893
▁unrivaled	-12.7893
▁vibrating	-12.7893
▁Bibi	-12.7893
▁amateur	-12.7893
▁Noona	-12.7893
▁Planning	-12.7893
▁peppermint	-12.7893
▁tuned	-12.7893
▁revisit	-12.7893
▁Minister	-12.7893
▁neon	-12.7894
▁malt	-12.7894
▁migration	-12.7894
▁Eunhye	-12.7894
▁flush	-12.7894
▁Wonder	-12.7894
guksu	-12.7894
▁Banh	-12.7894
▁Siwon	-12.7894
▁Yura	-12.7895
▁Pants	-12.7895
▁popping	-12.7895
▁woof	-12.7895
▁unilaterally	-12.7896
▁organically	-12.7896
▁refract	-12.7896
▁airtight	-12.7896
▁simplified	-12.7897
▁sexy	-12.7898
▁emerge	-12.7899
fold	-12.79
▁restart	-12.7904
▁shaver	-12.7906
▁bytes	-12.791
▁executed	-12.791
▁economically	-12.7911
▁120,000	-12.7913
▁12%	-12.7916
▁admire	-12.792
▁strangely	-12.7922
▁Wonju	-12.7923
▁shortest	-12.7925
▁expandable	-12.7931
▁adapted	-12.7931
▁approached	-12.7938
▁restocking	-12.794
forming	-12.7944
▁drained	-12.7944
▁Cable	-12.7946
aries	-12.7951
▁remained	-12.7954
▁educated	-12.7958
▁Meal	-12.7966
chae	-12.7966
▁harvesting	-12.7969
▁Yun	-12.7972
▁rig	-12.7973
▁sweeter	-12.7983
▁fed	-12.8003
▁Sohee	-12.8004
▁Manage	-12.8004
▁Email	-12.8014
▁attacking	-12.8015
▁uploading	-12.803
▁scratching	-12.8031
60,000	-12.8035
▁periodic	-12.804
▁Purchase	-12.8042
▁HO	-12.8044
▁Col	-12.8045
▁Arrive	-12.8054
▁overload	-12.8054
▁figured	-12.8057
▁appearing	-12.8062
We	-12.8073
filled	-12.8075
▁Yoona	-12.8081
produce	-12.8082
gram	-12.8084
shabu	-12.8095
therapy	-12.8095
received	-12.8095
inspired	-12.8096
58	-12.8101
shot	-12.8113
▁Expo	-12.8113
▁cleanse	-12.8114
▁identifie	-12.8125
▁enclose	-12.8126
ez	-12.8127
▁blossom	-12.8129
▁Normal	-12.8133
▁simultaneous	-12.8133
▁Amazing	-12.8137
▁Angeles	-12.8137
▁Certification	-12.8137
▁Crystal	-12.8137
▁Dakgalbi	-12.8137
▁Disney	-12.8137
▁ETF	-12.8137
▁Finance	-12.8137
▁Innovative	-12.8137
▁accommodating	-12.8137
▁arrears	-12.8137
▁brunch	-12.8137
▁buried	-12.8137
▁carbide	-12.8137
▁cerebr	-12.8137
▁compromising	-12.8137
▁conglomerate	-12.8137
▁consolation	-12.8137
▁dedication	-12.8137
▁dopamine	-12.8137
▁drought	-12.8137
▁extraordinary	-12.8137
▁groceries	-12.8137
▁increment	-12.8137
▁instinct	-12.8137
▁league	-12.8137
▁paraffin	-12.8137
▁pavilion	-12.8137
▁prism	-12.8137
▁punctual	-12.8137
▁qualities	-12.8137
▁racquet	-12.8137
▁reissue	-12.8137
▁spout	-12.8137
▁strand	-12.8137
mmHg	-12.8137
▁atomic	-12.8137
▁Mongsil	-12.8137
▁Chungcheong	-12.8137
▁Osaka	-12.8137
▁sculpture	-12.8137
▁Device	-12.8137
▁allocation	-12.8137
▁Thick	-12.8137
▁cele	-12.8137
▁Treatment	-12.8137
▁internship	-12.8137
▁chopped	-12.8137
▁patio	-12.8137
▁disagreement	-12.8137
▁supervision	-12.8137
▁Seafood	-12.8138
▁distinctive	-12.8138
▁Guard	-12.8138
▁Likewise	-12.8138
▁disadvantageous	-12.8138
▁distinction	-12.8138
▁Cheol	-12.8138
▁Geun	-12.8138
▁lightning	-12.8138
▁peaches	-12.8139
ounce	-12.8139
▁Suite	-12.8139
▁History	-12.8139
▁sensational	-12.8139
▁thirsty	-12.8139
▁SIM	-12.814
▁undercooked	-12.814
▁Pink	-12.814
▁Bread	-12.8141
▁mapping	-12.8141
▁preset	-12.8143
▁chilly	-12.8144
▁downturn	-12.8144
▁legend	-12.8144
▁bankbook	-12.8147
▁Fabric	-12.8149
▁Pacific	-12.8149
▁echo	-12.8151
▁bloomed	-12.8152
refundable	-12.8153
▁mentally	-12.8158
▁workflow	-12.8158
▁irritated	-12.8158
▁Action	-12.8163
▁borrowed	-12.8169
▁mAh	-12.8171
▁Insun	-12.8178
▁entertainer	-12.8179
▁appoint	-12.8184
▁bothered	-12.8193
▁shareholder	-12.8193
▁Ali	-12.8194
PL	-12.8197
▁milling	-12.8198
▁GM	-12.8217
▁tense	-12.8218
▁marker	-12.8219
▁goat	-12.822
▁honesty	-12.8226
▁expectation	-12.8227
▁jeon	-12.824
uru	-12.8246
▁Area	-12.8252
▁weekday	-12.8281
card	-12.8286
dak	-12.8293
solving	-12.8297
▁visitor	-12.8331
cancer	-12.8344
smoking	-12.8345
▁poo	-12.8348
teen	-12.8351
after	-12.8354
called	-12.8356
59	-12.8358
▁brag	-12.8359
mestic	-12.8363
stationary	-12.8367
rice	-12.8371
▁overflow	-12.838
store	-12.8382
▁Mari	-12.8384
▁peach	-12.8386
▁commit	-12.8386
ntellectual	-12.8387
▁Univers	-12.8387
▁Agriculture	-12.8387
▁Chocolate	-12.8387
▁Commission	-12.8387
▁Cushion	-12.8387
▁Garden	-12.8387
▁Junior	-12.8387
▁Netherlands	-12.8387
▁Probably	-12.8387
▁RNA	-12.8387
▁Sydney	-12.8387
▁Vacuum	-12.8387
▁accelerating	-12.8387
▁ancestor	-12.8387
▁cacao	-12.8387
[...]
