<unk>	0
<s>	0
</s>	0
<pad>	0
<bos>	0
<eos>	0
.	-2.65759
,	-3.34559
▁the	-3.47503
s	-3.62488
▁to	-3.80055
▁I	-3.89213
'	-3.89705
▁a	-3.97388
▁you	-3.99941
▁and	-4.26271
▁is	-4.34877
▁of	-4.35487
▁it	-4.36408
?	-4.67157
▁in	-4.68792
▁for	-4.75397
▁that	-4.81369
▁can	-5.07524
▁are	-5.10715
t	-5.12002
▁It	-5.15941
▁with	-5.17913
▁your	-5.18288
▁be	-5.20603
▁have	-5.20792
▁we	-5.2291
▁this	-5.25562
▁	-5.2727
▁will	-5.28724
▁We	-5.38703
-	-5.40849
m	-5.50456
▁our	-5.52717
▁on	-5.55507
▁The	-5.55569
▁so	-5.68562
ing	-5.69029
▁like	-5.721
▁as	-5.77813
▁product	-5.85436
▁You	-5.8769
▁me	-5.90908
▁not	-5.9199
▁company	-5.92596
▁time	-5.98294
▁at	-5.99246
▁an	-6.00156
▁was	-6.00188
▁from	-6.01429
▁do	-6.03464
▁about	-6.06073
▁If	-6.07958
▁by	-6.09442
▁has	-6.11442
▁my	-6.11773
▁Yes	-6.12585
▁if	-6.12911
▁but	-6.13774
▁also	-6.14425
▁there	-6.1514
ll	-6.16311
ed	-6.17564
d	-6.17959
▁would	-6.18727
▁This	-6.20911
▁know	-6.21511
▁right	-6.22238
▁all	-6.30066
▁BBB	-6.30966
▁good	-6.32809
re	-6.33481
▁us	-6.36952
▁think	-6.37483
▁products	-6.39986
▁more	-6.41759
▁want	-6.4321
▁please	-6.44761
▁or	-6.44863
!	-6.46475
▁What	-6.49769
▁one	-6.52126
▁FFF	-6.53042
▁been	-6.53178
▁AAA	-6.53797
▁out	-6.54231
n	-6.56355
▁don	-6.56687
▁very	-6.57575
▁Oh	-6.60115
▁That	-6.61161
▁when	-6.63094
▁In	-6.6633
▁Please	-6.67898
▁because	-6.697
▁So	-6.69763
▁use	-6.70079
▁There	-6.72905
▁up	-6.73106
▁new	-6.74349
▁order	-6.758
▁any	-6.762
▁go	-6.77771
▁now	-6.78724
▁make	-6.79972
▁get	-6.8072
▁And	-6.81018
▁need	-6.8142
▁really	-6.82883
ly	-6.84307
▁No	-6.84399
▁what	-6.84677
▁much	-6.88187
▁contact	-6.89188
▁But	-6.90162
▁other	-6.91678
▁first	-6.92673
▁business	-6.92962
▁who	-6.93876
▁Thank	-6.9409
▁lot	-6.94792
▁going	-6.9604
▁send	-6.97772
er	-6.98105
▁price	-6.98768
▁no	-6.99124
y	-6.99654
▁Our	-6.99722
▁just	-6.99982
▁work	-7.00385
▁only	-7.00597
▁possible	-7.00651
▁well	-7.01501
▁am	-7.022
▁here	-7.03377
▁two	-7.0363
▁than	-7.0455
▁take	-7.0901
1	-7.09416
▁too	-7.10317
▁made	-7.11233
▁look	-7.1126
▁How	-7.11708
▁people	-7.12294
▁see	-7.12594
ve	-7.14219
▁A	-7.15148
▁check	-7.15684
▁should	-7.15892
▁how	-7.1671
▁after	-7.16924
▁meeting	-7.17123
▁many	-7.1718
▁next	-7.1781
▁used	-7.20142
▁However	-7.20931
▁help	-7.21206
▁Then	-7.21293
▁let	-7.21406
▁were	-7.21773
▁they	-7.22103
▁Korea	-7.24137
▁again	-7.27118
▁long	-7.27203
▁last	-7.27744
▁them	-7.28271
▁high	-7.31039
e	-7.31272
▁soon	-7.31483
▁email	-7.31694
▁As	-7.32902
▁Hello	-7.3378
▁hope	-7.33813
▁week	-7.34014
▁through	-7.34884
th	-7.35192
▁team	-7.35373
▁customers	-7.36115
▁contract	-7.36186
▁give	-7.36596
▁day	-7.37745
▁come	-7.38349
▁such	-7.38547
2	-7.38633
r	-7.39573
▁even	-7.41113
▁year	-7.41306
▁some	-7.4136
▁days	-7.42016
▁Do	-7.42342
▁does	-7.42441
▁Korean	-7.45792
▁over	-7.45825
▁did	-7.46431
al	-7.46512
▁he	-7.47077
▁information	-7.47628
▁food	-7.48166
▁best	-7.49164
▁won	-7.50726
▁Let	-7.51402
▁delivery	-7.51469
g	-7.52081
▁which	-7.52182
▁Wow	-7.52315
▁introduce	-7.52455
▁place	-7.52769
▁before	-7.53785
▁three	-7.53943
▁When	-7.53946
▁Can	-7.54086
▁3	-7.55252
▁service	-7.55361
▁number	-7.55501
▁today	-7.56249
▁feel	-7.56417
▁problem	-7.57091
~	-7.57384
▁ask	-7.57831
▁buy	-7.57901
in	-7.5812
▁design	-7.5864
▁little	-7.59138
▁eat	-7.59882
▁way	-7.60287
▁why	-7.61932
▁years	-7.6238
▁water	-7.62945
▁reply	-7.63299
▁technology	-7.63647
▁may	-7.64988
▁said	-7.65774
▁back	-7.66071
▁sorry	-7.6653
▁hard	-7.67003
▁using	-7.67973
▁various	-7.68088
▁free	-7.68464
▁provide	-7.68941
▁customer	-7.69182
▁without	-7.69279
▁looking	-7.69588
▁1	-7.69639
▁each	-7.70273
▁these	-7.70352
▁10	-7.70441
▁their	-7.7115
▁sent	-7.7135
▁e	-7.71477
▁person	-7.71615
▁purchase	-7.71947
▁quality	-7.72082
▁same	-7.72853
▁forward	-7.72986
▁could	-7.73688
▁thank	-7.74409
▁tell	-7.74598
▁into	-7.75019
▁pay	-7.75393
▁2	-7.75547
▁First	-7.75762
▁didn	-7.76466
▁most	-7.76723
▁Why	-7.77486
▁course	-7.77841
▁month	-7.78786
▁room	-7.79078
▁received	-7.79176
▁different	-7.7928
▁must	-7.79322
▁Hey	-7.79333
▁He	-7.79997
▁while	-7.80472
▁put	-7.82351
▁receive	-7.82381
▁had	-7.82393
▁change	-7.82613
▁questions	-7.83075
es	-7.83095
▁able	-7.83252
▁easy	-7.83516
▁system	-7.83707
▁then	-7.83974
▁addition	-7.84423
▁better	-7.85127
▁away	-7.8535
▁where	-7.85374
▁schedule	-7.85759
▁great	-7.85801
▁date	-7.85835
▁home	-7.86143
▁Are	-7.86201
▁payment	-7.86671
▁ordered	-7.87247
▁due	-7.8767
▁something	-7.87742
▁sales	-7.87954
▁set	-7.87987
▁For	-7.88017
▁5	-7.8867
▁already	-7.89341
▁companies	-7.91001
▁always	-7.91143
c	-7.91279
p	-7.91461
▁down	-7.91797
▁market	-7.92336
▁visit	-7.9234
▁My	-7.93407
▁okay	-7.93935
▁They	-7.94029
▁together	-7.94837
▁Okay	-7.94993
▁store	-7.96371
▁say	-7.96568
▁around	-7.96943
▁future	-7.97106
l	-7.97163
▁amount	-7.97168
▁car	-7.97421
▁skin	-7.97605
▁still	-7.9784
▁working	-7.98105
▁heard	-7.9826
▁meet	-7.9897
▁process	-7.98985
▁cost	-7.99241
▁case	-7.99574
▁sure	-8.0066
▁hotel	-8.01147
▁production	-8.01852
or	-8.01965
▁doing	-8.02119
▁data	-8.02258
▁house	-8.02808
▁All	-8.03262
▁research	-8.03943
▁OK	-8.0405
▁kind	-8.04073
le	-8.04392
▁S	-8.04659
▁keep	-8.04972
▁restaurant	-8.0531
▁find	-8.05334
▁charge	-8.05625
▁difficult	-8.05995
▁services	-8.06187
▁try	-8.06302
▁Therefore	-8.06324
▁available	-8.07316
a	-8.07728
▁important	-8.07921
▁taste	-8.08132
▁within	-8.08305
▁color	-8.08663
▁understand	-8.10376
▁office	-8.10417
▁end	-8.10503
▁small	-8.10814
▁4	-8.1082
▁Because	-8.11705
▁quickly	-8.11761
▁reservation	-8.11922
▁discount	-8.11988
mail	-8.12514
▁Also	-8.13015
ation	-8.13105
b	-8.13874
▁Ah	-8.13896
▁large	-8.14127
ri	-8.14283
▁re	-8.15269
▁off	-8.1546
▁"	-8.15521
▁money	-8.15731
▁real	-8.16181
▁thought	-8.16188
▁size	-8.16224
▁overseas	-8.16524
▁plan	-8.16598
3	-8.16602
▁once	-8.17164
ion	-8.17614
▁request	-8.17639
▁world	-8.18112
o	-8.18223
▁website	-8.18361
▁since	-8.1888
▁things	-8.19049
▁name	-8.19272
▁materials	-8.19303
▁20	-8.19712
▁interested	-8.19751
▁advance	-8.20214
▁sending	-8.20429
▁phone	-8.20545
▁per	-8.21501
▁got	-8.21637
ic	-8.21712
▁offer	-8.21962
▁making	-8.22542
▁during	-8.23107
▁Your	-8.23302
▁every	-8.23363
▁inform	-8.23651
▁additional	-8.23931
▁p	-8.24514
▁came	-8.2452
▁air	-8.24662
▁start	-8.2476
▁situation	-8.25069
▁C	-8.25115
▁To	-8.25217
▁done	-8.25276
▁yet	-8.25392
▁open	-8.25923
▁manager	-8.25974
▁hair	-8.26267
on	-8.26317
k	-8.26565
▁experience	-8.26637
▁call	-8.26885
▁part	-8.26894
▁easily	-8.26945
▁recommend	-8.27139
▁stock	-8.27236
▁total	-8.27249
▁sell	-8.27305
▁body	-8.2739
▁answer	-8.27553
▁power	-8.27583
▁few	-8.27654
▁care	-8.27732
▁being	-8.2787
▁Of	-8.28112
▁provides	-8.28293
▁Dear	-8.28555
▁online	-8.28798
▁him	-8.2955
▁both	-8.30112
▁anything	-8.30205
"	-8.30403
▁life	-8.31264
▁seems	-8.32181
able	-8.32329
▁own	-8.33161
▁material	-8.3325
▁After	-8.33438
▁light	-8.33798
i	-8.33859
▁shipping	-8.33929
▁project	-8.33946
▁talk	-8.34006
▁equipment	-8.3406
▁details	-8.34642
▁Now	-8.34931
▁Since	-8.35096
ers	-8.35111
▁clean	-8.35333
▁Don	-8.35467
▁between	-8.35535
ro	-8.35788
en	-8.35795
▁nice	-8.36309
▁big	-8.37089
▁space	-8.37246
▁B	-8.37456
▁enjoy	-8.37502
▁development	-8.37951
▁currently	-8.38194
▁those	-8.3841
▁insurance	-8.38693
▁Did	-8.38778
▁function	-8.39007
▁attached	-8.3906
f	-8.39174
▁bit	-8.39282
▁Mr	-8.39418
▁special	-8.39497
▁another	-8.39578
▁side	-8.39926
▁Good	-8.4073
▁children	-8.40788
▁F	-8.41475
▁enough	-8.42043
▁everything	-8.42131
▁event	-8.42824
▁video	-8.42835
▁management	-8.43173
▁far	-8.43307
▁6	-8.43667
▁un	-8.4367
▁increase	-8.43724
▁With	-8.43774
▁rice	-8.4409
▁found	-8.4415
▁sample	-8.44207
▁apologize	-8.4436
▁delivered	-8.44453
▁show	-8.45295
▁wait	-8.45355
▁support	-8.45484
▁area	-8.45982
D	-8.46596
▁performance	-8.467
▁wrong	-8.46701
▁ago	-8.46932
▁trip	-8.47408
▁refund	-8.47426
▁brand	-8.47928
▁ship	-8.48495
▁interest	-8.48496
▁control	-8.4852
est	-8.48554
h	-8.48574
▁happy	-8.49162
▁delicious	-8.49308
▁E	-8.49382
▁left	-8.50144
▁tomorrow	-8.50144
▁items	-8.50505
▁ingredients	-8.50838
▁wholesale	-8.50948
v	-8.50962
▁love	-8.51274
▁appreciate	-8.51329
▁period	-8.51361
ive	-8.51595
▁soft	-8.51645
▁popular	-8.51766
▁full	-8.5182
▁One	-8.51921
▁thing	-8.52073
▁line	-8.52206
▁30	-8.52624
▁These	-8.53001
▁comfortable	-8.53096
▁hours	-8.53318
li	-8.53637
▁choose	-8.53643
▁machine	-8.54443
▁minutes	-8.54572
ar	-8.5466
ch	-8.55266
▁device	-8.55965
▁type	-8.56097
▁software	-8.56117
▁deliver	-8.56193
ur	-8.56195
S	-8.56254
▁according	-8.56294
▁game	-8.56481
▁second	-8.56519
▁head	-8.56802
▁c	-8.56853
▁proceed	-8.57099
▁contacting	-8.57189
▁play	-8.57682
w	-8.58048
▁low	-8.58135
▁prepare	-8.58197
▁months	-8.58351
▁excellent	-8.58508
▁model	-8.5863
▁never	-8.58647
▁developed	-8.58862
▁result	-8.58955
▁fit	-8.58982
▁country	-8.59135
▁job	-8.59273
▁comes	-8.59784
u	-8.5994
la	-8.60105
▁matter	-8.60585
▁morning	-8.60607
il	-8.60827
▁stay	-8.60885
▁address	-8.60962
▁add	-8.61054
▁employees	-8.61136
▁expected	-8.61137
▁wear	-8.6181
5	-8.62229
▁oil	-8.62331
▁department	-8.625
▁yes	-8.62969
▁coming	-8.63081
▁hand	-8.63154
ment	-8.63348
▁decided	-8.63353
▁T	-8.63414
▁content	-8.63751
4	-8.63777
▁hear	-8.63994
▁100	-8.64153
ate	-8.64187
▁problems	-8.64402
C	-8.64653
▁planning	-8.64722
▁At	-8.64836
▁face	-8.65007
▁went	-8.65086
▁variety	-8.65238
▁reason	-8.65245
▁Even	-8.65312
▁cannot	-8.65389
▁four	-8.65547
▁old	-8.65731
▁his	-8.65753
it	-8.66418
ther	-8.66469
▁floor	-8.66505
▁Just	-8.66507
x	-8.66657
▁discuss	-8.66763
▁until	-8.66768
▁book	-8.66772
▁factory	-8.66781
▁designed	-8.67151
▁account	-8.6748
▁prevent	-8.67539
▁perfect	-8.67682
▁environment	-8.67765
▁live	-8.68049
ent	-8.68421
▁later	-8.68444
ce	-8.68484
▁top	-8.68616
▁wanted	-8.68688
am	-8.68746
▁close	-8.691
▁sold	-8.69132
▁card	-8.69381
▁family	-8.69489
▁times	-8.69535
▁move	-8.69851
▁center	-8.70041
▁front	-8.70077
▁return	-8.7028
▁main	-8.70334
el	-8.70354
▁catalog	-8.70402
▁strong	-8.70676
▁staff	-8.70915
to	-8.71782
▁rate	-8.71876
▁industry	-8.71899
▁black	-8.72057
▁bad	-8.72114
▁hold	-8.72324
▁mind	-8.72335
▁asked	-8.72667
▁health	-8.72798
▁called	-8.7342
▁run	-8.737
▁mean	-8.73754
▁natural	-8.74034
▁explain	-8.74096
▁told	-8.74194
▁looks	-8.74241
▁f	-8.74268
▁test	-8.7427
▁related	-8.74509
▁8	-8.74612
▁five	-8.74658
▁quantity	-8.7475
▁checked	-8.74904
1,	-8.75057
ra	-8.75131
te	-8.75138
ne	-8.75143
▁proposal	-8.75157
▁saw	-8.75198
▁continue	-8.75224
▁temperature	-8.75271
▁cool	-8.7537
▁building	-8.75769
▁quick	-8.75996
▁sound	-8.7619
▁15	-8.76199
▁released	-8.76322
▁supply	-8.76553
▁P	-8.76589
▁based	-8.76684
▁inconvenience	-8.77181
▁hot	-8.77347
▁applied	-8.77348
▁under	-8.77463
▁existing	-8.77481
se	-8.77492
▁become	-8.77703
▁safe	-8.77887
▁detailed	-8.78232
▁makes	-8.78372
ol	-8.78505
▁colors	-8.78586
▁actually	-8.78689
▁create	-8.78999
▁yesterday	-8.79204
▁de	-8.79335
▁arrive	-8.79338
▁opportunity	-8.79588
▁requested	-8.79629
▁results	-8.79721
ity	-8.7978
▁contacted	-8.79816
▁Really	-8.79868
▁delay	-8.79896
▁deal	-8.8004
▁less	-8.80384
▁point	-8.80397
▁share	-8.80412
▁fun	-8.80481
▁several	-8.80576
▁types	-8.80633
▁worry	-8.80673
▁item	-8.80673
▁co	-8.80806
▁form	-8.80958
▁fine	-8.81403
▁cooperation	-8.81749
▁immediately	-8.81891
▁changed	-8.81913
▁program	-8.82049
▁attend	-8.82281
▁believe	-8.82318
▁simple	-8.82406
▁suitable	-8.82461
▁usually	-8.82732
▁mistake	-8.82847
▁including	-8.82847
▁recommended	-8.82942
up	-8.82988
▁headquarters	-8.83064
▁devices	-8.83086
▁watch	-8.83329
▁presentation	-8.83396
▁red	-8.83517
▁current	-8.84119
▁leave	-8.84182
▁parts	-8.8422
▁app	-8.84224
▁list	-8.84253
un	-8.8434
▁provided	-8.84387
▁bring	-8.84407
▁pick	-8.84589
▁menu	-8.8468
▁Look	-8.8472
▁unit	-8.84723
▁K	-8.84726
▁sir	-8.8475
▁method	-8.84782
▁deposit	-8.84798
▁needs	-8.85014
▁application	-8.85149
▁fee	-8.85283
A	-8.85287
▁million	-8.85309
▁convenient	-8.85426
▁past	-8.85793
▁construction	-8.85808
▁box	-8.85945
▁energy	-8.85987
▁t	-8.85993
▁short	-8.86224
▁paid	-8.86306
00	-8.86418
ting	-8.86433
▁handle	-8.86521
▁read	-8.86719
I	-8.86752
▁file	-8.86759
▁inside	-8.86836
▁waiting	-8.87273
▁fabric	-8.87315
▁particular	-8.87349
▁attention	-8.87502
▁computer	-8.87546
▁completed	-8.87586
▁ready	-8.87686
▁review	-8.8795
▁safety	-8.87974
▁camera	-8.8805
▁features	-8.88164
▁conditions	-8.88432
▁talking	-8.88777
▁D	-8.88825
▁picture	-8.88835
▁else	-8.88853
▁sign	-8.89057
▁coffee	-8.89181
▁cold	-8.89233
▁Kim	-8.89288
▁steel	-8.8937
ter	-8.89396
P	-8.89735
▁Here	-8.89807
lo	-8.89932
▁battery	-8.89937
▁Well	-8.89981
▁smart	-8.9003
▁weeks	-8.90309
▁remember	-8.90412
▁almost	-8.90555
▁Go	-8.90667
▁relationship	-8.91369
▁9	-8.91499
▁mail	-8.91554
▁minute	-8.91557
▁difference	-8.9161
▁fast	-8.91642
▁pretty	-8.91851
▁allows	-8.92027
▁produce	-8.92087
▁50	-8.92104
▁bank	-8.9219
▁confirmed	-8.92346
▁regarding	-8.92358
▁busy	-8.92454
▁12	-8.92583
▁dollars	-8.92694
▁report	-8.92916
▁Today	-8.92929
▁Who	-8.92937
▁directly	-8.93005
▁contains	-8.93217
▁couldn	-8.93334
▁haven	-8.93365
▁refer	-8.93455
▁meat	-8.93517
▁purchasing	-8.93557
▁demand	-8.93579
M	-8.93934
▁season	-8.94219
▁paper	-8.94582
▁exchange	-8.94843
▁apply	-8.94924
▁wish	-8.95045
▁getting	-8.9508
▁prepared	-8.95092
▁school	-8.95142
▁accept	-8.95251
▁investment	-8.95301
age	-8.95497
▁bought	-8.95593
▁recently	-8.95599
ul	-8.95611
▁Hi	-8.95729
▁idea	-8.9574
us	-8.95844
▁fact	-8.95861
▁security	-8.95894
▁goes	-8.95905
▁cut	-8.95909
▁speed	-8.9625
▁terms	-8.96311
▁regular	-8.96495
▁electric	-8.96732
▁non	-8.96757
▁everyone	-8.96968
8	-8.97265
▁saying	-8.97568
▁mobile	-8.97569
▁having	-8.97621
▁located	-8.97876
▁Where	-8.97905
▁shipped	-8.97933
▁necessary	-8.97979
▁international	-8.97979
▁Huh	-8.97983
▁issue	-8.98018
▁rest	-8.98139
▁field	-8.98404
▁By	-8.99162
▁develop	-8.9918
▁soup	-8.99516
▁table	-8.99753
▁costs	-8.99953
▁white	-9.0016
▁style	-9.0035
▁travel	-9.00351
▁further	-9.00797
an	-9.00848
T	-9.00905
▁famous	-9.00951
▁rooms	-9.01196
▁marketing	-9.01309
▁screen	-9.0151
▁added	-9.01601
▁cover	-9.01607
▁Come	-9.01612
▁R	-9.01671
▁basic	-9.01686
▁treatment	-9.01808
▁unique	-9.01855
▁view	-9.02246
▁dry	-9.02305
▁heart	-9.02338
▁storage	-9.0239
▁trust	-9.02442
▁shipment	-9.02528
▁local	-9.02768
▁Have	-9.03137
▁complete	-9.03265
▁taking	-9.03417
▁countries	-9.03417
▁sauce	-9.03633
▁wide	-9.03741
▁supplier	-9.04342
▁M	-9.04402
▁level	-9.04658
ies	-9.0488
▁kitchen	-9.04891
▁her	-9.04932
▁caused	-9.04936
▁expensive	-9.04946
▁damage	-9.04959
pe	-9.04979
▁Re	-9.05281
▁heat	-9.05716
▁orders	-9.05718
▁raw	-9.05726
▁professional	-9.05728
▁warm	-9.05949
▁someone	-9.06083
▁latest	-9.0618
▁night	-9.06522
▁invoice	-9.06612
▁pre	-9.06713
▁equipped	-9.06728
▁warehouse	-9.0678
▁lower	-9.06841
▁started	-9.06858
▁leader	-9.07309
▁whe	-9.07352
▁purchased	-9.07466
ness	-9.07853
▁near	-9.0819
▁group	-9.08303
▁might	-9.08307
▁definitely	-9.08314
▁similar	-9.08364
▁L	-9.0838
um	-9.08412
▁guess	-9.08821
▁depend	-9.09035
L	-9.09108
▁turn	-9.09188
▁location	-9.09222
nd	-9.09275
▁question	-9.09453
de	-9.0946
▁music	-9.09557
▁trying	-9.09761
▁May	-9.09897
▁included	-9.10038
▁button	-9.10046
▁Lee	-9.10052
▁G	-9.10263
▁ma	-9.10392
▁Co	-9.104
▁site	-9.10401
▁Not	-9.10447
▁facilities	-9.10495
▁bag	-9.10543
▁late	-9.10605
▁weight	-9.10645
▁least	-9.1067
id	-9.10708
▁Isn	-9.10713
▁hit	-9.10885
▁Currently	-9.11255
▁medical	-9.11255
▁boss	-9.11329
▁functions	-9.11363
▁drink	-9.1145
▁From	-9.11549
▁media	-9.11561
▁CEO	-9.11784
▁tea	-9.11804
▁often	-9.11885
▁tried	-9.11961
ta	-9.12005
▁eating	-9.12108
▁o	-9.12135
▁Jong	-9.122
▁clear	-9.12201
ant	-9.1222
▁Unit	-9.12224
ated	-9.126
▁brother	-9.126
▁built	-9.13031
▁communication	-9.13031
▁earlier	-9.13031
▁takes	-9.13043
▁wonder	-9.13431
▁learn	-9.13508
po	-9.1355
▁value	-9.13569
▁Seoul	-9.13573
▁thinking	-9.13632
▁foreign	-9.13664
▁curious	-9.1375
▁delayed	-9.13859
▁Ma	-9.13962
less	-9.14009
▁response	-9.14051
▁Once	-9.14067
▁study	-9.14746
▁held	-9.14778
R	-9.14845
▁learning	-9.14875
▁news	-9.14981
▁filter	-9.15
▁break	-9.15129
▁Friday	-9.15326
E	-9.15481
▁rent	-9.15495
▁amazing	-9.1551
▁decision	-9.1551
▁access	-9.15624
▁quite	-9.15701
▁Ji	-9.1571
▁finish	-9.15794
quality	-9.16006
▁property	-9.16249
▁solve	-9.1635
▁Internet	-9.1637
▁produced	-9.1651
▁U	-9.16527
ry	-9.16581
▁understanding	-9.16598
▁cleaning	-9.16817
▁vehicle	-9.16888
ir	-9.16997
▁electronic	-9.17114
▁healthy	-9.17131
▁hands	-9.17366
▁wireless	-9.17555
▁Wait	-9.17613
0	-9.17643
▁improve	-9.17945
▁effect	-9.18022
▁longer	-9.18045
▁warranty	-9.18177
▁bulk	-9.18241
▁Man	-9.18275
▁clothes	-9.18371
▁reduce	-9.18416
▁living	-9.18479
▁Right	-9.18492
end	-9.18555
▁States	-9.18555
▁image	-9.18561
▁partner	-9.18697
▁arrived	-9.18799
▁cancel	-9.18856
6	-9.18864
▁estimate	-9.18917
▁choice	-9.19061
ance	-9.19228
▁touch	-9.19229
▁position	-9.19294
▁half	-9.19315
▁fresh	-9.19495
▁enter	-9.19546
▁sincerely	-9.19601
▁documents	-9.19611
▁range	-9.19709
▁200	-9.19765
▁adjust	-9.19986
▁stop	-9.20077
▁prices	-9.20082
▁yourself	-9.2021
▁pressure	-9.20247
▁daily	-9.20338
▁personal	-9.20461
▁manage	-9.2049
▁among	-9.20513
▁true	-9.20625
O	-9.20648
co	-9.20727
▁On	-9.2087
▁party	-9.20892
▁alone	-9.20919
▁Be	-9.21018
▁below	-9.21153
▁public	-9.21212
G	-9.2133
▁cooking	-9.21632
▁general	-9.21655
▁higher	-9.2173
▁increased	-9.21756
▁separate	-9.21848
▁gift	-9.21862
▁H	-9.21891
▁goods	-9.21896
▁selling	-9.21975
▁points	-9.21986
▁d	-9.22002
▁outside	-9.22221
▁guide	-9.2235
at	-9.22383
▁meal	-9.22408
▁consider	-9.2241
▁plastic	-9.22463
▁Or	-9.22552
▁gave	-9.22632
▁include	-9.22787
▁condition	-9.22831
▁cause	-9.23013
▁Thanks	-9.23117
▁Somin	-9.23122
ver	-9.23221
2,	-9.23281
▁means	-9.23459
▁credit	-9.2347
▁cream	-9.2347
▁samples	-9.23478
▁young	-9.23585
▁she	-9.23595
▁seen	-9.23903
ist	-9.23969
▁happened	-9.2397
▁writing	-9.24002
▁social	-9.24136
▁comfort	-9.24176
▁introduced	-9.24219
▁inventory	-9.24336
ut	-9.24403
▁nothing	-9.24407
▁remove	-9.24529
▁green	-9.24533
▁supplies	-9.24537
▁cook	-9.24556
▁detail	-9.2484
▁automatically	-9.24945
▁scheduled	-9.24964
ru	-9.25
▁man	-9.25294
▁changes	-9.25323
▁New	-9.25489
▁digital	-9.2564
▁careful	-9.25664
▁representative	-9.25751
▁baby	-9.25751
▁receiving	-9.25954
▁chicken	-9.26431
▁completely	-9.26496
ge	-9.26526
friendly	-9.26531
▁worked	-9.26556
is	-9.2677
▁global	-9.2691
▁ensure	-9.2691
▁single	-9.26922
▁members	-9.26929
▁worried	-9.26978
▁specific	-9.27048
▁needed	-9.27175
ho	-9.27335
▁mode	-9.2736
ca	-9.27494
▁According	-9.27838
▁drive	-9.27955
no	-9.28
▁spicy	-9.28014
▁original	-9.28054
mo	-9.28074
▁books	-9.28174
▁December	-9.28222
▁cell	-9.28444
▁shape	-9.28559
im	-9.28619
▁solution	-9.28719
▁sleep	-9.28723
pa	-9.29024
▁carefully	-9.29099
mp	-9.29158
▁manufacturing	-9.292
▁stand	-9.29212
▁compared	-9.29247
▁friend	-9.2927
▁Me	-9.2933
▁expect	-9.29502
▁Sir	-9.29636
▁sale	-9.29652
▁maintain	-9.29716
▁eyes	-9.29914
▁satisfied	-9.30056
▁estate	-9.30188
mm	-9.30234
▁early	-9.3044
▁win	-9.30461
▁separately	-9.30516
▁took	-9.3066
▁mother	-9.30696
▁package	-9.30701
▁domestic	-9.30756
▁display	-9.30765
▁write	-9.30767
▁O	-9.30768
▁moment	-9.30851
▁letter	-9.31173
▁games	-9.31181
▁export	-9.31185
▁gas	-9.31229
▁door	-9.31232
▁inquiry	-9.31328
▁includes	-9.31416
▁Like	-9.31691
▁seat	-9.3203
▁fish	-9.32046
▁risk	-9.32265
ia	-9.32289
▁premium	-9.32482
▁traditional	-9.32507
min	-9.32515
▁dust	-9.32564
▁match	-9.32659
▁internal	-9.32751
▁fire	-9.3289
▁Does	-9.32903
▁Se	-9.32924
▁TV	-9.3293
▁message	-9.32996
▁Yeah	-9.33065
▁present	-9.33121
▁running	-9.33138
▁11	-9.33207
▁helps	-9.3321
9	-9.33281
▁pork	-9.33576
▁Ha	-9.33614
▁checking	-9.33675
ha	-9.337
▁key	-9.33794
▁manufacturer	-9.33913
▁hospital	-9.34076
▁employee	-9.34173
ck	-9.34207
▁fill	-9.34269
▁installed	-9.34563
▁standard	-9.34638
do	-9.35277
▁sweet	-9.35416
ma	-9.35433
▁land	-9.35437
ine	-9.35459
▁operation	-9.35555
▁network	-9.35787
▁platform	-9.35859
▁dog	-9.35875
▁powder	-9.36027
me	-9.36153
▁hey	-9.36403
▁financial	-9.36403
▁transaction	-9.36477
▁voice	-9.36554
▁plant	-9.36699
▁eco	-9.36925
▁child	-9.36932
▁pro	-9.36949
gi	-9.36967
▁step	-9.37053
▁major	-9.37084
▁owner	-9.37124
▁reach	-9.37235
▁Unfortunately	-9.37236
ary	-9.37251
per	-9.37251
▁apartment	-9.37415
▁protect	-9.37434
▁express	-9.37461
▁packaging	-9.37543
▁age	-9.37604
▁structure	-9.37755
▁students	-9.37957
▁correct	-9.3825
▁glad	-9.38307
ally	-9.38676
▁mentioned	-9.38745
▁winter	-9.38862
▁human	-9.38994
▁works	-9.39
▁users	-9.39068
▁interior	-9.39079
▁scent	-9.39079
▁eye	-9.39381
▁fair	-9.39535
▁double	-9.39701
time	-9.39802
▁commercial	-9.39857
▁feeling	-9.39857
▁smell	-9.39949
▁weather	-9.40014
▁import	-9.40099
F	-9.40279
gu	-9.40749
▁dishes	-9.4075
▁probably	-9.40877
▁save	-9.40909
▁shoes	-9.4093
▁women	-9.40956
▁pack	-9.41026
▁Uh	-9.4114
▁anywhere	-9.41193
▁branch	-9.41232
▁comfortably	-9.41275
▁decide	-9.41383
2.	-9.41456
ted	-9.41486
tic	-9.41488
▁machines	-9.41631
▁processing	-9.41635
▁post	-9.41719
▁consist	-9.41732
▁blue	-9.41749
1.	-9.41757
▁increasing	-9.41829
▁surface	-9.41908
▁isn	-9.41935
▁afternoon	-9.41988
B	-9.42069
▁purpose	-9.42222
na	-9.42274
ous	-9.42451
▁contents	-9.42827
▁South	-9.43192
▁inspection	-9.432
▁training	-9.43224
▁Next	-9.43354
▁washing	-9.43356
▁example	-9.43435
▁listen	-9.43465
▁suddenly	-9.43504
▁moisture	-9.43599
▁Some	-9.43655
▁entire	-9.43759
▁100%	-9.43779
▁smooth	-9.43896
▁required	-9.43906
▁above	-9.43922
▁sea	-9.43926
▁properly	-9.44042
▁welcome	-9.44329
▁developing	-9.44366
▁dinner	-9.44492
▁happen	-9.4475
▁build	-9.44812
▁pet	-9.44823
▁contain	-9.44945
▁An	-9.44954
▁six	-9.45067
▁hello	-9.45149
▁dis	-9.45338
▁Each	-9.45403
mi	-9.45741
▁inquire	-9.46018
▁driving	-9.4607
▁connect	-9.46084
▁though	-9.46125
▁kimchi	-9.46142
▁page	-9.46185
▁rich	-9.46203
▁safely	-9.46269
as	-9.46296
▁fully	-9.46459
▁positive	-9.46536
▁noise	-9.46611
▁especially	-9.46642
▁grow	-9.46689
▁fall	-9.46726
▁city	-9.46763
▁participate	-9.46853
▁middle	-9.46977
ized	-9.47009
▁noodles	-9.47031
▁wash	-9.47098
▁friends	-9.47102
▁Take	-9.47155
rs	-9.47196
▁final	-9.47306
▁sense	-9.47313
▁exactly	-9.47328
▁capacity	-9.47384
▁ordering	-9.47475
▁durable	-9.47481
▁previous	-9.47544
▁calling	-9.47589
▁blood	-9.4765
ize	-9.47679
▁sit	-9.47814
▁texture	-9.47826
▁opened	-9.4784
▁link	-9.48038
ak	-9.48068
▁engine	-9.48113
ure	-9.48113
▁40	-9.48255
▁connection	-9.48356
▁leather	-9.48413
▁state	-9.48429
▁volume	-9.48518
ung	-9.48693
▁user	-9.48826
N	-9.48838
▁note	-9.48854
▁art	-9.49227
▁follow	-9.49258
▁cheese	-9.49353
▁oh	-9.49382
▁director	-9.49423
pm	-9.49444
▁ball	-9.4948
▁install	-9.49798
▁accommodation	-9.49869
▁carry	-9.50014
▁expand	-9.50106
▁itself	-9.50129
▁partners	-9.50206
▁giving	-9.50215
▁monitor	-9.50226
▁offers	-9.50317
▁con	-9.50412
▁improved	-9.50501
ke	-9.5051
▁Monday	-9.50649
▁wife	-9.50911
op	-9.5101
▁advantage	-9.51052
▁loss	-9.51132
▁along	-9.51226
ful	-9.51371
▁multi	-9.51432
di	-9.51463
▁movie	-9.51781
▁highly	-9.51871
▁newly	-9.51899
▁tour	-9.52051
▁shop	-9.52052
▁history	-9.52316
▁China	-9.52318
▁glass	-9.52364
▁launch	-9.52394
▁English	-9.5267
▁release	-9.52819
▁19	-9.52865
▁men	-9.5301
▁wine	-9.53124
▁round	-9.53333
▁areas	-9.53362
H	-9.53383
▁teacher	-9.53392
▁allow	-9.53587
▁shopping	-9.53656
ating	-9.5378
▁ever	-9.53842
▁i	-9.5385
▁invite	-9.53894
▁exact	-9.5391
▁opening	-9.53959
▁anyone	-9.54282
▁consumers	-9.54402
▁language	-9.54624
▁benefits	-9.54714
▁confident	-9.54727
▁St	-9.54757
▁board	-9.54836
▁faster	-9.54907
▁essential	-9.54915
▁whole	-9.5517
▁heavy	-9.55187
▁internet	-9.55188
▁weekend	-9.55191
▁pieces	-9.55251
▁hurry	-9.5537
▁Would	-9.55461
▁song	-9.55609
▁V	-9.55798
▁furniture	-9.55827
▁explanation	-9.55918
free	-9.55955
▁error	-9.5601
▁known	-9.56125
▁chance	-9.56194
▁golf	-9.56286
▁given	-9.56441
▁surprised	-9.56518
ow	-9.56533
▁v	-9.56845
▁effective	-9.56921
▁plans	-9.56976
ling	-9.57011
▁airport	-9.57128
ga	-9.57153
▁Kook	-9.57308
▁confirm	-9.57383
▁beautiful	-9.57397
▁anti	-9.57407
▁clients	-9.57531
▁certain	-9.5757
▁individual	-9.57663
▁bar	-9.5768
▁web	-9.57705
▁instead	-9.57769
▁b	-9.57853
▁options	-9.5793
▁convenience	-9.57956
▁search	-9.57956
▁protection	-9.58178
▁g	-9.58287
▁units	-9.58409
▁strength	-9.58434
▁class	-9.58491
▁ex	-9.58493
pi	-9.5855
-19	-9.58615
▁systems	-9.58908
▁Mo	-9.59055
▁conference	-9.59086
▁refrigerator	-9.59086
▁transfer	-9.59181
▁bed	-9.59258
▁w	-9.59333
▁myself	-9.5937
▁option	-9.59496
▁wind	-9.59565
clock	-9.5962
▁mouth	-9.59655
▁bathroom	-9.59656
▁recent	-9.59835
▁Could	-9.59846
▁action	-9.59898
ty	-9.60009
▁memory	-9.60229
com	-9.60261
▁inquiries	-9.60325
▁distribution	-9.6042
ization	-9.60438
▁charging	-9.60457
ide	-9.60483
▁analysis	-9.60612
▁generation	-9.60711
▁easier	-9.60804
▁500	-9.60841
▁flight	-9.60911
▁COVID	-9.60997
ang	-9.61063
▁trade	-9.61095
ph	-9.61118
▁places	-9.61124
▁waste	-9.61136
▁ice	-9.61262
▁milk	-9.61287
▁self	-9.61382
▁either	-9.61384
▁American	-9.6143
▁seeing	-9.61436
▁Should	-9.61481
▁De	-9.61565
▁progress	-9.61578
▁carbon	-9.61736
▁bottom	-9.61869
▁issues	-9.61915
ie	-9.61963
▁transportation	-9.61985
▁avoid	-9.62064
▁restaurants	-9.62123
▁replace	-9.62237
▁lose	-9.62263
▁collect	-9.62375
ad	-9.62429
▁stainless	-9.62459
▁deep	-9.62625
▁secure	-9.6264
▁technologies	-9.62651
▁respond	-9.62707
▁guarantee	-9.62746
▁version	-9.62749
▁film	-9.62807
▁invitation	-9.62847
▁nervous	-9.62945
▁invest	-9.63041
▁exercise	-9.63044
▁modern	-9.63044
▁providing	-9.63142
▁Anyway	-9.63145
▁signed	-9.63181
▁mainly	-9.63214
▁abroad	-9.6334
▁story	-9.63403
▁lunch	-9.6344
▁defective	-9.6345
▁promotion	-9.6348
z	-9.6354
▁focus	-9.63576
▁manual	-9.63634
▁robot	-9.63639
▁goal	-9.63641
▁asking	-9.63831
▁foot	-9.63881
ard	-9.63915
▁installation	-9.63968
▁cancer	-9.64139
▁24	-9.6428
▁growth	-9.64309
▁plate	-9.64484
▁reliable	-9.64632
▁automatic	-9.6464
▁artificial	-9.64649
▁status	-9.64735
ial	-9.64795
▁walk	-9.64998
▁deadline	-9.65136
bu	-9.65412
▁la	-9.65423
▁Before	-9.65436
▁father	-9.65436
▁solar	-9.65471
▁atmosphere	-9.65641
▁trouble	-9.65739
▁AI	-9.65911
▁boxes	-9.65931
term	-9.65991
be	-9.66022
▁cotton	-9.66043
▁efficiency	-9.66091
▁pepper	-9.66144
▁reasonable	-9.66211
W	-9.66282
▁serve	-9.66312
▁Nice	-9.66351
▁words	-9.66617
▁direction	-9.66702
▁25	-9.66732
▁metal	-9.66748
ect	-9.66754
▁mission	-9.66793
▁mom	-9.66799
▁Dong	-9.66884
▁pass	-9.66901
▁videos	-9.66974
▁Kwangsoo	-9.67064
▁Put	-9.67086
sa	-9.67249
▁cake	-9.6741
▁operating	-9.67473
▁press	-9.67477
▁movement	-9.67624
▁agree	-9.67661
▁Will	-9.67679
▁president	-9.67886
▁text	-9.6818
he	-9.68204
▁launched	-9.68231
▁vehicles	-9.68262
▁maximum	-9.68404
▁Jihyo	-9.68405
▁repair	-9.6851
▁photos	-9.68536
cm	-9.68807
▁10%	-9.68857
▁lead	-9.6886
▁aware	-9.68871
▁official	-9.69028
▁Use	-9.69101
▁column	-9.69134
▁motor	-9.69134
▁promise	-9.69136
▁Most	-9.69151
▁culture	-9.69239
▁beginning	-9.69239
▁preparing	-9.69344
▁Wi	-9.69375
▁visiting	-9.69634
▁urgent	-9.69658
ap	-9.69738
▁driver	-9.69748
▁target	-9.69764
▁normal	-9.69868
▁successful	-9.69876
▁watching	-9.69929
▁activities	-9.69975
▁Seokjin	-9.70085
▁models	-9.70105
▁durability	-9.70186
▁Sure	-9.70252
▁damaged	-9.70266
▁suggest	-9.70375
▁rental	-9.70603
year	-9.70654
▁huge	-9.70724
line	-9.7075
▁wall	-9.70822
▁waterproof	-9.70949
▁Jae	-9.70979
▁brush	-9.71127
▁outdoor	-9.71143
▁Last	-9.71263
▁frame	-9.71571
▁dish	-9.7169
▁thanks	-9.71906
▁evening	-9.71923
▁promote	-9.72009
ub	-9.72123
▁smartphone	-9.72163
▁Everyone	-9.72218
▁Min	-9.72299
ries	-9.72307
▁common	-9.72326
▁supposed	-9.72442
▁pad	-9.72517
▁extend	-9.72551
▁po	-9.72564
▁helpful	-9.72632
▁Recently	-9.72649
bo	-9.72676
▁seminar	-9.72757
▁third	-9.72866
▁Chinese	-9.73083
▁fix	-9.73101
▁hearing	-9.73103
▁stick	-9.73134
▁N	-9.73156
▁monthly	-9.7317
▁beans	-9.73173
▁crazy	-9.73192
tion	-9.73208
▁Due	-9.73267
▁stage	-9.73353
▁region	-9.7352
sh	-9.73565
▁success	-9.73585
▁attach	-9.73623
▁feet	-9.73762
▁push	-9.73848
▁desk	-9.73848
▁hour	-9.7408
ng	-9.74148
▁loan	-9.74175
▁Sechan	-9.74297
ee	-9.74298
▁Pa	-9.74314
rd	-9.74319
▁limited	-9.74346
fi	-9.74426
▁Seok	-9.7455
▁practice	-9.74619
▁rather	-9.74631
▁record	-9.74641
▁source	-9.74645
▁uses	-9.7478
▁buying	-9.74781
▁confidence	-9.74952
▁virtual	-9.74952
▁created	-9.75048
▁Wednesday	-9.75063
▁medicine	-9.75063
0,000	-9.75071
▁lost	-9.75174
▁placed	-9.75193
▁January	-9.75285
U	-9.75438
▁etc	-9.75476
▁Bo	-9.75521
▁passed	-9.75621
▁300	-9.75814
▁micro	-9.75842
▁vacation	-9.75955
bi	-9.7599
▁document	-9.75996
▁skills	-9.76085
▁highest	-9.76193
▁18	-9.76216
▁Two	-9.76292
▁accurate	-9.76298
▁cable	-9.76309
▁bottle	-9.76344
50	-9.76349
▁agreement	-9.76424
man	-9.7651
▁impact	-9.76632
▁W	-9.76673
▁wasn	-9.76786
▁looked	-9.7695
▁select	-9.76964
▁cloud	-9.76968
▁thick	-9.76978
▁code	-9.77129
▁She	-9.77195
▁length	-9.7727
▁Japan	-9.77309
▁environmental	-9.7738
30	-9.77388
▁grateful	-9.77422
▁require	-9.77428
▁PC	-9.77429
▁effects	-9.77439
▁excited	-9.77536
▁receipt	-9.77536
▁advanced	-9.77623
▁lid	-9.77661
▁feature	-9.77755
▁catch	-9.77817
▁Ba	-9.77887
▁considering	-9.78006
▁designs	-9.78048
▁summer	-9.78107
▁moving	-9.78111
▁parking	-9.78161
▁budget	-9.78221
▁base	-9.78242
▁honest	-9.78344
▁starting	-9.7841
▁boasts	-9.78416
one	-9.78427
▁mask	-9.78454
▁copy	-9.78508
▁suit	-9.78654
▁serious	-9.7869
▁sizes	-9.78696
▁mo	-9.78746
▁November	-9.78796
▁broadcast	-9.78806
▁Try	-9.78945
▁wholesaler	-9.79008
▁role	-9.79027
▁ahead	-9.79039
▁raise	-9.79054
▁connected	-9.79083
▁concept	-9.79142
▁processed	-9.79234
▁cells	-9.79257
▁cars	-9.79425
▁Sorry	-9.7949
▁benefit	-9.79631
▁Finally	-9.79839
▁Through	-9.79839
▁North	-9.7984
act	-9.7986
▁useful	-9.79888
▁0	-9.80165
▁seem	-9.80259
▁charged	-9.80323
ring	-9.80371
▁established	-9.80455
▁reading	-9.80578
▁Christmas	-9.80658
▁seconds	-9.80869
▁government	-9.80893
▁feels	-9.81141
▁laptop	-9.81199
▁spray	-9.81247
▁efficient	-9.81314
▁selected	-9.81344
▁properties	-9.81365
▁uncomfortable	-9.81365
V	-9.81391
▁figure	-9.81483
▁prefer	-9.81485
ence	-9.81532
▁Get	-9.81662
▁pants	-9.81853
▁lock	-9.81956
▁port	-9.82045
▁partnership	-9.82205
▁Which	-9.82435
▁exhibition	-9.82437
▁Mi	-9.82452
▁operate	-9.82453
▁favorite	-9.82557
▁Give	-9.82991
▁nature	-9.83034
▁Po	-9.83053
▁reserve	-9.83068
▁vegetables	-9.83097
▁disease	-9.83156
▁affect	-9.83189
▁ideas	-9.8323
▁container	-9.83292
▁married	-9.83396
▁mat	-9.83461
▁corporate	-9.83517
▁technical	-9.83517
ction	-9.83638
▁collection	-9.83672
▁acid	-9.83881
▁master	-9.83891
▁thin	-9.83921
▁anytime	-9.83939
▁organization	-9.84246
▁fruit	-9.84276
ite	-9.84317
based	-9.84467
▁tastes	-9.84469
▁pot	-9.84486
▁Hotel	-9.84488
▁accident	-9.84518
▁wearing	-9.84544
ical	-9.84552
▁introduction	-9.8461
▁extra	-9.84611
▁indoor	-9.84856
▁actual	-9.85125
▁chat	-9.85226
▁sudden	-9.85363
▁felt	-9.85469
▁stable	-9.85595
▁bill	-9.85712
▁maintenance	-9.85716
ok	-9.85721
▁replacement	-9.85738
way	-9.85744
▁sensitive	-9.85754
▁tools	-9.85766
▁switch	-9.85839
▁funny	-9.8585
ba	-9.85901
▁subscription	-9.85963
▁via	-9.86002
▁collaboration	-9.86087
ian	-9.86113
▁join	-9.86119
▁setting	-9.8616
▁height	-9.86212
▁wrap	-9.86328
▁patients	-9.86339
▁fuel	-9.8646
▁rubber	-9.86461
▁inquired	-9.86521
▁logo	-9.86534
da	-9.86535
ti	-9.86538
▁caught	-9.86584
ff	-9.86637
work	-9.86653
▁photo	-9.86673
▁responsible	-9.86709
▁notice	-9.86815
board	-9.86819
▁kinds	-9.86831
▁teeth	-9.86834
che	-9.86863
▁electricity	-9.86871
▁reflect	-9.86878
▁multiple	-9.86964
▁lack	-9.87097
ten	-9.87195
▁solid	-9.87212
▁14	-9.87347
▁ways	-9.87457
om	-9.87489
▁sounds	-9.87586
wa	-9.8761
▁spend	-9.87712
▁beef	-9.87714
▁kids	-9.8772
▁advertisement	-9.8772
▁balance	-9.87757
▁cleaner	-9.87899
▁wedding	-9.87917
▁flow	-9.87939
▁fan	-9.87953
▁keeps	-9.88064
▁logistics	-9.88091
▁Pro	-9.88168
ster	-9.88178
▁cutting	-9.88385
coming	-9.88404
▁cute	-9.88694
▁sells	-9.88719
▁series	-9.88729
▁complex	-9.88853
▁Hold	-9.8886
▁cheap	-9.88888
the	-9.89037
▁mix	-9.89078
su	-9.89197
▁foam	-9.89236
▁behind	-9.89236
▁intelligence	-9.89492
▁worth	-9.89492
▁tired	-9.89493
▁word	-9.89538
▁pictures	-9.8954
▁America	-9.8956
▁Make	-9.89645
ber	-9.89677
ac	-9.89715
▁drinks	-9.89746
10	-9.89754
ner	-9.89827
out	-9.8984
▁Yang	-9.89882
▁joint	-9.8989
▁smoothly	-9.90046
▁sports	-9.90073
▁finished	-9.90216
▁opinion	-9.90334
use	-9.90351
▁conduct	-9.90502
▁policy	-9.90524
▁Di	-9.90611
▁iron	-9.90789
▁miss	-9.90853
▁cameras	-9.91021
▁dark	-9.9105
▁simply	-9.91174
▁feedback	-9.91176
▁advertising	-9.91305
▁sub	-9.91376
▁recognized	-9.91421
▁60	-9.91491
related	-9.91576
▁Thursday	-9.91697
▁weird	-9.91702
▁burden	-9.91828
▁agency	-9.91829
▁increases	-9.91868
▁reduced	-9.91997
▁spread	-9.92092
▁Park	-9.92233
go	-9.92351
ip	-9.92389
ji	-9.92391
▁education	-9.9242
▁vacuum	-9.92487
▁massage	-9.92498
▁station	-9.92499
ong	-9.92518
ni	-9.92545
▁produces	-9.92562
▁Jin	-9.92623
▁recording	-9.92756
▁16	-9.92953
▁following	-9.93005
▁paste	-9.93044
▁older	-9.93215
▁fat	-9.93216
▁interesting	-9.93245
▁shows	-9.93264
▁playing	-9.93386
▁husband	-9.93417
▁dress	-9.93417
▁experts	-9.93428
▁specifications	-9.93457
▁act	-9.93487
K	-9.93549
▁road	-9.93551
▁appropriate	-9.93626
book	-9.9371
▁projects	-9.93727
kg	-9.93818
▁roll	-9.9386
▁Hyun	-9.94006
hu	-9.94051
▁profit	-9.94083
▁medium	-9.94087
dong	-9.94119
▁13	-9.94142
▁stores	-9.94261
ab	-9.94268
▁weak	-9.9432
jin	-9.94347
▁twice	-9.94355
▁changing	-9.94356
tra	-9.94356
▁bright	-9.94457
▁download	-9.94506
▁degrees	-9.94535
▁wood	-9.94603
▁limit	-9.94959
▁industrial	-9.95031
▁parents	-9.95088
▁remittance	-9.95167
▁requirements	-9.95167
▁batteries	-9.95302
▁drama	-9.95302
▁audio	-9.95576
qu	-9.95608
▁distance	-9.95621
▁cup	-9.95716
▁knowledge	-9.95848
▁growing	-9.9585
day	-9.95875
▁slightly	-9.95877
▁external	-9.95986
▁became	-9.96122
▁print	-9.96209
▁Among	-9.96259
▁member	-9.96354
▁La	-9.96432
▁informed	-9.96456
▁honor	-9.96465
▁against	-9.96494
face	-9.96589
▁met	-9.96617
▁speak	-9.96633
▁neck	-9.96633
▁salt	-9.96721
▁throw	-9.9681
▁Jeju	-9.96812
▁moved	-9.96856
▁organize	-9.96881
▁pull	-9.96949
▁awesome	-9.97086
▁Ex	-9.97119
▁annual	-9.97225
▁written	-9.97404
▁active	-9.97417
▁applying	-9.97467
▁confirmation	-9.97546
▁While	-9.97641
▁ability	-9.97707
▁anyway	-9.97771
▁chair	-9.97774
▁customized	-9.97844
art	-9.97898
ator	-9.97912
▁physical	-9.98059
▁server	-9.98104
ish	-9.98147
▁train	-9.98154
▁fiber	-9.98202
▁gaming	-9.9834
▁supports	-9.98346
▁luxurious	-9.9848
▁register	-9.98554
▁cat	-9.98598
ble	-9.98688
▁gain	-9.98727
▁LED	-9.98761
▁October	-9.98761
▁consultation	-9.9878
if	-9.98816
▁hall	-9.989
▁dream	-9.98902
▁angry	-9.98902
▁k	-9.99038
▁tax	-9.99182
der	-9.99224
ju	-9.99226
▁treat	-9.99244
▁forget	-9.99336
▁wire	-9.99391
▁legs	-9.994
▁Manager	-9.99467
▁lightweight	-9.99471
▁Ca	-9.99488
ving	-9.9955
▁facility	-9.99609
▁businesses	-9.99636
▁turned	-9.99692
▁direct	-9.99785
▁disappointed	-9.99812
igh	-9.99839
con	-9.99857
▁camping	-9.99891
▁character	-9.99941
▁protein	-10.0004
▁organic	-10.0005
▁ate	-10.0013
▁secret	-10.0017
▁accessories	-10.0018
▁kept	-10.0018
▁manufacture	-10.0018
▁remaining	-10.0021
▁sensor	-10.0025
▁images	-10.0031
▁Although	-10.0046
▁People	-10.0046
▁strategy	-10.0046
▁nearby	-10.0047
▁mall	-10.0055
▁paint	-10.0073
▁sister	-10.0075
ship	-10.0082
▁chocolate	-10.0089
▁sugar	-10.009
▁en	-10.0092
▁birthday	-10.0104
side	-10.011
king	-10.011
ig	-10.011
▁begin	-10.0118
▁remote	-10.0122
▁finally	-10.0136
▁Eun	-10.0141
light	-10.0158
▁Start	-10.0158
▁cases	-10.016
▁breakfast	-10.0162
▁overall	-10.0162
▁producing	-10.0162
▁adjusted	-10.0165
ugh	-10.0166
ise	-10.017
▁angle	-10.0178
▁harmful	-10.0191
ot	-10.0194
▁brain	-10.0196
▁Con	-10.0199
▁bowl	-10.0199
▁happens	-10.0209
▁strengthen	-10.0209
▁coupon	-10.022
▁scared	-10.0229
▁window	-10.0233
▁liquid	-10.0234
▁Jaeseok	-10.0234
▁reference	-10.025
va	-10.0256
▁update	-10.0271
▁rain	-10.0277
▁certification	-10.0278
▁household	-10.0279
▁hop	-10.0283
▁grade	-10.0289
▁quiet	-10.0293
▁tool	-10.0297
▁talked	-10.0302
ping	-10.0302
▁Su	-10.0303
▁fixed	-10.0306
▁patient	-10.0312
▁workers	-10.0326
▁Ro	-10.0331
▁solutions	-10.0335
▁stir	-10.0337
▁learned	-10.0343
▁cheaper	-10.0362
▁advice	-10.0366
▁portable	-10.0369
▁applications	-10.0373
won	-10.0385
ability	-10.0388
oo	-10.0389
▁classic	-10.0406
▁track	-10.0407
▁straight	-10.0411
▁cafe	-10.0411
▁Ar	-10.043
▁perform	-10.0434
▁mark	-10.0435
hi	-10.0443
▁compatible	-10.0456
▁juice	-10.0456
▁Gu	-10.0461
▁manufactured	-10.0462
▁pain	-10.0468
▁potential	-10.047
▁becomes	-10.0485
▁interview	-10.0486
▁printing	-10.0492
▁son	-10.0497
▁Actually	-10.05
▁Li	-10.0503
▁lighting	-10.0506
▁gold	-10.0514
▁spring	-10.0515
▁survey	-10.053
▁gives	-10.0536
▁dance	-10.0548
ign	-10.0554
▁flat	-10.0572
▁fashion	-10.0573
▁minimum	-10.0576
▁strap	-10.0576
▁holding	-10.0582
▁chemical	-10.0583
▁Philippines	-10.0584
▁cash	-10.0591
▁flavor	-10.0594
▁suggested	-10.0605
▁pump	-10.0606
▁core	-10.0607
and	-10.0624
cor	-10.0628
▁characteristics	-10.0629
▁occur	-10.0629
▁transport	-10.0633
▁student	-10.0645
▁failure	-10.0652
▁farm	-10.0655
cho	-10.0657
▁draft	-10.0667
▁hurt	-10.0676
▁standards	-10.0677
▁kit	-10.0683
▁ba	-10.0687
▁efforts	-10.0692
▁Second	-10.0697
▁impossible	-10.0697
▁stylish	-10.0697
▁ultra	-10.0697
▁bread	-10.0697
▁pan	-10.0699
ud	-10.0706
▁clearly	-10.0709
▁printer	-10.0723
▁load	-10.0723
▁across	-10.0728
cr	-10.0737
▁introducing	-10.0743
▁mold	-10.0743
▁requires	-10.0745
izing	-10.0747
▁layer	-10.0762
▁powerful	-10.0763
▁concerns	-10.0768
▁guests	-10.0781
▁Saturday	-10.0789
▁certified	-10.0792
▁consideration	-10.0796
▁leading	-10.0817
▁detergent	-10.082
▁score	-10.082
ors	-10.0822
▁mini	-10.0823
▁conducted	-10.0829
▁5%	-10.0851
▁tone	-10.0853
▁feed	-10.087
▁expenses	-10.0881
▁Hurry	-10.0882
▁Japanese	-10.0882
▁ground	-10.0882
▁Oppa	-10.0898
▁license	-10.0898
▁taken	-10.0898
▁aluminum	-10.0913
▁bags	-10.0918
▁innovative	-10.0929
▁studio	-10.0929
▁desired	-10.0934
▁Aren	-10.0938
Based	-10.0951
▁grown	-10.0955
▁attract	-10.0957
▁cushion	-10.0958
▁programs	-10.0962
▁reality	-10.0971
▁shock	-10.0976
▁click	-10.0976
▁dye	-10.0979
▁heating	-10.1003
▁largest	-10.1003
▁says	-10.1004
▁sets	-10.1015
▁brought	-10.1023
▁couple	-10.1023
▁average	-10.1023
▁Product	-10.1023
▁CCTV	-10.1039
▁initial	-10.1039
▁tree	-10.1039
▁Made	-10.1042
▁dryer	-10.1063
▁integrated	-10.1078
▁Only	-10.1081
▁shoot	-10.1085
▁dad	-10.1092
▁regulations	-10.1111
woo	-10.1113
▁competitive	-10.1117
▁ramen	-10.1119
▁usage	-10.1124
▁appointment	-10.1134
▁description	-10.1134
▁cosmetics	-10.1143
▁enhance	-10.1152
▁10,000	-10.1155
▁tablet	-10.1157
▁visual	-10.1166
▁closed	-10.1172
▁funds	-10.1175
▁mass	-10.1202
▁wouldn	-10.1204
▁radio	-10.1209
▁sometimes	-10.1217
▁glasses	-10.1222
▁label	-10.1223
▁considered	-10.1233
▁article	-10.1247
▁extract	-10.1272
▁achieve	-10.1274
▁stress	-10.1274
▁US	-10.1279
▁holiday	-10.1279
▁conditioner	-10.1281
▁signal	-10.1282
▁aim	-10.1285
ue	-10.1295
▁stability	-10.1295
▁establish	-10.1305
▁Ho	-10.1309
lin	-10.1317
▁expression	-10.1317
▁worn	-10.1328
▁oven	-10.1328
▁Cha	-10.1333
▁tight	-10.1355
▁economic	-10.1357
▁beauty	-10.136
▁combination	-10.1377
▁stored	-10.1378
▁discussion	-10.1389
ea	-10.139
▁square	-10.1393
▁successfully	-10.1393
▁cards	-10.1398
▁flexible	-10.1409
▁Both	-10.141
ium	-10.1419
▁sides	-10.1421
und	-10.1424
▁grip	-10.1426
▁tourist	-10.1428
▁Company	-10.1459
▁drop	-10.1459
▁output	-10.1459
▁pen	-10.1474
▁trend	-10.1477
▁Sa	-10.1491
▁laundry	-10.1492
▁reaction	-10.1493
▁Instead	-10.1508
▁lines	-10.1512
▁Customer	-10.1528
ib	-10.1538
ger	-10.154
▁notification	-10.1554
▁lens	-10.1554
for	-10.1556
▁Introducing	-10.1558
▁circumstances	-10.1558
▁cooperate	-10.1558
▁measure	-10.1571
▁regret	-10.1575
ible	-10.1594
ier	-10.1597
▁fried	-10.1597
▁tasks	-10.1603
▁housing	-10.1608
▁anymore	-10.1608
▁shot	-10.1609
▁minimize	-10.1618
▁Yoo	-10.1637
▁nose	-10.1641
▁quarter	-10.1642
▁Asia	-10.1643
▁1,000	-10.1648
▁Bluetooth	-10.1659
▁20%	-10.1663
▁significantly	-10.1681
▁neat	-10.1682
▁ideal	-10.1684
ran	-10.1688
▁corner	-10.1694
Fi	-10.1696
ki	-10.1698
▁enable	-10.1701
▁foods	-10.1708
ink	-10.1708
▁York	-10.1709
io	-10.1724
▁wrote	-10.1726
▁ra	-10.1728
▁hat	-10.1738
▁blade	-10.1743
▁cancellation	-10.176
▁community	-10.176
▁bra	-10.1764
▁accurately	-10.1776
▁fax	-10.1777
▁computers	-10.1778
▁leak	-10.1793
▁agricultural	-10.1794
▁claim	-10.1799
▁Dur	-10.1804
▁satisfaction	-10.1811
▁pool	-10.1813
▁detect	-10.1814
▁defect	-10.1818
▁guest	-10.182
ism	-10.1838
ex	-10.1845
▁offering	-10.1845
▁diseases	-10.1845
▁Tuesday	-10.1845
▁preparation	-10.1845
▁sophisticated	-10.1845
000	-10.1848
▁lives	-10.1849
▁client	-10.1855
▁promotional	-10.1872
▁ten	-10.1876
▁boil	-10.1878
▁surgery	-10.188
▁garlic	-10.1897
▁band	-10.1897
part	-10.1899
▁engineering	-10.1899
▁plants	-10.1909
▁paying	-10.1918
▁biggest	-10.1931
▁chain	-10.1931
▁super	-10.1932
▁rules	-10.1939
▁IT	-10.194
▁mine	-10.1943
▁hasn	-10.1943
▁arrange	-10.1943
."	-10.1944
▁Da	-10.1957
▁Jeon	-10.1958
▁ride	-10.1958
▁reviews	-10.1962
▁custom	-10.1968
▁resolution	-10.1977
ze	-10.198
▁subject	-10.1983
▁helped	-10.199
▁eggs	-10.199
▁events	-10.1991
▁spot	-10.2001
▁rise	-10.2006
▁octopus	-10.2018
▁pizza	-10.2018
▁sun	-10.2025
cy	-10.2034
▁microphone	-10.2053
▁difficulties	-10.2063
▁legal	-10.2063
▁god	-10.2075
▁sing	-10.2083
si	-10.2088
▁guys	-10.209
▁hole	-10.209
▁naturally	-10.2099
▁Up	-10.2104
▁cooked	-10.2118
▁familiar	-10.2123
▁private	-10.2123
▁responsibility	-10.2123
▁laugh	-10.2126
wi	-10.2126
cur	-10.2128
fu	-10.2129
we	-10.2137
▁cm	-10.2138
▁certificate	-10.2141
▁reduces	-10.2157
▁daughter	-10.2159
▁channel	-10.2159
▁vary	-10.216
▁force	-10.2161
BBB	-10.2167
▁Europe	-10.2175
▁dedicated	-10.2176
▁frozen	-10.2176
▁listening	-10.2179
▁bio	-10.218
▁basis	-10.2194
▁burn	-10.2194
▁fight	-10.2196
▁topic	-10.2202
▁mis	-10.2203
▁steam	-10.2209
▁inter	-10.2211
▁tested	-10.2213
▁canceled	-10.2216
▁designer	-10.222
▁wondering	-10.2223
▁measurement	-10.2232
▁bacteria	-10.2238
of	-10.2241
ton	-10.2242
▁signing	-10.225
▁slow	-10.2256
▁sad	-10.2268
san	-10.2273
▁lease	-10.2283
▁carried	-10.2283
▁makeup	-10.2293
ple	-10.2293
▁Enjoy	-10.2301
hee	-10.2302
▁cap	-10.2305
▁cargo	-10.2324
ny	-10.2336
▁ingredient	-10.2342
▁suggestion	-10.2347
▁loved	-10.2353
▁pleasant	-10.2355
▁planned	-10.2355
▁auto	-10.2365
▁registration	-10.2373
▁seeds	-10.2386
ice	-10.2386
20	-10.2397
▁Welcome	-10.2409
▁Dr	-10.2412
▁alcohol	-10.2413
▁concern	-10.2414
fer	-10.2427
▁shown	-10.2439
▁arm	-10.244
▁creating	-10.2446
house	-10.2449
▁opinions	-10.2454
▁cl	-10.2457
land	-10.2463
▁catalogue	-10.2466
▁clothing	-10.2477
▁firm	-10.249
▁files	-10.2491
how	-10.2496
▁dogs	-10.2499
▁trading	-10.25
▁divided	-10.2513
▁willing	-10.2515
▁broken	-10.2545
▁accounting	-10.2553
▁artist	-10.2563
type	-10.2563
▁promised	-10.2573
▁Customers	-10.2574
▁meals	-10.2574
▁wipe	-10.2575
▁star	-10.2585
▁drug	-10.2586
▁l	-10.2598
FFF	-10.261
▁institute	-10.2611
▁communicate	-10.2629
▁keyboard	-10.2631
▁slowly	-10.264
▁gone	-10.2645
▁practical	-10.2648
▁precious	-10.2648
▁mineral	-10.2649
▁bu	-10.2652
set	-10.2664
▁Unlike	-10.2667
▁determine	-10.267
▁throughout	-10.2676
pt	-10.2682
▁Other	-10.269
▁capture	-10.2704
▁magazine	-10.2704
▁respect	-10.2704
▁Woo	-10.2708
▁Ga	-10.2715
▁Check	-10.2723
▁fits	-10.273
chi	-10.2733
▁yellow	-10.2741
▁agreed	-10.2741
▁arrival	-10.276
▁serving	-10.276
resistant	-10.2765
▁depends	-10.2777
▁tissue	-10.2779
▁sweat	-10.2779
ual	-10.2783
▁draw	-10.2789
▁swimming	-10.2798
▁consumption	-10.2798
▁movies	-10.2799
▁processes	-10.28
▁notify	-10.2801
▁hyung	-10.2805
▁fur	-10.2806
▁originally	-10.2808
▁actively	-10.2812
▁More	-10.2814
▁grill	-10.2815
▁diet	-10.2816
▁conversation	-10.2816
▁eight	-10.2817
old	-10.282
▁See	-10.282
ron	-10.2824
yeong	-10.2833
▁tape	-10.2835
▁count	-10.2836
▁patented	-10.2836
▁retailer	-10.2847
ory	-10.2851
▁absorb	-10.2853
ey	-10.2873
▁USB	-10.2874
▁attractive	-10.2876
▁missing	-10.2885
▁operated	-10.2887
▁aren	-10.2893
▁possibility	-10.293
▁personnel	-10.293
▁improves	-10.2933
▁sharp	-10.295
▁award	-10.295
▁bone	-10.2952
▁experienced	-10.2954
▁relieve	-10.2967
▁challenge	-10.2969
▁blanket	-10.2969
▁empty	-10.2969
▁Busan	-10.2988
▁transactions	-10.2988
▁rates	-10.3002
▁Didn	-10.3006
▁gratitude	-10.3007
▁national	-10.3018
▁adding	-10.3019
▁attending	-10.3019
▁Department	-10.3026
▁brown	-10.3026
▁purifier	-10.3026
▁stretch	-10.3026
▁toothpaste	-10.3026
▁mood	-10.3026
▁seafood	-10.3027
▁author	-10.3044
▁entered	-10.305
▁agent	-10.3053
▁Team	-10.3057
▁offered	-10.3057
▁quote	-10.3065
▁relief	-10.3065
▁strict	-10.3065
▁ear	-10.307
▁effort	-10.3071
▁staying	-10.3074
▁suits	-10.3084
▁compensation	-10.3084
▁High	-10.3086
▁Che	-10.3092
▁assist	-10.3124
qui	-10.3129
ain	-10.3134
▁August	-10.3143
▁regardless	-10.3144
▁Sp	-10.3153
▁leaves	-10.3161
▁knew	-10.3162
▁entertainment	-10.3163
▁reducing	-10.3163
ware	-10.3163
▁liked	-10.3164
▁speaker	-10.3164
▁Na	-10.3172
▁resolved	-10.3177
▁urgently	-10.3182
▁mouse	-10.3183
▁pets	-10.3186
▁leg	-10.3187
ler	-10.3187
▁Island	-10.3188
▁defects	-10.3192
▁visited	-10.3192
▁methods	-10.3194
▁maker	-10.3194
▁patent	-10.3201
▁substances	-10.3212
▁optimal	-10.3213
▁spoon	-10.3221
▁instructions	-10.3223
▁meantime	-10.3245
▁map	-10.3248
▁continuous	-10.325
▁streaming	-10.3278
▁delighted	-10.328
▁quotation	-10.328
▁covers	-10.3292
law	-10.3294
▁compensate	-10.33
▁protects	-10.3302
▁mid	-10.3303
▁poor	-10.3306
▁greatly	-10.3307
▁mixed	-10.3312
▁animal	-10.3313
▁pattern	-10.3313
▁suggestions	-10.3314
▁club	-10.3321
▁Jo	-10.3329
▁drinking	-10.3334
▁showed	-10.3335
▁bedroom	-10.334
▁seasoning	-10.3355
▁emergency	-10.336
▁customs	-10.3362
night	-10.3368
sized	-10.3374
▁lie	-10.3377
▁measures	-10.3377
▁technician	-10.338
▁plug	-10.3389
▁shampoo	-10.34
▁blend	-10.34
▁reduction	-10.34
▁whenever	-10.3412
▁covered	-10.3417
▁helping	-10.3419
▁unexpected	-10.342
▁j	-10.3424
▁relax	-10.3439
▁leaving	-10.344
▁string	-10.344
▁Hong	-10.3442
▁capital	-10.346
▁choosing	-10.346
▁showing	-10.3461
▁grain	-10.3466
▁Ra	-10.3477
▁spa	-10.3478
▁gra	-10.3482
▁entering	-10.3485
▁term	-10.3491
gen	-10.3506
▁die	-10.3514
▁expert	-10.3518
▁sites	-10.352
▁afraid	-10.3521
▁hesitate	-10.3521
▁profile	-10.3521
▁Still	-10.3521
▁fees	-10.3526
▁thoroughly	-10.3527
▁valuable	-10.3541
▁predict	-10.3541
▁postpone	-10.3561
▁February	-10.3561
▁dried	-10.3561
▁coating	-10.3564
▁advantages	-10.3567
du	-10.3571
▁sheet	-10.3582
▁se	-10.3585
▁Si	-10.3608
▁principle	-10.3622
▁rock	-10.3622
▁forgot	-10.3623
▁appearance	-10.3623
▁Yeon	-10.3627
▁discussed	-10.3632
▁Shall	-10.3636
▁Jung	-10.3645
▁belt	-10.3647
▁J	-10.3651
cha	-10.3652
Y	-10.3652
▁resources	-10.3657
▁seaweed	-10.3663
▁traffic	-10.3663
▁tire	-10.3663
tter	-10.3664
▁Haha	-10.3665
▁earn	-10.3681
▁science	-10.3689
▁popularity	-10.3694
▁larger	-10.3699
▁God	-10.37
▁phones	-10.3702
▁briefly	-10.3712
▁broadcasting	-10.3723
▁odor	-10.3725
ative	-10.3728
▁implement	-10.3743
▁inquiring	-10.3746
▁ring	-10.3753
▁profits	-10.3761
▁player	-10.3764
ities	-10.3771
▁International	-10.3787
▁Another	-10.3787
▁plane	-10.379
ever	-10.3791
▁drying	-10.3793
▁telling	-10.3796
▁competition	-10.3808
ray	-10.3818
ari	-10.3819
▁widely	-10.3828
yo	-10.3829
▁sturdy	-10.3829
ile	-10.3829
▁resistance	-10.3829
▁writer	-10.3835
▁components	-10.3837
▁meters	-10.3845
▁raised	-10.3846
▁r	-10.3847
▁input	-10.3851
▁newspaper	-10.3851
▁Usually	-10.3871
▁recipe	-10.3871
▁complaints	-10.3871
▁distribute	-10.3872
▁shoulder	-10.388
▁Sales	-10.3892
▁relevant	-10.3892
▁Maybe	-10.3894
▁income	-10.3902
▁buyers	-10.3903
▁removed	-10.3909
▁likely	-10.391
▁anniversary	-10.3913
▁repay	-10.3926
▁foundation	-10.3934
▁accommodate	-10.3934
▁proud	-10.3935
▁investing	-10.3943
▁Song	-10.3943
▁bean	-10.3947
▁functional	-10.395
▁recognition	-10.3955
▁thousand	-10.3955
▁exclusive	-10.3966
ake	-10.3969
▁robots	-10.397
▁putting	-10.3976
▁stuff	-10.3977
▁doll	-10.3977
▁cast	-10.3977
▁wow	-10.3978
▁bus	-10.3983
▁gloves	-10.399
▁seats	-10.3994
▁Various	-10.3998
▁Three	-10.3998
▁bigger	-10.4001
▁attachment	-10.4001
▁scale	-10.4009
▁dial	-10.4013
▁mountain	-10.4019
▁consult	-10.4024
▁registered	-10.4029
graph	-10.4033
yeon	-10.4035
▁submit	-10.4039
▁Those	-10.4041
▁truck	-10.4062
▁analyze	-10.4062
▁managed	-10.4066
▁discounts	-10.4073
▁remind	-10.4079
▁scene	-10.4082
▁dishwasher	-10.4083
▁Until	-10.4083
▁dangerous	-10.4083
▁calm	-10.4083
▁fields	-10.4087
▁testing	-10.4089
▁walking	-10.4091
que	-10.4112
av	-10.4116
▁150	-10.4119
▁shower	-10.4122
▁About	-10.4126
▁senior	-10.4126
▁2021	-10.4126
▁calls	-10.4147
▁lecture	-10.4148
▁Food	-10.4148
▁seven	-10.4148
▁continued	-10.4149
▁reasons	-10.415
▁conveniently	-10.4155
▁sh	-10.4156
rate	-10.4156
▁pocket	-10.4164
▁innovation	-10.4169
▁Ne	-10.4172
ped	-10.4179
▁ha	-10.4184
▁Ta	-10.4188
▁ginseng	-10.4191
▁trial	-10.4191
▁platforms	-10.4196
▁markets	-10.4198
ja	-10.4199
▁younger	-10.42
▁bottles	-10.4202
ome	-10.4205
▁fighting	-10.421
▁September	-10.4213
▁approval	-10.4213
▁doctor	-10.4213
▁pleased	-10.4218
▁seal	-10.4229
▁ID	-10.4239
▁personally	-10.424
long	-10.4241
▁proper	-10.4247
▁snow	-10.4256
▁statement	-10.4261
▁tracking	-10.4262
▁freely	-10.4268
fa	-10.4268
tang	-10.4273
▁bicycle	-10.4278
▁towel	-10.43
▁sincere	-10.4304
▁adults	-10.4313
fried	-10.4314
young	-10.4315
▁Fortunately	-10.4322
▁Ouch	-10.4322
▁behalf	-10.4322
▁1,	-10.4335
by	-10.4338
▁subscribe	-10.4343
▁luxury	-10.4344
▁chairs	-10.4344
▁factories	-10.4345
vo	-10.4351
▁improving	-10.4366
▁played	-10.4366
▁Jongkook	-10.4366
▁sick	-10.4367
▁factors	-10.4367
▁30%	-10.4372
▁drugs	-10.4374
▁upload	-10.4375
▁educational	-10.4378
▁executives	-10.4384
▁tests	-10.4388
▁cross	-10.4388
▁panel	-10.4397
▁requesting	-10.44
▁era	-10.4404
▁Keep	-10.441
▁themselves	-10.441
▁controller	-10.4412
▁smells	-10.4428
▁fell	-10.4433
▁mu	-10.4436
▁complaint	-10.4439
▁steps	-10.4447
▁pasta	-10.4447
▁ok	-10.4451
uff	-10.4456
▁rapidly	-10.4461
▁homes	-10.4465
▁announce	-10.4476
▁session	-10.4477
▁generous	-10.4477
▁prompt	-10.4477
▁Un	-10.448
▁tend	-10.4493
▁purchases	-10.4494
▁shared	-10.4495
uk	-10.4498
tan	-10.4498
▁instant	-10.4499
▁hi	-10.4502
▁50%	-10.4504
▁pure	-10.4506
▁animals	-10.4507
▁Add	-10.451
▁expanding	-10.4519
ek	-10.4519
▁extension	-10.4521
▁savory	-10.4521
▁80	-10.4523
▁buildings	-10.4525
▁studying	-10.4533
▁exceed	-10.4544
▁alarm	-10.4544
log	-10.4553
▁characters	-10.4557
▁recover	-10.4558
GB	-10.4559
▁perfectly	-10.4562
▁classes	-10.4576
▁stew	-10.4589
▁Lastly	-10.4611
▁garden	-10.4611
▁Great	-10.4611
▁seriously	-10.4632
▁block	-10.4633
▁penalty	-10.4634
▁sufficient	-10.4634
ark	-10.4643
▁oppa	-10.4657
▁adjustment	-10.4663
▁vitamin	-10.4664
over	-10.467
▁piece	-10.4677
▁turns	-10.4678
▁occurred	-10.4679
▁improvement	-10.4686
▁dumplings	-10.4694
▁sharing	-10.4702
▁Sung	-10.4702
▁purposes	-10.4704
▁actor	-10.4716
▁park	-10.4717
▁filled	-10.472
▁friendly	-10.4726
▁grab	-10.4728
▁approved	-10.473
▁experiment	-10.473
▁upper	-10.4739
▁scalp	-10.4748
▁tie	-10.4749
▁totally	-10.4756
let	-10.476
▁sleeping	-10.4766
▁March	-10.4771
uck	-10.4777
▁enjoyed	-10.4779
like	-10.4791
▁houses	-10.4793
▁destination	-10.4794
▁expansion	-10.4794
ify	-10.4794
▁section	-10.4794
▁lights	-10.4797
pping	-10.4805
▁procedure	-10.4805
▁drawing	-10.4812
▁records	-10.4815
▁compact	-10.4817
▁decline	-10.4817
▁attack	-10.4817
▁soap	-10.4821
▁brands	-10.4827
▁ratio	-10.4831
▁collaborate	-10.484
▁mirror	-10.484
atic	-10.4843
▁reviewed	-10.485
▁regard	-10.4852
▁Car	-10.4856
▁vision	-10.4858
▁alternative	-10.4863
▁pillow	-10.4863
▁supplied	-10.4863
▁Year	-10.4865
▁July	-10.4871
▁law	-10.4879
▁recognize	-10.4889
▁fishing	-10.4901
0%	-10.4903
▁Awesome	-10.491
▁Canada	-10.491
▁celebrate	-10.491
▁password	-10.491
▁Stop	-10.4914
▁egg	-10.4924
▁electrical	-10.4931
▁gray	-10.4944
▁stated	-10.4955
▁disappear	-10.4956
▁kill	-10.4956
room	-10.4959
▁consumer	-10.4976
rim	-10.499
▁speaking	-10.499
rain	-10.499
▁Any	-10.4997
▁upgraded	-10.4999
▁activity	-10.5003
meter	-10.5009
▁organized	-10.5015
▁players	-10.5016
▁fruits	-10.502
▁moisturizing	-10.5027
▁sector	-10.5027
▁stronger	-10.5035
son	-10.5045
▁Especially	-10.505
▁valve	-10.505
▁embarrassed	-10.5052
▁cables	-10.5063
▁hate	-10.5065
▁prize	-10.5074
▁Yu	-10.5077
port	-10.5087
▁evaluation	-10.5098
▁replaced	-10.51
tric	-10.5106
▁rear	-10.5118
▁monitoring	-10.5118
lk	-10.5123
▁however	-10.513
▁adjustable	-10.513
▁21	-10.5132
▁host	-10.5143
5,000	-10.5144
▁satellite	-10.5145
▁module	-10.5169
▁laser	-10.517
▁effectively	-10.5173
▁hardware	-10.5175
press	-10.5192
▁carrier	-10.5193
▁optimized	-10.5199
▁rough	-10.5206
▁ta	-10.5209
▁developer	-10.5217
▁billion	-10.5222
▁mess	-10.5223
▁soy	-10.5241
▁Han	-10.5241
▁tank	-10.5241
▁Ge	-10.5242
▁branches	-10.5253
▁maintaining	-10.5259
▁born	-10.526
ology	-10.5261
▁toilet	-10.5267
▁appliances	-10.5274
▁closer	-10.5279
▁Mu	-10.528
▁negotiate	-10.5289
▁extent	-10.5289
▁potatoes	-10.5291
▁Soo	-10.5292
▁cooling	-10.5294
yu	-10.5295
▁requests	-10.5308
▁opportunities	-10.5313
▁belly	-10.5318
▁kindly	-10.532
▁Seo	-10.5328
▁packs	-10.5345
▁casual	-10.5362
▁Master	-10.5364
▁ticket	-10.5365
▁decrease	-10.5366
▁charger	-10.537
▁na	-10.5374
rise	-10.5409
▁wheel	-10.5409
▁Was	-10.5411
▁jump	-10.5411
▁everyday	-10.5416
▁tag	-10.5418
▁foreigners	-10.5421
▁assets	-10.5424
▁23	-10.5434
▁copies	-10.5435
▁transmission	-10.5435
▁stone	-10.5436
▁accumulated	-10.5444
▁luck	-10.5452
▁wrist	-10.546
▁slim	-10.5461
our	-10.5467
▁specialized	-10.547
▁teach	-10.5473
▁sole	-10.5482
▁industries	-10.5485
▁pension	-10.5485
▁Argh	-10.5509
▁Congratulations	-10.5509
▁street	-10.5509
▁worse	-10.5509
▁workshop	-10.551
▁Asian	-10.5519
▁stocks	-10.5522
▁log	-10.5526
▁lab	-10.5528
▁fault	-10.5534
▁Feel	-10.5534
▁thermal	-10.5534
▁para	-10.5535
▁snack	-10.5542
▁upgrade	-10.5544
▁Bu	-10.5549
▁Alright	-10.5559
▁debt	-10.5559
▁retail	-10.5568
▁Sit	-10.5569
▁updated	-10.5569
▁Vietnam	-10.5584
▁microwave	-10.5584
▁semiconductor	-10.5584
▁jacket	-10.5584
speed	-10.5585
bit	-10.5586
▁appear	-10.5597
▁investors	-10.5606
▁memories	-10.5609
▁du	-10.5611
▁reviewing	-10.5614
▁languages	-10.5614
▁reached	-10.5626
▁apple	-10.5627
▁distributor	-10.5634
▁smoke	-10.5634
▁Everything	-10.5634
▁advertisements	-10.5634
▁proven	-10.5644
▁conducting	-10.5648
lar	-10.565
▁Fighting	-10.5659
atch	-10.566
▁Ok	-10.5678
ced	-10.5681
▁except	-10.5681
▁Australia	-10.5684
▁superior	-10.5684
▁intention	-10.5684
▁chose	-10.5695
▁vegetable	-10.5696
▁supplement	-10.5696
▁imported	-10.57
▁Something	-10.5709
▁chip	-10.571
nam	-10.5722
ou	-10.5731
▁beer	-10.5732
▁Tae	-10.5733
generation	-10.5735
▁cutlet	-10.5736
order	-10.5736
▁fly	-10.5742
▁filters	-10.5743
▁broth	-10.5745
▁3-	-10.5746
▁normally	-10.576
▁blow	-10.576
▁finger	-10.576
▁maximize	-10.5769
ah	-10.5773
▁continuously	-10.5773
▁follows	-10.578
▁counseling	-10.5785
▁stomach	-10.5785
▁Running	-10.5785
▁faithful	-10.5785
▁guaranteed	-10.5788
▁optical	-10.5788
▁lotion	-10.5789
yang	-10.5799
▁Te	-10.5802
▁allowing	-10.5804
▁grind	-10.581
▁moist	-10.5812
top	-10.5812
▁fund	-10.5812
▁surrounding	-10.582
▁100,000	-10.5824
▁eaten	-10.5831
▁Perhaps	-10.5836
▁silver	-10.5836
▁starts	-10.5838
▁22	-10.5845
▁Ja	-10.5851
12	-10.5855
▁disc	-10.5856
▁album	-10.5861
▁satisfy	-10.5861
▁sitting	-10.5866
▁kg	-10.5868
▁Je	-10.5872
▁salty	-10.5878
▁inviting	-10.5887
▁varies	-10.5887
▁repeat	-10.5888
▁degree	-10.5895
▁published	-10.5898
▁complain	-10.5904
▁toothbrush	-10.5909
▁residential	-10.5913
▁onions	-10.5914
site	-10.5915
▁pop	-10.5926
▁breath	-10.593
fine	-10.5935
▁Africa	-10.5939
▁ceramic	-10.5939
▁solved	-10.5948
▁expanded	-10.5949
▁usual	-10.5952
▁ski	-10.5957
▁exported	-10.5961
▁frequency	-10.5975
▁90	-10.5978
▁chemicals	-10.5978
lock	-10.5979
▁refreshing	-10.5983
ach	-10.599
▁calendar	-10.599
▁transparent	-10.599
▁engineers	-10.5999
▁succeeded	-10.6008
chan	-10.6011
▁favor	-10.6013
cc	-10.6014
▁disadvantage	-10.6016
▁loose	-10.6016
led	-10.6018
▁humans	-10.602
▁Over	-10.602
▁gum	-10.602
▁allowed	-10.6024
▁Designed	-10.6026
▁sort	-10.6037
▁imp	-10.6037
▁nutrients	-10.604
▁Consider	-10.6042
▁cozy	-10.6042
eo	-10.6046
▁consulting	-10.6057
▁upon	-10.606
▁reward	-10.6068
▁hack	-10.607
▁smaller	-10.6076
▁booked	-10.6081
▁war	-10.6094
▁ourselves	-10.6095
▁reputation	-10.6095
▁vibration	-10.6095
▁wool	-10.6095
▁blog	-10.6095
▁Baek	-10.6095
▁seller	-10.6111
▁audience	-10.6121
▁wake	-10.6122
▁gene	-10.6124
▁tip	-10.6125
▁scary	-10.6128
▁exports	-10.6134
▁harder	-10.6138
▁obtained	-10.6138
proof	-10.6144
ase	-10.6144
▁returned	-10.6155
▁continues	-10.6156
cul	-10.6163
▁worrying	-10.6167
▁Eat	-10.617
▁inspect	-10.6173
▁brochure	-10.6174
▁encourage	-10.6174
▁somewhere	-10.6174
▁fail	-10.618
▁settings	-10.6183
▁Every	-10.6199
▁courier	-10.62
ition	-10.6201
▁secured	-10.6203
▁coverage	-10.6206
▁pink	-10.6208
soo	-10.6209
▁Hyung	-10.6216
▁ga	-10.622
▁creates	-10.6225
▁soybean	-10.6227
▁instrument	-10.6227
▁Bro	-10.6227
▁recovery	-10.6237
▁flu	-10.6241
▁temple	-10.6253
▁joke	-10.6253
▁causes	-10.6257
▁dual	-10.6261
▁filming	-10.6264
cal	-10.6279
▁infrastructure	-10.628
▁affordable	-10.6282
▁5,000	-10.6283
▁inner	-10.6287
▁efficiently	-10.6304
▁worldwide	-10.6307
▁pleasure	-10.6307
▁kick	-10.6307
▁su	-10.6309
▁drone	-10.6309
▁stages	-10.6313
jang	-10.6316
▁accidents	-10.6325
▁bo	-10.6329
▁displayed	-10.6331
▁extended	-10.6331
▁transform	-10.6333
▁diverse	-10.6333
▁society	-10.6333
▁East	-10.6334
▁hungry	-10.6334
▁songs	-10.6334
minute	-10.6336
▁labor	-10.6337
▁involved	-10.6341
pic	-10.6343
▁spaces	-10.6346
▁carrying	-10.6357
▁advertise	-10.6358
▁girl	-10.636
▁conventional	-10.6362
▁beat	-10.6371
▁generated	-10.6381
▁salary	-10.6387
▁nano	-10.6389
▁tenant	-10.6389
▁European	-10.6389
▁silicone	-10.639
band	-10.6397
▁Le	-10.64
▁listed	-10.6404
iva	-10.6407
▁specializ	-10.6409
▁recorded	-10.6411
▁shelf	-10.6414
▁turbine	-10.6414
▁bike	-10.6415
▁relatively	-10.6417
made	-10.6422
▁college	-10.6441
▁yeah	-10.6441
▁bond	-10.6443
▁fabrics	-10.6443
▁Originally	-10.6443
▁manner	-10.6444
cheon	-10.6444
▁strive	-10.6446
▁Tell	-10.6447
▁LA	-10.6456
▁Gi	-10.6456
▁Real	-10.6459
▁April	-10.6469
▁Compare	-10.6469
▁capabilities	-10.6469
▁dental	-10.6469
▁honey	-10.6469
▁vaccine	-10.6469
▁gym	-10.6469
▁membership	-10.6469
performance	-10.6472
▁heater	-10.6481
▁hang	-10.6484
▁scratch	-10.6492
▁blind	-10.6496
▁expectations	-10.6496
▁habit	-10.6496
▁spin	-10.6497
▁drain	-10.6497
▁shooting	-10.6499
▁task	-10.6504
▁pair	-10.6506
▁campaign	-10.6523
▁June	-10.6528
▁uniform	-10.655
▁root	-10.6551
▁levels	-10.6552
▁difficulty	-10.6562
▁apps	-10.6573
40	-10.6573
▁Depend	-10.6578
▁stain	-10.6582
ose	-10.6592
▁negative	-10.6606
cing	-10.6608
▁flower	-10.6608
▁Germany	-10.661
▁generate	-10.6613
▁snacks	-10.6624
▁Salesperson	-10.6633
▁owners	-10.6653
▁Director	-10.6661
▁collected	-10.6664
▁convert	-10.6668
▁lived	-10.6673
▁Sea	-10.6675
ail	-10.6676
5%	-10.6683
▁lift	-10.6689
▁bath	-10.669
▁attaching	-10.6691
ack	-10.6691
▁insert	-10.6692
class	-10.6693
▁engines	-10.6693
▁trends	-10.6698
▁maintained	-10.6714
▁beneficial	-10.6716
▁measuring	-10.6716
▁beyond	-10.6716
▁hire	-10.6718
▁Jang	-10.6718
▁upset	-10.6735
▁combined	-10.674
▁2,000	-10.6741
▁sunlight	-10.6745
level	-10.6749
▁coin	-10.6749
off	-10.6755
war	-10.6761
▁finance	-10.6772
▁preference	-10.6774
▁UV	-10.6775
▁corn	-10.6775
▁handling	-10.6778
▁strange	-10.6783
▁brief	-10.6784
▁buyer	-10.679
▁slip	-10.679
▁President	-10.6801
▁participants	-10.681
▁remain	-10.6812
je	-10.6816
▁steadily	-10.6829
▁shake	-10.6829
▁cry	-10.6833
shirt	-10.6834
ka	-10.6836
▁constantly	-10.6838
▁washed	-10.6842
▁hundred	-10.6857
▁hygiene	-10.6857
▁radish	-10.6857
▁sesame	-10.6857
▁hydrogen	-10.6857
▁served	-10.687
▁exist	-10.6883
▁automobile	-10.6885
▁imagine	-10.6885
ob	-10.6889
▁theater	-10.6892
▁melt	-10.6894
▁invited	-10.6894
▁hurts	-10.6896
▁soil	-10.6897
▁remov	-10.6903
▁failed	-10.6907
▁trusted	-10.6909
▁instruments	-10.6913
▁Teacher	-10.6914
▁chef	-10.6914
▁narrow	-10.6914
▁contribute	-10.6914
▁toward	-10.6914
▁rose	-10.6915
▁machinery	-10.6923
▁approach	-10.6937
▁packaged	-10.6939
▁scan	-10.6943
▁400	-10.696
▁objects	-10.6971
▁synthetic	-10.6971
▁hiking	-10.6971
▁thickness	-10.6974
▁Attached	-10.6976
wear	-10.6979
▁appears	-10.6989
▁cakes	-10.6991
▁keeping	-10.6992
▁harvest	-10.6999
▁wonderful	-10.7003
▁clinical	-10.7013
▁path	-10.7015
▁Young	-10.7016
▁sofa	-10.7016
▁bear	-10.7025
▁panels	-10.7028
▁loud	-10.7028
▁quantities	-10.7028
▁Seung	-10.703
▁frequently	-10.7034
▁installing	-10.7054
▁Open	-10.7057
▁aspect	-10.7058
▁combines	-10.7058
spec	-10.7081
▁manufacturers	-10.7085
▁expiration	-10.7086
▁university	-10.7086
▁assistant	-10.7087
▁lamp	-10.7088
▁reported	-10.7092
▁dealing	-10.7109
▁neighborhood	-10.7115
▁supplying	-10.7117
▁recycled	-10.7119
▁nights	-10.712
▁Station	-10.7124
▁shall	-10.7144
▁deputy	-10.7144
▁tear	-10.7145
back	-10.7153
▁achieved	-10.7157
▁rid	-10.7159
▁guy	-10.7171
▁Center	-10.7173
▁Four	-10.7176
▁Experience	-10.7202
▁economy	-10.7202
▁elasticity	-10.7204
ick	-10.7205
▁Y	-10.7206
▁mechanical	-10.7209
▁Sam	-10.7223
▁engineer	-10.7228
▁technique	-10.7232
ious	-10.7232
▁gear	-10.7232
▁novel	-10.7233
▁adapt	-10.724
oc	-10.7252
▁object	-10.7259
▁gently	-10.7261
▁resort	-10.7261
▁title	-10.7261
▁textbooks	-10.7262
nic	-10.7263
▁headset	-10.7264
200	-10.7274
▁Mom	-10.7275
▁frying	-10.7282
tract	-10.7283
▁University	-10.7291
▁identify	-10.7291
▁Meet	-10.7291
▁edition	-10.7293
▁explained	-10.7293
▁achievement	-10.7294
ern	-10.7305
▁ergonomic	-10.732
▁socks	-10.7324
▁restore	-10.7326
▁lenses	-10.7327
▁mushrooms	-10.7342
▁crack	-10.735
▁entrance	-10.735
▁hidden	-10.735
▁stopped	-10.7351
▁detection	-10.7355
▁Cool	-10.7358
%	-10.7362
60	-10.7363
▁Ye	-10.7363
▁caus	-10.7378
▁distributed	-10.7379
▁guidance	-10.738
▁lining	-10.738
▁Air	-10.7385
▁succeed	-10.7389
▁Us	-10.7399
▁complicated	-10.7409
▁reschedule	-10.7409
▁posted	-10.7427
▁shirt	-10.7434
▁percent	-10.7438
▁Sometimes	-10.7439
▁edge	-10.7442
▁muscles	-10.7452
▁gifts	-10.7453
men	-10.7456
▁sta	-10.7461
load	-10.7467
▁creative	-10.7469
▁beginner	-10.7471
▁pipe	-10.7472
▁boat	-10.7476
▁sl	-10.7478
▁talent	-10.7479
eng	-10.7487
▁apartments	-10.7489
▁counter	-10.7496
▁Provide	-10.7499
▁composition	-10.7499
▁plenty	-10.7499
▁severe	-10.75
icle	-10.75
▁assistance	-10.7501
▁negotiations	-10.7503
iness	-10.7504
▁mention	-10.7511
▁independent	-10.7514
▁filling	-10.7516
▁ink	-10.7519
80	-10.7521
▁eliminate	-10.7528
▁represent	-10.7529
▁ceremony	-10.753
▁military	-10.753
▁valid	-10.753
▁rack	-10.7532
▁nail	-10.7532
▁formal	-10.7534
▁researchers	-10.7539
▁procedures	-10.7545
▁climate	-10.756
▁ventilation	-10.756
▁worst	-10.756
▁Out	-10.7564
pro	-10.758
tone	-10.758
▁agents	-10.7581
▁fi	-10.7586
▁channels	-10.759
▁stories	-10.759
▁twist	-10.759
▁boost	-10.759
▁copyright	-10.7591
▁installment	-10.7597
▁falling	-10.7621
▁concerned	-10.7625
▁ease	-10.7628
elling	-10.7628
▁shoe	-10.7631
▁tru	-10.7638
▁reflected	-10.7641
▁congratulations	-10.7651
▁containers	-10.7659
▁compare	-10.7661
▁traveling	-10.7663
▁assured	-10.7665
▁internally	-10.7666
flow	-10.7669
▁drones	-10.7679
▁pamphlet	-10.7682
▁pandemic	-10.7682
▁professor	-10.7682
▁yarn	-10.7682
▁dead	-10.7686
▁Without	-10.7687
▁occurs	-10.7696
ient	-10.7707
▁knit	-10.7713
▁parcel	-10.7713
▁woman	-10.7713
▁tube	-10.7713
▁peel	-10.7713
▁connecting	-10.7714
▁tons	-10.7715
shaped	-10.7718
▁lip	-10.772
▁pour	-10.7722
water	-10.7727
▁wired	-10.7727
▁shorten	-10.7729
▁crystal	-10.7744
▁hint	-10.7744
▁semi	-10.7746
▁updates	-10.7746
▁basically	-10.7749
ya	-10.7753
▁smartphones	-10.776
▁recommendation	-10.7761
▁Act	-10.7774
▁insufficient	-10.7775
▁cabinet	-10.7775
▁death	-10.7775
▁sky	-10.7775
▁Junho	-10.7775
▁loans	-10.7776
▁competitiveness	-10.7777
▁Sun	-10.7778
ook	-10.7801
▁pin	-10.7805
▁background	-10.7806
▁pollution	-10.7806
▁convey	-10.7806
▁cheer	-10.7806
▁warmth	-10.7811
▁precision	-10.7815
▁tall	-10.7817
zz	-10.7817
▁Cho	-10.782
▁ages	-10.7829
▁holder	-10.7833
▁Black	-10.7837
▁fatigue	-10.7837
▁piano	-10.7837
▁spacious	-10.7837
▁Way	-10.7837
▁Ju	-10.7844
ache	-10.7844
▁HD	-10.7847
▁patterns	-10.7848
▁autonomous	-10.7855
▁resume	-10.7868
▁arrangement	-10.7871
▁diagnosis	-10.7873
▁Al	-10.7879
▁exclud	-10.79
▁Easy	-10.79
▁subtle	-10.79
▁sand	-10.7903
▁meaning	-10.7911
▁comments	-10.7913
▁significant	-10.792
▁evenly	-10.7927
▁editing	-10.793
▁Seunggi	-10.7932
▁unfortunately	-10.7937
▁boiled	-10.7937
▁specializes	-10.7938
▁previously	-10.7939
▁acting	-10.7948
▁colleagues	-10.7949
▁Sha	-10.7952
▁king	-10.796
▁birth	-10.7962
▁Delivery	-10.7963
▁tteokbokki	-10.7963
utheast	-10.7963
▁Pre	-10.7967
▁operations	-10.7972
▁Whe	-10.7972
bra	-10.7976
har	-10.7983
▁database	-10.7994
▁interface	-10.7995
▁crop	-10.7996
▁San	-10.7999
▁graphics	-10.8004
slip	-10.8007
▁affected	-10.8017
▁strongly	-10.8017
style	-10.8018
▁turning	-10.8021
▁promoted	-10.8023
▁dessert	-10.8026
▁inevitably	-10.8026
▁booth	-10.8027
▁lu	-10.8038
▁resolve	-10.8039
▁graphic	-10.8048
▁adapter	-10.8049
▁wooden	-10.8063
▁ears	-10.8068
▁precise	-10.8079
lie	-10.8083
▁afford	-10.8087
▁YouTube	-10.809
▁surveillance	-10.809
▁Power	-10.809
▁zone	-10.809
▁smile	-10.809
▁Turn	-10.809
▁toys	-10.81
▁20,000	-10.8102
▁performed	-10.8102
▁focusing	-10.8102
▁maybe	-10.8105
▁supplements	-10.8106
▁lowest	-10.8109
▁outlet	-10.8111
▁butter	-10.8119
▁knee	-10.8122
▁grand	-10.8124
▁gun	-10.8127
row	-10.8128
▁removal	-10.8128
▁elements	-10.8138
▁x	-10.8142
▁publishing	-10.8144
inch	-10.8145
▁resistant	-10.8146
▁flowers	-10.8148
▁fans	-10.8152
▁formula	-10.8153
▁textile	-10.8155
▁lifestyle	-10.8156
▁operates	-10.8158
▁28	-10.816
▁networks	-10.8161
▁obtain	-10.8165
foot	-10.8167
▁exporting	-10.8175
▁squid	-10.8186
▁carrot	-10.8186
▁alley	-10.8187
▁meaningful	-10.8187
▁packages	-10.8187
▁announcement	-10.8189
▁establishment	-10.819
bin	-10.8202
person	-10.8209
▁bother	-10.8213
▁Research	-10.8219
▁concentration	-10.8219
▁rumor	-10.8219
▁homepage	-10.8219
▁soccer	-10.8219
▁vote	-10.8219
▁exposed	-10.8223
▁impressed	-10.8223
▁scar	-10.8224
▁format	-10.8234
▁ho	-10.8242
▁50,000	-10.825
▁Excuse	-10.8251
▁crisis	-10.8251
▁gradually	-10.8251
▁signature	-10.8251
▁pricing	-10.8251
▁Again	-10.8251
▁India	-10.8253
▁Chan	-10.8257
▁trusting	-10.8259
tech	-10.826
OS	-10.8262
▁1000	-10.8262
piece	-10.8265
body	-10.8265
▁mixing	-10.8271
▁numerous	-10.8284
▁studied	-10.8284
▁particles	-10.8284
▁slide	-10.8285
▁gather	-10.8297
▁ran	-10.8303
pp	-10.8305
hoo	-10.8305
▁Pe	-10.8308
▁guarantees	-10.8314
▁participating	-10.8316
▁apology	-10.8316
▁programming	-10.8317
▁race	-10.8321
istic	-10.8342
▁virus	-10.8345
▁honestly	-10.8347
▁continuing	-10.8349
▁pride	-10.8349
▁withstand	-10.8349
▁manpower	-10.835
▁parties	-10.8365
▁Otherwise	-10.8382
▁Perfect	-10.8382
▁aircraft	-10.8382
▁satisfactory	-10.8382
▁laptops	-10.8395
▁textbook	-10.8416
▁priority	-10.8416
▁aging	-10.8417
▁characterized	-10.8417
▁gel	-10.8421
▁missed	-10.8435
▁constant	-10.8437
au	-10.8439
▁closely	-10.844
▁comprehensive	-10.8448
▁temporarily	-10.8448
▁Bank	-10.8448
▁entry	-10.8448
▁doubt	-10.8449
▁rip	-10.8449
▁wave	-10.8452
▁confused	-10.8452
▁seasoned	-10.8453
▁finding	-10.8463
▁liter	-10.8481
▁poly	-10.8481
▁Ugh	-10.8481
▁glance	-10.8481
▁symptoms	-10.8481
▁broke	-10.8484
▁focused	-10.8484
▁Press	-10.8489
J	-10.8497
▁250	-10.8504
▁factor	-10.8507
hyun	-10.8509
▁Clean	-10.8515
▁burdensome	-10.8515
▁handmade	-10.8517
▁Youngji	-10.8523
▁lifetime	-10.8525
▁bills	-10.8529
ency	-10.8536
▁vitamins	-10.8537
fry	-10.8542
▁French	-10.8548
▁nutrition	-10.8549
▁saving	-10.8551
▁Du	-10.8552
▁overcome	-10.8553
▁mortgage	-10.8582
▁managing	-10.8583
▁importance	-10.8586
yl	-10.859
▁estimated	-10.8591
▁positively	-10.8591
▁Buy	-10.8594
▁remains	-10.8595
win	-10.8598
▁sensors	-10.8599
▁thorough	-10.8605
▁mattress	-10.8611
▁Number	-10.8615
▁CCC	-10.8615
bal	-10.8618
100	-10.8619
▁picked	-10.8635
,500	-10.8642
▁discussing	-10.8646
aging	-10.8648
▁sheets	-10.8649
▁Answer	-10.8649
▁conclusion	-10.8649
▁happiness	-10.8649
▁pharmaceutical	-10.8649
▁insulation	-10.8649
▁madam	-10.8649
▁Sunday	-10.865
scale	-10.8666
▁printed	-10.8666
mun	-10.8675
▁realize	-10.8679
▁savings	-10.868
▁elastic	-10.8681
▁village	-10.8692
▁scissors	-10.8702
▁Won	-10.8705
▁sour	-10.8708
placing	-10.8714
▁mill	-10.8716
▁curtain	-10.8717
▁shrimp	-10.8717
▁minimal	-10.8717
▁salesperson	-10.8721
par	-10.8721
▁selection	-10.8725
▁camp	-10.8728
ml	-10.8742
▁edit	-10.8743
▁199	-10.8746
▁implemented	-10.8751
▁studies	-10.8751
▁vegan	-10.8751
▁charm	-10.8751
▁outfit	-10.8751
▁Rather	-10.8754
▁beverages	-10.876
ric	-10.8765
▁liver	-10.8773
▁speakers	-10.8776
low	-10.878
▁cultural	-10.8785
▁mutual	-10.8785
▁promoting	-10.8785
▁spent	-10.8785
▁terminal	-10.8785
▁Airport	-10.8786
▁brake	-10.8787
▁delivering	-10.8816
▁lightly	-10.8817
▁motion	-10.8822
▁winner	-10.8822
▁competitors	-10.8826
▁propose	-10.8833
▁neatly	-10.8841
▁Gr	-10.8849
▁viewers	-10.885
▁lips	-10.8853
▁knife	-10.8854
▁desktop	-10.8855
▁Brother	-10.8856
▁Kong	-10.8858
▁theme	-10.8866
▁saved	-10.8876
▁Honey	-10.8889
▁alive	-10.8891
▁pyeong	-10.8894
▁26	-10.8895
▁cups	-10.8903
▁bi	-10.8904
▁treated	-10.8905
▁deposited	-10.8909
▁coat	-10.8912
▁accuracy	-10.8924
▁Shin	-10.8924
▁preferred	-10.8924
▁hose	-10.8926
dae	-10.8937
▁revised	-10.8939
▁earphones	-10.8948
▁blocks	-10.8948
▁Kwang	-10.8958
▁demonstration	-10.8958
▁automation	-10.8958
▁barrier	-10.8958
▁elderly	-10.8963
▁adult	-10.8973
▁cleaned	-10.8975
power	-10.8976
fish	-10.8984
▁affiliate	-10.8993
▁ribs	-10.8993
▁hide	-10.8995
▁5-	-10.8996
▁onion	-10.9016
▁Woah	-10.9028
▁circulation	-10.9028
▁ordinary	-10.9028
▁vice	-10.903
▁tile	-10.9032
▁accepted	-10.9033
▁specifically	-10.9033
▁individually	-10.9033
▁prove	-10.9036
▁exclusively	-10.9046
▁waist	-10.9063
▁families	-10.9064
▁NFT	-10.9064
▁candidate	-10.9064
▁Very	-10.9064
▁Besides	-10.9064
▁humidity	-10.9065
▁orange	-10.9065
▁accordingly	-10.9068
▁crying	-10.907
jae	-10.9074
▁marked	-10.9077
view	-10.908
▁guidelines	-10.9099
▁2022	-10.9099
▁suite	-10.9104
ified	-10.9112
▁Hand	-10.9124
▁accepting	-10.9124
▁Water	-10.9134
▁fulfill	-10.9134
▁vivid	-10.9134
▁joy	-10.9134
▁determined	-10.9144
round	-10.9151
▁losses	-10.9151
▁prevention	-10.9161
▁sticker	-10.9163
▁behavior	-10.917
▁irritation	-10.917
▁applies	-10.917
▁Yoon	-10.9174
▁settle	-10.9174
▁react	-10.9176
▁muscle	-10.9191
▁rapid	-10.9195
▁dip	-10.9198
▁remit	-10.9205
▁assemble	-10.9206
▁faucet	-10.9206
▁silk	-10.9206
▁worries	-10.9206
▁bubble	-10.9206
▁zipper	-10.9206
▁clearance	-10.9212
▁exterior	-10.9242
▁guitar	-10.9242
▁generator	-10.9242
▁losing	-10.9242
▁clip	-10.9243
▁grilled	-10.9245
▁discovered	-10.9259
▁Nam	-10.927
▁autumn	-10.9278
▁babies	-10.9278
▁trailer	-10.9285
▁particularly	-10.9288
▁arms	-10.9295
ification	-10.9306
▁boiling	-10.9312
▁marriage	-10.9314
▁revenue	-10.9314
▁admit	-10.9314
▁Choi	-10.9318
▁rating	-10.9319
▁35	-10.932
cess	-10.932
▁influence	-10.9326
▁greater	-10.9332
▁priced	-10.9335
▁PM	-10.934
▁stuck	-10.935
▁Set	-10.9353
oid	-10.9355
▁pockets	-10.9359
▁correction	-10.9363
▁linked	-10.9366
▁noticed	-10.9375
▁cam	-10.938
▁Sang	-10.9384
▁Russia	-10.9386
▁sprout	-10.9386
ear	-10.9388
▁Long	-10.9389
▁personality	-10.9395
▁renew	-10.9395
sir	-10.9398
▁laws	-10.9404
▁pairs	-10.9412
hyung	-10.9413
▁avail	-10.942
jo	-10.9422
▁elementary	-10.9423
▁31	-10.9424
▁UK	-10.9426
▁meter	-10.9428
▁Hmm	-10.9429
effectiveness	-10.943
▁painting	-10.9439
▁mounted	-10.9459
▁radiation	-10.9459
▁screw	-10.9459
▁strategies	-10.9459
ball	-10.9463
▁weighs	-10.9463
▁colorful	-10.9472
cut	-10.9475
▁OOO	-10.9476
tune	-10.9485
▁Soft	-10.9488
▁Ki	-10.9496
▁Light	-10.9496
▁participation	-10.9496
▁reliability	-10.9496
▁infant	-10.9496
▁bird	-10.9497
▁expertise	-10.9497
▁windows	-10.9502
▁flour	-10.9533
▁navigation	-10.9533
▁phenomenon	-10.9533
▁expire	-10.9533
ade	-10.9536
▁deeply	-10.9536
▁invested	-10.9537
▁Bio	-10.9543
▁soju	-10.9549
come	-10.9555
▁specially	-10.9559
▁announced	-10.9567
▁female	-10.957
▁himself	-10.957
▁marine	-10.957
▁trademark	-10.957
▁drill	-10.957
▁Work	-10.957
▁creation	-10.957
▁despi	-10.9571
▁Someone	-10.9573
▁sink	-10.9573
▁packing	-10.9579
▁offline	-10.958
▁canned	-10.9582
▁pickup	-10.9582
pu	-10.9604
▁nutritional	-10.9607
▁resident	-10.9607
▁Ti	-10.9617
▁consume	-10.9617
▁120	-10.9636
▁currency	-10.9645
▁dynamic	-10.9645
▁dining	-10.9645
▁regularly	-10.9648
▁seek	-10.9653
place	-10.9658
ncludes	-10.9672
▁association	-10.9682
▁counselor	-10.9682
▁width	-10.9682
▁happening	-10.9685
▁freshness	-10.9689
▁stream	-10.9704
▁cater	-10.9719
▁dioxide	-10.972
▁nozzle	-10.972
▁rank	-10.9727
▁singer	-10.9728
j	-10.973
▁sleeve	-10.9731
▁discounted	-10.9736
▁3,000	-10.9744
▁tickets	-10.9753
▁guard	-10.9757
▁sterilization	-10.9757
▁injection	-10.9759
▁issued	-10.9759
▁antibacterial	-10.9795
▁cooperative	-10.9795
▁Cheong	-10.9796
▁combine	-10.9804
▁gap	-10.9811
▁flavors	-10.9812
▁handled	-10.9818
▁publisher	-10.9819
▁producer	-10.9827
▁cycle	-10.9833
▁raising	-10.9833
▁Smart	-10.9833
▁winning	-10.9833
▁presented	-10.9865
▁45	-10.9866
▁Mountain	-10.9871
▁shine	-10.9873
▁Rock	-10.9874
▁mental	-10.9882
▁fitness	-10.9884
▁comb	-10.9886
▁utilize	-10.9889
▁remodeling	-10.9896
▁supported	-10.99
▁preventing	-10.9904
▁waves	-10.9906
99	-10.9906
▁Special	-10.991
56	-10.9911
▁baking	-10.9911
▁chewy	-10.9916
▁AA	-10.9921
▁hosting	-10.9926
▁facial	-10.9948
▁interpret	-10.9948
▁peace	-10.9948
▁tips	-10.9952
▁BB	-10.9958
▁pat	-10.9959
▁highlight	-10.9966
jeong	-10.9967
▁watched	-10.9973
▁luggage	-10.9987
▁specified	-10.9987
▁versatile	-10.9987
▁ERP	-10.9987
▁rush	-10.9987
▁carpet	-10.9987
▁officially	-10.9987
▁subway	-10.9988
uc	-10.9989
read	-11.0007
▁incident	-11.0026
▁razor	-11.0026
▁General	-11.0026
▁tap	-11.0027
▁wheels	-11.0056
▁Service	-11.0064
▁absorption	-11.0064
▁withdraw	-11.0064
▁gentle	-11.0064
▁fake	-11.0068
▁hip	-11.0074
▁followed	-11.008
elecommunication	-11.0104
▁Children	-11.0104
▁outstanding	-11.0104
▁patience	-11.0104
▁SEO	-11.0104
▁magnetic	-11.0106
hop	-11.011
▁Back	-11.011
▁shell	-11.0111
▁calculate	-11.0122
▁Red	-11.0124
▁construct	-11.014
▁buffet	-11.0143
▁cabbage	-11.0143
▁emphasize	-11.0143
▁understood	-11.0143
▁Earth	-11.0143
▁Talk	-11.0143
charge	-11.0169
lasting	-11.0172
dimensional	-11.0175
▁spare	-11.0178
▁closing	-11.0182
▁meticulous	-11.0182
▁porridge	-11.0182
▁appeal	-11.0182
▁Safety	-11.0182
han	-11.0184
▁chairman	-11.0184
▁handsome	-11.0184
pil	-11.0206
▁reserved	-11.0212
▁coated	-11.0216
▁thread	-11.0222
▁surprise	-11.0241
▁row	-11.0248
▁mostly	-11.0259
▁recruit	-11.026
▁console	-11.0261
▁perspective	-11.0261
▁duck	-11.0265
OO	-11.027
▁dumpling	-11.0275
▁30,000	-11.028
▁whatever	-11.0282
▁banquet	-11.0301
▁exciting	-11.0301
▁questionnaire	-11.0301
▁engage	-11.0301
▁availability	-11.0302
▁mice	-11.0302
▁employ	-11.0318
▁Th	-11.0321
▁Yeo	-11.0323
▁Regard	-11.034
▁HaHa	-11.0341
▁flexibility	-11.0341
▁Stay	-11.0341
▁stamp	-11.0343
▁functionality	-11.0344
ably	-11.0344
▁measured	-11.0351
▁Cla	-11.0356
▁mount	-11.0367
▁dough	-11.0367
dol	-11.0369
gla	-11.038
▁immune	-11.0381
▁polyester	-11.0381
▁sincerity	-11.0381
▁collar	-11.0381
▁Wonhee	-11.0382
▁began	-11.0382
▁App	-11.0382
▁youngest	-11.0394
▁Incheon	-11.0401
▁trendy	-11.0403
seok	-11.0406
▁Hang	-11.0414
▁neutral	-11.0422
▁salad	-11.0422
print	-11.0422
▁aroma	-11.0422
▁sustainable	-11.0422
▁net	-11.0424
▁360	-11.0431
▁renting	-11.0441
point	-11.0455
guk	-11.0456
air	-11.0456
▁organ	-11.0457
▁surge	-11.0461
▁delicate	-11.0462
▁flash	-11.0462
▁restock	-11.0462
▁emissions	-11.0462
▁nine	-11.0463
▁hum	-11.0465
▁rays	-11.0465
▁realized	-11.0466
▁quarantine	-11.047
▁hydro	-11.0475
▁proposed	-11.0487
▁lighter	-11.0493
hwa	-11.0493
▁analyzed	-11.0502
▁excessive	-11.0503
▁fragrance	-11.0503
▁police	-11.0503
▁wallet	-11.0503
▁depart	-11.0504
pan	-11.0506
▁wider	-11.0508
▁pig	-11.0509
▁boots	-11.0509
▁touching	-11.0514
stro	-11.0516
▁decade	-11.0544
▁unfamiliar	-11.0544
▁chest	-11.0544
▁borrow	-11.0544
NG	-11.0565
can	-11.057
▁prior	-11.0583
▁2000	-11.0583
▁hygienic	-11.0584
▁World	-11.0585
play	-11.0587
▁Chi	-11.0599
chang	-11.0608
▁route	-11.0614
▁corporation	-11.0626
▁humidifier	-11.0626
▁spill	-11.0626
▁Italian	-11.0626
▁bankruptcy	-11.0626
▁led	-11.0634
▁comment	-11.065
▁algorithm	-11.0667
▁awkward	-11.0667
▁coordinate	-11.0667
▁vendor	-11.0667
▁tent	-11.0694
▁emotion	-11.0694
▁enclosed	-11.0709
▁precautions	-11.0709
▁split	-11.0709
▁trash	-11.0709
▁removable	-11.0712
▁briefing	-11.0717
▁inches	-11.0717
▁recommendations	-11.0733
▁component	-11.0735
▁processor	-11.0739
▁speech	-11.075
▁Honestly	-11.075
▁Malaysia	-11.075
▁intensity	-11.075
▁perfume	-11.075
▁strike	-11.075
▁barley	-11.075
▁rinse	-11.075
▁indicator	-11.0754
▁posture	-11.0754
▁protective	-11.0761
▁surely	-11.0769
▁acquaintances	-11.0774
▁Happy	-11.0792
▁Technology	-11.0792
▁inconvenient	-11.0792
▁central	-11.0792
▁plus	-11.0792
▁facing	-11.0792
▁rotate	-11.0792
▁Western	-11.0792
▁Sangmin	-11.0793
ette	-11.0794
▁Home	-11.0796
▁deduct	-11.0798
00,000	-11.0807
▁beach	-11.0811
▁Vi	-11.0812
▁breast	-11.0834
▁greasy	-11.0834
▁assigned	-11.0834
▁Anyone	-11.0835
▁genetic	-11.0835
▁renewal	-11.0841
▁fairy	-11.0841
▁15%	-11.0843
▁Sigh	-11.0844
▁cow	-11.0849
▁gained	-11.0854
DA	-11.0854
▁reveal	-11.0856
▁depth	-11.0859
▁City	-11.086
▁immediate	-11.0866
▁stat	-11.0866
step	-11.0868
▁designated	-11.087
▁assembly	-11.0876
▁celebration	-11.0876
▁attractions	-11.0876
▁impressive	-11.0877
▁permission	-11.0879
▁compete	-11.088
▁Hye	-11.0885
▁lying	-11.0888
▁oral	-11.0894
▁craft	-11.0899
▁productivity	-11.0904
▁beverage	-11.0908
▁launching	-11.091
▁SNS	-11.0919
▁bulgogi	-11.0919
▁vessel	-11.0919
▁restrictions	-11.0919
▁realistic	-11.0922
▁Free	-11.0924
▁passion	-11.0928
▁visitors	-11.0931
▁Mm	-11.0943
▁villa	-11.095
▁cumbersome	-11.0961
▁sandwich	-11.0961
▁softener	-11.0961
▁confidential	-11.0964
▁Hope	-11.0964
▁tail	-11.0967
▁farmers	-11.0969
▁discover	-11.0984
▁bite	-11.0984
▁bin	-11.0988
▁divide	-11.0991
▁notified	-11.0994
atu	-11.1003
▁capsule	-11.1004
▁explore	-11.1004
▁helmet	-11.1004
▁oxygen	-11.1004
▁policies	-11.1004
▁privacy	-11.1004
▁vertical	-11.1004
▁scrap	-11.1004
▁species	-11.1004
▁skirt	-11.1004
▁venture	-11.1004
▁sneakers	-11.1005
▁mart	-11.1005
▁bump	-11.1009
▁rare	-11.104
ular	-11.1045
▁bridge	-11.1047
▁compliment	-11.1047
▁pouch	-11.1047
▁France	-11.1047
▁mild	-11.1047
▁shut	-11.1049
▁accessory	-11.1049
▁Cut	-11.1056
▁attendance	-11.1057
▁Day	-11.1069
▁Boss	-11.1075
▁indicate	-11.1083
▁headphones	-11.1083
▁Yo	-11.1089
▁calcium	-11.109
▁festival	-11.109
▁perilla	-11.109
▁Gangnam	-11.109
▁Show	-11.1098
▁workplace	-11.11
▁Lu	-11.1104
▁misunderstand	-11.1119
▁3%	-11.1125
▁negotiation	-11.1128
▁annoying	-11.1133
▁portfolio	-11.1133
▁television	-11.1133
▁translation	-11.1133
▁timing	-11.1133
▁digest	-11.1135
▁controlled	-11.1137
▁commemorate	-11.1177
▁Business	-11.1177
▁National	-11.1177
▁diesel	-11.1177
▁relaxed	-11.1178
▁configuration	-11.1178
▁Port	-11.1178
▁town	-11.1181
▁capable	-11.1183
hour	-11.1184
▁emotional	-11.1192
▁lucky	-11.1193
▁collecting	-11.1195
▁Send	-11.1206
▁exposure	-11.122
▁ultimate	-11.122
▁unnecessary	-11.122
▁shaking	-11.122
▁shift	-11.122
▁crab	-11.122
▁retain	-11.122
▁kid	-11.1221
list	-11.1225
▁touched	-11.1231
▁thankful	-11.1242
8,000	-11.1248
▁fleece	-11.1264
▁kilogram	-11.1264
▁wherever	-11.129
▁provider	-11.1297
▁qua	-11.1298
▁CD	-11.1302
▁Third	-11.1308
▁circuit	-11.1308
▁investigation	-11.1308
▁irrevocable	-11.1308
▁postponed	-11.1309
▁impression	-11.1309
▁sat	-11.1317
iliar	-11.1317
ivity	-11.1323
▁boy	-11.1323
▁mug	-11.1326
▁heel	-11.1328
▁extreme	-11.1342
▁cuisine	-11.1353
▁explode	-11.1353
▁sauna	-11.1353
▁wrinkles	-11.1353
▁dimension	-11.136
▁Marketing	-11.1375
▁joined	-11.1382
▁pancake	-11.1397
▁bro	-11.1398
MS	-11.1433
▁genuine	-11.1442
▁pencil	-11.1442
▁pursue	-11.1442
▁reconsider	-11.1442
▁therapy	-11.1442
▁investigate	-11.1442
▁proof	-11.1442
▁haha	-11.1444
▁accessible	-11.1444
▁32	-11.1449
pped	-11.1468
▁Jeong	-11.1469
mission	-11.1476
car	-11.1477
▁potato	-11.1483
▁disaster	-11.1486
▁typical	-11.1486
▁pretend	-11.1487
▁Think	-11.1487
▁scratches	-11.1493
▁pressing	-11.1499
▁fourth	-11.152
▁combustion	-11.1532
▁fertilizer	-11.1532
▁punishment	-11.1532
▁reception	-11.1532
▁fold	-11.1536
▁extremely	-11.1542
▁Accordingly	-11.1556
▁Five	-11.1563
▁institutions	-11.1566
driving	-11.1571
▁Nevertheless	-11.1577
▁excuse	-11.1577
▁voltage	-11.1577
▁random	-11.1577
▁rust	-11.1577
▁emit	-11.1577
▁identified	-11.1581
▁2020	-11.1584
▁transferred	-11.1622
▁Yong	-11.1624
▁wig	-11.1624
▁Hyo	-11.1625
▁cord	-11.1629
▁executive	-11.1631
▁honored	-11.1645
range	-11.1657
month	-11.1663
pack	-11.1667
▁Gwang	-11.1668
▁adventure	-11.1668
▁although	-11.1668
▁inevitable	-11.1668
▁rotation	-11.1668
▁insight	-11.1668
▁tale	-11.1675
▁fastest	-11.1687
▁formed	-11.1707
▁selecting	-11.1712
▁district	-11.1714
▁forgive	-11.1715
▁USA	-11.1719
▁triple	-11.1719
▁Ready	-11.1719
▁Apply	-11.1726
▁refresh	-11.1726
▁taxes	-11.1727
▁deliciously	-11.173
▁urge	-11.1733
uitable	-11.1739
ute	-11.1739
food	-11.1754
▁Insurance	-11.176
▁Ministry	-11.176
▁architectural	-11.176
▁category	-11.176
▁nylon	-11.176
▁passenger	-11.176
▁Yesterday	-11.176
▁rude	-11.176
▁warning	-11.176
▁Thailand	-11.176
▁fingerprint	-11.176
▁aged	-11.1765
▁dirty	-11.1769
grade	-11.1789
▁drawer	-11.1792
▁dirt	-11.1797
▁demo	-11.18
▁rail	-11.1805
▁basket	-11.1806
▁drum	-11.1806
▁GPS	-11.1807
▁Sehyung	-11.1807
▁exam	-11.1811
15	-11.1822
▁listing	-11.1829
▁obvious	-11.1842
stick	-11.1851
▁transmit	-11.1852
▁roof	-11.1852
▁completion	-11.1853
▁diameter	-11.1853
▁refuse	-11.1853
▁detachable	-11.1855
▁wise	-11.1855
▁Part	-11.1861
▁Head	-11.1873
▁separated	-11.1874
▁discharge	-11.188
▁standing	-11.1889
▁taxi	-11.189
▁trans	-11.1897
▁harm	-11.1898
▁consistent	-11.1899
▁calculation	-11.1899
▁entrust	-11.1899
▁lithium	-11.1899
▁population	-11.1899
▁eventually	-11.1899
▁curry	-11.1899
▁wild	-11.1899
▁relations	-11.1902
▁bug	-11.1914
▁noodle	-11.1916
▁teaching	-11.1917
myeon	-11.1917
▁acquire	-11.1918
▁revise	-11.1926
▁rod	-11.1928
▁talented	-11.1932
▁booking	-11.1942
▁London	-11.1946
▁survive	-11.1946
▁commission	-11.1946
▁stove	-11.1946
▁Green	-11.1946
▁yard	-11.1947
▁shortage	-11.196
▁cleansing	-11.1962
▁overlap	-11.1962
▁equal	-11.1972
phone	-11.1988
▁1.5	-11.199
1%	-11.1993
▁Micro	-11.1994
▁aux	-11.1994
▁shade	-11.1994
▁Under	-11.1995
▁decoration	-11.1995
▁relieved	-11.1997
▁backpack	-11.1998
▁gotten	-11.2004
▁29	-11.2008
▁responding	-11.2014
▁safer	-11.2015
down	-11.2027
▁abundant	-11.2041
▁celebrity	-11.2041
▁insulated	-11.2041
▁scope	-11.2041
▁Old	-11.2041
▁tray	-11.2045
▁cities	-11.2045
▁breathable	-11.2045
▁cushioning	-11.2048
▁publish	-11.2052
▁Whenever	-11.2053
▁acquaintance	-11.2061
▁colleague	-11.2061
▁600	-11.2068
▁ended	-11.207
▁fry	-11.2071
▁assure	-11.2073
▁magnet	-11.2086
▁quant	-11.2087
▁cultivation	-11.2089
▁franchise	-11.2089
▁leisure	-11.2089
▁verification	-11.2089
▁essence	-11.2089
▁court	-11.2089
▁comic	-11.209
▁Ph	-11.2097
▁warmer	-11.2102
▁200,000	-11.2104
▁participated	-11.2111
even	-11.2129
commerce	-11.2136
▁advise	-11.2136
▁command	-11.2136
▁Order	-11.214
▁besides	-11.2141
▁cloth	-11.2147
▁Jun	-11.2158
▁sport	-11.2162
heat	-11.2178
▁dictionary	-11.2184
▁venue	-11.2184
▁enterprise	-11.2184
▁Award	-11.2184
▁fool	-11.2184
▁chart	-11.2185
▁sunscreen	-11.2185
▁calories	-11.2185
▁Super	-11.2187
▁twin	-11.2187
▁audit	-11.2197
▁viewing	-11.2197
▁drag	-11.2198
▁asset	-11.2207
▁blocking	-11.2208
▁calculated	-11.221
▁trap	-11.2213
▁folding	-11.222
▁differently	-11.2221
▁Wan	-11.2225
▁Institute	-11.2233
▁incredible	-11.2233
▁Trans	-11.2233
▁tourism	-11.2235
▁token	-11.2235
angle	-11.2243
▁Cute	-11.2243
Woo	-11.2259
▁rule	-11.2262
▁Available	-11.2281
▁ghost	-11.2281
▁prototype	-11.2281
▁Store	-11.2281
▁whitening	-11.2282
▁hook	-11.2282
▁delete	-11.2283
▁underwear	-11.2284
gar	-11.2285
4,000	-11.2286
▁VR	-11.2287
▁riding	-11.2289
▁passing	-11.2295
▁economical	-11.2301
▁judge	-11.2309
edge	-11.2314
▁disappoint	-11.2325
▁electro	-11.2329
▁Men	-11.2329
▁episode	-11.233
▁ignition	-11.233
▁wound	-11.233
▁bundle	-11.233
▁imagination	-11.233
▁Play	-11.2332
hydrate	-11.2338
▁canceling	-11.2345
▁floating	-11.2347
▁bow	-11.2357
▁career	-11.2369
▁origin	-11.2373
▁unlike	-11.2373
▁compatibility	-11.2379
▁confusion	-11.2379
▁mussel	-11.2379
▁operator	-11.2379
▁recycling	-11.2379
▁tuna	-11.2379
▁refill	-11.2379
▁translate	-11.2379
▁Italy	-11.2385
▁brushing	-11.2386
▁steamed	-11.2387
▁closure	-11.2401
▁Aha	-11.2402
▁decreased	-11.2421
▁slight	-11.2422
known	-11.2424
500	-11.2425
▁Line	-11.2428
▁technological	-11.2428
▁Interest	-11.2428
▁weapon	-11.2428
▁coding	-11.2429
▁pigment	-11.2431
▁reject	-11.2457
▁additive	-11.2478
▁battle	-11.2478
▁envelope	-11.2478
▁experiencing	-11.2478
▁library	-11.2478
▁stroller	-11.2478
▁Data	-11.2482
ik	-11.2492
25	-11.2502
ui	-11.2523
▁disposable	-11.2528
▁silhouette	-11.2528
▁spirit	-11.2528
▁Shipping	-11.2528
▁bold	-11.2529
▁replacing	-11.2532
▁Hu	-11.2532
uction	-11.2542
▁erase	-11.2553
▁chosen	-11.2555
▁suffering	-11.256
▁Too	-11.2574
purpose	-11.2576
▁repaired	-11.2577
▁compartment	-11.2578
▁corrosion	-11.2578
▁Payment	-11.2578
▁adhere	-11.2578
▁wallpaper	-11.2578
▁specification	-11.2584
▁36	-11.2591
star	-11.2597
▁male	-11.2605
▁renewed	-11.2606
hold	-11.2608
lon	-11.2621
▁laboratory	-11.2628
▁verified	-11.2628
▁agencies	-11.2628
▁provision	-11.2629
▁groom	-11.2629
▁percentage	-11.263
▁differentiated	-11.2636
AAA	-11.2651
▁evaluate	-11.2658
▁customize	-11.266
▁Correct	-11.2678
▁examination	-11.2678
▁steak	-11.2678
▁citizen	-11.2678
▁presence	-11.2678
▁farming	-11.2691
▁sum	-11.2697
300	-11.2704
▁bare	-11.2727
▁elegant	-11.2729
▁everywhere	-11.2729
▁freight	-11.2729
▁gasoline	-11.2729
▁hybrid	-11.2729
▁immunity	-11.2729
▁junior	-11.2729
▁strawberry	-11.2729
▁Multi	-11.2729
▁tripod	-11.2729
▁uh	-11.2729
▁Sounds	-11.273
▁crispy	-11.2732
▁Kindly	-11.2737
▁endless	-11.2755
▁hydr	-11.2756
eon	-11.276
▁Rest	-11.276
▁confirming	-11.276
▁lately	-11.2772
▁Singapore	-11.278
▁Taiwan	-11.278
▁extensive	-11.278
▁liquor	-11.278
▁modify	-11.278
▁retreat	-11.278
▁Above	-11.278
▁rising	-11.278
▁waistband	-11.278
▁departure	-11.2781
▁certainly	-11.2787
▁Say	-11.2821
▁dig	-11.2822
▁ham	-11.2831
▁contrast	-11.2831
▁invention	-11.2831
▁agenda	-11.2831
▁Listen	-11.2831
▁stem	-11.2831
▁Protect	-11.2832
▁shave	-11.2833
▁renewable	-11.2835
empt	-11.2835
▁Time	-11.2838
▁golden	-11.2839
▁cleanser	-11.284
▁suspended	-11.2842
▁patch	-11.285
▁gate	-11.2854
▁24-	-11.2858
▁disappointing	-11.2867
▁photograph	-11.2875
▁quit	-11.2877
▁California	-11.2883
▁Indonesia	-11.2883
▁variable	-11.2883
▁Vietnamese	-11.2883
▁Life	-11.2883
▁pressed	-11.2884
seong	-11.2893
▁lowered	-11.2918
▁expecting	-11.2923
▁barbecue	-11.2935
▁lounge	-11.2935
▁makgeolli	-11.2935
▁shortcomings	-11.2935
▁ISO	-11.2935
▁Plan	-11.2935
▁subscribers	-11.2937
sales	-11.2941
▁40%	-11.2943
▁OO	-11.2958
▁generally	-11.2968
Hz	-11.2974
▁Their	-11.298
▁suffer	-11.2985
▁defense	-11.2987
▁amenities	-11.2987
▁specialize	-11.2988
▁submitted	-11.2989
▁settlement	-11.2989
▁earnest	-11.2992
▁Dad	-11.2994
▁Bring	-11.2998
▁remotely	-11.3025
toxic	-11.3028
▁Blue	-11.3039
▁girlfriend	-11.3039
▁messenger	-11.3039
▁pajama	-11.3039
▁scientific	-11.3039
▁strategic	-11.3039
▁sunglasses	-11.3039
▁Plus	-11.3039
▁bathtub	-11.3039
▁manipulat	-11.3039
▁alloy	-11.304
▁Choose	-11.304
▁absolutely	-11.3042
▁slot	-11.3042
▁Per	-11.3051
▁Hee	-11.3069
▁detach	-11.3089
▁associate	-11.3092
▁storing	-11.3092
▁creator	-11.3092
▁yoga	-11.3092
▁architecture	-11.3092
▁Moreover	-11.3093
ero	-11.3098
▁chew	-11.3102
45	-11.3105
▁flying	-11.311
▁Design	-11.3124
▁finalize	-11.3135
ography	-11.314
▁proportion	-11.3145
▁zero	-11.3145
▁80%	-11.3149
▁brightness	-11.3149
▁advantageous	-11.315
▁readers	-11.3162
▁remodel	-11.3164
▁protected	-11.3181
▁mesh	-11.3187
bang	-11.3195
▁Compatible	-11.3198
▁diagnose	-11.3198
▁incurred	-11.3198
▁landlord	-11.3198
▁tailored	-11.3198
▁classified	-11.3199
▁died	-11.32
ko	-11.32
▁inspired	-11.3205
▁approaching	-11.3208
▁detected	-11.3209
▁grass	-11.3217
definition	-11.3231
raft	-11.324
ological	-11.3241
▁intuitive	-11.3251
▁microfiber	-11.3251
▁phrase	-11.3251
▁pumpkin	-11.3251
▁vegetarian	-11.3251
▁quiz	-11.3252
▁tension	-11.3252
▁officetel	-11.3252
▁preserve	-11.3261
▁lovely	-11.3267
▁seemed	-11.3298
▁authentic	-11.3302
▁academy	-11.3305
▁concrete	-11.3305
▁phase	-11.3305
▁magic	-11.3306
▁padded	-11.3307
CO	-11.3314
▁El	-11.3329
▁Dae	-11.3352
▁cooler	-11.3357
▁Basically	-11.3359
▁adhesive	-11.3359
▁analyzing	-11.3359
▁bamboo	-11.3359
▁infection	-11.3359
▁modified	-11.3359
▁hood	-11.3359
▁Things	-11.336
▁herbal	-11.3361
▁resin	-11.3368
▁Hoon	-11.3368
▁Gary	-11.337
▁mop	-11.3374
hand	-11.3376
▁shy	-11.3382
▁folded	-11.3384
▁balanced	-11.3394
vid	-11.3399
▁Additional	-11.3403
▁frequent	-11.3403
▁unfortunate	-11.3403
▁sticky	-11.3405
▁matte	-11.3411
▁War	-11.3413
▁diaper	-11.3414
▁strain	-11.3414
▁trick	-11.3414
▁baseball	-11.3414
▁south	-11.3416
400	-11.3417
▁browser	-11.3418
▁Wash	-11.3418
▁Online	-11.3419
▁observed	-11.343
▁tradition	-11.345
▁Pi	-11.3453
▁German	-11.3459
▁inexpensive	-11.3468
▁pregnant	-11.3468
▁rechargeable	-11.3468
▁zoom	-11.3468
▁copper	-11.3468
▁graduate	-11.3468
▁Remove	-11.3469
▁freezer	-11.3474
▁fermented	-11.3476
afe	-11.3481
▁undergo	-11.3482
▁nationwide	-11.3523
▁pesticide	-11.3523
▁pollack	-11.3523
▁vintage	-11.3523
▁stack	-11.3525
▁fear	-11.3526
▁greeting	-11.3556
hye	-11.3558
▁expressed	-11.3562
▁roller	-11.3563
2,000	-11.3568
▁Electronics	-11.3578
▁deluxe	-11.3578
▁jajangmyeon	-11.3578
▁lobby	-11.3578
▁outsole	-11.3578
▁praise	-11.3578
▁Health	-11.3579
Together	-11.3579
▁Paris	-11.3579
▁organizing	-11.3579
▁Kimchi	-11.3583
▁Chang	-11.3585
▁Full	-11.3587
▁Big	-11.3587
▁touches	-11.3614
▁intend	-11.3619
▁2%	-11.3627
▁tomato	-11.3631
▁contractor	-11.3631
▁evidence	-11.3634
▁unlimited	-11.3634
▁induction	-11.3634
▁Find	-11.3634
▁Thus	-11.3636
▁Never	-11.3638
▁none	-11.3645
▁institution	-11.3648
▁bitter	-11.3662
zo	-11.3668
6,000	-11.3677
▁identity	-11.369
▁replenish	-11.369
▁pedal	-11.369
▁disruption	-11.3691
▁intake	-11.3691
▁secretary	-11.3693
▁viruses	-11.3697
box	-11.3702
▁startup	-11.3723
▁pity	-11.3724
▁accumulate	-11.3725
ato	-11.3726
▁Ri	-11.3735
▁elevator	-11.3746
▁illustration	-11.3746
▁keyword	-11.3746
▁steady	-11.3746
▁Group	-11.3746
▁White	-11.3746
▁correspond	-11.3746
▁nourish	-11.3746
▁sewing	-11.3746
▁Personal	-11.3746
▁prosper	-11.3746
▁opposite	-11.3746
uick	-11.3751
▁resource	-11.3763
▁boast	-11.3763
▁greet	-11.3769
▁tech	-11.3779
▁Pet	-11.3783
▁watches	-11.3798
▁conversion	-11.3803
▁criteria	-11.3803
▁incorrectly	-11.3803
▁nutritious	-11.3803
▁visible	-11.3803
▁escape	-11.3803
▁hanok	-11.3803
▁suppress	-11.3803
▁peak	-11.3803
▁solving	-11.3803
▁horizontal	-11.3803
▁tilt	-11.3803
▁restrict	-11.3803
oriented	-11.3803
▁cordless	-11.3804
derived	-11.3807
▁router	-11.3818
▁uncle	-11.3824
▁acknowledge	-11.3859
▁allergies	-11.3859
▁applicable	-11.3859
▁compressor	-11.3859
▁deploy	-11.3859
▁exercising	-11.3859
▁ocean	-11.3859
▁Natural	-11.3859
▁instructor	-11.3863
▁Pack	-11.3867
▁imaging	-11.3917
▁kiss	-11.3917
▁pores	-11.3919
ranging	-11.3922
▁extracted	-11.3932
▁crafted	-11.3945
▁bedding	-11.3953
▁Greetings	-11.3974
▁Restaurant	-11.3974
▁civil	-11.3974
▁dancing	-11.3974
▁utilization	-11.3974
▁grew	-11.3974
▁lever	-11.3975
▁lend	-11.3978
profit	-11.398
▁gosh	-11.3983
▁concluded	-11.3983
case	-11.3984
▁musical	-11.3985
▁truth	-11.3986
▁curved	-11.3992
▁soda	-11.4019
▁risen	-11.4021
ancy	-11.4028
▁Middle	-11.4032
▁glut	-11.4032
▁Trust	-11.4032
▁gimbap	-11.4032
▁grandmother	-11.4032
▁polish	-11.4032
biotic	-11.4035
▁Rice	-11.4037
effective	-11.4038
▁awareness	-11.4038
▁moisturize	-11.4075
8%	-11.4076
▁enjoyable	-11.4082
▁ranking	-11.4084
▁Electric	-11.409
▁burger	-11.409
▁concert	-11.409
▁stably	-11.409
▁chili	-11.409
▁humid	-11.409
▁AS	-11.409
▁House	-11.4092
itch	-11.4094
RO	-11.41
cate	-11.411
▁finest	-11.4111
▁roughly	-11.4116
▁substance	-11.4117
▁cosmetic	-11.4117
▁characteristic	-11.4118
▁800	-11.4136
▁threat	-11.4147
▁VIP	-11.4148
▁ceiling	-11.4148
▁debris	-11.4148
▁vinegar	-11.4148
▁yogurt	-11.4148
▁bulb	-11.4148
▁animation	-11.4148
▁integration	-11.4149
▁Features	-11.415
▁grams	-11.4152
▁90%	-11.4152
▁sweetness	-11.4157
▁hassle	-11.4166
▁correctly	-11.4171
▁Such	-11.4183
▁Create	-11.4189
▁Celsius	-11.4207
▁destroy	-11.4207
▁entrepreneur	-11.4207
▁tennis	-11.4207
▁ankle	-11.4207
▁favorable	-11.4213
through	-11.4215
app	-11.4238
▁congratulate	-11.4239
ES	-11.4246
▁cooker	-11.4252
▁appeared	-11.4256
▁setup	-11.4258
▁laughing	-11.4261
▁zip	-11.4266
▁distinguish	-11.4266
▁cryptocurrency	-11.4266
▁microscope	-11.4266
▁seedlings	-11.4266
▁inflation	-11.4266
▁symbol	-11.4267
▁limitations	-11.4267
▁broad	-11.4268
▁Ltd	-11.4268
▁48	-11.427
▁jam	-11.4273
▁partial	-11.4283
▁somehow	-11.4286
joo	-11.429
oma	-11.4295
handed	-11.4302
▁hired	-11.4311
89	-11.4321
▁commonly	-11.4325
▁Information	-11.4326
▁leaf	-11.4326
▁motorcycle	-11.4326
▁Grand	-11.4327
right	-11.4333
▁tower	-11.4337
paper	-11.434
▁insect	-11.434
▁exhausted	-11.4342
▁fryer	-11.4354
▁pioneer	-11.4386
▁LCD	-11.4386
▁celebrities	-11.4386
▁occasion	-11.4386
▁inhibit	-11.4386
▁knitwear	-11.4386
▁Whew	-11.4389
rrow	-11.4399
▁activated	-11.4401
▁remover	-11.4411
▁focuses	-11.4411
▁rejected	-11.4411
▁packed	-11.4422
AS	-11.4424
▁incorporate	-11.4431
▁somewhat	-11.4446
▁respectively	-11.4446
▁bomb	-11.4446
▁Exist	-11.445
▁embarrassing	-11.4453
head	-11.4458
MI	-11.4466
90	-11.447
▁Call	-11.4479
▁dollar	-11.449
▁earliest	-11.4507
▁umbrella	-11.4507
▁Contain	-11.4507
▁lemon	-11.4507
▁lipstick	-11.4507
▁prime	-11.4512
▁hanging	-11.4521
▁Run	-11.4523
AR	-11.4524
▁suffered	-11.4531
▁Hwa	-11.4534
▁publication	-11.4534
▁lawn	-11.4544
▁interact	-11.4565
▁Develop	-11.4568
▁contamination	-11.4568
▁demonstrate	-11.4568
▁kalguksu	-11.4568
▁tumor	-11.4568
▁soothe	-11.4568
jong	-11.4569
▁backup	-11.4572
capacity	-11.4577
▁EV	-11.4578
▁Mother	-11.4579
▁density	-11.461
generat	-11.4621
▁horse	-11.4629
▁Hyuk	-11.4629
▁Office	-11.4629
▁Olympic	-11.4629
▁Suddenly	-11.4629
▁System	-11.4629
▁collaborating	-11.4629
▁securing	-11.4629
▁unavoidable	-11.4629
▁spark	-11.4629
▁wore	-11.4629
▁index	-11.463
▁slice	-11.4632
▁approximately	-11.4636
large	-11.4647
▁decorated	-11.4647
▁Shi	-11.465
▁intended	-11.4652
ON	-11.4653
▁abnormal	-11.469
▁DNA	-11.4691
▁acquisition	-11.4691
▁advisor	-11.4691
▁implant	-11.4691
▁negligence	-11.4691
▁primary	-11.4691
▁securities	-11.4691
▁suspension	-11.4691
▁harsh	-11.4691
▁Always	-11.4691
▁weekdays	-11.4691
▁notebook	-11.4694
▁candle	-11.4695
▁Kang	-11.47
▁integrate	-11.4703
▁Ten	-11.4708
▁skill	-11.4713
PS	-11.472
▁locally	-11.4751
▁School	-11.4753
▁apologies	-11.4753
▁sprinkle	-11.4753
▁urban	-11.4753
▁welding	-11.4753
▁interfere	-11.4753
bong	-11.4753
▁layout	-11.4753
▁coast	-11.4753
▁Taking	-11.4754
▁tableware	-11.4757
▁objective	-11.4757
▁Pick	-11.4757
▁Bar	-11.4758
▁referring	-11.476
▁secondary	-11.4769
▁skilled	-11.4774
sided	-11.4775
have	-11.4795
▁inject	-11.4812
▁temporary	-11.4815
▁Except	-11.4815
▁memorize	-11.4815
▁loop	-11.4815
▁reverse	-11.4815
▁brokerage	-11.4816
▁Hanok	-11.4817
▁Gold	-11.4819
▁hitting	-11.4833
▁theft	-11.4858
▁Save	-11.4876
gged	-11.4876
▁frustrating	-11.4878
▁hamburger	-11.4878
▁postcard	-11.4878
▁sausage	-11.4878
▁spoke	-11.4878
▁comply	-11.4878
▁genre	-11.4879
▁Human	-11.4879
▁palm	-11.4879
▁retirement	-11.488
▁BPA	-11.488
▁flag	-11.4888
electric	-11.489
▁airline	-11.4895
▁insist	-11.4902
alcoholic	-11.493
▁blocked	-11.4936
▁Association	-11.4941
▁appreciation	-11.4941
▁collision	-11.4941
▁division	-11.4941
▁modification	-11.4941
▁obstacle	-11.4941
▁recipient	-11.4941
▁revolution	-11.4941
▁braised	-11.4941
▁taught	-11.4941
▁denim	-11.4942
▁Vice	-11.4947
▁500,000	-11.4953
touch	-11.4954
▁Cheer	-11.4956
▁sometime	-11.4979
▁gathered	-11.4982
▁dispatch	-11.4984
▁toast	-11.4987
▁crush	-11.5005
▁fortunate	-11.5005
▁intelligent	-11.5005
▁Drug	-11.5005
▁plain	-11.5005
▁duty	-11.5007
▁reasonably	-11.5008
life	-11.5014
▁permanent	-11.5025
▁mounting	-11.5059
▁gloss	-11.506
▁projector	-11.5062
▁ambiguous	-11.5069
▁composed	-11.5069
▁struggling	-11.5069
▁bookstore	-11.5069
kyung	-11.5069
▁scanning	-11.5069
▁breed	-11.507
▁grant	-11.507
break	-11.5082
▁breathe	-11.5085
▁Ideal	-11.5093
▁evaluated	-11.5096
▁Solar	-11.5101
▁instruction	-11.5129
▁Support	-11.5134
▁promising	-11.5134
▁bodies	-11.5134
▁stationery	-11.5134
▁noisy	-11.5134
▁ruin	-11.5134
▁boring	-11.5135
▁critic	-11.5136
▁flip	-11.5137
▁Gang	-11.5143
▁stressed	-11.5152
▁funding	-11.5156
living	-11.5156
▁pearl	-11.5169
▁silicon	-11.5192
▁bullet	-11.5194
▁entertain	-11.5197
▁absence	-11.5199
▁academic	-11.5199
▁century	-11.5199
▁mafia	-11.5199
▁residue	-11.5199
▁summary	-11.5199
▁jelly	-11.5199
▁verify	-11.5199
▁bolt	-11.5199
▁boom	-11.52
▁greenhouse	-11.5202
▁foldable	-11.5202
▁mint	-11.5202
▁manually	-11.5204
▁booklet	-11.5204
▁dating	-11.5207
vision	-11.5209
SA	-11.5213
▁earth	-11.5224
▁judged	-11.5226
▁firmly	-11.5237
▁endure	-11.5238
pul	-11.5239
▁desire	-11.5243
▁curve	-11.5243
▁converted	-11.5247
sensitivity	-11.5264
▁Previously	-11.5264
▁bibimbap	-11.5264
▁comparison	-11.5264
▁intermediate	-11.5264
▁mechanism	-11.5264
▁survival	-11.5264
▁utensils	-11.5264
▁cleanliness	-11.5264
▁Dream	-11.5264
▁shiny	-11.5264
▁slippers	-11.5264
▁dropped	-11.5265
▁Seong	-11.527
▁mono	-11.5271
▁extinguisher	-11.5272
chu	-11.5272
▁disrupted	-11.5272
▁vent	-11.5277
hwan	-11.5281
▁Along	-11.5289
▁Market	-11.5296
MR	-11.5328
▁categories	-11.533
▁jealous	-11.533
▁swing	-11.533
▁fermentation	-11.5331
▁hiring	-11.5332
▁cookware	-11.5333
▁mattresses	-11.5338
▁chin	-11.5343
temperature	-11.5345
PA	-11.5356
colored	-11.5362
▁utilized	-11.5366
▁consumed	-11.5367
▁exceptional	-11.5368
▁Nu	-11.5369
▁Street	-11.5396
▁enzyme	-11.5396
▁friction	-11.5396
▁mobility	-11.5396
▁releasing	-11.5396
▁injury	-11.5396
▁Connect	-11.5396
▁gathering	-11.5398
▁Desp	-11.5401
▁footage	-11.5405
▁arranged	-11.5409
▁editor	-11.5411
▁accountant	-11.5415
9,000	-11.5431
Joo	-11.5434
▁sterilize	-11.5452
▁Video	-11.5463
▁allergic	-11.5463
▁consecutive	-11.5463
▁eyebrow	-11.5463
▁fantastic	-11.5463
▁hypoallergenic	-11.5463
▁scientist	-11.5463
▁lawyer	-11.5463
▁lifespan	-11.5463
▁nerve	-11.5463
▁native	-11.5463
▁moderate	-11.5466
▁pitch	-11.5466
▁tighten	-11.5472
jeon	-11.5477
▁300,000	-11.5484
▁discharged	-11.5493
jung	-11.5509
▁adopt	-11.5509
▁180	-11.5517
▁Kind	-11.5522
▁clarify	-11.553
▁complement	-11.553
▁flood	-11.553
▁nuclear	-11.553
▁shame	-11.553
▁suspicious	-11.553
▁syrup	-11.553
▁robust	-11.553
▁false	-11.553
▁Studi	-11.5531
▁scanner	-11.5531
▁Room	-11.5532
▁Beach	-11.5533
▁bulletin	-11.5535
product	-11.5543
▁Additionally	-11.5543
▁washable	-11.555
▁tab	-11.5553
▁journal	-11.5597
▁Hopefully	-11.5597
▁diabetes	-11.5597
▁jeans	-11.5597
▁floss	-11.5597
▁steal	-11.5597
▁basketball	-11.5598
▁2-3	-11.5598
▁arch	-11.5598
▁tomatoes	-11.5602
▁partition	-11.5604
▁specialty	-11.5615
▁softness	-11.5622
▁Change	-11.5632
▁rainy	-11.564
▁chewing	-11.5641
▁tightly	-11.5642
▁CPU	-11.5665
▁Goodbye	-11.5665
▁Tokyo	-11.5665
▁Ultra	-11.5665
▁compound	-11.5665
▁compression	-11.5665
▁cradle	-11.5665
▁purple	-11.5665
▁smoking	-11.5665
▁salon	-11.5666
▁skate	-11.5666
▁crew	-11.5666
▁kidding	-11.5666
▁jewelry	-11.5666
▁Baby	-11.5667
▁implementation	-11.5675
▁basement	-11.5676
▁connector	-11.5683
bar	-11.5711
▁Whoo	-11.5717
▁Boo	-11.5719
▁Custom	-11.5722
eputy	-11.5734
▁charcoal	-11.5734
▁margin	-11.5734
▁specify	-11.5734
▁stimulate	-11.5734
▁volleyball	-11.5734
▁serum	-11.5734
▁gonna	-11.5734
▁Watch	-11.5736
▁River	-11.5736
▁rub	-11.5736
▁Users	-11.5747
▁reminder	-11.5748
turn	-11.575
▁investor	-11.5767
▁observe	-11.5782
▁Kyung	-11.5803
▁Overseas	-11.5803
▁SUV	-11.5803
▁sleek	-11.5803
▁warehousing	-11.5803
▁yield	-11.5803
▁antenna	-11.5803
▁scenario	-11.5803
▁freedom	-11.5803
▁Help	-11.5804
▁simulation	-11.5805
▁lung	-11.5808
▁Pan	-11.5808
TE	-11.5812
▁systematic	-11.5814
▁candy	-11.5816
▁dispatched	-11.5825
▁detector	-11.5834
▁Meanwhile	-11.5872
▁downtown	-11.5872
▁statistics	-11.5872
▁analog	-11.5872
▁historical	-11.5872
▁portability	-11.5875
▁assume	-11.5875
▁curse	-11.5875
▁absorbed	-11.5878
▁underway	-11.5881
▁rarely	-11.589
▁cutter	-11.5893
▁specialist	-11.5896
2%	-11.5918
▁distributing	-11.5942
▁ridiculous	-11.5942
▁soothing	-11.5942
▁splash	-11.5942
▁strip	-11.5942
▁Built	-11.5942
▁attempt	-11.5943
▁Robot	-11.5943
▁leakage	-11.5948
▁alert	-11.5948
▁Excel	-11.5949
▁combin	-11.5951
▁torn	-11.5964
cover	-11.5981
▁separat	-11.5983
▁enabl	-11.5989
▁bid	-11.5993
▁van	-11.5996
flat	-11.6
▁deeper	-11.6009
66	-11.6012
▁dormitory	-11.6013
▁philosophy	-11.6013
▁scold	-11.6013
▁suspect	-11.6013
▁cartoon	-11.6013
▁rope	-11.6013
▁reinforced	-11.6019
▁personalized	-11.6021
▁pose	-11.6021
▁freeze	-11.6024
plastic	-11.6032
check	-11.6037
▁revealed	-11.6047
▁accord	-11.605
▁decorate	-11.6063
▁workout	-11.6064
rich	-11.6081
▁Mobile	-11.6084
▁agriculture	-11.6084
▁diagnostic	-11.6084
▁gauge	-11.6084
▁metabus	-11.6084
▁nowadays	-11.6084
▁utility	-11.6084
▁Contact	-11.6084
▁crime	-11.6084
▁oriental	-11.6084
▁recall	-11.6084
▁minor	-11.6084
▁permit	-11.6084
▁Color	-11.6084
▁poster	-11.6091
▁dorm	-11.6093
▁concentrated	-11.6101
▁robotic	-11.6103
neck	-11.6104
▁cent	-11.6104
800	-11.6111
▁surprising	-11.6144
▁Comfort	-11.6155
▁Simply	-11.6155
▁chopsticks	-11.6155
▁facilitate	-11.6155
▁forecast	-11.6155
▁outsourcing	-11.6155
▁paraben	-11.6155
▁visibility	-11.6155
▁distinct	-11.6155
▁pace	-11.6156
▁connectivity	-11.6156
▁glow	-11.6157
▁authority	-11.6161
kook	-11.6162
▁portion	-11.6172
▁baked	-11.6173
▁earphone	-11.6178
▁climbing	-11.6178
▁lay	-11.618
payment	-11.6204
▁folder	-11.6207
▁Excellent	-11.6227
▁Nigeria	-11.6227
▁Professor	-11.6227
▁completing	-11.6227
▁computing	-11.6227
▁electromagnetic	-11.6227
▁expedite	-11.6227
▁judgment	-11.6227
▁collapse	-11.6227
▁gender	-11.6227
▁cried	-11.6227
▁bound	-11.6228
▁Unnie	-11.6232
▁healthier	-11.6234
amine	-11.624
▁encountered	-11.6248
▁encounter	-11.6279
▁Ya	-11.6286
▁thicker	-11.6286
▁straw	-11.6299
▁automotive	-11.6299
▁criminal	-11.6299
▁crowdfunding	-11.6299
▁cucumber	-11.6299
▁styling	-11.6299
▁threw	-11.6299
▁dozen	-11.63
▁padding	-11.63
▁grasp	-11.6304
▁brighten	-11.6312
▁involve	-11.6352
▁loyal	-11.6372
▁Remember	-11.6372
▁contribution	-11.6372
▁dementia	-11.6372
▁plaque	-11.6372
▁preservative	-11.6372
▁routine	-11.6372
▁sponge	-11.6372
▁transplant	-11.6372
▁Adjust	-11.6372
▁ongoing	-11.6373
▁sang	-11.6383
▁unlikely	-11.6388
▁Aside	-11.639
▁vest	-11.639
IN	-11.6392
▁glove	-11.6403
The	-11.6403
▁minimiz	-11.6409
▁GPU	-11.6446
▁antioxidant	-11.6446
▁assurance	-11.6446
▁biometric	-11.6446
▁collagen	-11.6446
▁ecosystem	-11.6446
▁structural	-11.6446
▁punk	-11.6446
▁dense	-11.6447
▁Write	-11.6448
▁classroom	-11.6448
▁suction	-11.645
▁coach	-11.6467
density	-11.6468
▁MC	-11.647
▁precisely	-11.6471
▁considerable	-11.6473
▁ample	-11.6487
▁kindness	-11.6488
▁conflict	-11.652
▁frustrated	-11.652
▁hobby	-11.652
▁Follow	-11.652
▁oyster	-11.652
▁sponsor	-11.652
▁shareholder	-11.652
▁Price	-11.652
▁debut	-11.652
▁profitable	-11.6534
▁Hav	-11.6538
▁exhaust	-11.6574
new	-11.6574
▁Dry	-11.6575
▁striv	-11.6581
▁reproduce	-11.6593
▁attitude	-11.6595
▁summarize	-11.6595
▁surgical	-11.6595
▁MRI	-11.6595
▁duration	-11.6595
▁fifth	-11.6595
▁wax	-11.6595
▁bakery	-11.6596
▁encryption	-11.6597
▁Eye	-11.6603
▁hanger	-11.661
▁obviously	-11.6612
bok	-11.6614
high	-11.662
▁sentence	-11.6623
50,000	-11.6655
1,000	-11.6666
▁Indian	-11.6667
▁shabu	-11.667
▁Chicken	-11.667
▁PDF	-11.667
▁arriving	-11.667
▁itinerary	-11.667
▁obligat	-11.667
▁probability	-11.667
▁tumbler	-11.667
▁Control	-11.667
▁plum	-11.667
▁2019	-11.667
▁Overall	-11.667
▁goodbye	-11.667
▁Small	-11.667
▁tractor	-11.667
▁bacon	-11.6672
▁Hahaha	-11.6672
▁Mix	-11.6681
▁educat	-11.6686
▁consistently	-11.6687
▁element	-11.6707
6%	-11.6724
irritating	-11.6746
▁Digital	-11.6746
▁dramatically	-11.6746
▁negotiating	-11.6746
▁refrigerate	-11.6746
▁rotating	-11.6746
▁shaving	-11.6746
▁stiff	-11.6746
▁vinyl	-11.6746
▁John	-11.6746
▁prospect	-11.6746
▁2016	-11.6746
▁bonus	-11.6746
▁scenery	-11.6749
▁pickled	-11.675
▁starch	-11.6753
▁opt	-11.6773
quipped	-11.6818
▁Industrial	-11.6822
▁Thanksgiving	-11.6822
▁lactobacillus	-11.6822
▁livestock	-11.6822
▁tremendous	-11.6822
▁athlete	-11.6822
▁boyfriend	-11.6822
▁buckle	-11.6822
▁burst	-11.6822
▁skincare	-11.6822
▁harmless	-11.6824
position	-11.6863
MB	-11.6884
3,000	-11.6887
▁Already	-11.6899
▁engrave	-11.6899
▁pixel	-11.6899
▁residence	-11.6899
▁smartwatch	-11.6899
▁strawberries	-11.6899
▁varieties	-11.6899
▁Slowly	-11.6899
▁poison	-11.6899
▁Collect	-11.6899
▁stairs	-11.6899
▁issuance	-11.6899
▁thigh	-11.6901
▁indeed	-11.6902
▁Compl	-11.6906
▁controlling	-11.6917
berry	-11.6922
▁adopted	-11.6923
stage	-11.6923
▁Fine	-11.6924
▁parent	-11.6944
eci	-11.697
▁Phew	-11.6976
▁accelerate	-11.6976
▁hormone	-11.6976
▁neighbor	-11.6976
▁unconditionally	-11.6976
▁emerge	-11.6976
▁seamless	-11.6976
▁Android	-11.6976
▁brew	-11.6977
▁consent	-11.6977
▁Auto	-11.6978
▁described	-11.6995
▁gamers	-11.6999
4%	-11.6999
geun	-11.7001
length	-11.7003
making	-11.7009
▁congratulat	-11.7013
▁appliance	-11.7024
▁Pass	-11.7026
CT	-11.705
layer	-11.705
cost	-11.7051
conscious	-11.7055
▁JIHYO	-11.7055
▁aesthetic	-11.7055
▁bracelet	-11.7055
▁creativity	-11.7055
▁default	-11.7055
▁identification	-11.7055
▁lyrics	-11.7055
▁regulate	-11.7055
▁samgyetang	-11.7055
▁pilot	-11.7055
▁Speak	-11.7055
▁Complete	-11.7055
▁ignore	-11.7055
▁torque	-11.7055
▁Gangwon	-11.7055
▁Raise	-11.7056
▁wrapped	-11.7057
▁ambien	-11.7061
▁reseller	-11.7094
logical	-11.7094
ternal	-11.7129
▁earthquake	-11.7133
▁prohibited	-11.7133
▁rescue	-11.7133
▁gopchang	-11.7133
▁queries	-11.7133
▁balloon	-11.7133
▁thermometer	-11.7134
▁bored	-11.7134
▁rooftop	-11.7134
▁staple	-11.7134
▁ownership	-11.7138
▁medal	-11.7139
▁experimental	-11.7194
▁Premium	-11.7213
▁accompany	-11.7213
▁bracket	-11.7213
▁committed	-11.7213
▁flesh	-11.7213
▁journey	-11.7213
▁scooter	-11.7213
▁unusual	-11.7213
▁Several	-11.7213
▁captain	-11.7213
▁crowd	-11.7213
▁scrub	-11.7213
▁Type	-11.7213
▁transit	-11.7213
▁river	-11.7213
shin	-11.7216
▁Geum	-11.7217
▁1,500	-11.7235
degree	-11.7241
▁clinic	-11.7254
▁curl	-11.7256
▁Almost	-11.7293
▁bouquet	-11.7293
▁chronic	-11.7293
▁fossil	-11.7293
▁infrared	-11.7293
▁purification	-11.7293
▁telephone	-11.7293
▁volunteer	-11.7293
▁automated	-11.7293
▁cyber	-11.7293
▁shuttle	-11.7293
▁Self	-11.7293
▁1234	-11.7293
▁Read	-11.7294
▁Below	-11.7295
▁interactive	-11.7295
▁revision	-11.7296
▁Lab	-11.7313
osis	-11.7347
▁Sungrok	-11.7373
▁annoyed	-11.7373
▁cartridge	-11.7373
▁circle	-11.7373
▁dentist	-11.7373
▁disturb	-11.7373
▁royal	-11.7373
▁squeeze	-11.7373
▁tempered	-11.7373
▁ultrasonic	-11.7373
▁aggressive	-11.7373
▁stereo	-11.7373
▁Double	-11.7373
▁disinfectant	-11.7374
▁sundae	-11.7374
▁Fair	-11.7378
story	-11.7382
▁glossy	-11.7385
MO	-11.7402
resolution	-11.7403
3%	-11.7433
▁optimize	-11.7435
▁Canadian	-11.7455
▁Hospital	-11.7455
▁challenging	-11.7455
▁convince	-11.7455
▁naengmyeon	-11.7455
▁semester	-11.7455
▁OEM	-11.7455
▁germs	-11.7455
▁referral	-11.7455
▁welcoming	-11.7455
▁insole	-11.7455
▁polymer	-11.7455
▁bidding	-11.7455
▁trace	-11.7455
▁accessibility	-11.7455
actic	-11.7459
▁mining	-11.746
▁60%	-11.7464
▁Hair	-11.7468
▁USD	-11.7471
▁Game	-11.7477
carbon	-11.7485
▁bake	-11.7525
▁Star	-11.7535
▁banner	-11.7537
▁chemistry	-11.7537
▁comparing	-11.7537
▁dermatologist	-11.7537
▁elsewhere	-11.7537
▁kidney	-11.7537
▁medicinal	-11.7537
▁principal	-11.7537
▁welfare	-11.7537
▁Detaile	-11.7537
▁stitch	-11.7537
▁Reduce	-11.7537
▁tongue	-11.7537
▁scam	-11.7537
▁Close	-11.7537
▁pound	-11.754
▁simultaneously	-11.754
▁interaction	-11.754
▁authentication	-11.7541
▁Apple	-11.7543
▁hospitality	-11.7554
cooked	-11.7568
▁optim	-11.7571
▁influencer	-11.7591
▁commemorati	-11.7619
▁cylinder	-11.7619
▁deciding	-11.7619
▁emerging	-11.7619
▁evolve	-11.7619
▁gadget	-11.7619
▁karaoke	-11.7619
▁sensibility	-11.7619
▁copier	-11.7619
▁Corona	-11.7619
▁Face	-11.762
▁snap	-11.762
▁flagship	-11.762
▁icon	-11.7621
▁Fast	-11.7622
▁recruitment	-11.7623
▁fever	-11.7626
▁photography	-11.7634
▁40,000	-11.7641
▁Tea	-11.7674
▁activate	-11.7682
▁hyper	-11.7703
jjigae	-11.7703
▁British	-11.7703
▁Companies	-11.7703
▁fragile	-11.7703
▁greedy	-11.7703
▁nickname	-11.7703
▁oxide	-11.7703
▁sashimi	-11.7703
▁steering	-11.7703
▁unfair	-11.7703
▁elaborate	-11.7703
▁piston	-11.7703
▁fog	-11.7703
▁sodium	-11.7703
▁align	-11.7703
▁vitality	-11.7704
▁hygienically	-11.7704
▁shout	-11.7705
▁border	-11.7705
▁Series	-11.771
▁extraction	-11.7721
▁boot	-11.7773
▁hung	-11.7786
▁Cloud	-11.7787
▁Automatic	-11.7787
▁Chuseok	-11.7787
▁Management	-11.7787
▁compromise	-11.7787
▁malfunction	-11.7787
▁molecular	-11.7787
▁renovation	-11.7787
▁reopen	-11.7787
▁terrace	-11.7787
▁earrings	-11.7787
destruct	-11.7787
▁backrest	-11.7787
PP	-11.7787
▁info	-11.7789
▁hostel	-11.7792
▁toothbrushes	-11.78
▁25%	-11.7802
▁Oil	-11.7809
▁successor	-11.7815
workers	-11.7838
▁concentrate	-11.7851
▁definite	-11.7861
▁elder	-11.7861
▁hazard	-11.7871
▁Details	-11.7871
▁Travel	-11.7871
▁augmented	-11.7871
▁calculating	-11.7871
▁desperate	-11.7871
▁injured	-11.7871
▁lonely	-11.7871
▁script	-11.7871
▁trigger	-11.7871
▁fusion	-11.7871
▁Strong	-11.7871
▁Pork	-11.7871
▁Reply	-11.7871
▁domain	-11.7872
uality	-11.7874
▁drip	-11.7876
▁accidentally	-11.7877
▁surprisingly	-11.7884
▁Fish	-11.7885
▁deepen	-11.7892
▁Book	-11.7892
▁Love	-11.7928
▁condominium	-11.7957
▁contrary	-11.7957
▁goosebumps	-11.7957
▁illegal	-11.7957
▁statistical	-11.7957
▁silent	-11.7957
▁sync	-11.7957
▁woke	-11.7957
▁Enter	-11.7957
▁minus	-11.7957
▁comedian	-11.7957
▁consultant	-11.7961
▁laid	-11.7966
▁pray	-11.7968
color	-11.7973
▁costume	-11.7977
▁pear	-11.8003
▁digit	-11.8013
ER	-11.8024
rtificial	-11.8028
▁retire	-11.8041
▁blank	-11.8043
▁Entertainment	-11.8043
▁Shopping	-11.8043
▁biscuit	-11.8043
▁dissatisfied	-11.8043
▁practicing	-11.8043
▁punch	-11.8043
▁eager	-11.8043
▁mower	-11.8043
▁dispose	-11.8043
▁tasting	-11.8043
▁Kids	-11.8045
▁deformation	-11.8045
▁passport	-11.8045
▁Music	-11.8052
▁Durable	-11.8055
▁Byung	-11.8056
▁sterilizer	-11.8057
▁deriv	-11.8084
▁broker	-11.8086
▁exception	-11.8089
hyuk	-11.813
▁Consumer	-11.813
▁Environment	-11.813
▁adverse	-11.813
▁blockchain	-11.813
▁scoop	-11.813
▁teenagers	-11.813
▁typhoon	-11.813
▁decent	-11.813
▁slacks	-11.813
▁outerwear	-11.813
▁vast	-11.813
▁resend	-11.8131
▁breakdown	-11.8132
▁literally	-11.8132
▁showcase	-11.8133
▁fatty	-11.8135
▁indicat	-11.8138
▁moisturizer	-11.8152
▁deserve	-11.8161
▁surround	-11.8184
▁Building	-11.8218
▁DVD	-11.8218
▁bloom	-11.8218
▁cardigan	-11.8218
▁clarity	-11.8218
▁consignment	-11.8218
▁flustered	-11.8218
▁irritate	-11.8218
▁revitaliz	-11.8218
▁sightseeing	-11.8218
▁SBS	-11.8218
▁anxious	-11.8218
▁contour	-11.8218
▁polite	-11.8218
▁SSD	-11.8218
▁Trade	-11.8218
▁sushi	-11.8218
▁Shoot	-11.8218
▁freezing	-11.8218
▁flap	-11.8219
▁stopping	-11.8224
dding	-11.8229
depth	-11.8255
▁stranger	-11.8271
▁critical	-11.8304
▁Engineer	-11.8306
▁Refund	-11.8306
▁abilities	-11.8306
▁clarification	-11.8306
▁drank	-11.8306
▁synergy	-11.8306
▁underground	-11.8306
▁loving	-11.8306
▁Pull	-11.8306
▁Large	-11.8306
▁Gasp	-11.8307
▁optimization	-11.8307
▁99%	-11.8307
▁idol	-11.8308
▁formulated	-11.8309
▁Stand	-11.831
▁cancelled	-11.831
▁unknown	-11.831
watt	-11.8315
▁Intel	-11.8366
etal	-11.8372
▁describe	-11.8375
specific	-11.8383
▁hug	-11.8386
▁View	-11.8395
▁cooperating	-11.8395
▁fluorescent	-11.8395
▁maturity	-11.8395
▁membrane	-11.8395
▁translator	-11.8395
▁ugly	-11.8395
▁universal	-11.8395
▁quilt	-11.8395
▁Push	-11.8395
▁bleach	-11.8395
▁diary	-11.8396
▁intense	-11.8396
▁Daegu	-11.8397
▁decorati	-11.8397
▁expense	-11.8399
▁amplifier	-11.84
▁condo	-11.8406
▁sex	-11.8411
▁approve	-11.8466
TA	-11.8477
furnished	-11.8486
▁Coffee	-11.8486
▁Manufacture	-11.8486
▁Obviously	-11.8486
▁acrylic	-11.8486
▁adhesion	-11.8486
▁depression	-11.8486
▁eligible	-11.8486
▁penetrate	-11.8486
▁fierce	-11.8486
▁heaven	-11.8486
▁Learn	-11.8486
▁Wireless	-11.8486
▁grid	-11.8486
▁sight	-11.8486
▁spy	-11.8486
▁hammer	-11.8486
▁dying	-11.8486
▁slipping	-11.8487
▁tick	-11.8491
hyo	-11.8496
process	-11.8525
▁2.5	-11.8528
ME	-11.8545
▁wheat	-11.8575
▁crypto	-11.8576
▁99.9%	-11.8576
▁Exactly	-11.8576
▁Jenny	-11.8576
▁misunderstood	-11.8576
▁possibilities	-11.8576
▁substitute	-11.8576
▁harness	-11.8576
▁alright	-11.8577
▁supermarket	-11.8577
▁blogger	-11.8578
▁Construction	-11.8578
▁wrapping	-11.858
▁passionate	-11.858
▁nutrient	-11.8585
▁sanitizer	-11.8586
misunderstanding	-11.8607
scissors	-11.8617
flu	-11.8625
itis	-11.8639
▁aviation	-11.8668
▁conferencing	-11.8668
▁infinite	-11.8668
▁nitrogen	-11.8668
▁shelves	-11.8668
▁thief	-11.8668
▁unfold	-11.8668
▁voucher	-11.8668
▁sebum	-11.8668
▁Spicy	-11.8668
▁Normal	-11.8668
▁intellectual	-11.8668
▁amino	-11.8669
▁betray	-11.867
▁Craft	-11.8673
9%	-11.8674
tteok	-11.8689
▁latte	-11.8702
leading	-11.8709
front	-11.8709
,900	-11.8741
▁Jeolla	-11.8761
▁Science	-11.8761
▁acoustic	-11.8761
▁inflammation	-11.8761
▁puzzle	-11.8761
▁socket	-11.8761
▁ultrasound	-11.8761
▁Install	-11.8761
▁Half	-11.8761
▁breach	-11.8761
▁kilo	-11.8761
▁hairtail	-11.8761
▁mutation	-11.8761
▁spinning	-11.8761
▁Taste	-11.8761
▁Down	-11.8761
▁Ramen	-11.8762
▁Drink	-11.8763
▁aloe	-11.8763
▁Regardless	-11.8763
▁disorder	-11.8764
▁Nothing	-11.8764
▁groupware	-11.8766
▁neuro	-11.8777
▁headphone	-11.8779
▁Safe	-11.8812
80,000	-11.8813
▁administrator	-11.8854
▁assignment	-11.8854
▁barcode	-11.8854
▁curriculum	-11.8854
▁fascinating	-11.8854
▁necklace	-11.8854
▁observation	-11.8854
▁purified	-11.8854
▁residual	-11.8854
▁tangerine	-11.8854
▁Different	-11.8854
▁Village	-11.8854
▁airplane	-11.8854
▁backward	-11.8854
▁drew	-11.8854
▁overdue	-11.8854
▁mailbox	-11.8857
▁electrode	-11.8857
▁wealth	-11.8857
▁lump	-11.8857
▁bland	-11.8858
▁transition	-11.8858
▁playback	-11.886
▁Rose	-11.8878
weight	-11.8894
screen	-11.8897
▁Brazil	-11.8949
▁Furthermore	-11.8949
▁Palace	-11.8949
▁Stainless	-11.8949
▁competing	-11.8949
▁discomfort	-11.8949
▁fluctuation	-11.8949
▁merchandise	-11.8949
▁museum	-11.8949
▁vacant	-11.8949
▁ginger	-11.8949
▁Hahahaha	-11.895
▁east	-11.895
▁Six	-11.8957
▁Jaehoon	-11.9044
▁Metabus	-11.9044
▁Square	-11.9044
▁biotechnology	-11.9044
▁cultivate	-11.9044
▁execution	-11.9044
▁impurities	-11.9044
▁courage	-11.9044
▁prioritize	-11.9044
▁wiring	-11.9044
▁beige	-11.9044
▁retro	-11.9044
▁referred	-11.9045
▁jack	-11.9045
▁lessons	-11.9045
▁classification	-11.9046
▁Express	-11.9046
▁butlers	-11.9047
▁fluid	-11.9048
▁Photo	-11.9078
function	-11.9088
encies	-11.913
▁Advanced	-11.914
▁coconut	-11.914
▁mayonnaise	-11.914
▁consumable	-11.914
▁cultivator	-11.914
▁telescope	-11.914
▁Foreign	-11.914
▁disabled	-11.914
▁corru	-11.914
▁hub	-11.914
▁chill	-11.9141
▁IoT	-11.9141
▁omission	-11.9142
▁thermo	-11.9143
▁cele	-11.9153
▁mushroom	-11.9165
TB	-11.9168
produce	-11.9182
▁float	-11.9203
cellular	-11.9224
gye	-11.9226
▁configur	-11.9234
nspired	-11.9236
▁Beauty	-11.9237
▁Shanghai	-11.9237
▁Sweet	-11.9237
▁chapter	-11.9237
▁contaminated	-11.9237
▁drunk	-11.9237
▁enthusiasts	-11.9237
▁espresso	-11.9237
▁forklift	-11.9237
▁landscape	-11.9237
▁tartar	-11.9237
▁ultraviolet	-11.9237
▁Donghun	-11.9237
▁harmony	-11.9237
▁absent	-11.9237
▁hangover	-11.9238
▁2015	-11.9243
plan	-11.9249
▁Anti	-11.9253
▁nation	-11.932
nquiries	-11.9335
▁Employee	-11.9335
▁circular	-11.9335
▁clause	-11.9335
▁discontinu	-11.9335
▁etiquette	-11.9335
▁farewell	-11.9335
▁fundamental	-11.9335
▁groundbreaking	-11.9335
▁hydraulic	-11.9335
▁invisible	-11.9335
▁newborn	-11.9335
▁stabilize	-11.9335
▁overlook	-11.9335
▁ancient	-11.9335
▁disclose	-11.9335
▁urine	-11.9335
▁abnormalities	-11.9336
▁Hwang	-11.9336
▁interruption	-11.9337
▁stake	-11.9338
,000,000	-11.9346
plate	-11.9406
▁approximate	-11.9423
responsibilities	-11.9434
▁Heechul	-11.9434
▁Imagine	-11.9434
▁bandwidth	-11.9434
▁commitment	-11.9434
▁deteriorate	-11.9434
▁disabilities	-11.9434
▁fragrant	-11.9434
▁overwhelming	-11.9434
▁throat	-11.9434
▁universities	-11.9434
▁waffle	-11.9434
▁defend	-11.9434
▁Cream	-11.9434
▁lottery	-11.9434
▁123456	-11.9434
▁disconnect	-11.9435
▁biological	-11.9435
▁balm	-11.9435
ducing	-11.9435
▁selfie	-11.9436
▁filing	-11.9437
▁iconic	-11.9437
▁Step	-11.9438
▁paperwork	-11.9445
▁grandfather	-11.9534
▁Professional	-11.9534
▁assessment	-11.9534
▁happily	-11.9534
▁puppy	-11.9534
▁refrain	-11.9534
▁responsive	-11.9534
▁cashmere	-11.9534
▁rural	-11.9534
▁Combin	-11.9534
▁healthcare	-11.9534
▁Oops	-11.9534
▁lean	-11.9534
▁damp	-11.9535
▁jet	-11.9535
▁forgotten	-11.9537
▁Dude	-11.9538
copy	-11.9584
▁suspend	-11.9614
▁encrypt	-11.9632
aneous	-11.9635
woven	-11.9635
▁Electro	-11.9635
▁Machine	-11.9635
▁RAM	-11.9635
▁companion	-11.9635
▁crude	-11.9635
▁dairy	-11.9635
▁garbage	-11.9635
▁incentive	-11.9635
▁leasing	-11.9635
▁thumb	-11.9635
▁stroke	-11.9635
▁radar	-11.9635
▁tiger	-11.9635
▁motel	-11.9635
▁pulse	-11.9635
▁Daejeon	-11.9635
▁lint	-11.9638
▁examine	-11.9643
▁rob	-11.9674
▁featur	-11.9717
▁Daniel	-11.9737
▁Prevent	-11.9737
▁Students	-11.9737
▁dashboard	-11.9737
▁lavender	-11.9737
▁pharmacy	-11.9737
▁prescription	-11.9737
▁renovate	-11.9737
▁sequential	-11.9737
▁thrill	-11.9737
▁utilizing	-11.9737
▁blame	-11.9737
▁Anything	-11.9737
▁contest	-11.9737
▁Jihye	-11.9739
▁formulation	-11.9739
pressure	-11.9792
▁divid	-11.9801
▁Gangneung	-11.984
▁Gyeonggi	-11.984
▁Reservation	-11.984
▁chrome	-11.984
▁excitement	-11.984
▁illuminat	-11.984
▁salmon	-11.984
▁sensuous	-11.984
▁webtoon	-11.984
▁Visit	-11.984
▁procure	-11.9841
9001	-11.9841
▁Minseok	-11.9842
▁Wake	-11.9843
▁bearings	-11.9844
▁optic	-11.9942
tribute	-11.9943
▁anticancer	-11.9944
▁appetite	-11.9944
▁catalyst	-11.9944
▁coronavirus	-11.9944
▁dawn	-11.9944
▁dizzy	-11.9944
▁exploration	-11.9944
▁lantern	-11.9944
▁struggle	-11.9944
▁telecom	-11.9944
▁turbo	-11.9944
▁unpaid	-11.9944
▁upgrading	-11.9944
▁vulnerable	-11.9944
▁Click	-11.9944
▁Simple	-11.9944
▁lime	-11.9945
▁olive	-11.9945
▁breathability	-11.9946
▁Spain	-11.9946
▁comedy	-11.9946
▁disinfection	-11.9947
together	-11.9998
▁Avoid	-12.005
▁Chairman	-12.005
▁Focus	-12.005
▁Security	-12.005
▁equivalent	-12.005
▁titanium	-12.005
▁tunnel	-12.005
▁violate	-12.005
▁Short	-12.005
▁diamond	-12.005
▁trunk	-12.005
▁slope	-12.005
▁suede	-12.005
▁reform	-12.005
▁ripped	-12.0051
▁guardian	-12.0051
▁climb	-12.0122
▁Unni	-12.0152
▁plea	-12.0154
▁Energy	-12.0156
▁Spanish	-12.0156
▁amazed	-12.0156
▁opponent	-12.0156
▁pronunciation	-12.0156
▁scholar	-12.0156
▁Estate	-12.0156
▁minced	-12.0156
▁offended	-12.0156
▁font	-12.0156
▁remitted	-12.0159
▁flame	-12.0166
▁slap	-12.0169
flavored	-12.019
stream	-12.0213
▁simulat	-12.0261
▁lacquer	-12.0264
▁Breakfast	-12.0264
▁Easily	-12.0264
▁afterwards	-12.0264
▁applause	-12.0264
▁bucket	-12.0264
▁political	-12.0264
▁prince	-12.0264
▁replied	-12.0264
▁sliding	-12.0264
▁traction	-12.0264
▁monkfish	-12.0264
▁horsepower	-12.0264
▁Yoonji	-12.0265
▁acne	-12.0265
efficiency	-12.0321
▁Definitely	-12.0372
▁calculator	-12.0372
▁caravan	-12.0372
▁chief	-12.0372
▁chlorine	-12.0372
▁ambitious	-12.0372
▁admission	-12.0373
▁induce	-12.0373
▁dare	-12.0374
▁colon	-12.0377
earby	-12.0378
mounted	-12.0398
loved	-12.0429
efficient	-12.0431
tight	-12.0434
▁resist	-12.0481
▁knead	-12.0482
▁England	-12.0482
▁Mexico	-12.0482
▁crash	-12.0482
▁easiest	-12.0482
▁encyclopedia	-12.0482
▁fountain	-12.0482
▁genius	-12.0482
▁ivory	-12.0482
▁muffler	-12.0482
▁nurse	-12.0482
▁paprika	-12.0482
▁pesos	-12.0482
▁retrieve	-12.0482
▁shadow	-12.0482
▁snug	-12.0482
▁unpleasant	-12.0482
▁whisk	-12.0482
▁Aiki	-12.0482
▁abrasion	-12.0482
▁nickel	-12.0482
▁forehead	-12.0482
▁Deep	-12.0482
▁systematically	-12.0484
▁Subin	-12.0484
▁farmland	-12.0485
volt	-12.0494
ibility	-12.0592
ncluding	-12.0593
▁fraud	-12.0593
volving	-12.0593
▁Founde	-12.0593
▁Hawaii	-12.0593
▁Organization	-12.0593
▁commute	-12.0593
▁execute	-12.0593
▁groove	-12.0593
▁puppies	-12.0593
▁unmanned	-12.0593
▁vocabulary	-12.0593
▁Relax	-12.0593
▁Stock	-12.0593
▁kelp	-12.0593
▁Alternative	-12.0593
▁garage	-12.0593
▁Carbon	-12.0593
▁periodically	-12.0593
▁Medical	-12.0593
material	-12.0654
▁Jja	-12.0673
▁0.5	-12.0681
▁differ	-12.0703
▁turtle	-12.0706
▁Computer	-12.0706
▁Individual	-12.0706
▁Stretch	-12.0706
▁administration	-12.0706
▁childhood	-12.0706
▁feminine	-12.0706
▁jokbal	-12.0706
▁malicious	-12.0706
▁palette	-12.0706
▁mixture	-12.0706
▁injuries	-12.0706
▁reproduction	-12.0706
▁Fire	-12.0707
▁racing	-12.0707
▁transmitted	-12.0708
▁batch	-12.0709
ddy	-12.0745
centered	-12.0781
▁enhanc	-12.0809
megapixel	-12.0819
▁Haeundae	-12.0819
▁Improve	-12.0819
▁Noodles	-12.0819
▁affairs	-12.0819
▁anxiety	-12.0819
▁appetizer	-12.0819
▁deficit	-12.0819
▁excellence	-12.0819
▁initiative	-12.0819
▁knock	-12.0819
▁sketch	-12.0819
▁treasure	-12.0819
▁Access	-12.0819
▁revive	-12.0819
scopic	-12.0819
▁dietar	-12.0832
closure	-12.0867
plug	-12.0883
demand	-12.0883
employed	-12.0884
▁relate	-12.0914
▁Thai	-12.0934
sanitary	-12.0934
▁Earlier	-12.0934
▁Seriously	-12.0934
▁Women	-12.0934
▁champion	-12.0934
▁cholesterol	-12.0934
▁confusing	-12.0934
▁defrost	-12.0934
▁explosive	-12.0934
▁plywood	-12.0934
▁preservation	-12.0934
▁slippery	-12.0934
▁template	-12.0934
▁zombie	-12.0934
▁blur	-12.0934
▁Leave	-12.0934
▁cocoa	-12.0934
▁Fresh	-12.0934
▁bidet	-12.0934
▁Body	-12.0934
▁Standard	-12.0935
▁till	-12.0936
condition	-12.0999
▁Los	-12.1027
▁relative	-12.104
▁vital	-12.1049
▁rhythm	-12.1051
infectious	-12.1051
▁Exchange	-12.1051
▁Success	-12.1051
▁Tomorrow	-12.1051
▁communicating	-12.1051
▁iPhone	-12.1051
▁mosquito	-12.1051
▁wardrobe	-12.1051
▁Account	-12.1051
▁Left	-12.1051
▁Break	-12.1051
▁Fill	-12.1052
▁eliminat	-12.1056
connect	-12.1116
added	-12.1117
maker	-12.112
▁resell	-12.1133
notch	-12.1147
▁Featur	-12.1164
▁Discount	-12.1168
▁bestseller	-12.1168
▁cocktail	-12.1168
▁contaminants	-12.1168
▁disposal	-12.1168
▁kimbap	-12.1168
▁mouthwash	-12.1168
▁rotary	-12.1168
▁swallow	-12.1168
▁swollen	-12.1168
▁syndrome	-12.1168
▁unstable	-12.1168
▁sedan	-12.1168
▁competent	-12.1168
▁spell	-12.1169
▁budae	-12.1169
write	-12.119
duct	-12.1212
▁faith	-12.1286
▁Bulgogi	-12.1287
▁Investment	-12.1287
▁billiard	-12.1287
▁cardiovascular	-12.1287
▁circulate	-12.1287
▁condolences	-12.1287
▁curiosity	-12.1287
▁ethanol	-12.1287
▁mileage	-12.1287
▁pregnancy	-12.1287
▁reluctant	-12.1287
▁romantic	-12.1287
▁victory	-12.1287
▁yeast	-12.1287
▁Secret	-12.1287
▁lazy	-12.1287
▁monster	-12.1287
▁cutlery	-12.1287
▁foil	-12.1287
▁gallon	-12.1287
▁terrain	-12.1287
▁therefore	-12.1287
▁bionic	-12.1289
served	-12.1289
▁competitor	-12.1384
▁Attach	-12.1387
▁instruct	-12.1396
▁disinfect	-12.1404
▁danger	-12.1407
appointed	-12.1407
▁Challenge	-12.1408
▁Monica	-12.1408
▁avatar	-12.1408
▁bleeding	-12.1408
▁crucial	-12.1408
▁dispenser	-12.1408
▁efficacy	-12.1408
▁indirect	-12.1408
▁metabolic	-12.1408
▁pedestal	-12.1408
▁recurrence	-12.1408
▁treadmill	-12.1408
▁violation	-12.1408
▁illness	-12.1408
▁niche	-12.1408
▁wiping	-12.1408
▁overheating	-12.1408
▁queen	-12.1408
▁loyalty	-12.1409
▁urina	-12.1409
▁Salt	-12.1419
bacterial	-12.1475
wheel	-12.1478
field	-12.1478
wanted	-12.1478
▁volcan	-12.153
etropolitan	-12.153
hhhhhhhhhhhhh	-12.153
soluble	-12.153
▁Hydro	-12.153
▁Switch	-12.153
▁appraisal	-12.153
▁avocado	-12.153
▁fridge	-12.153
▁gourmet	-12.153
▁incredibly	-12.153
▁irregular	-12.153
▁preliminar	-12.153
▁prettier	-12.153
▁radiator	-12.153
▁respirator	-12.153
▁subscribing	-12.153
▁navy	-12.153
▁Glass	-12.153
▁fixture	-12.153
▁2018	-12.153
▁Smile	-12.153
▁accent	-12.153
▁neurons	-12.153
▁Throw	-12.153
▁Calm	-12.1531
▁Grab	-12.1531
▁oppos	-12.1585
▁allergy	-12.1653
cryptocurrencies	-12.1653
inflammatory	-12.1653
renowned	-12.1653
▁Halloween	-12.1653
▁HeeChul	-12.1653
▁PVC	-12.1653
▁Sleep	-12.1653
▁Terminal	-12.1653
▁Vitamin	-12.1653
▁Warranty	-12.1653
▁bristles	-12.1653
▁heavily	-12.1653
▁scream	-12.1653
▁vague	-12.1653
▁zinc	-12.1653
▁Filter	-12.1653
▁Friend	-12.1653
▁Cheese	-12.1653
▁teammates	-12.1653
▁attendees	-12.1654
▁latch	-12.1656
cepti	-12.1709
▁determin	-12.1718
development	-12.1727
▁achiev	-12.1746
▁deform	-12.1775
▁Communication	-12.1778
▁Representative	-12.1778
▁binoculars	-12.1778
▁countermeasure	-12.1778
▁craze	-12.1778
▁decompose	-12.1778
▁filtration	-12.1778
▁neglect	-12.1778
▁penalties	-12.1778
▁perception	-12.1778
▁quartz	-12.1778
▁wrench	-12.1778
▁crown	-12.1778
▁prolonged	-12.1778
▁spoil	-12.1778
▁Failed	-12.1778
▁horn	-12.1778
▁pulp	-12.1778
▁Lightweight	-12.1778
▁poem	-12.1778
frequency	-12.1853
delivery	-12.1853
▁differentiate	-12.1884
▁Dynasty	-12.1905
▁encouraging	-12.1905
▁restructuring	-12.1905
▁shield	-12.1905
▁slogan	-12.1905
▁swimsuit	-12.1905
▁velvet	-12.1905
▁Place	-12.1905
▁ashamed	-12.1905
▁chandelier	-12.1905
▁composite	-12.1905
▁dinosaur	-12.1905
▁thyroid	-12.1905
▁refined	-12.1905
▁clump	-12.1905
▁Steel	-12.1905
▁flies	-12.1905
▁insured	-12.1905
▁Specifically	-12.1905
▁Madam	-12.1905
factor	-12.1982
▁relation	-12.2025
▁Kakao	-12.2033
▁Failure	-12.2033
▁Global	-12.2033
▁Ooh	-12.2033
▁arcade	-12.2033
▁caffeine	-12.2033
▁cherish	-12.2033
▁mercury	-12.2033
▁necessarily	-12.2033
▁nipple	-12.2033
▁poultry	-12.2033
▁pursuing	-12.2033
▁qualified	-12.2033
▁stimulation	-12.2033
▁storm	-12.2033
▁synthesiz	-12.2033
▁thrive	-12.2033
▁visa	-12.2033
▁Father	-12.2033
▁Joseon	-12.2033
▁clamp	-12.2033
▁sunbae	-12.2033
▁liking	-12.2033
▁bezel	-12.2033
purity	-12.2157
▁veterinar	-12.2163
▁almond	-12.2163
▁cherry	-12.2163
▁craftsmanship	-12.2163
▁drastically	-12.2163
▁hobbies	-12.2163
▁lettuce	-12.2163
▁literature	-12.2163
▁omitted	-12.2163
▁palace	-12.2163
▁peanut	-12.2163
▁porcelain	-12.2163
▁ribbon	-12.2163
▁spandex	-12.2163
▁unveiled	-12.2163
▁Project	-12.2163
▁miles	-12.2163
▁duties	-12.2163
▁serial	-12.2163
▁babycam	-12.2163
▁duvet	-12.2163
▁sustainability	-12.2163
▁cement	-12.2163
family	-12.2243
adjust	-12.2246
▁swim	-12.2294
▁Corporation	-12.2294
▁Financial	-12.2294
▁Finish	-12.2294
▁Hallasan	-12.2294
▁Heungbu	-12.2294
▁Kitchen	-12.2294
▁anticipate	-12.2294
▁banana	-12.2294
▁hesitation	-12.2294
▁hometown	-12.2294
▁imitate	-12.2294
▁mascara	-12.2294
▁nephew	-12.2294
▁peroxide	-12.2294
▁proprietary	-12.2294
▁psychological	-12.2294
▁regulator	-12.2294
▁resemble	-12.2294
▁synchronize	-12.2294
▁thermostat	-12.2294
▁macro	-12.2294
▁Memory	-12.2294
▁Wave	-12.2294
▁abalone	-12.2294
saturated	-12.2294
▁voting	-12.2294
▁clay	-12.2294
▁instance	-12.2295
▁hiding	-12.2295
▁Sports	-12.2295
▁hinge	-12.2296
▁immuno	-12.2297
charging	-12.2376
▁exhibit	-12.2425
▁bankrupt	-12.2427
▁monk	-12.2428
▁Industry	-12.2428
OLED	-12.2428
▁Property	-12.2428
▁damaging	-12.2428
▁honeymoon	-12.2428
▁lawsuit	-12.2428
▁memorable	-12.2428
▁multifunctional	-12.2428
▁salaries	-12.2428
▁scheme	-12.2428
▁sensation	-12.2428
▁sweep	-12.2428
▁tropical	-12.2428
▁Temple	-12.2428
▁foster	-12.2428
▁marble	-12.2428
▁garment	-12.2428
▁query	-12.2428
▁enroll	-12.2428
▁Tower	-12.2428
▁Text	-12.2428
▁plot	-12.2428
▁Select	-12.2429
▁corona	-12.2429
uiet	-12.243
▁moral	-12.243
▁conclude	-12.2441
▁foreclos	-12.2446
yeol	-12.2502
▁await	-12.2507
▁impress	-12.2537
▁chic	-12.2547
▁Ocean	-12.2563
▁Absolutely	-12.2563
▁KRW	-12.2563
▁Museum	-12.2563
▁Sunbae	-12.2563
▁VAT	-12.2563
▁acceleration	-12.2563
▁assembling	-12.2563
▁communities	-12.2563
▁comparable	-12.2563
▁consequences	-12.2563
▁discoloration	-12.2563
▁eldest	-12.2563
▁embroidery	-12.2563
▁frequencies	-12.2563
▁manuscript	-12.2563
▁molecules	-12.2563
▁protocol	-12.2563
▁urethane	-12.2563
▁otherwise	-12.2563
▁sheep	-12.2563
▁Prepare	-12.2563
▁Cross	-12.2563
▁trail	-12.2672
▁expose	-12.2679
▁Nowadays	-12.27
▁accomplish	-12.27
▁bluetooth	-12.27
▁complications	-12.27
▁grocery	-12.27
▁immersive	-12.27
▁interval	-12.27
▁kettle	-12.27
▁repurchase	-12.27
▁tobacco	-12.27
▁buffer	-12.27
▁Pretty	-12.27
▁Merry	-12.27
▁belief	-12.27
▁harmonize	-12.27
▁relay	-12.27
mAh	-12.27
▁Hades	-12.2701
▁Operat	-12.2708
▁headquarter	-12.2711
▁reproduc	-12.2715
borne	-12.2733
▁Administration	-12.2839
▁Chris	-12.2839
▁Kingdom	-12.2839
▁Wrong	-12.2839
▁Yukgaejang	-12.2839
▁bronze	-12.2839
▁chestnut	-12.2839
▁complie	-12.2839
▁elbow	-12.2839
▁exploring	-12.2839
▁faux	-12.2839
▁gravity	-12.2839
▁modular	-12.2839
▁occupant	-12.2839
▁prosthetic	-12.2839
▁crumb	-12.2839
▁fox	-12.2839
▁Beef	-12.2839
▁diving	-12.2839
▁barrel	-12.2839
▁capaciti	-12.2839
▁Count	-12.2846
national	-12.293
▁Chicago	-12.298
▁Gyeongbokgung	-12.298
▁Logistics	-12.298
▁Measure	-12.298
▁Purchas	-12.298
▁Saerok	-12.298
▁Shampoo	-12.298
▁blossom	-12.298
▁cognitive	-12.298
▁commuting	-12.298
▁consuming	-12.298
▁diversity	-12.298
▁embedded	-12.298
▁gesture	-12.298
▁ketchup	-12.298
▁knives	-12.298
▁magnesium	-12.298
▁navigate	-12.298
▁phishing	-12.298
▁qualification	-12.298
▁relieving	-12.298
▁souvenir	-12.298
▁stimulating	-12.298
▁trauma	-12.298
▁trimmer	-12.298
▁twenty	-12.298
▁vaccination	-12.298
▁vapor	-12.298
▁interference	-12.298
▁vibe	-12.298
▁viral	-12.298
▁firewall	-12.298
▁Slightly	-12.298
▁metasta	-12.298
▁Demand	-12.298
▁blessing	-12.298
▁timeshare	-12.298
▁Skin	-12.298
▁funeral	-12.298
▁Grill	-12.298
▁binding	-12.298
▁dispers	-12.298
▁whip	-12.2982
directional	-12.3082
▁ferment	-12.3099
▁Though	-12.3122
▁Agricultural	-12.3122
▁Ahhhhh	-12.3122
▁Hannah	-12.3122
▁Itaewon	-12.3122
▁Tteokbokki	-12.3122
▁Voice	-12.3122
▁buckwheat	-12.3122
▁essay	-12.3122
▁fluffy	-12.3122
▁indispensable	-12.3122
▁infringement	-12.3122
▁liberal	-12.3122
▁occurrence	-12.3122
▁persimmon	-12.3122
▁polyurethane	-12.3122
▁radioactive	-12.3122
▁reconstruct	-12.3122
▁supervisor	-12.3122
▁surfactant	-12.3122
▁unreasonable	-12.3122
▁bibim	-12.3122
▁equity	-12.3122
▁Local	-12.3122
▁marry	-12.3122
ventilated	-12.3122
▁keen	-12.3123
▁lady	-12.3123
▁Marine	-12.3123
▁typo	-12.3153
▁acquir	-12.321
▁Beijing	-12.3267
▁Camera	-12.3267
▁Publish	-12.3267
▁Resources	-12.3267
▁abdominal	-12.3267
▁cruise	-12.3267
▁diffuser	-12.3267
▁epidemic	-12.3267
▁interchangeable	-12.3267
▁jjamppong	-12.3267
▁necessity	-12.3267
▁neither	-12.3267
▁parsley	-12.3267
▁rabbit	-12.3267
▁ribbed	-12.3267
▁trillion	-12.3267
▁unacceptable	-12.3267
▁ventilator	-12.3267
▁Amazon	-12.3267
▁segment	-12.3267
▁Agency	-12.3267
▁caramel	-12.3267
▁migrat	-12.3267
▁omega	-12.3267
▁Eyy	-12.3268
▁Faci	-12.3272
▁realiz	-12.3308
▁Creat	-12.3382
▁satisfie	-12.3394
▁flex	-12.3414
▁Gyeongju	-12.3414
▁Introduce	-12.3414
▁Strawberry	-12.3414
▁ammonia	-12.3414
▁cavities	-12.3414
▁dakgalbi	-12.3414
▁discarded	-12.3414
▁enamel	-12.3414
▁enemy	-12.3414
▁explosion	-12.3414
▁feather	-12.3414
▁jjajang	-12.3414
▁metabolism	-12.3414
▁motivation	-12.3414
▁possess	-12.3414
▁repetitive	-12.3414
▁replica	-12.3414
▁rookie	-12.3414
▁dispute	-12.3414
▁sirloin	-12.3414
▁arrest	-12.3414
▁Level	-12.3414
▁Cotton	-12.3414
▁jaw	-12.3414
▁freshener	-12.3415
▁protest	-12.3415
▁awake	-12.3415
▁recycle	-12.3543
▁browse	-12.3551
▁convention	-12.3552
▁scroll	-12.3564
▁witness	-12.3564
▁Doctor	-12.3564
▁Education	-12.3564
▁Province	-12.3564
▁accelerator	-12.3564
▁cumulative	-12.3564
▁flawless	-12.3564
▁fought	-12.3564
▁handicraft	-12.3564
▁investigating	-12.3564
▁obesity	-12.3564
▁province	-12.3564
▁rehabilitation	-12.3564
▁retention	-12.3564
▁slept	-12.3564
▁stabilization	-12.3564
▁joking	-12.3564
▁metallic	-12.3564
▁conform	-12.3564
▁Steam	-12.3564
▁desert	-12.3564
▁cattle	-12.3564
▁Motor	-12.3564
▁Uncle	-12.3591
strength	-12.3664
distance	-12.3664
idibidibidibidib	-12.3715
▁Dragon	-12.3715
▁Google	-12.3715
▁Government	-12.3715
▁balcony	-12.3715
▁blemishes	-12.3715
▁cheonggukjang	-12.3715
▁evolution	-12.3715
▁fifty	-12.3715
▁heavier	-12.3715
▁housewives	-12.3715
▁mackerel	-12.3715
▁perhaps	-12.3715
▁potassium	-12.3715
▁spatula	-12.3715
▁sterilizing	-12.3715
▁trimming	-12.3715
▁watermelon	-12.3715
▁glue	-12.3715
▁orientation	-12.3715
▁Money	-12.3715
▁droplets	-12.3715
▁liability	-12.3715
▁PET	-12.3715
▁Edit	-12.3774
priced	-12.3818
▁disagree	-12.3869
▁Celeb	-12.3869
▁Commercial	-12.3869
▁Delicious	-12.3869
▁Festival	-12.3869
▁Seaweed	-12.3869
▁administrative	-12.3869
▁brilliant	-12.3869
▁committee	-12.3869
▁diversify	-12.3869
▁platinum	-12.3869
▁psychology	-12.3869
▁stood	-12.3869
▁chalk	-12.3869
▁picnic	-12.3869
▁Night	-12.3869
▁Nolbu	-12.3869
▁Respect	-12.3869
▁allocate	-12.3871
patient	-12.3885
Exit	-12.3889
season	-12.3974
▁mechanic	-12.399
▁sneak	-12.4023
▁Corporate	-12.4025
▁Senior	-12.4025
▁Windows	-12.4025
▁accompanied	-12.4025
▁butterflies	-12.4025
▁continent	-12.4025
▁duplicate	-12.4025
▁fluctuate	-12.4025
▁multimedia	-12.4025
▁newlyweds	-12.4025
▁occupation	-12.4025
▁offshore	-12.4025
▁peripheral	-12.4025
▁recreation	-12.4025
▁refract	-12.4025
▁spaghetti	-12.4025
▁thirst	-12.4025
▁underneath	-12.4025
▁kilometers	-12.4025
▁Resort	-12.4025
▁Girl	-12.4025
▁Scared	-12.4025
▁Golf	-12.4025
▁beggar	-12.4025
▁Flip	-12.4027
▁Radio	-12.4082
▁Battery	-12.4184
▁Convenient	-12.4184
▁Cosmetics	-12.4184
▁Leader	-12.4184
▁absurd	-12.4184
▁accumulation	-12.4184
▁banned	-12.4184
▁breeze	-12.4184
▁brick	-12.4184
▁cereal	-12.4184
▁customizable	-12.4184
▁homeowner	-12.4184
▁incidence	-12.4184
▁legendary	-12.4184
▁mankind	-12.4184
▁neural	-12.4184
▁neutrino	-12.4184
▁preferential	-12.4184
▁skyrocket	-12.4184
▁subtitle	-12.4184
▁synthesis	-12.4184
▁tournament	-12.4184
▁termination	-12.4184
▁chives	-12.4184
▁inherit	-12.4184
▁plating	-12.4184
▁tasty	-12.4184
▁Smell	-12.4184
▁Wall	-12.4258
ntegrated	-12.4345
▁Gyeongsang	-12.4345
▁ASAP	-12.4345
▁Cheorwon	-12.4345
▁Executive	-12.4345
▁Pizza	-12.4345
▁Program	-12.4345
▁Virtual	-12.4345
▁collateral	-12.4345
▁cramp	-12.4345
▁decreasing	-12.4345
▁discipline	-12.4345
▁enormous	-12.4345
▁hanbok	-12.4345
▁handwriting	-12.4345
▁mugwort	-12.4345
▁ointment	-12.4345
▁panoram	-12.4345
▁skewer	-12.4345
▁rugged	-12.4345
▁Greek	-12.4345
▁Massage	-12.4345
▁saddle	-12.4345
▁pollen	-12.4345
▁Walk	-12.4346
▁regenerate	-12.4347
clean	-12.4365
▁incorporat	-12.4387
▁integrat	-12.4399
▁maximiz	-12.4448
▁disrupt	-12.4486
▁expenditure	-12.4509
▁Bitcoin	-12.4509
▁Equipment	-12.4509
▁Knowing	-12.4509
▁Material	-12.4509
▁Regular	-12.4509
▁Silicon	-12.4509
▁Typical	-12.4509
▁cabin	-12.4509
▁contributing	-12.4509
▁dandruff	-12.4509
▁dumbbell	-12.4509
▁fantasy	-12.4509
▁legitimate	-12.4509
▁lobster	-12.4509
▁monoxide	-12.4509
▁murder	-12.4509
▁persuade	-12.4509
▁reborn	-12.4509
▁recyclable	-12.4509
▁victim	-12.4509
▁apparel	-12.4509
▁deliberat	-12.4509
▁diagonal	-12.4509
▁cinema	-12.4509
▁dissatisfaction	-12.4509
▁eyeliner	-12.4509
sensitive	-12.4624
▁confuse	-12.4655
▁inspire	-12.4655
▁crisp	-12.4667
▁Construct	-12.4673
calorie	-12.4675
phenol	-12.4676
▁Captain	-12.4676
▁Exhibition	-12.4676
▁Luckily	-12.4676
▁asleep	-12.4676
▁confess	-12.4676
▁dishwashing	-12.4676
▁fingertips	-12.4676
▁hunting	-12.4676
▁kindergarten	-12.4676
▁marinated	-12.4676
▁mountaineering	-12.4676
▁occupy	-12.4676
▁plasma	-12.4676
▁podcast	-12.4676
▁rinsing	-12.4676
▁sluggish	-12.4676
▁stethoscope	-12.4676
▁sulfur	-12.4676
▁trimmed	-12.4676
▁unavailable	-12.4676
▁airbag	-12.4676
▁grease	-12.4676
▁mobiliz	-12.4676
▁mysterious	-12.4676
▁snail	-12.4676
▁workforce	-12.4676
▁spatial	-12.4676
▁regulation	-12.4749
permanent	-12.4794
precision	-12.4794
dependence	-12.483
hypertension	-12.4845
propylene	-12.4845
▁Dubai	-12.4845
▁Francisco	-12.4845
▁Garlic	-12.4845
▁Inventory	-12.4845
▁LPG	-12.4845
▁Penalty	-12.4845
▁Ulsan	-12.4845
▁biodegradable	-12.4845
▁conjunction	-12.4845
▁crayon	-12.4845
▁culprit	-12.4845
▁divorce	-12.4845
▁horror	-12.4845
▁immersion	-12.4845
▁knob	-12.4845
▁lukewarm	-12.4845
▁predecessor	-12.4845
▁relocate	-12.4845
▁shredder	-12.4845
▁stagnant	-12.4845
▁sympathize	-12.4845
▁tariff	-12.4845
▁unparalleled	-12.4845
▁valley	-12.4845
▁variant	-12.4845
▁variation	-12.4845
▁versatility	-12.4845
▁Expect	-12.4845
▁Separate	-12.4845
▁Vehicle	-12.4845
▁diligent	-12.4845
▁Print	-12.4845
▁manicure	-12.4845
▁Foam	-12.4845
▁penthouse	-12.4845
▁Smith	-12.4845
▁insulin	-12.4845
▁Modern	-12.4846
▁endorse	-12.4879
▁Alzheimer	-12.5018
▁Barbie	-12.5018
▁Genuine	-12.5018
▁Increase	-12.5018
▁Moisture	-12.5018
▁Patients	-12.5018
▁Plastic	-12.5018
▁Pohang	-12.5018
▁Surprising	-12.5018
▁attorney	-12.5018
▁bookshelf	-12.5018
▁bungalow	-12.5018
▁caution	-12.5018
▁collaborative	-12.5018
▁eyeshadow	-12.5018
▁geographic	-12.5018
▁handkerchief	-12.5018
▁mandatory	-12.5018
▁mozzarella	-12.5018
▁oxidation	-12.5018
▁phenomena	-12.5018
▁prominent	-12.5018
▁shaft	-12.5018
▁smiling	-12.5018
▁ssamjang	-12.5018
▁wisdom	-12.5018
▁wrestling	-12.5018
▁Accurate	-12.5018
▁FOB	-12.5018
▁clutch	-12.5018
▁exchanging	-12.5018
▁jackpot	-12.5018
▁synap	-12.5018
▁envy	-12.5018
▁korea	-12.5018
▁Heavy	-12.5018
▁API	-12.5018
▁decay	-12.5018
▁typing	-12.5018
▁Brand	-12.5018
▁Needles	-12.5018
▁Charge	-12.5019
q	-12.5062
fungi	-12.5105
written	-12.5142
claim	-12.5145
educated	-12.5149
▁occupie	-12.5187
▁DIY	-12.5193
▁Pharmaceutical	-12.5193
▁Texas	-12.5193
▁Tongyeong	-12.5193
▁cybersecurity	-12.5193
▁evaluating	-12.5193
▁floral	-12.5193
▁gangster	-12.5193
▁glucose	-12.5193
▁hesitant	-12.5193
▁lodging	-12.5193
▁patronage	-12.5193
▁primarily	-12.5193
