<unk>	0
<s>	0
</s>	0
<pad>	0
<bos>	0
<eos>	0
.	-2.37552
,	-3.70953
을	-4.14257
의	-4.41357
?	-4.44063
를	-4.46883
▁수	-4.64496
▁있습니다	-4.74607
는	-4.7964
▁	-5.01941
가	-5.11764
은	-5.22139
도	-5.23025
▁저희	-5.42752
▁이	-5.51267
에	-5.52992
이	-5.63053
입니다	-5.77032
▁있는	-5.81968
▁네	-5.84863
과	-5.97399
▁BBB	-6.00564
▁더	-6.01219
▁합니다	-6.036
▁것	-6.0448
로	-6.06585
와	-6.21738
▁FFF	-6.22264
!	-6.22343
▁한	-6.22529
▁AAA	-6.23262
▁그	-6.2473
으로	-6.2543
한	-6.28086
▁안	-6.33128
▁그리고	-6.34165
▁아	-6.3507
▁바랍니다	-6.40727
▁잘	-6.4088
▁저는	-6.43449
▁대해	-6.44145
▁제가	-6.47127
만	-6.47865
▁대한	-6.51024
▁위해	-6.51094
▁것입니다	-6.53266
할	-6.56172
▁할	-6.566
▁저희는	-6.58465
▁다른	-6.58799
▁나는	-6.59974
에서	-6.60464
▁지금	-6.60948
▁1	-6.63175
▁및	-6.63621
▁제품	-6.63732
▁또한	-6.64382
1	-6.6439
▁모든	-6.64759
▁우리	-6.64812
▁우리는	-6.66316
▁저희가	-6.69372
▁너무	-6.69542
▁좋은	-6.70489
▁2	-6.70922
▁많은	-6.72678
▁제품을	-6.74538
▁3	-6.74579
▁그래서	-6.75659
▁많이	-6.76458
▁때	-6.76506
▁좀	-6.76885
▁진짜	-6.77457
▁감사합니다	-6.78634
▁이렇게	-6.81741
▁것을	-6.82311
▁됩니다	-6.8451
▁그런데	-6.84602
▁함께	-6.85935
지	-6.86702
▁이거	-6.86759
▁다	-6.86794
요	-6.8694
▁싶습니다	-6.88542
▁어떻게	-6.8907
▁때문에	-6.89442
▁안녕하세요	-6.90396
▁다시	-6.90607
~	-6.91202
▁매우	-6.9178
▁같습니다	-6.92467
▁해	-6.92858
▁제품은	-6.94096
하고	-6.94196
합니다	-6.95433
▁정말	-6.95992
▁귀하의	-6.96028
인	-6.96672
2	-6.97295
▁가능합니다	-6.97545
▁아니	-6.97687
▁거	-6.98526
▁그럼	-6.99171
▁하지만	-7.00998
고	-7.01428
▁어떤	-7.03052
▁이번	-7.06785
▁내가	-7.069
▁이제	-7.06912
▁하는	-7.07651
일	-7.11561
게	-7.12678
▁될	-7.13884
▁제	-7.13922
▁게	-7.14586
▁몇	-7.15067
▁내	-7.16016
▁통해	-7.16132
▁귀사의	-7.16314
▁다양한	-7.17294
▁야	-7.17885
▁있어	-7.18618
▁5	-7.19422
▁것이	-7.19761
▁왜	-7.20166
▁바로	-7.20663
나	-7.23626
▁10	-7.24272
▁오늘	-7.24474
▁또	-7.24518
▁드립니다	-7.25112
▁하고	-7.25117
▁위한	-7.25818
▁다음	-7.25889
▁형	-7.26253
▁가장	-7.26541
▁현재	-7.27173
▁나	-7.27304
▁혹시	-7.27321
▁없습니다	-7.29531
▁당신의	-7.29702
년	-7.30168
▁두	-7.31014
▁연락	-7.31037
까지	-7.31507
하는	-7.31934
된	-7.32062
▁알고	-7.3234
▁새로운	-7.32345
▁이런	-7.32498
▁그러면	-7.32578
▁중	-7.32631
▁뭐	-7.32952
▁같은	-7.33616
▁이게	-7.35467
▁어	-7.3638
▁하겠습니다	-7.36597
▁후	-7.37079
하게	-7.37314
▁큰	-7.37811
서	-7.3863
▁있을	-7.38994
월	-7.39418
▁경우	-7.41202
▁한번	-7.42166
▁제공합니다	-7.44219
적인	-7.45452
했습니다	-7.45456
▁있어요	-7.45596
▁주세요	-7.46042
▁전에	-7.46304
▁4	-7.46414
▁회사	-7.46421
▁여기	-7.46595
▁부탁드립니다	-7.46675
개	-7.46857
▁동안	-7.46928
▁그런	-7.47125
▁오	-7.47917
▁되어	-7.48023
▁주문	-7.48117
▁모두	-7.48346
▁않습니다	-7.48348
▁가지	-7.48941
▁먼저	-7.49181
▁그냥	-7.49814
▁보내	-7.51439
▁데	-7.52801
▁주셔서	-7.52849
▁있도록	-7.53384
▁따라	-7.547
▁빨리	-7.54851
야	-7.55324
▁빠른	-7.55967
▁한국	-7.56039
▁번	-7.56106
▁고객님	-7.56824
▁그렇게	-7.57006
▁와	-7.5745
▁그러나	-7.58169
▁우리가	-7.58231
▁가지고	-7.58449
▁거예요	-7.58685
다	-7.58839
▁문제가	-7.58877
▁것은	-7.6054
▁있다	-7.61395
습니다	-7.61401
▁가능한	-7.61804
▁거야	-7.62727
▁자	-7.62843
▁사용할	-7.6289
▁문의	-7.64471
▁등	-7.65299
▁계약	-7.65504
▁저	-7.65927
▁있나요	-7.65974
▁하나	-7.66221
▁직접	-7.66425
▁아니라	-7.67306
▁배송	-7.67498
하여	-7.67698
▁회신	-7.68062
▁전	-7.68529
▁예정입니다	-7.68543
이나	-7.6908
▁당사	-7.7085
▁필요한	-7.71527
▁이번에	-7.72107
▁회사의	-7.7254
▁되었습니다	-7.72589
▁돼	-7.73068
▁못	-7.73248
▁같아요	-7.73635
▁도움이	-7.7381
▁아직	-7.73851
▁사용	-7.7391
면	-7.74272
▁회사는	-7.75025
▁같이	-7.75262
▁생각합니다	-7.76941
라고	-7.77272
▁당신이	-7.77826
▁이미	-7.78687
▁주	-7.78694
▁따라서	-7.79079
▁서비스를	-7.79678
▁드리겠습니다	-7.80099
▁시	-7.8063
▁예	-7.8104
▁그것은	-7.81174
▁정도	-7.81361
▁것으로	-7.81522
▁건	-7.81578
▁줄	-7.8185
▁쉽게	-7.82174
▁주시기	-7.82568
▁알겠습니다	-7.83458
▁그러니까	-7.83882
▁메일	-7.83951
▁서비스	-7.84034
▁디자인	-7.84619
▁하면	-7.84966
▁아니야	-7.85417
▁보고	-7.85426
▁조금	-7.85644
▁기능	-7.85866
▁있을까요	-7.86085
▁좋습니다	-7.86521
▁없는	-7.86627
▁죄송합니다	-7.87681
▁제품에	-7.88044
▁확인	-7.89105
▁우리의	-7.8911
▁추가	-7.89192
▁제품입니다	-7.89606
▁주시면	-7.90171
▁여러	-7.90229
▁볼	-7.90729
▁지난	-7.90879
▁6	-7.91666
▁그렇지	-7.91705
▁없이	-7.92048
▁이상	-7.92401
▁그래	-7.92962
▁상품	-7.93175
기	-7.93246
▁계속	-7.93587
▁일단	-7.94846
▁뭐야	-7.94875
▁시간이	-7.95222
▁약간	-7.95536
▁귀사	-7.95557
하지	-7.95776
▁좋아	-7.96009
▁구매	-7.96259
▁항상	-7.96356
시	-7.96415
부터	-7.96498
▁우와	-7.96652
▁감사드립니다	-7.96716
▁주문을	-7.96785
▁있어서	-7.97396
▁시간	-7.977
▁사실	-7.98
)	-7.98452
▁얼마나	-7.98607
▁20	-7.98975
▁수도	-7.99007
▁겁니다	-7.99016
▁꼭	-7.99986
됩니다	-8.00289
히	-8.00292
▁당신은	-8.00381
▁OK	-8.00458
▁총	-8.00484
해	-8.0057
▁최대	-8.00724
▁되는	-8.00839
▁해당	-8.01019
▁씨	-8.0121
▁해외	-8.0138
▁있습니까	-8.0173
▁기술	-8.0323
▁봐	-8.03498
▁또는	-8.03625
▁입니다	-8.03665
▁약	-8.03728
▁샘플	-8.04505
▁답변	-8.04565
▁일이	-8.04823
▁제품이	-8.04829
▁일정	-8.05077
보다	-8.0528
에는	-8.05926
▁알려	-8.0664
들이	-8.07002
▁정보를	-8.07601
▁특히	-8.0796
▁시간을	-8.08318
▁걸	-8.08463
▁귀하께서	-8.08493
▁아주	-8.08705
해서	-8.08726
▁더욱	-8.09249
▁너	-8.09434
▁관련	-8.09567
▁7	-8.09866
▁최대한	-8.09898
▁해야	-8.10597
▁했습니다	-8.11437
▁높은	-8.11509
▁관심	-8.12069
▁물론	-8.12174
▁있고	-8.12638
▁생산	-8.1299
▁이러한	-8.13045
▁미리	-8.13878
▁30	-8.14617
▁있는지	-8.1474
▁그게	-8.14858
▁연락을	-8.15266
▁품질	-8.15769
▁있으면	-8.15829
▁기존	-8.15845
▁무슨	-8.15877
▁가격	-8.15886
▁알	-8.16318
▁메일을	-8.16636
▁딱	-8.16676
하도록	-8.16703
▁해서	-8.17176
(	-8.17351
▁회사에서	-8.17926
▁호텔	-8.17933
▁12	-8.17995
▁저희에게	-8.18008
▁친애하는	-8.18535
▁있었습니다	-8.1855
개의	-8.18573
▁피부	-8.18674
자	-8.18676
▁달	-8.1883
분	-8.18947
▁맞아	-8.18963
▁8	-8.191
▁받았습니다	-8.19467
▁것이다	-8.19768
▁판매	-8.20958
▁각	-8.21299
▁된	-8.21957
▁이것은	-8.22163
▁확인해	-8.22361
용	-8.23429
▁사업	-8.23582
▁있다면	-8.23842
▁그들은	-8.23857
▁필요합니다	-8.24341
▁업무	-8.24497
▁우선	-8.25055
▁주시길	-8.2527
▁주십시오	-8.25286
▁관심이	-8.25886
▁받을	-8.26301
▁상품을	-8.2631
▁선생님	-8.26426
▁원	-8.26848
▁만약	-8.26866
▁여러분	-8.27007
▁온라인	-8.27051
▁100	-8.27406
▁원하는	-8.28223
▁있다고	-8.2911
▁회의	-8.29156
▁인해	-8.29403
▁세	-8.29468
▁거의	-8.29512
▁그렇죠	-8.29741
▁저도	-8.3019
▁있다는	-8.30413
▁있으시면	-8.30415
▁고객	-8.30527
▁주신	-8.3069
인데	-8.30908
▁들었습니다	-8.30916
▁하지	-8.31152
▁이야	-8.31946
▁있게	-8.32746
▁있는데	-8.33175
▁중에	-8.33484
▁드릴	-8.33626
▁막	-8.33923
▁최고의	-8.34229
▁하루	-8.34763
▁돼요	-8.34798
▁않은	-8.35133
▁새	-8.35179
▁최근	-8.35738
시간	-8.35764
▁중요한	-8.35962
▁귀사와	-8.36077
하고자	-8.36552
▁사고	-8.37074
▁되게	-8.37173
▁점	-8.3719
▁언제	-8.37258
주	-8.37277
▁앞으로	-8.37832
죠	-8.3795
▁같아	-8.38034
▁진행	-8.38105
▁들어	-8.38323
▁말씀	-8.38593
▁비즈니스	-8.39398
▁저에게	-8.39477
▁소프트웨어	-8.39486
▁내일	-8.40629
도록	-8.41439
▁본	-8.41656
▁방문	-8.41702
3	-8.42006
▁안에	-8.42283
▁좋겠습니다	-8.42324
처럼	-8.42432
대	-8.42538
▁개발	-8.42577
▁첫	-8.42879
▁오빠	-8.42945
에게	-8.42964
▁회사에	-8.43042
해야	-8.43097
▁감사하겠습니다	-8.43267
▁대해서	-8.4339
▁않고	-8.43496
▁가	-8.43576
라	-8.43788
▁결제	-8.43839
▁찾고	-8.43966
▁그래도	-8.44505
▁때문입니다	-8.44762
이다	-8.44883
▁진심으로	-8.45019
번	-8.4514
▁장비	-8.45209
▁오후	-8.45341
▁제일	-8.45477
▁않을	-8.45522
▁사항이	-8.45584
▁줍니다	-8.45748
▁관리	-8.45891
▁환불	-8.4613
▁좋을	-8.46278
▁오래	-8.46605
▁제작	-8.46942
▁저희도	-8.47018
▁어제	-8.47334
들을	-8.47407
▁처음	-8.47696
▁대부분	-8.47842
하겠습니다	-8.47991
▁그것을	-8.48155
될	-8.483
하기	-8.48405
하면	-8.4843
▁어느	-8.48503
이라고	-8.48629
/	-8.48798
일에	-8.48956
▁되지	-8.49036
▁받아	-8.49064
▁감사	-8.49918
▁한국에서	-8.50053
▁될까요	-8.5015
-	-8.50234
▁예약	-8.50392
▁둘	-8.50484
▁빠르게	-8.50499
하였습니다	-8.50694
▁기다리고	-8.50978
▁15	-8.51167
▁비용	-8.51371
▁기쁩니다	-8.51409
▁미국	-8.51577
이고	-8.52062
들은	-8.52134
▁아닙니다	-8.52135
▁주실	-8.52857
▁후에	-8.52869
▁않는	-8.53109
▁일을	-8.53245
▁연구	-8.53492
▁자세한	-8.5351
▁사용하여	-8.53548
네	-8.53706
라는	-8.54109
▁문제를	-8.5422
▁있겠습니다	-8.54255
▁재고	-8.54447
▁것도	-8.5447
▁온	-8.54804
▁50	-8.54835
▁있으며	-8.5485
▁보세요	-8.55017
▁본사	-8.55021
▁기술을	-8.55084
하실	-8.55118
▁9	-8.55145
▁귀사에서	-8.55157
▁언제든지	-8.5518
▁원래	-8.55376
▁사람들이	-8.55586
▁일	-8.55702
되었습니다	-8.55726
▁해요	-8.56237
▁요청	-8.56249
▁그거	-8.56303
▁곧	-8.56357
▁좋아요	-8.56359
▁지	-8.56876
▁관한	-8.57847
▁게임	-8.58023
▁종류의	-8.58413
'	-8.58429
▁소개해	-8.5876
▁카탈로그	-8.58841
▁역시	-8.59752
▁받고	-8.59787
이에요	-8.59825
▁처리	-8.59937
▁맞아요	-8.60118
▁도움을	-8.60157
▁그때	-8.60219
▁협력	-8.60423
▁만들어	-8.60483
▁기업	-8.60585
▁신제품	-8.60621
▁작은	-8.60647
▁없어	-8.61071
▁번째	-8.61364
▁"	-8.61435
▁것이라고	-8.61453
▁전화	-8.61461
▁요즘	-8.61603
▁직원	-8.61646
▁아니요	-8.61651
▁싶은	-8.62312
▁사람이	-8.62312
▁세계	-8.62488
▁새로	-8.62733
▁자동차	-8.62764
▁대로	-8.62824
▁결과	-8.62879
▁내에	-8.63095
▁할인	-8.63119
어	-8.63181
▁한국의	-8.63396
▁따로	-8.63689
▁회사가	-8.6378
▁11	-8.63855
▁주문한	-8.64022
▁개	-8.64135
▁보내드리겠습니다	-8.64417
▁귀하	-8.64496
▁이거는	-8.64708
▁경험	-8.64741
▁'	-8.64853
▁시장	-8.65145
▁같은데	-8.65147
▁설치	-8.65276
▁받은	-8.65557
▁전체	-8.65608
▁있기를	-8.65645
▁준비	-8.65797
▁계획	-8.6584
▁일부	-8.65886
▁내부	-8.66045
이야	-8.66046
▁당사는	-8.66079
되어	-8.66688
▁가격이	-8.66694
가지	-8.66702
▁환경	-8.66871
사	-8.67155
▁않았습니다	-8.67241
▁데이터	-8.67302
에도	-8.67305
▁아니면	-8.67388
▁만든	-8.67515
▁사업을	-8.67605
▁카메라	-8.67841
▁맞는	-8.67862
▁미팅	-8.67875
▁것에	-8.67935
▁스마트	-8.68171
▁거죠	-8.68248
▁되면	-8.68533
▁하는데	-8.68534
▁인터넷	-8.68562
"	-8.68593
▁보내주신	-8.68598
▁날	-8.69695
▁메일로	-8.69809
▁오늘은	-8.702
▁있지	-8.70692
진	-8.70781
▁건가요	-8.70806
▁아니에요	-8.70864
▁필요	-8.70991
▁보다	-8.71175
▁이에	-8.7132
▁갈	-8.71486
▁불편	-8.71537
▁정확한	-8.71543
주셔서	-8.71667
▁컴퓨터	-8.71872
▁기계	-8.72142
▁여기서	-8.72566
▁기능이	-8.72622
▁전기	-8.73035
▁문제	-8.73201
랑	-8.73268
▁주에	-8.73303
▁사용하는	-8.73334
▁왔습니다	-8.73545
▁전문	-8.73902
▁가격은	-8.73967
거나	-8.74154
던	-8.74164
▁훨씬	-8.74201
▁굉장히	-8.74257
▁귀하께	-8.74688
▁영업	-8.74846
▁첨부	-8.74875
▁색상	-8.75057
▁회의를	-8.7507
달러	-8.75098
니까	-8.75206
▁나도	-8.75269
▁보통	-8.75436
▁그것이	-8.75482
▁아이	-8.75541
▁제공하는	-8.7565
▁때는	-8.75651
▁않아	-8.75918
▁배터리	-8.75922
▁잠깐만	-8.76517
개월	-8.76588
▁아닌	-8.76636
▁포함되어	-8.7692
▁저기	-8.77006
▁갑자기	-8.77049
▁하기	-8.7707
▁개인	-8.7728
▁집	-8.77379
▁이메일을	-8.77516
▁작업	-8.77656
▁기간	-8.77691
▁물건	-8.77706
▁거래	-8.77839
▁보면	-8.77949
▁당신에게	-8.78127
▁마케팅	-8.78164
▁일반	-8.78206
하세요	-8.78315
▁가격을	-8.78343
▁물	-8.78393
▁말씀해	-8.78916
▁출장	-8.78936
▁부동산	-8.79049
▁위해서	-8.79324
사의	-8.79404
▁갖고	-8.79462
▁있기	-8.79562
▁궁금합니다	-8.797
▁이메일로	-8.79838
▁왜냐하면	-8.80097
▁그대로	-8.80285
▁없을	-8.80557
▁보안	-8.80664
▁소재	-8.80905
▁시스템	-8.80931
▁귀사에	-8.80957
▁변경	-8.80961
▁말	-8.81214
▁등을	-8.81316
▁분	-8.81426
▁사용자	-8.81624
▁즉시	-8.81639
▁한국에	-8.8192
▁주요	-8.81935
▁추천	-8.82053
▁전혀	-8.82118
씨	-8.82125
▁제안을	-8.82356
▁무엇을	-8.82599
▁지불	-8.82654
▁이건	-8.82707
▁장치	-8.82872
▁열	-8.83031
▁만들	-8.83192
▁아래	-8.83245
▁있으니	-8.83366
▁그건	-8.83457
▁안전	-8.83957
▁영상	-8.83986
▁아이고	-8.84013
▁이용	-8.84026
▁확인할	-8.84227
되지	-8.84581
▁기타	-8.84584
▁간	-8.84975
▁회사를	-8.84997
형	-8.851
▁편하게	-8.85268
▁무선	-8.85313
▁재고가	-8.85388
▁크게	-8.85448
인가요	-8.85473
▁마	-8.85533
▁괜찮아	-8.85686
▁드렸습니다	-8.85759
▁지역	-8.85897
▁공장	-8.85967
▁점이	-8.85993
▁기다리겠습니다	-8.86489
▁마지막	-8.86494
▁적이	-8.86544
명	-8.86714
▁알려주세요	-8.86752
▁투자	-8.86787
▁최신	-8.86983
이며	-8.87274
▁시스템을	-8.87394
▁고객님께서	-8.87413
▁원하시는	-8.87513
▁어디	-8.87573
▁파일	-8.87602
▁맛이	-8.87635
▁만큼	-8.87695
▁받지	-8.87736
▁건강	-8.87751
▁앱	-8.87803
▁서비스에	-8.87913
▁확실히	-8.88119
▁되나요	-8.88132
▁공급	-8.88181
▁마음에	-8.88312
▁없어요	-8.88701
▁국제	-8.89013
▁음식	-8.89144
▁인기가	-8.89176
개를	-8.89355
▁음식을	-8.89446
수	-8.89835
▁식사	-8.89848
님	-8.89915
▁방지	-8.89977
▁충분히	-8.9023
▁차	-8.9033
▁프로젝트	-8.90396
▁특정	-8.90554
▁참	-8.90589
▁사람	-8.90638
네요	-8.90723
이라는	-8.90946
▁음	-8.91141
▁배송이	-8.91413
▁추가로	-8.91651
되는	-8.91723
했던	-8.91751
▁이메일	-8.91911
▁제품으로	-8.91927
▁뛰어난	-8.92056
▁만드는	-8.92102
▁이는	-8.92112
▁주문하신	-8.92278
▁소개합니다	-8.92335
▁제조	-8.92397
▁세트	-8.9242
▁상태	-8.92435
▁대신	-8.92439
▁제대로	-8.92508
▁요구	-8.92592
▁업체	-8.92626
▁소개하려고	-8.92659
▁드리고	-8.9272
▁일주일	-8.92726
▁좋다	-8.92747
▁부드러운	-8.92783
▁소식을	-8.92906
▁안내	-8.92985
실	-8.93121
▁있으시다면	-8.93184
니	-8.93196
▁알게	-8.93227
▁날짜	-8.93292
▁번호	-8.93451
▁디지털	-8.93688
▁집에	-8.93866
▁누가	-8.93931
▁완전	-8.94018
▁했는데	-8.94076
▁따르면	-8.9412
▁작동	-8.9414
▁살	-8.94335
▁사용해	-8.94337
▁충전	-8.94952
되고	-8.95243
▁보냅니다	-8.95273
▁주로	-8.95312
▁효과	-8.95328
▁미팅을	-8.95381
▁시작	-8.9554
▁사장님	-8.95589
▁그렇다면	-8.96019
▁제공	-8.96102
▁그래요	-8.96265
▁최선을	-8.96337
▁완전히	-8.96529
시에	-8.9655
▁나와	-8.96592
▁못했습니다	-8.96625
데	-8.96735
▁출시	-8.96792
▁취소	-8.97018
▁방법을	-8.97105
▁영향을	-8.97377
▁세부	-8.97379
▁돈을	-8.97385
▁서로	-8.97413
▁보험	-8.97618
▁않도록	-8.97671
▁부탁	-8.97761
▁아마	-8.97807
▁오전	-8.97904
예요	-8.97908
▁거래를	-8.98235
▁국내	-8.98317
▁여행	-8.98504
▁아까	-8.98755
▁제공됩니다	-8.98755
▁정보	-8.98803
당	-8.98908
▁되고	-8.98945
▁싶어요	-8.99282
로부터	-8.99299
▁저희와	-8.99472
하며	-8.99487
▁많습니다	-8.99498
▁사	-8.9956
▁부품	-8.99731
▁비디오	-8.99784
cm	-8.99837
▁필요가	-8.99869
▁있지만	-8.99916
▁광고	-8.99932
▁올해	-9.00063
▁사진	-9.00206
▁얼마	-9.00235
▁사항을	-9.00558
▁보호	-9.00565
▁사무실	-9.00664
▁꽤	-9.00782
▁뿐만	-9.00869
차	-9.01023
하신	-9.01077
▁가서	-9.01139
▁궁금한	-9.01169
하려고	-9.01235
▁인기	-9.01325
▁지금까지	-9.01357
▁제공할	-9.01476
▁선택	-9.01547
▁이상의	-9.01613
▁제공해	-9.01638
▁자동	-9.01918
천	-9.02078
▁인증	-9.02083
▁선적	-9.02098
▁입금	-9.02127
▁마세요	-9.02465
▁차량	-9.02551
▁과정	-9.02598
▁상세	-9.02916
▁전달	-9.03218
▁안전하게	-9.0333
▁사용이	-9.0335
▁응	-9.03366
▁뒤에	-9.0338
▁다만	-9.03494
▁내용을	-9.03498
▁등의	-9.03596
▁전화를	-9.0382
으면	-9.03893
▁언제든	-9.04125
▁대금	-9.04235
해주셔서	-9.04411
▁얘기	-9.04456
▁분들이	-9.04916
▁시일	-9.04988
▁납품	-9.0499
▁맞습니다	-9.05028
▁주는	-9.05213
▁난	-9.05236
▁매일	-9.05449
▁중입니다	-9.05553
▁근데	-9.0579
▁이를	-9.05833
▁손	-9.05949
▁제품들	-9.06057
▁먹고	-9.06161
드리도록	-9.06316
▁자사	-9.06364
▁배송을	-9.06373
▁소개	-9.06553
▁네가	-9.06635
▁대표	-9.06953
▁관련된	-9.07205
▁기본	-9.07211
▁최소	-9.07386
하시면	-9.0744
▁운송	-9.07688
▁로봇	-9.07706
▁지금은	-9.07755
▁여전히	-9.07772
▁덕분에	-9.07792
▁형이	-9.0791
▁포장	-9.07934
▁실제로	-9.07992
▁뭘	-9.08062
▁부분이	-9.08066
▁먹는	-9.08244
▁저거	-9.08488
▁공기	-9.08612
▁최근에	-9.0864
▁200	-9.08705
▁곳	-9.08912
▁특별한	-9.09032
▁좋아하는	-9.0913
D	-9.0916
▁이전	-9.09256
▁분이	-9.09262
▁엄청	-9.09468
▁행사	-9.09539
▁그들	-9.09664
▁제안	-9.09731
▁관계를	-9.09896
이었습니다	-9.0998
▁완벽한	-9.10074
▁팀	-9.10113
▁A	-9.10189
▁드려	-9.10197
▁최고	-9.10222
▁연락드립니다	-9.10238
▁관련하여	-9.10409
▁잘못	-9.10649
길	-9.10663
▁적합합니다	-9.10675
▁TV	-9.10695
▁회사와	-9.10759
▁있어야	-9.10763
▁보니	-9.10764
질	-9.10929
▁은행	-9.11099
▁해도	-9.11107
▁설명	-9.11133
▁한다	-9.11139
▁생각	-9.11149
▁설계	-9.11191
▁동시에	-9.11263
▁자세히	-9.11305
▁그동안	-9.114
▁말씀을	-9.11445
는데	-9.11517
▁자주	-9.11686
▁상황이	-9.11699
▁하실	-9.11755
▁연결	-9.11867
▁있으신가요	-9.12023
▁마지막으로	-9.12187
▁작업을	-9.1227
▁비해	-9.12303
▁음료	-9.12391
▁검토	-9.12478
▁궁금하신	-9.12498
▁가는	-9.12744
▁있죠	-9.12745
에서는	-9.1276
▁아파트	-9.12825
▁상황입니다	-9.12867
▁드리고자	-9.13089
▁자료	-9.13146
▁말고	-9.1328
▁비용은	-9.1336
▁시간에	-9.13421
▁브랜드	-9.1349
▁건조	-9.13586
▁방	-9.13664
▁편안한	-9.13742
▁대해서는	-9.13784
▁제공하고	-9.13812
▁보관	-9.13881
▁한국어	-9.13931
▁판매하는	-9.141
▁예약을	-9.14178
▁전자	-9.14203
▁식품	-9.14289
▁알아	-9.14315
▁즐길	-9.14541
▁분석	-9.14826
▁거지	-9.1487
▁견적	-9.15014
▁보증	-9.15017
▁100%	-9.15042
▁당신을	-9.15205
▁지속	-9.15229
하면서	-9.15436
▁무료	-9.15463
▁운영	-9.15488
▁열심히	-9.15703
▁알려드립니다	-9.15727
다고	-9.15778
▁보니까	-9.15806
배	-9.15808
▁크기	-9.15859
▁기회를	-9.15954
신	-9.16007
▁있는데요	-9.16095
▁집에서	-9.16394
▁뭔가	-9.16402
▁맞춰	-9.16403
세	-9.16519
▁걱정	-9.16619
▁학습	-9.16652
▁고객님들	-9.16718
▁자신	-9.16811
▁아니고	-9.16822
▁비용이	-9.16861
들	-9.17192
▁시설	-9.17341
▁필터	-9.17366
적으로	-9.17391
▁가격으로	-9.17445
▁지원	-9.17504
▁자동으로	-9.17609
스	-9.17642
구나	-9.17649
▁실제	-9.17856
▁상황을	-9.17882
▁앞으로도	-9.17979
▁수량	-9.18049
▁유지	-9.18118
▁가능	-9.18207
▁연락드리겠습니다	-9.18351
라도	-9.18452
▁테스트	-9.18546
▁못한	-9.18605
▁확장	-9.18652
이라	-9.18653
▁기다려	-9.18731
▁비	-9.18907
▁논의	-9.19069
▁영화	-9.19113
였습니다	-9.19147
▁홈페이지	-9.1918
▁건물	-9.19212
▁그걸	-9.19278
▁나중에	-9.19492
▁가격에	-9.19505
▁이동	-9.19701
▁참석	-9.19928
▁먹을	-9.19994
▁이걸	-9.20018
▁저의	-9.20044
▁위치	-9.20087
▁대량	-9.20201
▁이야기	-9.20262
▁어려운	-9.20378
하십시오	-9.20384
▁생각이	-9.20426
▁저녁	-9.2044
▁연구팀	-9.20489
▁문제에	-9.20702
▁벌써	-9.20711
▁보내드립니다	-9.20791
▁24	-9.2092
▁만들었습니다	-9.20936
▁결정	-9.21001
▁반드시	-9.21009
잖아	-9.2106
▁사진을	-9.21207
▁됐어	-9.21284
▁진행할	-9.2131
▁40	-9.21465
▁올	-9.21478
▁괜찮습니다	-9.2154
▁커피	-9.2165
▁할인을	-9.21667
▁수출	-9.21675
▁500	-9.21698
▁뒤	-9.2173
▁집을	-9.21736
▁성분	-9.21773
세요	-9.21939
▁직원이	-9.2199
▁단	-9.22054
▁이용해	-9.22062
▁방송	-9.22402
하거나	-9.22439
▁확인하고	-9.22497
▁에너지	-9.22594
▁하시는	-9.22873
▁검사	-9.22903
성	-9.22982
▁어머	-9.22989
▁오랜	-9.23015
▁강력한	-9.23018
▁한다고	-9.23293
▁사용합니다	-9.23296
▁달에	-9.23357
▁맞게	-9.23591
▁보유하고	-9.23622
▁플라스틱	-9.2363
▁교육	-9.23636
▁일반적으로	-9.23708
달러입니다	-9.23762
▁이것이	-9.23763
▁얻을	-9.23772
▁중요합니다	-9.23798
▁요리	-9.23919
마다	-9.23923
▁사람들은	-9.23965
점	-9.24212
원	-9.24218
▁그녀	-9.24281
▁셋	-9.24304
대로	-9.24339
▁주택	-9.24414
주시길	-9.24424
▁고	-9.24604
▁이야기를	-9.24621
일까지	-9.24655
▁전원	-9.24752
▁혼자	-9.24914
▁신경	-9.24929
▁치료	-9.25028
▁사과	-9.25294
아	-9.25348
▁설명을	-9.25406
▁정확히	-9.2549
▁공간을	-9.25615
인지	-9.25636
▁산업	-9.25673
▁대단히	-9.25782
▁사용하고	-9.25831
▁되는데	-9.25853
▁상품에	-9.26073
▁파이팅	-9.2615
집니다	-9.26294
▁제품과	-9.2636
▁요청하신	-9.26478
▁운동	-9.26662
▁상품이	-9.26922
▁저를	-9.26939
▁맛을	-9.27011
▁않으면	-9.27016
▁없음	-9.2709
▁넣어	-9.2714
▁도와드릴까요	-9.27177
▁귀하께서는	-9.2718
▁없었습니다	-9.2727
▁데이터를	-9.27297
▁고급	-9.27411
▁원합니다	-9.27528
거든요	-9.27558
▁정도로	-9.27661
▁알았어	-9.27727
인데요	-9.27747
▁아무	-9.27895
▁웹사이트	-9.27997
▁담당자	-9.28124
▁도매가	-9.28172
▁아무래도	-9.28207
▁추천해	-9.28311
▁객실	-9.28398
▁하게	-9.28608
▁일정이	-9.28659
▁옵션	-9.28809
▁결과를	-9.28998
▁형님	-9.29074
▁직원들	-9.29108
▁확인했습니다	-9.29295
▁그들이	-9.29391
겠습니다	-9.2941
▁우수한	-9.29564
▁가진	-9.29571
▁생각해	-9.29599
▁사용하면	-9.29661
▁부담	-9.29754
▁보입니다	-9.29927
초	-9.29942
▁자료를	-9.29954
▁준비가	-9.29986
▁가자	-9.29998
▁양	-9.30015
▁다음에	-9.30083
▁듣고	-9.30221
▁구조	-9.30275
▁당신과	-9.30397
▁적합한	-9.30404
▁하려고	-9.30515
▁생각하고	-9.30618
▁친환경	-9.30661
▁드린	-9.30747
나요	-9.30789
▁플랫폼	-9.30837
▁조절	-9.30843
▁고객에게	-9.30986
▁프레젠테이션	-9.31027
▁경우에는	-9.31099
▁코로나	-9.31158
▁특징입니다	-9.31194
▁그럴	-9.31209
▁프로그램	-9.31336
▁계획입니다	-9.31389
▁연락주세요	-9.31427
▁보는	-9.31547
▁씨가	-9.31588
▁찾아	-9.31642
▁생각을	-9.31659
▁찾을	-9.31667
▁제작되었습니다	-9.31712
▁방식	-9.31717
▁공간	-9.31846
▁서류	-9.31863
▁주변	-9.31911
▁연락처	-9.31957
▁교체	-9.31978
▁이해해	-9.3209
▁구매하고	-9.32111
▁미디어	-9.3212
▁바	-9.32168
▁기기	-9.32239
▁조치	-9.32296
▁발송	-9.3234
▁고객의	-9.32358
▁말이	-9.3236
▁각종	-9.32366
▁사항은	-9.32478
▁맛	-9.32487
었습니다	-9.32491
▁개선	-9.32559
▁단가	-9.32689
▁방금	-9.32752
▁모바일	-9.32758
▁건데	-9.32871
▁고객님께	-9.3288
▁나온	-9.32953
▁알려주시면	-9.32971
▁케이스	-9.33097
▁대	-9.33244
▁속	-9.33277
kg	-9.3328
▁개의	-9.333
▁자체	-9.3339
며	-9.33392
▁도착	-9.33406
▁수가	-9.33412
▁사이즈	-9.33589
▁뭐가	-9.33598
▁제게	-9.3377
▁각각	-9.33847
▁고객을	-9.34004
▁프로젝트를	-9.34314
▁모델	-9.34335
▁같네요	-9.34356
▁나머지	-9.34645
▁내구성이	-9.34955
▁시장에서	-9.35161
▁맛있는	-9.3528
▁얘기를	-9.35395
하시는	-9.35406
▁보내주시면	-9.35499
▁디자인으로	-9.35512
▁아시다시피	-9.35556
▁분야	-9.35763
▁타	-9.3577
▁솔루션	-9.35833
▁300	-9.35844
▁카드	-9.35876
▁최종	-9.35886
▁무엇입니까	-9.35964
▁조건	-9.35985
▁게임을	-9.35987
▁중국	-9.36052
등	-9.36069
▁하나요	-9.36127
▁고객이	-9.36166
▁방식으로	-9.36217
▁유형	-9.36239
▁상품은	-9.36298
▁이유는	-9.36306
▁책	-9.36368
▁문제는	-9.36394
▁회사입니다	-9.36429
▁보시면	-9.36445
까요	-9.36672
잖아요	-9.36791
▁이후	-9.36796
▁계약서	-9.3699
▁사용하기	-9.37177
▁다릅니다	-9.37213
▁고객들	-9.3729
적	-9.37368
▁그것에	-9.37374
▁주문에	-9.37519
▁통신	-9.37574
▁주문이	-9.37705
운	-9.37726
▁보시고	-9.3776
▁여부	-9.37893
▁충분한	-9.37933
장	-9.37952
▁기회가	-9.37984
▁속도	-9.38037
▁했어요	-9.38071
▁잡아	-9.38129
▁10%	-9.38249
드립니다	-9.38286
▁창고	-9.38297
▁수준	-9.3836
▁마무리	-9.38421
▁차이가	-9.38709
▁저렴한	-9.38777
▁무조건	-9.38846
▁케이블	-9.38875
▁송장	-9.38933
▁들어가	-9.39067
▁그는	-9.39131
▁25	-9.39171
▁배송해	-9.39246
▁나에게	-9.39405
합니까	-9.39419
회	-9.39656
▁늘	-9.39673
▁연락드렸습니다	-9.39733
▁안전한	-9.39832
▁가게	-9.39872
▁다음주	-9.40001
▁기준	-9.40015
▁밖에	-9.40098
▁말을	-9.40124
▁긍정적인	-9.40152
줍니다	-9.40216
▁당연히	-9.4024
▁전용	-9.40309
▁소재로	-9.40491
▁부탁드리겠습니다	-9.40582
▁만나	-9.40604
▁걱정하지	-9.4068
▁보낼	-9.40684
▁사과드립니다	-9.40784
▁판매하고	-9.40975
▁업데이트	-9.41088
▁자연	-9.41131
▁기술이	-9.41153
▁드리려고	-9.41264
▁정보가	-9.41273
▁유통	-9.41286
▁쉬운	-9.41321
▁외부	-9.4136
▁웹	-9.41622
▁솔직히	-9.41635
▁콘텐츠	-9.41695
▁가죽	-9.41798
▁시장에	-9.41799
▁완료	-9.41837
▁입고	-9.41841
▁상담	-9.41953
▁주시고	-9.41959
▁받는	-9.42011
▁무료로	-9.42045
▁진행하고	-9.42099
기를	-9.42187
▁피부에	-9.4231
▁물품	-9.42367
▁믿고	-9.42394
리	-9.42402
▁싶은데	-9.42553
▁위	-9.42557
▁물을	-9.42792
▁자기	-9.42836
▁싶어	-9.42908
▁시간은	-9.43006
▁수분	-9.43047
▁특허	-9.43089
긴	-9.43134
▁등록	-9.43199
▁되기	-9.43229
▁기반	-9.43317
▁프리미엄	-9.43488
▁컬러	-9.43515
▁소셜	-9.43599
▁질문이	-9.4364
▁견적서	-9.43646
▁좋지	-9.43694
4	-9.43811
▁B	-9.43884
▁혁신	-9.44038
▁AI	-9.44089
▁메일에	-9.44184
▁발생	-9.4425
▁성능을	-9.44272
▁진짜로	-9.44278
▁번에	-9.44343
▁조명	-9.44365
▁엄마	-9.44437
▁유명한	-9.44586
mm	-9.44589
▁신청	-9.44659
▁원단	-9.44709
▁여기에	-9.44825
이랑	-9.44977
▁보았습니다	-9.4499
▁효과가	-9.45043
▁상당히	-9.45046
▁사람들	-9.45092
g	-9.45107
▁목록	-9.45109
▁혹은	-9.45279
▁성장	-9.45279
▁조금만	-9.4547
▁깊은	-9.45489
▁선택할	-9.45491
▁우리에게	-9.45567
▁봐요	-9.45685
▁내구성	-9.45739
▁휴대폰	-9.45747
▁임대	-9.45748
식	-9.45751
▁음악	-9.45786
▁죄송하지만	-9.4594
▁찾는	-9.45965
▁작성	-9.45975
▁가구	-9.45977
▁대형	-9.46068
▁없다	-9.46171
▁금액을	-9.4629
▁언니	-9.46308
▁설명해	-9.46375
▁새롭게	-9.46395
▁등이	-9.46407
▁구매를	-9.4643
▁절대	-9.46433
▁글로벌	-9.46486
▁반	-9.46496
▁기대합니다	-9.46673
▁천연	-9.46676
▁사는	-9.46787
▁현지	-9.46801
▁지난번	-9.46829
▁참여	-9.46857
이지만	-9.46867
▁귀하와	-9.46959
▁이용할	-9.47109
이기	-9.47421
▁돈	-9.47484
▁구성되어	-9.47508
▁스테인리스	-9.47528
▁통합	-9.47533
▁필요할	-9.4757
▁넓은	-9.47575
▁해결	-9.47575
▁얼굴	-9.47578
▁건설	-9.47709
▁가까운	-9.47761
니다	-9.4778
▁블랙	-9.47836
상	-9.47869
▁싶다	-9.47939
▁이번에는	-9.48121
▁하였습니다	-9.48131
▁양해	-9.48201
▁(	-9.48202
▁상황에	-9.48208
▁주문하고	-9.48218
C	-9.48271
▁컬럼	-9.48337
선	-9.4841
하셔서	-9.48434
▁단계	-9.48436
▁홍보	-9.48493
▁문서	-9.48504
▁두고	-9.48507
▁위에	-9.48509
▁곳에	-9.48583
▁환자	-9.4863
▁분명히	-9.48826
뿐만	-9.49111
▁알려주시기	-9.49199
▁받으실	-9.49336
지만	-9.49415
▁걸로	-9.49492
▁프로그램을	-9.49534
▁사용하실	-9.49554
▁도매	-9.49715
▁누나	-9.49809
▁빠르고	-9.49976
여	-9.50099
▁센서	-9.50209
▁어우	-9.50281
▁살짝	-9.50288
▁편안하게	-9.5033
▁아침	-9.50353
▁확신합니다	-9.50471
▁대비	-9.50513
▁갖추고	-9.50565
▁나은	-9.50577
▁하하	-9.50627
▁사용하지	-9.50638
▁식사를	-9.50653
▁잠깐	-9.5074
▁손님	-9.50797
▁훌륭한	-9.50817
▁특별히	-9.5082
▁낮은	-9.50877
▁개발한	-9.50921
▁방법이	-9.5101
▁오랫동안	-9.51037
▁계신	-9.51079
▁역할을	-9.51148
▁과정에서	-9.51177
▁명	-9.51269
▁휴가	-9.51319
▁드리는	-9.51358
▁공정	-9.51362
▁촬영	-9.51594
▁표준	-9.51626
단	-9.51873
▁발	-9.51926
▁와서	-9.51928
▁머리	-9.51992
▁가면	-9.52172
▁어렵습니다	-9.52231
▁내용은	-9.5224
시킬	-9.52378
▁언제나	-9.5243
▁보실	-9.52446
▁어려울	-9.52465
▁하	-9.52476
▁소리	-9.5248
▁통해서	-9.52541
▁전통	-9.52561
▁쓸	-9.52566
▁담당	-9.52582
▁구입	-9.52599
▁온도	-9.52646
▁먹어	-9.52686
m	-9.52723
▁보여	-9.52727
▁응용	-9.52775
▁부서	-9.52777
▁인한	-9.52818
▁금요일	-9.52889
▁파티	-9.53048
▁않아요	-9.53053
▁예를	-9.53302
▁고품질	-9.53386
박	-9.53419
▁나오는	-9.53487
▁있었던	-9.53556
▁엔진	-9.53592
▁프로젝트에	-9.53665
▁때까지	-9.53719
▁부분에	-9.53745
층	-9.53815
▁커버	-9.53862
▁도착할	-9.5389
▁중인	-9.53891
▁침대	-9.53892
밖에	-9.53946
▁협업	-9.53988
까	-9.5403
▁나서	-9.54112
▁내로	-9.54264
▁눈	-9.54295
▁금액	-9.54319
▁긴	-9.54397
▁안녕하십니까	-9.54412
▁넣고	-9.54428
▁승인	-9.5445
▁간편하게	-9.54543
▁네트워크	-9.54572
▁그러므로	-9.54656
▁가능할까요	-9.54672
▁주방	-9.54755
▁그에	-9.54887
▁위해서는	-9.54973
▁느낌이	-9.55063
주세요	-9.55223
▁가져	-9.55274
부	-9.55288
▁이름은	-9.55324
▁년	-9.55347
▁요청을	-9.55358
▁친구	-9.55366
▁이전에	-9.55382
든	-9.55475
▁레스토랑	-9.5553
▁적용	-9.55688
▁별도	-9.55697
▁보겠습니다	-9.55723
▁변화	-9.55801
▁송금	-9.55874
▁모드	-9.55889
▁원하시면	-9.55936
▁방수	-9.55967
▁참고	-9.56029
▁자리를	-9.56044
▁이내에	-9.56059
▁게다가	-9.56076
▁어쨌든	-9.56144
어요	-9.56155
▁편안함을	-9.56312
▁석진이	-9.56343
▁앞에	-9.5652
▁수정	-9.56629
▁조정	-9.56677
▁부디	-9.56772
▁때마다	-9.56971
▁없어서	-9.56977
▁측정	-9.56988
▁검색	-9.57032
▁간단한	-9.57038
▁규모	-9.57069
▁주고	-9.5711
▁대박	-9.57141
▁아예	-9.57142
▁하시면	-9.57146
들의	-9.572
▁아직도	-9.57218
▁연락해	-9.57303
▁공간이	-9.57353
▁점점	-9.57425
▁건강한	-9.57481
▁교환	-9.57523
▁맛있게	-9.57536
▁동일한	-9.57581
▁계약에	-9.5759
▁반갑습니다	-9.57658
▁사항	-9.57735
▁로고	-9.57782
▁수요가	-9.57905
▁수입	-9.58083
▁길이	-9.58108
▁제한	-9.58213
▁기분	-9.58276
▁크리스마스	-9.58285
에서도	-9.58317
▁예상	-9.58337
▁보장	-9.58348
주시면	-9.58467
▁첨부해	-9.58539
려고	-9.58636
▁지연	-9.58709
▁드리도록	-9.58762
거	-9.58816
▁공유	-9.58859
▁의견을	-9.58861
▁하자	-9.58893
▁신뢰	-9.58917
년에	-9.5902
▁비슷한	-9.59195
▁부인	-9.59235
되면	-9.5934
▁만들고	-9.5939
▁하여	-9.59537
▁클라우드	-9.59569
▁가치	-9.59594
하려면	-9.59597
▁없고	-9.5962
▁먼지	-9.59669
▁서울	-9.59686
▁드릴게요	-9.59728
억	-9.59777
▁사이트	-9.59792
▁시즌	-9.59795
▁형태	-9.5997
▁거라고	-9.59973
▁실내	-9.59991
▁링크	-9.60062
▁부분은	-9.60093
▁청소	-9.60161
▁최적	-9.60171
▁이번주	-9.6022
하시길	-9.60223
엔	-9.60281
▁디자인이	-9.60364
▁것처럼	-9.60365
▁풍부한	-9.60374
▁평가	-9.60384
▁적	-9.60615
▁문화	-9.60621
▁자랑합니다	-9.60634
▁준비를	-9.60699
▁가벼운	-9.60746
▁향상	-9.60754
▁달러	-9.60799
▁만한	-9.60925
▁의해	-9.60972
▁18	-9.61075
한테	-9.61126
▁가족	-9.61138
▁성능	-9.61222
▁내용	-9.6124
▁이해	-9.61342
중	-9.6135
▁결정을	-9.61406
▁마음을	-9.61453
▁없다고	-9.61478
▁눈에	-9.61501
▁할게요	-9.61529
▁부드럽고	-9.61536
년간	-9.61583
▁당신	-9.6169
▁착용	-9.61775
▁드실	-9.61829
▁지난번에	-9.61912
▁관해	-9.61985
▁고정	-9.6205
▁의자	-9.62087
▁분들	-9.62216
▁준비해	-9.62224
▁않기	-9.6236
▁비타민	-9.62667
▁연장	-9.62689
▁부분을	-9.62701
했다	-9.62845
▁환영합니다	-9.62878
G	-9.62883
▁적절한	-9.62893
▁제어	-9.62908
▁전부	-9.63153
▁매장	-9.63157
▁분야에서	-9.63268
▁설계되었습니다	-9.63295
▁계속해서	-9.63299
▁위험	-9.63314
▁강한	-9.63366
▁가능한가요	-9.63465
▁느낄	-9.63507
▁만족	-9.63508
▁사실을	-9.63512
▁포함된	-9.63525
▁지난주에	-9.6356
으로부터	-9.63629
개가	-9.63697
▁이미지	-9.63712
▁식당	-9.63722
▁메뉴	-9.63782
▁코드	-9.63829
▁쉽지	-9.63845
▁모발	-9.63893
▁구매할	-9.63918
▁대량으로	-9.63965
▁디스플레이	-9.64087
▁경험이	-9.64118
입니까	-9.64139
▁동물	-9.64184
일이	-9.64242
▁기록	-9.64262
▁만듭니다	-9.64342
▁적은	-9.64364
▁마음이	-9.64442
▁60	-9.64528
▁배	-9.64607
▁실수	-9.6464
▁덜	-9.64659
▁PC	-9.64807
▁손잡이	-9.64817
▁골프	-9.64885
▁저장	-9.64891
전	-9.64932
▁배달	-9.6503
▁많아	-9.6504
▁테스트를	-9.65095
▁천천히	-9.65158
▁질문	-9.65327
▁보내주세요	-9.65356
▁생활	-9.65379
▁좋고	-9.65487
▁사전	-9.65541
▁밥	-9.65547
드리고자	-9.6559
▁포함한	-9.65642
▁오픈	-9.65668
▁기반으로	-9.65677
가요	-9.65729
▁분들은	-9.65827
▁포함	-9.65878
▁위치한	-9.65925
▁발전	-9.65962
▁의료	-9.65985
▁그렇기	-9.66
▁알려드리겠습니다	-9.66143
하기로	-9.66172
▁사항에	-9.6623
하는데	-9.66254
▁자전거	-9.6626
▁제안서	-9.66327
▁픽업	-9.664
▁도와드리겠습니다	-9.66401
▁정	-9.6641
▁화장품	-9.66463
▁노래	-9.66538
▁매출	-9.66564
▁따른	-9.66667
▁멋진	-9.66673
▁믿습니다	-9.66673
이면	-9.66719
▁가입	-9.66796
명이	-9.66883
▁누구	-9.66887
▁것과	-9.6689
▁즐거운	-9.66951
▁점을	-9.67163
▁세탁	-9.6717
▁요리를	-9.67205
▁인쇄	-9.67285
▁이것을	-9.67433
▁설정	-9.67455
▁일본	-9.675
▁용품	-9.67507
▁했어	-9.6751
▁정확하게	-9.67515
▁포함됩니다	-9.67543
▁써	-9.67563
▁별로	-9.67646
▁사람을	-9.67715
화	-9.67726
▁그럼요	-9.67782
▁거는	-9.67839
▁제조업체	-9.67875
했어요	-9.67953
▁기한	-9.68021
란	-9.68058
▁근처에	-9.68074
▁않게	-9.68212
▁노트북	-9.68265
▁LED	-9.68367
라면	-9.68376
▁모터	-9.68618
하셔야	-9.68665
▁가스	-9.68671
▁계약서에	-9.68694
▁너는	-9.68746
▁19	-9.68753
▁냄새	-9.68789
▁거기	-9.68913
▁불	-9.68944
▁예정	-9.69009
▁어린이	-9.69056
▁생산하는	-9.6914
▁대출	-9.69178
▁바탕으로	-9.69213
▁수리	-9.69215
▁시험	-9.69243
▁공급업체	-9.69307
▁주소를	-9.6938
▁범위	-9.69398
▁들	-9.6946
▁강화	-9.69482
일부터	-9.69532
▁음성	-9.69609
▁성과	-9.69626
▁주의	-9.69761
▁하신	-9.69773
▁누구나	-9.69851
▁앉아	-9.69946
▁당	-9.69958
▁조사	-9.69976
▁얘	-9.70031
▁걸릴	-9.70057
▁아유	-9.70066
▁저렇게	-9.7012
▁그렇습니다	-9.70191
▁모르겠습니다	-9.70194
▁전문가	-9.70228
건	-9.70241
▁고기	-9.70255
▁장	-9.70285
▁부드럽게	-9.70351
▁지원합니다	-9.70366
▁공식	-9.70408
▁여기는	-9.7048
하시고	-9.70508
▁단지	-9.70549
▁알려주십시오	-9.70794
▁이벤트	-9.70891
▁인테리어	-9.7092
▁가고	-9.70922
▁근무	-9.7093
▁반응	-9.70971
▁달리	-9.70993
드	-9.71019
▁하셨습니다	-9.71141
▁영어	-9.7116
▁렌즈	-9.71167
▁사업에	-9.71178
▁풀	-9.7119
S	-9.71206
▁구성	-9.71243
▁마감	-9.71292
▁괜찮은	-9.71448
한다는	-9.71727
▁세척	-9.71769
시까지	-9.71789
▁나의	-9.71842
▁14	-9.71912
▁주셔야	-9.71954
▁보고서	-9.7197
주셨으면	-9.72034
▁재석이	-9.72078
▁쉽고	-9.72114
▁면	-9.72133
▁확인을	-9.72168
▁준비되어	-9.72287
▁특별	-9.72311
▁그러니	-9.72375
▁들고	-9.72418
▁버튼을	-9.72435
▁음식이	-9.72453
▁이틀	-9.72476
▁조리	-9.72638
▁오신	-9.7267
▁가능하십니다	-9.72689
▁학교	-9.72694
▁기술로	-9.72725
▁청구서	-9.72783
하셨습니다	-9.72813
▁팔	-9.72827
▁내용이	-9.72853
▁괜찮아요	-9.72929
▁전략	-9.72939
▁맞춤형	-9.72946
▁스포츠	-9.73032
▁왔다	-9.73038
BBB	-9.73088
▁온라인으로	-9.73096
s	-9.73122
▁기술력	-9.73135
▁향후	-9.7314
▁종국이	-9.73298
▁사이에	-9.73348
▁제거	-9.73367
▁광고를	-9.73435
▁분명	-9.73661
▁발표	-9.73807
▁아마도	-9.73819
▁인원	-9.73845
▁일상	-9.73846
▁맛있어	-9.73877
▁인사	-9.73935
▁귀사께서	-9.73967
▁결국	-9.74034
▁것이라	-9.74098
▁라인	-9.74104
▁나라	-9.74125
▁가공	-9.74147
▁방법	-9.74171
▁상태입니다	-9.74272
한다고	-9.74314
▁따뜻한	-9.74325
▁대해서도	-9.74375
이니	-9.74445
▁아는	-9.74453
▁증가	-9.74491
▁오는	-9.74504
▁화학	-9.74519
▁합리적인	-9.7459
▁스틸	-9.74614
▁구	-9.74645
▁능력	-9.74654
▁곳이	-9.74696
▁추천합니다	-9.74704
▁봐봐	-9.74771
▁요금	-9.74805
▁가상	-9.74815
▁자금	-9.74886
▁정부	-9.74887
▁초	-9.74972
▁고객님이	-9.75105
▁힘든	-9.75109
▁주시겠습니까	-9.75204
▁뭐예요	-9.75208
▁유럽	-9.7523
▁운영하고	-9.75273
▁고무	-9.75405
▁마시고	-9.75445
▁그렇군요	-9.7552
▁숙박	-9.75571
한다	-9.75675
▁이유가	-9.757
▁최상	-9.75745
▁높이	-9.75786
▁인간	-9.75795
▁일정에	-9.75836
▁한다는	-9.75872
제	-9.76013
▁장기	-9.7605
▁구매해	-9.76083
▁인상	-9.76149
▁하나는	-9.76179
▁하세요	-9.7621
▁세미나	-9.76213
▁거기에	-9.76238
▁하면서	-9.76305
▁물류	-9.76336
▁업그레이드	-9.76395
▁하는데요	-9.76409
▁있음	-9.76547
▁패드	-9.76631
▁아침에	-9.76677
▁않아도	-9.76682
▁주시는	-9.76805
▁일반적인	-9.76818
▁가야	-9.76992
▁언어	-9.7701
▁CCTV	-9.77047
▁김	-9.77118
▁영양	-9.77144
▁초대	-9.77175
더	-9.77249
▁같은데요	-9.77273
▁텐데	-9.77366
▁재료를	-9.77367
▁사람은	-9.77405
▁활동	-9.77462
▁팀이	-9.77501
▁높습니다	-9.7751
팀	-9.77553
▁업계	-9.77577
▁받게	-9.77592
▁홈	-9.77593
▁재생	-9.7775
냐	-9.77783
다는	-9.77802
▁정답	-9.77808
▁중에서	-9.77841
▁손상	-9.77856
▁반려동물	-9.77921
▁비행기	-9.7803
음을	-9.78073
▁것보다	-9.78106
▁입력	-9.7812
▁말씀하신	-9.7814
소	-9.78188
▁홈페이지에서	-9.78282
▁5%	-9.78379
▁소비자	-9.7839
▁제안에	-9.78408
▁모두에게	-9.78596
▁갖춘	-9.78599
▁얼마인가요	-9.7863
가지고	-9.78633
▁투자를	-9.78653
▁해외에서	-9.78679
▁둘이	-9.78719
▁도매로	-9.78755
▁싶지	-9.78758
▁원하신다면	-9.78765
▁편리한	-9.78806
▁연구를	-9.78855
▁배송비	-9.78859
▁섬유	-9.78861
▁통한	-9.78872
▁피해	-9.7907
▁금속	-9.79121
▁있을지	-9.79193
▁동영상	-9.79246
▁된다면	-9.79254
▁가능하다면	-9.794
▁치즈	-9.79425
▁기대하고	-9.7946
▁듯	-9.79464
▁물질	-9.79473
▁요소	-9.79475
▁재	-9.79502
▁편리하게	-9.79552
▁사이	-9.79558
▁시작할	-9.79561
▁냉장고	-9.79589
시부터	-9.79673
▁안녕	-9.79808
▁통화	-9.79815
러	-9.79837
▁품목	-9.79884
▁주소	-9.7999
▁제공하기	-9.79998
▁생긴	-9.80061
▁성공	-9.80061
▁자꾸	-9.80181
▁외에도	-9.80247
▁미국에서	-9.80364
면서	-9.8037
▁핵심	-9.80427
▁감사드리며	-9.80499
▁얼마입니까	-9.80508
▁메모리	-9.80508
▁된다	-9.80564
▁인식	-9.80571
▁잡고	-9.80586
▁스마트폰	-9.80708
▁만	-9.80723
▁점은	-9.80746
▁백	-9.80817
▁신	-9.80828
▁노력하고	-9.80877
▁공장을	-9.80951
▁아이디어를	-9.80983
▁태양	-9.81105
▁소식	-9.81146
▁저번에	-9.81252
▁보관할	-9.81266
▁사용되는	-9.81354
비	-9.81354
해주시면	-9.81516
▁입	-9.81524
▁신규	-9.81569
살	-9.81574
▁불구하고	-9.81615
▁서비스는	-9.81649
▁낼	-9.81663
▁개발에	-9.81804
▁그래픽	-9.81883
▁했던	-9.81944
만큼	-9.81954
▁함유	-9.82013
▁주셨으면	-9.82034
▁잠시	-9.82064
FFF	-9.8207
▁정말로	-9.82106
▁국가	-9.82118
▁추천드립니다	-9.82123
▁저와	-9.82194
▁보이는	-9.82198
▁심지어	-9.82263
▁주문해	-9.8227
▁액세서리	-9.82311
▁경제	-9.82352
▁상	-9.82355
▁물량	-9.82377
▁오일	-9.8241
▁차단	-9.82423
▁연료	-9.82516
▁보내드릴	-9.82518
▁알리	-9.82544
▁할인이	-9.82568
▁활용	-9.82618
▁하나입니다	-9.82699
치	-9.8272
▁결혼	-9.82735
▁뵙겠습니다	-9.8275
▁경쟁력	-9.82847
▁산	-9.82854
▁느낌을	-9.82856
▁완벽하게	-9.82941
위	-9.82945
▁제발	-9.8301
▁진행될	-9.83012
▁오디오	-9.83067
▁특수	-9.83151
▁가능한지	-9.83164
▁뭐라고	-9.83179
▁별	-9.8318
▁주문했습니다	-9.83192
▁월	-9.83224
▁13	-9.83297
▁표면	-9.83315
▁되는지	-9.83335
▁소스	-9.83341
▁기간은	-9.83352
▁급한	-9.83358
▁보장합니다	-9.83362
▁아이들이	-9.83368
▁종이	-9.83393
▁영수증	-9.83417
▁나를	-9.83429
▁느낌	-9.83485
▁옷	-9.83575
▁지역에	-9.83589
▁이제는	-9.8362
▁쓰고	-9.83624
▁대한민국	-9.83633
▁광수	-9.83672
5	-9.83678
▁대상으로	-9.83708
▁유감입니다	-9.83806
▁16	-9.83823
▁금액은	-9.83825
▁식물	-9.83848
군요	-9.83862
▁글을	-9.83865
▁됐다	-9.83873
▁노력하겠습니다	-9.83916
▁추적	-9.84062
▁며칠	-9.84073
▁판매를	-9.84133
▁성분이	-9.84135
시면	-9.8417
▁일로	-9.84211
▁채널	-9.84299
▁스트리밍	-9.84397
▁블루투스	-9.84475
▁등에	-9.84492
▁없다는	-9.84542
▁바쁜	-9.84546
▁세련	-9.84578
▁작품	-9.84595
▁영업사원	-9.84599
▁일은	-9.84608
▁어쩔	-9.84643
▁외에	-9.84771
산	-9.84787
구	-9.84803
▁작업이	-9.84812
▁실험	-9.84818
▁출고	-9.84861
▁거리	-9.8493
▁외	-9.84984
▁화물	-9.85004
하	-9.85172
▁상태로	-9.85187
▁앞서	-9.85213
▁보증금	-9.85215
▁드론	-9.85344
▁지급	-9.85382
▁곳에서	-9.85387
▁회의에	-9.85437
▁전력	-9.85454
▁보내주실	-9.85502
▁제시	-9.85544
▁출시된	-9.85563
▁알지	-9.85602
▁기준으로	-9.85606
▁않아서	-9.85641
▁소음	-9.85751
▁연구소	-9.85757
▁만나서	-9.85826
▁만약에	-9.85839
▁귀	-9.85886
▁쓰는	-9.85942
▁휴대	-9.85944
▁분은	-9.85975
▁스타일	-9.8602
해요	-9.86174
▁다리	-9.86187
▁지효	-9.86255
줄	-9.86272
▁어디서	-9.86286
▁내년	-9.86388
▁일찍	-9.86402
▁경우가	-9.86429
▁그다음에	-9.86477
▁때도	-9.86481
▁지역에서	-9.86543
▁무	-9.86623
▁지속적으로	-9.8664
▁신발	-9.86656
이죠	-9.86676
▁연기	-9.86831
▁구독	-9.86926
▁만에	-9.8693
됐습니다	-9.8695
▁액세스	-9.8708
▁20%	-9.87097
▁급하게	-9.87113
▁보	-9.87207
트	-9.87209
▁성공적으로	-9.87272
▁같아서	-9.87277
▁만들기	-9.87322
▁물론입니다	-9.87342
▁그것	-9.87391
▁즉	-9.87391
▁몰라	-9.87394
데요	-9.8742
▁편리합니다	-9.8743
▁유지합니다	-9.87441
▁계약서를	-9.87449
▁마음	-9.87525
▁책을	-9.8754
▁않으셔	-9.87588
▁자유롭게	-9.87599
▁박스	-9.87629
▁냄새가	-9.87645
▁저게	-9.87647
▁패키지	-9.87948
▁안내해	-9.87987
▁양식	-9.87997
▁상자	-9.88032
▁사람들에게	-9.88039
▁드릴까요	-9.88078
▁쿠폰	-9.88213
별	-9.88222
없이	-9.88232
▁확인하실	-9.88234
▁부족한	-9.8829
▁팀은	-9.8833
▁IT	-9.88338
▁약속	-9.88373
▁유명	-9.88446
▁부	-9.88482
▁품질이	-9.88718
▁잘한다	-9.88763
▁제품들이	-9.88801
▁도와	-9.88884
▁주행	-9.88921
▁못할	-9.88981
지는	-9.88994
▁안심하고	-9.89009
▁미	-9.89062
▁클래식	-9.89176
▁갑니다	-9.89182
▁생산하고	-9.89206
고요	-9.89246
인가	-9.89277
▁기존에	-9.89355
▁자재	-9.89462
▁계좌	-9.89519
▁내역	-9.89533
▁코팅	-9.89566
▁늦게	-9.89585
▁계신가요	-9.89686
▁독특한	-9.89715
▁오케이	-9.89844
▁원하십니까	-9.8985
▁마십시오	-9.89852
▁하나를	-9.89906
▁이익을	-9.89977
▁사실은	-9.90023
▁테이블	-9.90035
▁결과가	-9.90051
▁구매하실	-9.90091
▁선물	-9.90133
▁차이	-9.90186
▁의류	-9.90237
▁시리즈	-9.90261
▁콘텐츠를	-9.90299
▁들어가는	-9.90306
▁이미지를	-9.90309
▁사운드	-9.9031
▁사용하세요	-9.90325
▁차로	-9.90401
▁가능성이	-9.90408
▁약속을	-9.90408
▁향	-9.90437
명의	-9.90444
▁단순	-9.90487
▁방법은	-9.90502
▁유리	-9.90532
▁의미	-9.90533
▁세계적으로	-9.90612
▁의향이	-9.90665
▁협조	-9.9073
▁향이	-9.90788
▁처음에	-9.90889
▁정밀	-9.90897
▁오히려	-9.90897
▁주차	-9.90963
▁감지	-9.91039
▁시스템이	-9.91056
▁너무나	-9.911
▁출시한	-9.91103
하다	-9.91271
온	-9.91368
▁보낸	-9.91412
▁판매합니다	-9.9142
▁가방	-9.91494
▁답장	-9.91497
▁치아	-9.91573
▁소	-9.91586
▁싶어서	-9.91603
▁깊이	-9.91604
▁탁월한	-9.91622
▁언제쯤	-9.91623
▁계정	-9.91697
▁고민	-9.91769
▁노력	-9.91938
▁어려움	-9.91949
▁연간	-9.91966
사에서	-9.91983
▁자극	-9.92041
▁계약이	-9.92043
▁먹으면	-9.92067
단계	-9.9208
▁소개하게	-9.92111
▁봅니다	-9.92118
▁알루미늄	-9.92133
▁피	-9.92148
보다는	-9.92159
▁깨끗한	-9.92173
더라고요	-9.92192
▁발생할	-9.92199
▁못해	-9.92239
▁헤어	-9.92249
▁C	-9.92264
▁건축	-9.92268
▁손으로	-9.92278
▁방문해	-9.92358
▁그것도	-9.92371
▁스스로	-9.92501
▁신호	-9.9254
▁남은	-9.92549
▁인하	-9.92635
▁도시	-9.92702
▁서	-9.92705
▁기본적으로	-9.92711
▁과일	-9.92818
▁S	-9.92824
다면	-9.9287
로서	-9.92909
▁술	-9.92922
▁옆에	-9.92957
▁맛있다	-9.93028
▁왔어	-9.93059
▁예산	-9.9308
▁이유로	-9.93117
▁부분	-9.93131
▁힘	-9.93205
▁금액이	-9.93207
▁자리에	-9.93211
▁발생한	-9.93238
▁주식	-9.93356
▁있잖아요	-9.93504
▁선수	-9.93552
▁장점이	-9.93561
▁겨울	-9.93594
씩	-9.936
▁휴대용	-9.93607
▁부착	-9.9369
▁다들	-9.93712
▁수요	-9.93712
▁충격	-9.93787
▁물이	-9.93841
▁해주시면	-9.93926
▁보기	-9.94105
▁아름다운	-9.94132
▁가볍고	-9.94167
▁호텔에서	-9.94192
▁달려	-9.9423
▁하니까	-9.94349
사는	-9.94351
인치	-9.94418
▁예약해	-9.94444
▁신선한	-9.94534
하시나요	-9.94559
▁있네	-9.94576
▁고려해	-9.94615
▁젊은	-9.94634
▁드디어	-9.94681
▁구축	-9.94683
▁외국	-9.94715
▁생각보다	-9.94774
▁일하고	-9.94808
▁어디에	-9.94856
▁설명서	-9.95098
▁번만	-9.95149
▁수수료	-9.95164
했을	-9.95169
다가	-9.95241
▁형은	-9.95262
▁프로	-9.95316
▁개발을	-9.95336
▁조직	-9.95367
▁가능할	-9.9539
▁반품	-9.95414
▁구매하신	-9.95439
▁안타깝게도	-9.95469
▁가질	-9.95478
▁모두가	-9.95479
▁하죠	-9.95526
별로	-9.95554
▁녹음	-9.95565
▁직원들이	-9.95582
▁시트	-9.95674
▁업무에	-9.95692
▁씨는	-9.95704
▁관련해서	-9.95774
▁아무것도	-9.9579
▁여행을	-9.95902
▁구매한	-9.95906
▁파트너	-9.9601
▁사랑	-9.96184
▁시스템은	-9.96195
▁잘못된	-9.96213
▁목	-9.96238
제품	-9.96313
▁진출	-9.96336
▁호텔에	-9.96345
▁소민아	-9.9635
드리겠습니다	-9.96448
▁평균	-9.96509
▁신뢰할	-9.96514
▁많아서	-9.96514
▁쪽	-9.96545
▁신용장	-9.9664
▁왜요	-9.96698
▁모델을	-9.96722
▁바라며	-9.96733
▁현장	-9.96838
▁알아야	-9.96863
▁나올	-9.97015
▁밤	-9.97051
▁팬	-9.97103
▁꾸준히	-9.9711
▁저한테	-9.97118
▁색	-9.97173
▁목적	-9.97191
했다고	-9.97302
▁해주세요	-9.97329
▁서버	-9.97418
▁아이들	-9.97468
▁재료	-9.97568
▁확	-9.97586
▁아이디어	-9.976
년이	-9.97631
▁회전	-9.97652
▁다름이	-9.9773
되기	-9.97751
▁중으로	-9.97793
▁주문서	-9.97831
▁정도면	-9.97866
▁속도를	-9.97867
▁병원	-9.97903
▁하는지	-9.97911
▁있잖아	-9.97938
▁수량은	-9.97992
▁자리	-9.98007
▁드라마	-9.98033
▁월요일	-9.98069
▁당장	-9.98083
▁초기	-9.98096
래	-9.98139
런	-9.98212
▁의사	-9.98267
▁아빠	-9.98332
▁감소	-9.98383
▁이메일에	-9.98423
▁가격도	-9.98508
▁소중한	-9.98508
▁개당	-9.98558
▁자산	-9.98577
▁뚜껑	-9.98596
▁이유	-9.98601
▁USB	-9.98614
▁발생하는	-9.9868
▁사용됩니다	-9.98739
▁공사	-9.98816
▁수술	-9.9888
▁되도록	-9.98883
▁있고요	-9.98905
▁시스템에	-9.98915
▁명이	-9.99008
▁원료	-9.99038
▁고객님들께	-9.99109
▁그날	-9.99126
▁이사	-9.99139
▁카페	-9.99155
이요	-9.99206
▁파	-9.99257
▁방문할	-9.99355
▁보냈습니다	-9.99393
▁편집	-9.994
▁예약이	-9.99403
▁거라	-9.99498
▁센터	-9.99543
▁출발	-9.99547
▁드리게	-9.99661
▁말할	-9.99681
▁유지할	-9.99713
▁측	-9.9982
▁발견	-9.99832
▁아닌데	-9.99898
▁노력을	-9.99941
▁짧은	-9.9996
L	-9.99992
▁매운	-10.0001
▁주문할	-10.0004
▁사전에	-10.0006
▁사본	-10.0011
▁대박이다	-10.0019
▁가득	-10.002
▁소형	-10.002
것	-10.0021
▁살고	-10.0022
▁필수	-10.003
▁하나만	-10.0031
▁집이	-10.0037
▁말에	-10.0038
▁관광	-10.0042
▁택배	-10.0046
▁기억	-10.0053
▁첫째	-10.0059
▁안정성	-10.0063
▁북미	-10.0066
▁미팅이	-10.0072
▁됐습니다	-10.0072
▁애플리케이션	-10.0073
▁검토해	-10.0075
▁장착	-10.0079
▁대기	-10.0081
▁아웃	-10.0093
▁것인지	-10.0096
▁오시면	-10.0096
▁여기가	-10.0102
▁화이트	-10.0107
▁이거를	-10.0112
▁출력	-10.0126
▁놀라운	-10.0133
▁어떠한	-10.0137
▁1000	-10.014
▁알려져	-10.0148
▁관리할	-10.0151
▁핏	-10.0157
▁여러분이	-10.0159
▁크림	-10.0163
▁이름을	-10.0173
▁하니	-10.0174
▁나한테	-10.0179
▁도매상	-10.0182
▁지불을	-10.0182
▁색상이	-10.0184
▁시장을	-10.0187
세트	-10.0187
▁되겠습니다	-10.0193
▁진행하는	-10.0199
▁작년	-10.0199
▁고양이	-10.021
▁몸에	-10.0211
▁손쉽	-10.0211
▁공항	-10.0214
▁공동	-10.0215
▁그렇지만	-10.0219
▁측에서	-10.023
▁전합니다	-10.0231
▁도울	-10.0231
들과	-10.0242
▁혜택을	-10.0243
▁일할	-10.025
▁주셨습니다	-10.0251
▁편의	-10.0252
물	-10.0256
▁룸	-10.0263
▁미니	-10.0266
▁종류	-10.0271
▁담당자님	-10.0277
▁와인	-10.0287
▁허리	-10.0298
▁저런	-10.03
▁프로세스	-10.0308
▁줘	-10.031
▁재활용	-10.0312
▁물에	-10.0313
▁잊지	-10.0315
▁고려	-10.0319
보도록	-10.0319
▁도와드릴	-10.0331
▁싶은데요	-10.0332
▁얘기해	-10.0334
동	-10.0336
▁실리콘	-10.0338
▁나무	-10.034
▁돈이	-10.0345
▁확인이	-10.0346
하셔도	-10.0347
▁150	-10.0351
▁사용한	-10.0354
▁우려	-10.0355
▁제작된	-10.0357
▁편	-10.0359
조	-10.036
▁질문을	-10.0363
▁기대	-10.0364
▁맞지	-10.0365
했으면	-10.0365
▁구체적	-10.037
▁진행해	-10.0374
▁과학	-10.0375
▁시기	-10.0384
▁선	-10.0389
▁손을	-10.0391
▁여기에서	-10.0395
▁방지합니다	-10.0401
▁발주	-10.0407
▁불만	-10.041
▁이것도	-10.041
▁믿을	-10.0411
▁그들에게	-10.0412
▁개별	-10.0413
▁실행	-10.0415
▁예상됩니다	-10.0416
▁받기	-10.0417
▁활동을	-10.0421
▁도구	-10.0422
▁뒤로	-10.0424
▁조만간	-10.0431
▁아무리	-10.0433
▁어떨까요	-10.0435
▁매년	-10.0439
▁노	-10.0439
▁이용하실	-10.044
▁사람들을	-10.0441
▁한국으로	-10.0448
▁시작했습니다	-10.0449
미	-10.0449
▁모니터	-10.0451
▁싶었습니다	-10.0452
▁다르게	-10.0453
▁거기서	-10.0458
▁그것들	-10.0467
▁집중	-10.0472
▁받아야	-10.0472
▁바이러스	-10.0473
▁이용하여	-10.0487
▁필요하지	-10.049
▁만들어졌습니다	-10.0494
▁합니까	-10.0497
▁세포	-10.0502
▁영광입니다	-10.0505
▁문의해	-10.0505
▁음식점	-10.0508
▁책상	-10.051
▁초콜릿	-10.0511
▁실시간	-10.0516
▁모	-10.0528
▁표시	-10.0529
▁첨단	-10.053
▁엄청난	-10.0533
▁쉽습니다	-10.0534
▁거리에	-10.0536
▁해결해	-10.0536
▁디자인과	-10.0539
만원	-10.0541
▁환경에서	-10.0544
▁도전	-10.0552
▁되	-10.0555
▁진단	-10.056
▁단백질	-10.0561
▁헤드	-10.0568
▁오세요	-10.0568
▁가끔	-10.0574
▁기꺼이	-10.0574
▁맞나요	-10.0575
▁관리를	-10.0578
▁사용자가	-10.0579
▁불량	-10.058
▁같다	-10.0581
▁거래처	-10.0584
▁진짜요	-10.0586
▁있으니까	-10.0586
▁점검	-10.0607
▁색상은	-10.061
▁기능은	-10.061
▁있던	-10.0613
▁키	-10.0621
▁실패	-10.0624
▁있으므로	-10.0636
▁하나로	-10.0637
▁소민이	-10.064
▁쪽에서	-10.0641
▁있었어요	-10.0643
▁문	-10.0645
▁갔다	-10.0647
▁상황	-10.0647
▁가치가	-10.0649
▁필요로	-10.0657
▁수량이	-10.0659
▁기간이	-10.0662
▁오셔서	-10.0663
▁기획	-10.0669
▁협상	-10.0675
▁수요일	-10.0678
▁없는데	-10.0678
▁브랜드를	-10.0679
▁착오	-10.0679
▁빛	-10.0681
▁이중	-10.0684
▁남자	-10.0686
▁효율적인	-10.0687
▁옷을	-10.0691
이므로	-10.0692
▁주소로	-10.0695
▁올려	-10.0701
▁아기	-10.0711
▁내려	-10.0721
▁균형	-10.0723
▁보호합니다	-10.0725
▁분리	-10.0726
▁지점	-10.073
시킵니다	-10.0745
▁원두	-10.0749
▁멋있다	-10.0752
▁비싼	-10.0754
보	-10.0754
▁들을	-10.0761
▁금융	-10.0767
▁이와	-10.0781
▁조건에	-10.0783
▁여성	-10.0784
▁뉴스	-10.0784
▁나가	-10.0796
&	-10.0799
▁안정적인	-10.08
▁평생	-10.0802
▁유	-10.0808
▁준	-10.0809
▁생각했습니다	-10.0818
▁김종국	-10.0819
▁수밖에	-10.082
▁색상으로	-10.0824
▁예방	-10.0825
▁오랜만에	-10.0826
▁힘들	-10.0829
▁테니	-10.0831
▁방법에	-10.0836
우	-10.0841
▁그것들을	-10.0843
구요	-10.0848
▁선배님	-10.0862
▁형태로	-10.0867
▁단체	-10.087
▁처리할	-10.0871
▁최초	-10.0874
▁상품입니다	-10.0881
▁앞	-10.0884
▁순간	-10.0884
▁마늘	-10.0896
▁된다고	-10.0898
▁사양	-10.0898
▁해결할	-10.09
했는데	-10.0913
▁병	-10.0924
▁맞춤	-10.0925
▁타고	-10.0927
▁실시간으로	-10.0928
▁일에	-10.0928
▁수령	-10.0932
▁잘했어	-10.0934
▁홈페이지에	-10.0936
▁수익을	-10.0937
▁곳으로	-10.0945
▁필요하신	-10.0946
▁시대	-10.0946
▁기기를	-10.0947
▁개인적으로	-10.0955
▁운전	-10.0956
▁웹사이트에서	-10.096
▁그거는	-10.0972
▁납부	-10.0973
▁모르는	-10.0974
▁문제로	-10.0977
▁끝	-10.0981
▁받아볼	-10.0982
▁무엇인지	-10.0994
▁주말	-10.0995
▁마음으로	-10.0996
▁지내고	-10.0996
▁살아	-10.0996
▁도착하지	-10.1001
▁기능으로	-10.1006
▁맛있어요	-10.1008
▁일단은	-10.1008
▁페이지	-10.1017
▁유기농	-10.1019
▁안으로	-10.102
회사의	-10.1023
▁80	-10.1024
용으로	-10.1025
▁백신	-10.1026
▁마이크	-10.1028
▁착용감	-10.103
▁냉동	-10.103
▁드리지	-10.103
▁미래	-10.1034
▁회복	-10.1035
▁조사를	-10.1036
▁있으신	-10.1041
▁지정	-10.1042
▁있었는데	-10.1047
▁전액	-10.1057
▁차를	-10.1061
▁가능하며	-10.1062
▁기분이	-10.1063
▁더불어	-10.1072
▁패션	-10.1074
▁드시면	-10.1076
▁키트	-10.1084
▁듭니다	-10.1094
▁호환	-10.1095
▁다운로드	-10.1095
▁나오면	-10.1095
▁좋아합니다	-10.1096
▁계획이	-10.1097
▁일하는	-10.1098
▁대표님	-10.1099
▁피자	-10.11
▁씁니다	-10.1106
▁문의드립니다	-10.111
▁오후에	-10.1116
져	-10.1119
▁처리해	-10.1119
▁인공지능	-10.1121
▁깔끔한	-10.1126
▁지금부터	-10.1131
▁상의	-10.1133
▁시계	-10.1134
▁내내	-10.1138
▁공개	-10.1138
▁에이	-10.1139
▁별도로	-10.1163
▁없도록	-10.1166
▁보조	-10.1166
▁할지	-10.1168
▁샴푸	-10.1168
▁달라고	-10.1176
▁만들어진	-10.1178
▁봐야	-10.1181
▁회의가	-10.1189
▁메시지를	-10.1193
▁인정	-10.1193
▁확보	-10.1208
▁어차피	-10.1209
▁드라이브	-10.1209
▁팬츠	-10.121
▁전송	-10.1211
▁지불할	-10.1215
습니까	-10.1215
▁사용을	-10.1222
▁남성용	-10.1223
▁들어간	-10.1224
▁금방	-10.1231
▁때문이다	-10.1232
▁깔끔하게	-10.1232
▁자체가	-10.1233
▁암	-10.1234
▁김치	-10.1235
▁반려견	-10.124
▁생일	-10.1245
▁결정했습니다	-10.1245
▁고대	-10.1251
▁2021	-10.1254
▁선사합니다	-10.1256
▁상승	-10.1258
▁분야에	-10.1262
▁문자	-10.1266
▁고맙습니다	-10.1275
▁워낙	-10.1275
▁되세요	-10.1276
들도	-10.128
▁테이프	-10.1285
▁인형	-10.1289
▁매트	-10.1293
▁신속	-10.1295
▁30%	-10.1299
▁바입니다	-10.1301
▁남아	-10.1305
계	-10.1305
▁보험료	-10.1312
▁야외	-10.1312
▁찍어	-10.1313
▁그룹	-10.1319
▁간단하게	-10.132
▁50%	-10.1322
▁버튼	-10.1325
▁대략	-10.1328
▁정보는	-10.1336
▁회사로	-10.1336
▁캠핑	-10.1339
▁할인해	-10.1339
▁다해	-10.1345
▁종료	-10.1346
▁당일	-10.135
▁공장에서	-10.1355
▁이해합니다	-10.1357
▁못하고	-10.1359
A	-10.1359
▁진	-10.1362
▁진행하기	-10.1365
▁파악	-10.1365
▁좋겠어요	-10.1366
▁하도록	-10.1372
▁목요일	-10.1378
▁프린터	-10.1379
들에게	-10.1385
▁계시는	-10.1385
▁시간과	-10.1385
▁깨끗하게	-10.1387
▁17	-10.1393
▁잘해	-10.1399
▁오염	-10.1404
▁스트랩	-10.1408
▁계십니다	-10.1408
▁질	-10.1416
▁저녁에	-10.1417
▁오래된	-10.1421
▁아침입니다	-10.1422
▁흰색	-10.1423
▁도움	-10.1428
▁있으실	-10.1434
▁나왔습니다	-10.1435
▁전환	-10.1435
▁환경에	-10.1435
▁분들도	-10.1438
▁아시아	-10.1441
▁모델은	-10.1441
▁둘째	-10.1446
▁깜짝	-10.1452
▁의뢰	-10.1454
▁지지	-10.1455
겠다	-10.1462
▁사람의	-10.1467
▁설정할	-10.1472
▁경우는	-10.1475
▁검사를	-10.1475
▁큽니다	-10.1475
▁다섯	-10.1475
하나요	-10.1475
월에	-10.1476
▁이름	-10.1481
▁사이즈는	-10.1485
▁실수로	-10.1485
▁의미합니다	-10.1487
▁라면	-10.1488
▁비교	-10.149
▁중간	-10.1491
▁400	-10.1495
▁무역	-10.1496
▁종일	-10.1499
▁그만큼	-10.1505
▁몇몇	-10.151
▁개를	-10.1513
▁건에	-10.152
▁점심	-10.1521
▁들어갈	-10.1523
6	-10.1527
▁얘가	-10.1528
▁키보드	-10.153
▁접수	-10.1531
▁처음에는	-10.1531
▁정리	-10.1539
▁쭉	-10.1542
▁수면	-10.1543
·	-10.1543
▁있거든요	-10.1544
급	-10.1546
▁등급	-10.1547
▁생각하는	-10.1549
▁돌려	-10.1552
▁없으면	-10.1555
했고	-10.1555
▁힘을	-10.156
▁방법입니다	-10.1567
▁모니터링	-10.1572
마	-10.1573
▁발생하지	-10.1574
▁분들께	-10.158
▁흡수	-10.158
▁K	-10.1589
▁조립	-10.159
▁장소	-10.1596
▁생각됩니다	-10.1597
▁할까요	-10.16
▁채워	-10.16
▁축하	-10.1604
▁마우스	-10.1606
▁하시고	-10.1608
▁정도의	-10.161
▁자동화	-10.1621
▁메뉴를	-10.1622
▁마스크	-10.1628
▁괜찮으시다면	-10.1633
▁식기	-10.1637
▁소통	-10.164
▁되죠	-10.1642
▁적극	-10.1646
▁마사지	-10.1647
▁기	-10.1647
▁토요일	-10.1648
십시오	-10.1648
▁걸립니다	-10.1659
▁조절이	-10.1664
▁외국인	-10.1664
내	-10.1669
▁장난감	-10.167
▁기대가	-10.1679
▁맛있겠다	-10.1679
▁사무실에	-10.1682
▁거고	-10.1683
▁감시	-10.1683
했어	-10.1687
▁재배	-10.1689
▁지불해야	-10.1698
▁문의사항이	-10.1709
지요	-10.171
▁방을	-10.1713
▁박람회	-10.1715
▁신용	-10.1715
▁당사에	-10.1715
▁당시	-10.1716
▁주변에	-10.1717
▁태블릿	-10.1717
▁설비	-10.1722
▁활용할	-10.1725
▁현대	-10.1726
▁털	-10.1732
▁명의	-10.1732
▁담아	-10.1733
▁절차를	-10.1741
▁사장님이	-10.1743
▁문을	-10.1748
▁내에서	-10.175
▁사회	-10.1753
▁브랜드가	-10.1756
▁타사	-10.1758
▁잔	-10.1769
▁물론이죠	-10.1775
▁천	-10.1785
▁오늘날	-10.1788
▁압니다	-10.1794
▁가정용	-10.1794
▁에어컨	-10.1797
▁보내주시기	-10.1797
▁이후에	-10.18
▁R	-10.1804
▁전해	-10.1806
▁점에	-10.1808
▁걱정이	-10.1808
▁욕실	-10.182
▁프로모션	-10.182
▁녹화	-10.1823
▁위하여	-10.1827
▁부동산을	-10.1829
▁안전하고	-10.1831
▁각자	-10.1832
▁인사를	-10.1833
▁압력	-10.1837
▁레이저	-10.1841
▁양세찬	-10.1841
▁대상	-10.1841
오	-10.1843
▁소개를	-10.1845
▁방이	-10.1847
▁학생들	-10.1852
▁내부에	-10.1858
▁코	-10.1863
▁상호	-10.1863
▁말씀드린	-10.187
▁들어서	-10.1873
▁세제	-10.1879
▁나쁜	-10.1887
라서	-10.1889
▁누군가	-10.1903
▁유해	-10.1906
▁조	-10.1907
▁강아지	-10.1908
▁원인	-10.1909
▁이유를	-10.1911
십니다	-10.1912
▁채팅	-10.1914
▁거래가	-10.1918
▁없기	-10.192
▁강도	-10.1921
▁매장에서	-10.1923
▁보내드린	-10.1931
7	-10.1932
▁프로그래밍	-10.1934
▁힘이	-10.1944
▁하신다면	-10.1946
▁가이드	-10.1952
▁기억이	-10.1953
▁꿈	-10.1956
▁자연스럽게	-10.1958
▁라디오	-10.1959
임을	-10.1962
많은	-10.1963
▁하나씩	-10.1964
▁모습을	-10.1964
▁물건이	-10.1969
▁본인	-10.1969
▁관리가	-10.1974
보세요	-10.1974
▁정신	-10.1976
▁독점	-10.1979
▁강철	-10.1981
▁쿠션	-10.1986
▁지식	-10.1988
▁관리자	-10.1989
▁인	-10.1997
▁시에	-10.2005
▁말하는	-10.2013
▁어울리는	-10.2013
▁오시는	-10.2013
정	-10.2014
▁당사에서	-10.2017
▁폼	-10.202
▁날짜가	-10.2029
▁질문에	-10.2031
▁경쟁	-10.2034
▁방법으로	-10.2036
▁생겨	-10.2038
종	-10.2038
▁달라	-10.2047
▁번도	-10.2047
▁좋게	-10.2049
▁효율적으로	-10.2055
▁못하는	-10.2071
▁직물	-10.2071
▁고객들이	-10.208
▁알아보고	-10.2087
게요	-10.2089
▁남	-10.2095
있습니다	-10.2096
▁캐릭터	-10.2097
▁사이즈가	-10.21
▁치약	-10.2104
▁터치	-10.2107
▁개발했습니다	-10.2111
▁화상	-10.2114
▁문의가	-10.2116
▁않을까	-10.2123
금	-10.2124
▁정도는	-10.2127
▁개발하고	-10.2134
▁무엇이	-10.2135
▁잠시만	-10.2136
▁설립	-10.2136
▁근처	-10.2136
▁대화	-10.2136
▁하네요	-10.2138
▁브랜드의	-10.2145
▁우편	-10.2146
▁생성	-10.2153
▁둔	-10.2158
때	-10.2162
▁됐어요	-10.2163
▁건지	-10.2164
▁보이지	-10.2164
▁나갈	-10.2166
▁납기	-10.2169
▁수행	-10.2169
하던	-10.217
▁적어도	-10.2173
▁반도체	-10.2174
▁제출	-10.2181
▁날짜에	-10.2186
▁조절할	-10.2193
▁요청에	-10.2194
▁체험	-10.2194
▁축하드립니다	-10.2197
▁가정	-10.2198
▁않나요	-10.2198
▁이후로	-10.2203
▁니트	-10.2208
시켜	-10.2212
▁미션	-10.2213
▁조작	-10.2215
지도	-10.2219
▁지도	-10.222
▁디자이너	-10.2222
▁여쭤봐	-10.2224
▁엔지니어	-10.2225
▁항공	-10.2231
▁협의	-10.2237
▁거에요	-10.2239
▁금요일에	-10.224
▁조식	-10.224
▁뛰어납니다	-10.2245
▁설치할	-10.2246
▁매니저	-10.2253
▁주말에	-10.2253
▁배송은	-10.2256
▁저번	-10.2265
▁에너지를	-10.2265
▁실	-10.2272
▁연락이	-10.2272
▁마이크로	-10.2274
▁품질과	-10.2276
▁고객들에게	-10.2281
▁그렇고	-10.2282
▁증가하고	-10.2284
▁이상이	-10.2291
▁장소를	-10.2294
▁유일한	-10.2296
▁행동	-10.2305
▁타입	-10.2305
▁팩스	-10.2307
▁방향	-10.2308
▁사용했습니다	-10.2314
▁토지	-10.2327
집	-10.2328
▁이해가	-10.2333
▁지켜	-10.2336
▁대학	-10.2339
▁어떠신가요	-10.2342
▁크기가	-10.2347
▁세탁기	-10.2354
▁합성	-10.2358
▁취소해야	-10.236
▁절차	-10.2361
▁타이어	-10.2364
▁고성능	-10.2366
▁만날	-10.2367
▁완성	-10.2367
▁예전에	-10.2375
▁화면	-10.2376
▁규정	-10.2378
▁중단	-10.2388
후	-10.2389
▁않는다	-10.239
▁의견	-10.2391
▁동의	-10.2393
본	-10.2393
▁메인	-10.2399
▁일자	-10.24
▁전달해	-10.2404
▁건강에	-10.2404
▁용량	-10.2407
▁인도	-10.2419
▁보내주십시오	-10.2419
▁적용됩니다	-10.2422
▁단골	-10.2422
호	-10.2425
▁글쎄	-10.243
함으로써	-10.2434
▁버전	-10.2436
▁고급스러운	-10.2441
▁회의에서	-10.2441
▁참조	-10.2445
▁것들이	-10.2446
▁예쁘다	-10.2447
▁캐나다	-10.245
▁응답	-10.245
▁팩	-10.2451
▁대체	-10.2452
▁드시는	-10.2452
간	-10.2454
▁체크	-10.2454
▁포인트	-10.2457
▁찾기	-10.2465
▁바라겠습니다	-10.2465
▁설계된	-10.2466
▁없나요	-10.2467
▁날씨	-10.2478
▁상품들	-10.248
▁울	-10.2484
▁선명	-10.2495
▁D	-10.2501
▁좋아할	-10.2502
▁디자인에	-10.2502
▁전문으로	-10.2503
▁위로	-10.2504
▁사료	-10.2504
▁분들에게	-10.2504
▁바디	-10.251
▁고품질의	-10.2514
▁연락주시기	-10.2515
▁소리가	-10.2517
▁여름	-10.253
▁리모델링	-10.2533
▁교육을	-10.2534
▁환불해	-10.2534
▁쪽으로	-10.2536
▁오전에	-10.2538
▁미래에	-10.2541
▁받습니다	-10.2547
▁바다	-10.2547
▁해야지	-10.255
▁사부님	-10.2552
▁기업이	-10.2558
▁생각입니다	-10.2562
▁용기	-10.2563
▁효과적으로	-10.2569
▁1,000	-10.257
▁이곳	-10.2571
시는	-10.2572
▁모자	-10.2574
관리	-10.2579
▁있었다	-10.2583
▁항목	-10.2588
▁여자	-10.2592
▁번역	-10.2593
▁플레이	-10.2599
▁번호로	-10.2603
▁인공	-10.2606
▁되어서	-10.2606
▁청구	-10.2606
▁많아요	-10.2609
▁지석진	-10.261
▁말해	-10.2612
▁화재	-10.2614
▁작업에	-10.2625
▁90	-10.2633
▁배우	-10.2634
▁파트너십	-10.264
▁간단히	-10.2641
▁소요됩니다	-10.2641
▁후에는	-10.2643
▁장점	-10.2643
▁수집	-10.2647
▁하며	-10.2648
더군요	-10.2652
울	-10.2657
거든	-10.266
▁참고로	-10.2662
▁종류가	-10.2668
▁공학	-10.267
▁작년에	-10.2672
▁여러분들	-10.2678
▁있네요	-10.268
▁피드백을	-10.2684
▁제작되어	-10.2686
드린	-10.2686
명을	-10.2686
▁잡을	-10.2687
▁놓고	-10.2688
▁역사	-10.2695
▁사이에서	-10.2701
▁영감을	-10.2702
▁연습	-10.2706
▁유전자	-10.271
▁그들을	-10.2715
▁CCC	-10.2716
▁참석할	-10.2718
▁좋은데	-10.2725
하셨던	-10.2733
이네	-10.2734
▁열어	-10.2734
▁지원을	-10.2735
▁진정	-10.2735
수록	-10.2739
▁닭	-10.274
▁있길	-10.2741
▁라벨	-10.2742
▁기쁘게	-10.2742
▁했다	-10.2746
▁케어	-10.2746
▁21	-10.2746
▁확정	-10.2748
▁가격과	-10.2749
▁스피커	-10.2751
▁선정	-10.2754
▁아니다	-10.2759
▁공지	-10.2761
▁호텔을	-10.2763
▁입장	-10.2767
▁자외선	-10.2768
▁가볍게	-10.2771
▁고객은	-10.2772
▁않는다면	-10.2774
▁예측	-10.2774
▁측면	-10.2775
▁음식은	-10.2779
▁해줍니다	-10.2781
▁잡지	-10.2784
▁요청한	-10.279
▁교재	-10.2794
▁친절하게	-10.2796
▁보내드렸습니다	-10.2798
▁목표	-10.2798
▁님	-10.2798
▁적당한	-10.2798
▁에어	-10.2799
▁회계	-10.2803
▁기업입니다	-10.2805
▁삶을	-10.2809
▁연락처를	-10.2811
▁특성	-10.2816
▁이어	-10.2819
▁끝에	-10.2829
▁할인된	-10.2831
▁신고	-10.2832
▁온도를	-10.2835
▁때가	-10.2837
▁초점	-10.2841
▁도입	-10.2841
▁마치	-10.2844
▁꽉	-10.2846
들에	-10.285
▁훈련	-10.2854
▁하루에	-10.2855
K	-10.2857
▁0	-10.2858
▁아무도	-10.2862
▁생기면	-10.2867
▁오빠가	-10.2867
▁제조사	-10.2867
려면	-10.2872
19	-10.2874
▁조건이	-10.288
▁희망	-10.2883
▁드리기	-10.2886
▁공부	-10.2887
▁알려주실	-10.2887
▁분위기	-10.2888
▁사이트에서	-10.2891
▁친구가	-10.2891
▁일입니다	-10.2895
▁올바른	-10.2895
▁끝까지	-10.2904
하시기	-10.2904
권	-10.2906
▁어디서나	-10.2907
▁무게	-10.2915
▁손해	-10.2922
▁양측	-10.2922
▁나이스	-10.2922
▁음악을	-10.2924
▁한식	-10.2926
▁늦어	-10.2927
린	-10.2934
▁구매하시면	-10.2939
▁한국은	-10.2942
세대	-10.2943
▁왔어요	-10.2943
▁서비스로	-10.2944
▁두피	-10.2944
▁상황에서	-10.2945
▁연결할	-10.2945
▁하나가	-10.2949
▁선택이	-10.2952
사가	-10.2952
▁벽	-10.2953
▁지구	-10.2957
▁카드를	-10.2961
▁기회에	-10.2963
▁해주셔서	-10.2965
▁적어	-10.298
▁누구야	-10.2983
▁밝은	-10.2986
▁매물	-10.2988
▁위치하고	-10.2991
▁고속	-10.2998
▁재질	-10.2998
▁우유	-10.3
▁고유	-10.3
▁행사에	-10.3005
▁회사에서는	-10.3007
▁신속하게	-10.3007
▁읽어	-10.3014
▁국물	-10.3016
▁시켜	-10.3017
▁쌀	-10.3024
▁블루	-10.3028
▁연말	-10.3035
▁효율성	-10.3037
한다면	-10.3037
▁건조기	-10.304
▁규칙	-10.3042
▁그리	-10.3042
▁보지	-10.3046
시길	-10.3047
▁바꿀	-10.3047
▁이리	-10.3048
▁액체	-10.3049
▁아울러	-10.3052
▁전소민	-10.3052
▁좋겠네요	-10.3053
▁다행입니다	-10.3054
▁식으로	-10.3055
▁끝나면	-10.3057
▁배치	-10.3062
▁우리와	-10.3063
▁부족	-10.3065
▁이어폰	-10.307
▁보습	-10.3073
시로	-10.3074
주일	-10.3079
▁도와줍니다	-10.3079
▁손에	-10.3082
▁희망합니다	-10.3088
▁없다면	-10.3093
▁함유되어	-10.3093
▁지사	-10.3094
함을	-10.3096
▁하나도	-10.3096
▁기본적인	-10.3099
▁잠금	-10.31
▁봐도	-10.3105
▁계획에	-10.3106
▁계산	-10.3107
▁한데	-10.311
O	-10.3112
▁확인하시고	-10.3114
까지는	-10.3131
▁있었으면	-10.3131
▁방향으로	-10.3133
▁바이오	-10.3133
셔도	-10.3135
▁내용에	-10.3136
▁뭔지	-10.3141
▁확대	-10.3152
▁봤는데	-10.316
▁그러한	-10.3165
▁좋다고	-10.3168
:	-10.3177
▁힘들어	-10.3182
▁강	-10.3182
▁배울	-10.3185
▁말도	-10.3186
▁벌	-10.3187
▁하드웨어	-10.3194
유	-10.32
때문에	-10.3202
▁바람	-10.3205
▁준비하고	-10.3205
▁그만	-10.3206
▁이벤트를	-10.3209
▁논의할	-10.321
▁유선	-10.3211
▁어떻습니까	-10.3211
▁베트남	-10.3211
▁지났습니다	-10.3212
▁생겼습니다	-10.3212
▁드는	-10.3214
▁심각한	-10.3217
▁매	-10.3225
▁살균	-10.3225
▁판매할	-10.3226
▁길	-10.3229
▁사이즈로	-10.323
▁그러고	-10.3231
▁이용한	-10.3232
▁납니다	-10.3235
▁맥주	-10.3238
▁베이스	-10.3238
▁듣게	-10.3239
▁여기까지	-10.3243
▁공	-10.3244
▁받으신	-10.325
▁봤을	-10.3263
▁땅	-10.3265
▁즐기실	-10.3265
▁마침	-10.3266
▁넣을	-10.3269
▁수명	-10.327
▁이래	-10.3274
▁보내고	-10.3278
▁동료	-10.328
▁상업용	-10.3281
R	-10.3284
방	-10.3286
▁부터	-10.3289
▁행복	-10.329
해드리겠습니다	-10.3292
▁급여	-10.3292
▁말씀드리겠습니다	-10.3295
e	-10.3298
▁일부는	-10.3301
볼	-10.3304
▁야채	-10.3308
▁오면	-10.3313
▁고객사	-10.3319
▁와우	-10.3325
▁컵	-10.3327
▁카탈로그에	-10.3329
해주세요	-10.333
▁처음으로	-10.3333
▁클릭	-10.3334
▁패널	-10.3334
▁선박	-10.3335
▁수업	-10.3343
▁입을	-10.3347
▁눈이	-10.3349
▁견고한	-10.3353
▁분위기를	-10.3357
▁이유입니다	-10.3363
▁포함합니다	-10.3364
▁유지하는	-10.3365
▁품질에	-10.3366
▁정책	-10.3368
▁싶으신가요	-10.3373
▁따뜻하게	-10.3373
▁하고자	-10.3393
▁특징	-10.3394
B	-10.3398
▁퀄리티	-10.34
▁쓰레기	-10.34
▁흐름	-10.3403
▁기원합니다	-10.3403
▁생길	-10.3403
▁오류	-10.3406
▁기름	-10.3406
▁조금씩	-10.3407
대를	-10.3407
▁실수를	-10.3412
V	-10.3419
터	-10.3424
▁다양하	-10.3426
모	-10.3427
▁이럴	-10.3429
▁전문적인	-10.3432
▁뇌	-10.3439
▁브러시	-10.344
▁소비	-10.3442
▁주시겠어요	-10.3448
▁목표로	-10.3452
▁핸드폰	-10.3453
▁학생	-10.3455
▁거래에	-10.3455
▁보자	-10.3462
▁부위	-10.3464
▁단일	-10.3471
되어야	-10.3471
▁요새	-10.3481
▁대규모	-10.3482
▁추후	-10.3482
▁월요일에	-10.3482
▁괜찮을까요	-10.3483
▁관계	-10.3487
하길	-10.3494
하죠	-10.3498
▁공장에	-10.3508
▁봤어	-10.3509
▁빼	-10.3522
▁추가적으로	-10.3522
날	-10.3523
▁다소	-10.3525
▁맛과	-10.3525
▁가능하게	-10.3526
▁경영	-10.3527
▁업체와	-10.3542
▁발견했습니다	-10.3545
▁본사에서	-10.3547
▁어려워	-10.3548
▁고용	-10.3548
▁발전을	-10.3551
▁분들을	-10.3553
▁변경할	-10.356
▁지난주	-10.3562
▁운동을	-10.3566
▁똑같이	-10.3572
▁원격	-10.3572
▁현	-10.3572
이라면	-10.3572
▁옵션이	-10.3579
▁여유	-10.3584
▁처음부터	-10.3587
▁현금	-10.3588
▁녹차	-10.3588
▁해드리겠습니다	-10.3591
▁행복한	-10.3593
▁비행	-10.3596
▁귀하에게	-10.3597
▁가운데	-10.3599
▁가겠습니다	-10.3599
▁채	-10.3601
기는	-10.3603
▁소포	-10.3604
▁전망	-10.3604
▁충전기	-10.3604
▁컬렉션	-10.3608
▁유감스럽게도	-10.3608
▁어린	-10.361
▁그러네	-10.361
▁세계에서	-10.3611
▁되니까	-10.3616
▁주기	-10.3617
이라도	-10.3617
립니다	-10.3618
▁아이템	-10.3619
▁권	-10.3626
▁간편한	-10.3628
▁전면	-10.3631
릴	-10.3631
▁부탁합니다	-10.3632
▁소리를	-10.3635
성이	-10.3635
▁하셔야	-10.364
▁커뮤니티	-10.3643
▁고생	-10.3645
▁의심	-10.365
▁기술에	-10.3651
▁이쪽	-10.3656
▁아닌가요	-10.3658
▁매트리스	-10.366
▁세찬이	-10.366
▁최소화	-10.3665
▁생각하지	-10.3672
▁서울에	-10.3673
▁현실	-10.3673
▁필요하다	-10.3674
▁그거를	-10.3674
▁포트	-10.3675
▁스트레스	-10.3676
▁다행히	-10.3678
▁장치가	-10.3681
▁번호는	-10.3688
▁보내는	-10.3692
GB	-10.3692
▁Mr	-10.3703
▁모릅니다	-10.3704
▁재정	-10.3706
▁눌러	-10.3706
▁필리핀에서	-10.3716
▁바퀴	-10.3717
▁삶	-10.3718
▁겪고	-10.3732
걸	-10.3738
▁이름이	-10.374
만을	-10.3743
▁수치	-10.3743
하러	-10.3748
▁제안이	-10.375
▁프레임	-10.3752
되도록	-10.3753
▁70	-10.3756
▁멀티	-10.376
▁말씀해주세요	-10.3766
▁웹사이트에	-10.3768
▁앞에서	-10.377
▁아버지	-10.3776
▁상상	-10.3781
▁어머님	-10.3781
▁가능하면	-10.3781
주년	-10.3784
▁팀장님	-10.3787
▁아무튼	-10.3788
▁움직임	-10.379
▁끝난	-10.3791
▁하다	-10.3792
▁가게에서	-10.3793
▁헤드폰	-10.3796
▁큰일	-10.3797
▁쇼핑	-10.3798
받았습니다	-10.3799
▁최소한	-10.38
▁스타일을	-10.3801
▁못해서	-10.3802
▁안에서	-10.3805
▁자기가	-10.3807
▁안경	-10.3808
▁받	-10.381
▁평가를	-10.3811
▁고객님들이	-10.3812
▁라이브	-10.3816
▁가족이	-10.3822
▁충족	-10.3828
▁기회	-10.3831
▁손이	-10.3846
▁화요일	-10.3852
기도	-10.3852
▁컨트롤러	-10.3853
▁혜택	-10.3855
▁계실	-10.3859
▁그래야	-10.386
▁자신이	-10.3861
W	-10.3866
▁인보이스	-10.3867
▁가게를	-10.3868
▁크기는	-10.3872
▁종종	-10.3873
▁파는	-10.3875
▁내장	-10.3876
▁기관	-10.3879
▁치킨	-10.3881
▁전통적인	-10.3888
▁편입니다	-10.3889
▁연	-10.3893
크	-10.3901
▁뜨거운	-10.3902
▁나옵니다	-10.3903
▁진실	-10.3904
▁검증	-10.3905
▁많지	-10.3906
달	-10.3909
▁세금	-10.3911
▁뛰어	-10.3911
▁대하여	-10.3915
▁줄일	-10.3921
▁전화로	-10.3929
▁죄송하다	-10.3933
▁적극적으로	-10.3934
▁보면서	-10.3939
▁로션	-10.3939
▁손님이	-10.3941
▁미세	-10.3941
▁성공적인	-10.3942
했기	-10.3943
▁X	-10.3943
▁좋아서	-10.3951
▁나지	-10.3952
▁바닥	-10.3959
▁독일	-10.396
▁책임을	-10.3964
▁여러가지	-10.397
▁기술과	-10.3971
▁참고해	-10.398
▁장시간	-10.3983
▁결합	-10.3985
▁널리	-10.3988
▁여보세요	-10.3989
▁런닝맨	-10.399
▁부장님	-10.3992
▁내부적으로	-10.3994
▁본인이	-10.3996
▁가져다	-10.4
▁신체	-10.4002
▁보시는	-10.4003
▁효과적인	-10.4003
▁유지하고	-10.4003
▁카달로그	-10.4006
▁뭐지	-10.401
자가	-10.4012
▁원한다	-10.4013
▁구체적으로	-10.4016
▁맞죠	-10.4017
▁창고에	-10.402
▁견학	-10.4025
이니까	-10.4026
▁넘는	-10.4027
▁뿐	-10.403
▁만두	-10.403
▁멀리	-10.4032
되며	-10.4034
▁라이트	-10.4035
▁상담을	-10.4036
▁최적화	-10.404
▁오븐	-10.404
▁드세요	-10.4049
▁출판	-10.4052
▁삼	-10.4053
▁성능이	-10.4057
▁애	-10.4057
▁괜찮을	-10.4059
▁넣어서	-10.4066
▁계세요	-10.4078
▁있어서요	-10.4081
▁마찬가지로	-10.4081
▁나랑	-10.4085
▁나면	-10.4085
▁우	-10.4093
▁준비할	-10.4095
▁거절	-10.4095
려	-10.4098
▁2000	-10.4101
▁봤어요	-10.4105
만의	-10.4108
▁아니지	-10.4108
▁23	-10.4109
▁전기차	-10.4111
▁불가능합니다	-10.4112
▁블로그	-10.4113
톤	-10.4116
▁보상	-10.4117
▁진행합니다	-10.4118
▁과장님	-10.412
▁서명	-10.4124
▁아래에	-10.4124
▁좋았어	-10.4125
▁발생합니다	-10.4129
▁첨부했습니다	-10.4135
▁아이스크림	-10.4135
▁제안해	-10.4137
개씩	-10.4137
▁모양	-10.4138
▁연속	-10.414
포	-10.4142
▁빵	-10.4148
▁도로	-10.4148
▁집은	-10.4148
▁재료로	-10.415
▁현상	-10.4151
▁가격표	-10.4154
▁문의하신	-10.4155
▁뿐입니다	-10.4156
▁가요	-10.4156
▁제품에는	-10.4157
▁진행됩니다	-10.4159
▁상태에서	-10.4159
▁편한	-10.4159
▁돌	-10.4159
▁통기성	-10.4165
▁놓치지	-10.4166
▁질환	-10.4169
▁다하겠습니다	-10.4176
함께	-10.418
보시길	-10.4182
▁먹기	-10.4184
▁경우에	-10.4185
드렸습니다	-10.4185
팩	-10.4187
▁말했습니다	-10.4192
▁어때요	-10.4201
▁스캔	-10.4201
▁수익	-10.4202
▁똑같은	-10.4206
▁줄여	-10.4213
▁거쳐	-10.4219
▁모듈	-10.4223
▁했으면	-10.423
▁잠시만요	-10.4234
▁위험이	-10.424
▁말씀하시는	-10.424
이지	-10.4244
▁확인하는	-10.4244
▁프로그램에	-10.4245
▁설명이	-10.4245
드릴	-10.425
▁치	-10.425
하니	-10.4254
바	-10.4255
▁아이가	-10.4256
▁프리	-10.4262
▁소식이	-10.4263
▁작용	-10.4265
▁나이	-10.4266
▁팀을	-10.4267
▁제공되는	-10.4276
층에	-10.4277
▁얻고	-10.4278
▁한국에서는	-10.4278
▁어머니	-10.428
▁받아들일	-10.4281
▁인프라	-10.4283
▁차가	-10.4284
▁오류가	-10.4287
▁시작하는	-10.4296
▁친절한	-10.4296
▁연락주시면	-10.4296
▁귀여워	-10.43
▁편안함	-10.43
▁앞으로는	-10.4301
▁구성된	-10.4305
▁금	-10.4306
▁너희	-10.4306
▁스탠드	-10.4308
이기도	-10.4319
판	-10.432
▁언급	-10.4323
토	-10.4323
▁필터를	-10.4327
▁스튜디오	-10.4327
▁칫솔	-10.4328
▁제거합니다	-10.433
▁탄소	-10.433
▁걸쳐	-10.4335
▁불러	-10.4337
▁악기	-10.4338
▁조회	-10.434
▁높일	-10.434
▁연구에	-10.4341
▁미국에	-10.4341
▁파워	-10.4342
▁브레이크	-10.4342
▁이용료	-10.4342
▁코어	-10.4343
▁옛날	-10.4346
▁영국	-10.4346
▁등으로	-10.4351
▁불편함	-10.4358
▁연결이	-10.4366
▁회신해	-10.4369
▁시스템으로	-10.4369
▁유재석	-10.437
▁차질이	-10.4372
▁대출을	-10.4376
답니다	-10.4376
▁싶다면	-10.4383
▁말합니다	-10.4389
▁현장에서	-10.4389
▁같아서요	-10.439
▁참석해	-10.4391
▁펌프	-10.4403
▁청소기	-10.4403
더라도	-10.4404
▁개설	-10.4406
▁L	-10.4418
▁안전합니다	-10.4418
▁체크인	-10.442
▁모델이	-10.4423
▁위치에	-10.4425
▁내어	-10.4428
▁노하우	-10.4428
겠네요	-10.443
▁자연스러운	-10.4431
▁사용하시면	-10.4435
▁신제품은	-10.4438
▁E	-10.4442
▁그때는	-10.4445
셨나요	-10.4446
▁양을	-10.4447
▁확인하기	-10.4449
▁있나	-10.445
▁오해	-10.4453
▁언제까지	-10.4454
▁그가	-10.4455
▁업체에서	-10.4456
프	-10.4458
▁국내에서	-10.4464
▁투	-10.4466
▁취	-10.447
▁22	-10.4473
류	-10.448
▁신문	-10.4485
기가	-10.4487
▁250	-10.449
▁디테일	-10.449
▁몸이	-10.4491
▁사과를	-10.4508
▁싸	-10.4512
원입니다	-10.4515
▁공간에	-10.4518
▁의료기기	-10.4526
졌습니다	-10.453
▁투자자	-10.4533
▁방에	-10.4536
▁감동	-10.4539
▁나와서	-10.454
▁반응이	-10.454
▁떨어져	-10.4541
파	-10.4542
▁양이	-10.4543
▁섭취	-10.4543
▁배송에	-10.4548
▁좋겠다	-10.4552
▁최초로	-10.4555
▁주문했었습니다	-10.4556
에요	-10.456
▁걸어	-10.4561
▁기능성	-10.4562
▁맛은	-10.4567
▁돼서	-10.4569
▁이해할	-10.4569
▁수영장	-10.4577
▁까지	-10.4591
주가	-10.4593
할게요	-10.4593
▁좋네요	-10.4593
▁유행	-10.4611
▁안전성	-10.4611
▁유지하기	-10.4612
▁알았어요	-10.4617
▁업계에서	-10.462
▁접근	-10.4624
▁사의	-10.4625
▁인상을	-10.4625
▁싫어	-10.4626
▁열리는	-10.4627
▁사장님께서	-10.4627
겠죠	-10.4629
▁시설이	-10.4635
▁처리가	-10.4637
▁추가할	-10.4643
▁초안	-10.4645
▁요청드립니다	-10.465
▁무서워	-10.4651
▁부산	-10.4651
국	-10.4652
▁화장실	-10.4654
▁진행을	-10.4654
▁대용량	-10.4655
▁하셔서	-10.4656
▁장난	-10.4657
▁침실	-10.4661
는지	-10.4665
▁맞춰서	-10.4667
▁선반	-10.467
▁시도	-10.4672
▁보여줍니다	-10.4677
▁책임	-10.4679
▁필요하시면	-10.4682
▁보증이	-10.4682
▁바꿔	-10.4683
M	-10.4698
▁개념	-10.4698
▁오지	-10.4705
▁합리적	-10.4713
▁없지만	-10.4718
▁배가	-10.4719
▁보수	-10.4721
▁복구	-10.4728
▁밥을	-10.4728
셔서	-10.4731
▁먹어야	-10.4731
▁의약품	-10.4734
▁밑에	-10.4736
▁카메라는	-10.4738
▁매번	-10.4739
▁즐겨	-10.4741
▁구입할	-10.4741
▁고객과	-10.4742
▁스케줄을	-10.4742
▁튼튼한	-10.4744
▁심	-10.4746
▁진행되고	-10.4748
▁보상을	-10.475
▁있었어	-10.4761
▁통	-10.4769
기에	-10.4771
▁강력	-10.4773
▁확인해야	-10.4776
▁톤	-10.4776
▁시공	-10.4776
▁드시고	-10.4777
▁T	-10.478
▁활용해	-10.4783
▁어서	-10.4786
▁사진과	-10.4786
▁선택한	-10.4791
주는	-10.4793
▁감	-10.4795
▁답변이	-10.4795
해주실	-10.48
타	-10.4801
▁깨끗하고	-10.4802
▁느끼실	-10.4802
▁발효	-10.4804
▁배송될	-10.4807
▁장착되어	-10.4809
▁플러그	-10.4817
▁않다	-10.4826
받은	-10.4827
장을	-10.4831
▁꽃	-10.4831
▁관절	-10.4837
▁그러지	-10.4841
▁민감한	-10.4842
▁딸기	-10.485
▁이로	-10.4851
시켰습니다	-10.4854
▁참가	-10.4857
▁소개되어	-10.4859
▁원활	-10.4859
▁눈을	-10.4861
▁위치해	-10.4861
▁메이크업	-10.4863
▁기초	-10.4864
▁선물을	-10.4865
▁놀이	-10.4869
▁인체	-10.487
드릴게요	-10.487
▁전화번호	-10.4872
▁운반	-10.4875
▁합의	-10.4876
▁먹어도	-10.4876
▁프로그램이	-10.4879
었으면	-10.4879
▁문의에	-10.4888
▁효율	-10.4891
▁피아노	-10.4894
▁진공	-10.4894
▁최첨단	-10.4894
▁다행이네요	-10.4894
▁않지만	-10.4896
▁시작합니다	-10.4906
▁공급이	-10.4907
하시겠습니까	-10.4909
▁이광수	-10.4919
▁업체에	-10.492
▁전부터	-10.492
▁소매	-10.4925
▁남겨	-10.4926
▁인력	-10.4932
▁전까지	-10.4933
▁페인트	-10.4937
8	-10.4938
▁고장	-10.4947
▁검수	-10.4958
▁공유할	-10.4959
▁혜택이	-10.4961
▁긴급	-10.4963
▁최적화된	-10.4964
▁싶다고	-10.4965
▁획득	-10.4965
▁헤드셋	-10.4966
▁뭐냐	-10.4968
▁무엇보다	-10.4968
▁예능	-10.4968
▁핸들	-10.497
▁교통	-10.4971
▁악	-10.4972
해주시기	-10.4977
▁상품으로	-10.4978
▁버스	-10.498
▁탑재	-10.4988
▁않습니까	-10.4989
▁확실한	-10.4992
▁기대하겠습니다	-10.4992
▁수용	-10.4996
▁말씀드립니다	-10.4996
▁사람에게	-10.4996
▁필요해요	-10.4996
▁넘게	-10.5
왔습니다	-10.5004
▁생기	-10.5004
▁했을	-10.5005
관	-10.5009
▁잠깐만요	-10.5016
▁아우	-10.5018
▁미팅에	-10.502
▁곳입니다	-10.5021
▁한계	-10.5027
▁왼쪽	-10.5028
▁활성화	-10.5043
▁상단	-10.5046
T	-10.5046
▁수행할	-10.5047
▁정기	-10.5048
▁듀얼	-10.5053
▁선택해	-10.5055
돼	-10.5062
▁누르면	-10.5063
▁재미있는	-10.5066
▁화가	-10.507
일로	-10.5075
▁벨트	-10.5078
▁담은	-10.5078
▁사정	-10.5079
▁위성	-10.5079
해왔습니다	-10.5081
▁확인한	-10.5081
▁서비스와	-10.5083
▁주력	-10.5083
▁차라리	-10.5085
▁긍정적으로	-10.5088
▁사원	-10.5089
▁들었어요	-10.5091
▁생산합니다	-10.5091
▁여쭤보고	-10.5092
▁판매가	-10.51
▁M	-10.5101
▁밤에	-10.5103
▁이것	-10.5105
▁않을까요	-10.5106
었는데	-10.5106
▁성인	-10.5113
▁성공을	-10.5116
▁어댑터	-10.5118
▁원자재	-10.5118
티	-10.5119
▁예정되어	-10.5121
병	-10.5123
▁장소는	-10.5124
▁검정색	-10.5125
▁말입니다	-10.5127
▁엄격한	-10.5127
▁줄이고	-10.513
▁커뮤니케이션	-10.5132
▁구매가	-10.5139
분이	-10.5143
▁이러면	-10.5143
▁커피를	-10.5149
▁휴식을	-10.5153
▁준비했습니다	-10.5154
▁은은	-10.5156
▁돼지	-10.5166
▁분류	-10.5166
▁주신다면	-10.5172
만한	-10.5173
▁좋네	-10.5173
▁제휴	-10.518
▁넣으면	-10.5183
▁없죠	-10.5183
▁특유의	-10.5184
▁내일까지	-10.5188
겠어요	-10.5189
▁배출	-10.5189
▁실시	-10.5192
님께서	-10.5199
▁원활한	-10.5204
▁업체입니다	-10.5211
▁스	-10.5217
▁변동	-10.5217
▁이상적	-10.5218
▁됩니까	-10.5221
▁기술자	-10.5221
하지만	-10.5222
▁진동	-10.5224
▁포함하여	-10.5226
▁재미	-10.5229
▁패딩	-10.5231
▁아들	-10.5235
▁요	-10.5236
▁종합	-10.5237
▁상업	-10.5238
▁프랑스	-10.5239
▁해상도	-10.5243
▁부서에서	-10.5247
▁국내외	-10.5248
▁한다면	-10.5249
▁편안하고	-10.5252
▁투명	-10.5255
▁남성	-10.5263
▁영업팀	-10.5263
▁보내세요	-10.5267
▁코스	-10.5269
▁신제품에	-10.5273
▁번째로	-10.5277
▁가까이	-10.5278
▁매장에	-10.528
▁세라믹	-10.528
▁예쁜	-10.5282
▁무릎	-10.5285
▁그림	-10.5288
▁없네요	-10.5288
▁신청을	-10.5289
▁채소	-10.5291
▁준비하겠습니다	-10.5294
▁글쎄요	-10.5294
▁제작하였습니다	-10.5296
▁목표를	-10.5296
▁사무용	-10.5297
▁사랑을	-10.5297
▁기술입니다	-10.5297
▁당근	-10.5298
▁기부	-10.5302
▁기다릴	-10.5304
▁복잡한	-10.5308
▁만일	-10.5311
▁뵙고	-10.5313
▁빼고	-10.5313
▁말씀드릴	-10.5321
▁프로젝트가	-10.5321
▁활용하여	-10.5322
▁만들어서	-10.5324
▁사용될	-10.5327
▁채용	-10.5328
▁그릴	-10.5329
▁추출물	-10.533
▁탑재되어	-10.5332
▁고마워	-10.5336
▁창고가	-10.5337
▁저랑	-10.5342
▁것들을	-10.5342
▁왔는데	-10.5343
▁견본	-10.5343
▁몸을	-10.5346
▁만족도	-10.5346
▁정상	-10.5349
▁지연에	-10.5351
▁폭	-10.5351
▁방문하여	-10.5351
▁기능과	-10.5352
▁사랑하는	-10.5356
되	-10.536
▁메뉴가	-10.5361
▁구조로	-10.5361
▁어깨	-10.5362
▁나라에서	-10.5368
더라고	-10.5371
▁그러니까요	-10.5371
▁면에서	-10.5374
두	-10.5376
▁반복	-10.5382
▁자녀	-10.5383
▁주지	-10.5385
▁컨트롤	-10.5387
▁밴드	-10.5388
▁알아요	-10.5388
▁이탈리아	-10.5389
에다가	-10.5389
▁어려움이	-10.539
▁신제품이	-10.5401
▁제공하여	-10.5402
▁거실	-10.5402
▁유아	-10.5403
▁값	-10.5404
▁도서	-10.5409
▁생겨서	-10.541
▁맨날	-10.5413
▁보드	-10.5413
▁있으실까요	-10.5414
▁높여	-10.5414
▁사업이	-10.5415
▁쓴	-10.5415
▁회원	-10.5423
▁체결	-10.5426
▁사정이	-10.5426
▁경기	-10.5434
▁사례	-10.5436
▁감사하다	-10.544
▁배려	-10.5441
▁식기세척기	-10.5441
▁중간에	-10.5444
▁날이	-10.5446
▁소유자	-10.5447
었던	-10.5448
▁중요	-10.545
▁절감	-10.5453
▁떡볶이	-10.5454
▁포	-10.5454
▁거니까	-10.5457
▁사무실에서	-10.5458
▁날씨가	-10.5461
▁요금이	-10.5466
▁납입	-10.5473
▁자격	-10.5477
▁경력	-10.5478
▁많을	-10.5479
▁담긴	-10.5479
▁사실입니다	-10.5484
▁끝나고	-10.5487
▁개최	-10.5495
▁중심	-10.5495
▁주스	-10.5498
▁27	-10.55
▁승진	-10.5506
▁생산할	-10.551
▁참여할	-10.5511
p	-10.5513
▁있으세요	-10.5513
▁확실하게	-10.5514
▁상태가	-10.5515
역	-10.5517
▁지불이	-10.5517
▁다음주에	-10.5517
▁장식	-10.5517
▁아직까지	-10.5518
▁상관없이	-10.5519
▁일어나	-10.552
▁가져주셔	-10.552
해주신	-10.5526
▁아니죠	-10.5527
▁이익이	-10.5529
▁크고	-10.553
▁가능하여	-10.5531
발	-10.5533
▁의견이	-10.5538
▁소비자들	-10.554
▁트렌드	-10.5541
▁그다음	-10.5541
▁진행이	-10.5544
▁용이합니다	-10.555
▁이때	-10.5552
▁그립	-10.5552
▁유연한	-10.5553
▁바지	-10.5553
▁최선	-10.5557
▁논의하고	-10.5557
주신	-10.5558
▁브랜드에	-10.556
▁적용했습니다	-10.5562
▁초청	-10.5565
▁마련	-10.5568
▁생명	-10.5569
▁뼈	-10.5569
▁나눠	-10.5569
AAA	-10.5574
▁파손	-10.5575
▁동작	-10.5575
▁파스타	-10.5576
▁들어와	-10.5579
▁즐겁게	-10.5581
▁체크아웃	-10.5581
▁여유가	-10.5586
▁샤워	-10.5587
▁식감	-10.5591
▁확인하십시오	-10.5595
▁사이트에	-10.5599
▁항공기	-10.5604
▁담당하고	-10.5607
▁말이야	-10.5608
▁표현	-10.5612
▁높아	-10.5612
▁신실한	-10.5614
▁숫자	-10.5616
▁감사드리겠습니다	-10.5618
▁요즘은	-10.5619
▁고려하여	-10.5622
경	-10.5622
▁선물로	-10.5625
▁순	-10.5626
▁숙소	-10.5627
▁제주도	-10.5636
▁어때	-10.564
▁계획하고	-10.5645
▁많다	-10.5646
▁바닥에	-10.5647
▁가성비	-10.5648
▁우리도	-10.565
▁구현	-10.5651
개로	-10.5652
▁일부러	-10.5652
▁당사와	-10.5655
▁제품보다	-10.5661
양	-10.5667
▁상대	-10.5669
▁불량품	-10.5675
달러에	-10.5676
▁떡	-10.5679
▁속에	-10.5681
▁높였습니다	-10.5683
▁거잖아요	-10.5687
▁소개시켜	-10.5687
▁오고	-10.5687
▁구매자	-10.5689
▁설정을	-10.5695
▁비밀번호	-10.5695
▁패키지를	-10.5705
▁했지만	-10.5709
▁남편	-10.5713
▁절단	-10.5714
▁꼼꼼	-10.5716
석	-10.5719
▁장기간	-10.5721
▁절약	-10.5725
▁영화를	-10.5727
▁매달	-10.5728
▁이해하고	-10.5734
▁프로그램은	-10.5735
▁구매하는	-10.5736
▁시각	-10.5736
▁끌	-10.574
▁단위로	-10.5745
▁날짜와	-10.5751
▁태양광	-10.5752
▁반송	-10.5755
▁평소	-10.5755
▁가구를	-10.5757
▁구매에	-10.5758
▁미팅에서	-10.5762
▁회수	-10.5765
▁귀사에게	-10.5766
▁두께	-10.5767
▁그린	-10.5769
▁부동산에	-10.5771
▁공급자	-10.5772
불	-10.5772
낼	-10.5773
▁어디로	-10.5775
▁오실	-10.5777
▁원하지	-10.5779
▁쇼핑몰	-10.5781
▁협력할	-10.5783
▁양사	-10.5784
▁실망	-10.5784
▁서비스입니다	-10.5784
▁알림	-10.5784
▁얇은	-10.5785
▁작동하지	-10.5786
▁요청합니다	-10.5788
▁원하시나요	-10.579
▁셔츠	-10.5795
매	-10.5797
평	-10.58
▁개발자	-10.5802
께서	-10.5803
하면서도	-10.5803
▁때부터	-10.5805
▁가능하고	-10.5814
▁생선	-10.5815
통	-10.5818
▁된다는	-10.5818
▁커튼	-10.582
▁받아서	-10.5821
▁하드	-10.5821
▁꼼꼼하게	-10.5826
▁가능하도록	-10.5831
km	-10.5833
▁입주	-10.5835
▁실적	-10.5836
▁내는	-10.5837
▁서울에서	-10.5839
냈습니다	-10.5847
▁수신	-10.5851
▁통과	-10.5852
▁굳이	-10.5855
▁벌칙	-10.5855
▁출시할	-10.5856
▁토마토	-10.5856
▁되나	-10.5857
안	-10.5859
▁볼게요	-10.586
▁옛날에	-10.5861
▁주소는	-10.5863
▁손실을	-10.5867
▁국가에서	-10.5867
▁생산이	-10.5877
▁통보	-10.5877
▁부담이	-10.5877
▁협상을	-10.5878
▁많고	-10.5879
▁원단으로	-10.5879
▁조언을	-10.5881
▁세계의	-10.5882
▁오늘부터	-10.5883
▁간다	-10.5888
놓고	-10.5891
▁패턴	-10.5894
▁잉크	-10.5896
하셨나요	-10.59
▁확신	-10.5901
▁되어야	-10.5902
▁어떤가요	-10.5914
▁가정에서	-10.5915
▁송금을	-10.5915
▁전화기	-10.592
백	-10.5924
▁미끄럼	-10.5924
▁있답니다	-10.5924
▁SNS	-10.5924
▁추출	-10.5927
▁나이가	-10.5934
▁떨어지는	-10.5939
▁길게	-10.594
시고	-10.5942
▁자랑하는	-10.5942
▁외관	-10.5948
하려는	-10.5952
봐	-10.5952
▁연결을	-10.5953
▁내장되어	-10.5956
▁풍미	-10.5961
되나요	-10.5966
▁드려야	-10.5966
성을	-10.5966
▁나타났	-10.5966
▁어느정도	-10.5966
군	-10.597
▁것이기	-10.597
▁스토리지	-10.5971
▁적용하여	-10.5973
▁될지	-10.5973
▁제작했습니다	-10.5973
▁감자	-10.5973
▁통제	-10.5974
▁호주	-10.598
▁나라에	-10.5984
▁머물	-10.5986
▁얘는	-10.5987
com	-10.5991
▁매력	-10.5999
▁모르겠어요	-10.6
제품을	-10.6001
다니	-10.6003
▁사람들과	-10.6007
▁주면	-10.6009
▁메시지	-10.601
▁케이크	-10.6012
▁게임은	-10.6014
▁공항에서	-10.6014
▁노출	-10.6015
거야	-10.6016
▁알려진	-10.602
▁해결하기	-10.6024
▁세상에	-10.6025
▁검은색	-10.6031
▁마이	-10.6031
▁아시겠지만	-10.6031
▁최고급	-10.6032
▁컨설팅	-10.6032
▁쾌적	-10.6035
▁파티에	-10.6037
▁목적으로	-10.6038
▁노래를	-10.604
▁제어할	-10.6043
▁유지해	-10.6048
▁과거	-10.6049
▁집으로	-10.6055
▁성분으로	-10.6055
▁이점	-10.6056
▁잡	-10.6057
▁접속	-10.606
▁들어가서	-10.606
겁니다	-10.6061
▁선호하는	-10.6063
▁파산	-10.6064
▁통관	-10.6064
같은	-10.6065
▁건강하게	-10.6065
▁나가는	-10.6065
▁미네랄	-10.6072
열	-10.6072
▁28	-10.6073
▁과정에	-10.6077
▁그쪽	-10.6078
▁전국	-10.608
▁땀	-10.6084
▁가열	-10.6086
▁답변해	-10.6088
▁붙어	-10.609
▁달성	-10.6095
재	-10.6096
P	-10.6096
▁2022	-10.6103
▁완료되면	-10.6103
▁전시	-10.6103
▁내년에	-10.6106
보고	-10.6109
▁내고	-10.611
▁지퍼	-10.6113
▁높이는	-10.6116
▁지방	-10.6121
▁올라가	-10.6125
▁같고	-10.613
▁하기로	-10.6134
▁흥미로운	-10.6137
▁해외에	-10.6138
▁해드립니다	-10.6152
▁좌석	-10.6153
이란	-10.6153
▁펀드	-10.6153
▁적용해	-10.6153
▁간식	-10.6159
▁들었는데	-10.6163
▁치과	-10.6164
▁대화를	-10.6165
▁거를	-10.6167
연	-10.6168
▁수상	-10.6171
▁아파	-10.6171
▁이쪽으로	-10.6172
▁120	-10.6172
▁불필요	-10.6173
▁사용하였습니다	-10.6173
▁그릇	-10.6173
▁딸	-10.6175
▁곡물	-10.6175
▁무엇인가요	-10.6175
▁기대됩니다	-10.6179
▁마지막에	-10.6181
론	-10.6182
▁사항들	-10.6186
그	-10.6188
▁않는다는	-10.6191
회사	-10.6192
▁능력이	-10.6197
▁되실	-10.6198
▁끼쳐	-10.6201
▁넘어	-10.6206
▁렌터카	-10.6209
▁저렴합니다	-10.6211
▁이동식	-10.6213
▁변경이	-10.6213
해도	-10.6215
▁의논	-10.6221
▁본체	-10.6221
▁아니지만	-10.6221
씨가	-10.6223
▁호스	-10.6231
▁투어	-10.6235
▁부스	-10.6236
▁보험에	-10.6237
▁곳은	-10.6243
▁치료제	-10.6243
▁NFT	-10.6246
▁비롯	-10.6247
▁급히	-10.6247
▁관계가	-10.6251
▁소요될	-10.6252
▁요청하고	-10.6255
▁승기	-10.626
▁꺼	-10.6262
▁불가능	-10.6263
▁장소에	-10.6266
▁접근할	-10.6268
무	-10.6269
▁여	-10.627
▁따	-10.6271
▁완벽	-10.6281
▁해서요	-10.6283
▁볼륨	-10.6283
▁운전자	-10.6284
▁여성용	-10.629
▁파란색	-10.6291
셔야	-10.6293
레	-10.6293
▁세부사항	-10.6295
▁학생들이	-10.6298
▁제작한	-10.6298
주실	-10.6302
▁쓰지	-10.6307
▁차량을	-10.6309
하기를	-10.6312
▁하고요	-10.6313
▁라인을	-10.6313
었어요	-10.6317
▁소음이	-10.6318
▁와이어	-10.6321
▁엄마가	-10.6332
▁열고	-10.6333
▁우리를	-10.6339
▁2~3	-10.6345
▁상처	-10.6346
▁도달	-10.6346
▁크	-10.6348
▁확인하였습니다	-10.6349
▁디자인입니다	-10.635
▁과정이	-10.6355
▁싶으시다면	-10.6355
▁블레이드	-10.6356
▁길을	-10.6356
▁비누	-10.6357
체	-10.636
▁거친	-10.6361
▁갈게요	-10.6362
▁세계적인	-10.6363
▁팁	-10.6363
▁구할	-10.6369
▁날짜는	-10.637
▁비건	-10.6372
▁소파	-10.6374
르	-10.6378
▁법적	-10.638
▁시작한	-10.6384
▁우리나라	-10.6391
▁호	-10.6398
▁마련되어	-10.64
▁위생	-10.6401
▁적용된	-10.6407
▁혼합	-10.6408
저	-10.6419
▁고민을	-10.6424
▁단위	-10.6425
▁복합	-10.6427
▁농업	-10.6429
▁이번이	-10.643
▁LA	-10.6434
▁하다가	-10.6438
▁관리하는	-10.6438
하다고	-10.6442
▁기사	-10.6443
▁그곳에서	-10.6444
▁내주셔서	-10.6444
▁대면	-10.6445
▁고추장	-10.645
▁대응	-10.645
▁냉각	-10.645
▁위에서	-10.6452
ml	-10.6452
▁여기에는	-10.6452
▁끝으로	-10.646
▁획기적	-10.6464
▁메타버스	-10.6466
▁미안해	-10.6467
칠	-10.6467
▁도와주셔서	-10.6468
▁보완	-10.6468
▁이걸로	-10.6472
생	-10.6473
▁사용해야	-10.6479
박스	-10.648
▁전적으로	-10.6484
▁싶으신	-10.6488
▁나왔어	-10.6492
▁장치에	-10.6493
주고	-10.6494
▁정의	-10.6497
▁예술	-10.6497
▁몇가지	-10.6499
피	-10.6501
▁부피	-10.6502
▁싶네요	-10.6502
▁와이파이	-10.6502
▁차세대	-10.6503
야지	-10.6504
▁변환	-10.6506
▁통하여	-10.6507
▁질병	-10.6507
▁무게는	-10.6509
▁다시는	-10.6509
▁권장합니다	-10.651
▁계좌로	-10.6513
▁해드릴	-10.6516
▁기능에	-10.6516
▁순수	-10.6517
▁신상품	-10.6518
▁개발하였습니다	-10.652
▁포장을	-10.6523
▁카메라가	-10.6524
▁주름	-10.6527
▁사람입니다	-10.6531
▁출시했습니다	-10.6532
▁고객님에게	-10.6535
사를	-10.6535
▁부채	-10.6535
▁레스토랑에서	-10.6537
▁표	-10.6539
▁취향에	-10.6539
이라서	-10.6541
해주시길	-10.6541
▁나오지	-10.6548
▁가기	-10.6549
▁없게	-10.6551
▁단단	-10.6554
▁메모	-10.6554
▁필요하다고	-10.6554
▁되겠다	-10.6555
▁송금해	-10.656
▁쪽에	-10.656
위를	-10.6564
▁시작하기	-10.6565
▁뭔데	-10.6566
▁45	-10.6574
▁중국에서	-10.6574
x	-10.6576
▁아니라면	-10.6578
▁주파수	-10.6578
▁고기를	-10.6579
▁싹	-10.658
▁지금도	-10.6581
▁업체가	-10.6583
▁뉴욕	-10.6586
▁사기	-10.6589
▁적습니다	-10.659
▁지연이	-10.6593
▁사이즈를	-10.6595
@	-10.66
▁스파	-10.6603
▁먼	-10.6605
▁식당을	-10.6606
▁맞출	-10.6613
▁맞으신가요	-10.6613
▁알레르기	-10.6614
▁이상한	-10.6618
▁아이디어가	-10.662
▁이자가	-10.662
▁속도로	-10.6622
▁시작하겠습니다	-10.6624
▁나오고	-10.6626
▁동	-10.6628
▁보게	-10.6631
▁필름	-10.6634
▁장사	-10.6635
▁콩	-10.6637
▁그에게	-10.6642
▁정지	-10.665
▁애완동물	-10.6651
▁좋았습니다	-10.6652
▁결재	-10.6653
▁트레일러	-10.6654
▁시원한	-10.6656
십니까	-10.6662
▁탄력	-10.6664
▁사용하기에	-10.6668
▁레이스	-10.6668
▁주문번호	-10.6679
▁발행	-10.6682
▁이해를	-10.6683
▁목재	-10.6686
▁예상치	-10.6687
이자	-10.6689
▁들어갑니다	-10.669
▁사무용품	-10.6691
▁걱정할	-10.6698
하므로	-10.67
▁활용도	-10.6701
▁납부를	-10.6702
분의	-10.6704
▁인지	-10.6706
▁근육	-10.671
▁나누고	-10.671
▁너도	-10.6712
으	-10.6713
정된	-10.6719
▁파우더	-10.672
▁확인하겠습니다	-10.6722
▁제약	-10.6724
▁관련이	-10.6725
▁염색	-10.6725
▁팀에	-10.6727
▁적응	-10.6728
▁걸리는	-10.6728
▁주차장	-10.6738
▁여러분을	-10.6742
▁식재료	-10.6742
▁유명합니다	-10.6747
▁설탕	-10.6748
▁받아보실	-10.6749
▁제시해	-10.6749
▁진행되는	-10.675
▁파일로	-10.6757
▁인터페이스	-10.6758
▁지원하는	-10.6759
▁인해서	-10.6762
▁P	-10.6763
▁이용하는	-10.6765
▁드려서	-10.6769
▁AA	-10.677
▁탄탄	-10.6772
▁탈	-10.6774
▁제작이	-10.6775
▁미래를	-10.6777
▁넣은	-10.678
▁수업을	-10.6782
▁스케줄	-10.6785
주십시오	-10.6787
이든	-10.6789
▁35	-10.6792
▁청소할	-10.6794
▁알아서	-10.6794
▁이상을	-10.6796
님께	-10.6798
▁가능해	-10.6798
음	-10.6799
▁것이라는	-10.6799
▁송지효	-10.6802
▁있을까	-10.6803
▁ERP	-10.6804
인분	-10.6805
▁트럭	-10.6811
줘	-10.6813
▁무엇이든	-10.6815
▁다하고	-10.6816
▁경험해	-10.6817
▁모아	-10.6822
▁레벨	-10.6823
▁작성해	-10.6823
▁맞추어	-10.6823
▁업로드	-10.6826
▁순환	-10.6829
▁경고	-10.6829
▁다운	-10.6835
▁삼겹살	-10.6836
▁해주는	-10.6838
▁강조	-10.6838
달라고	-10.6841
건가요	-10.6842
▁작가	-10.6842
▁좋아해	-10.6843
▁날에	-10.6843
▁식물성	-10.6844
표	-10.6845
▁개인적인	-10.6847
▁구매하고자	-10.6849
▁부탁드려요	-10.6849
▁다음달	-10.685
▁설치되어	-10.685
▁교환해	-10.6851
▁운영하는	-10.6855
▁나와요	-10.6861
▁정식	-10.6863
▁빠져	-10.6863
▁공급하고	-10.6869
▁식당에서	-10.6877
▁바와	-10.6881
▁플레이어	-10.6881
▁카	-10.6883
▁가게에	-10.6884
▁들면	-10.6884
▁이하	-10.6885
▁금일	-10.6888
▁요청할	-10.6891
대요	-10.6892
▁접시	-10.6898
▁생	-10.6903
▁불평	-10.6904
색	-10.6908
▁얼음	-10.6909
▁협력사	-10.6911
▁스프레이	-10.6911
▁결함이	-10.6913
▁준비한	-10.6915
▁티	-10.6916
▁데이터베이스	-10.6917
▁비록	-10.6918
▁스킨	-10.692
▁역량	-10.6921
▁해보고	-10.6923
▁소개하겠습니다	-10.6928
▁시스템입니다	-10.693
▁돈가스	-10.693
▁동네	-10.6935
▁시행	-10.6937
년부터	-10.6941
▁많다고	-10.6942
▁요구에	-10.6946
▁활용한	-10.6948
▁크기로	-10.6949
▁개봉	-10.695
▁블랙박스	-10.695
▁선호	-10.6952
▁받으면	-10.6954
▁읽을	-10.6957
▁생체	-10.6957
▁제주	-10.6957
하네	-10.6959
▁만들어져	-10.6964
▁매력적인	-10.6964
▁안녕히	-10.6965
▁귀하로부터	-10.6966
▁용도로	-10.6967
▁디저트	-10.6973
▁클럽	-10.6978
▁봉투	-10.6979
▁귀사로부터	-10.6979
▁죄송합니다만	-10.6982
링	-10.6985
했는지	-10.6987
▁피규어	-10.699
▁세균	-10.6992
▁그럼에도	-10.6995
▁가을	-10.6999
▁않았어요	-10.7001
▁열정	-10.701
▁무거운	-10.7014
▁더해	-10.7018
▁개발하는	-10.7019
▁지침	-10.702
력을	-10.7028
▁바이어	-10.7031
▁액션	-10.7035
▁돼지고기	-10.7035
▁처리된	-10.7035
▁괜찮으신가요	-10.7035
▁필요하시다면	-10.7035
사와	-10.7035
▁전자용품	-10.7035
▁없으신가요	-10.7035
▁도와드립니다	-10.7036
▁독자	-10.7038
▁텍스트	-10.7045
▁암호화	-10.7047
▁방해	-10.7049
▁데일리	-10.705
▁레드	-10.706
▁챙겨	-10.706
▁불편한	-10.7061
▁양념	-10.7061
더라구요	-10.7061
▁느껴지는	-10.7062
▁면적	-10.7064
▁x	-10.7066
▁표정	-10.7067
▁수소	-10.7069
▁금요일까지	-10.7072
▁추운	-10.7073
▁넉넉한	-10.7074
▁초음파	-10.7074
▁게임이	-10.7074
▁소개해드리려고	-10.7076
▁청첩장	-10.7077
▁600	-10.7077
▁분을	-10.7078
▁보내드릴게요	-10.7081
▁자리가	-10.7082
▁임대료	-10.7085
개입니다	-10.7085
▁건으로	-10.7088
▁박	-10.709
▁판	-10.7091
▁병원에	-10.7092
▁계약금	-10.7095
▁생산에	-10.7097
▁팀장	-10.7098
▁매출이	-10.7099
▁습기	-10.7101
▁접	-10.7101
▁봤습니다	-10.7107
▁경로	-10.7108
▁소유	-10.7112
▁얻은	-10.7113
적이고	-10.7114
▁향상된	-10.7116
갈	-10.712
▁개발된	-10.712
▁임상	-10.7122
하라고	-10.7131
▁버터	-10.7136
▁머리를	-10.7136
▁세척이	-10.7137
▁손목	-10.7137
▁월세	-10.7138
영	-10.714
▁전원이	-10.7141
▁배터리가	-10.7141
▁성	-10.7142
▁주문하려고	-10.7146
▁박람회에서	-10.7147
▁맨	-10.7148
▁가족과	-10.715
▁가동	-10.715
▁공격	-10.7151
▁불고기	-10.7158
▁전체적으로	-10.7161
▁시기에	-10.7162
신속한	-10.7167
했다는	-10.717
▁남지	-10.7172
▁클라이언트	-10.7172
▁고민이	-10.7174
▁이야기하고	-10.7176
▁한층	-10.7179
▁맺고	-10.7192
▁어떠세요	-10.7192
▁역할	-10.7194
▁스트레스를	-10.7197
▁형식	-10.7197
▁전자레인지	-10.7199
▁권장	-10.72
▁여름에	-10.7206
▁하셔도	-10.7209
점을	-10.7213
▁컨테이너	-10.7215
▁연주	-10.722
▁출판사	-10.7226
▁선택을	-10.7229
▁보신	-10.7231
▁읽기	-10.7232
▁소스를	-10.7233
▁솔직하게	-10.7233
▁사회적	-10.7239
▁파트너가	-10.7241
중에	-10.7241
▁목표는	-10.7242
▁밖에서	-10.7243
▁구입하고	-10.7243
▁캠페인	-10.7245
▁상당한	-10.7247
학	-10.7247
▁상기시켜	-10.7249
▁좋아해요	-10.7251
▁없지	-10.7255
▁심장	-10.7258
▁친절	-10.7258
▁도구를	-10.7261
▁이번에도	-10.7268
▁주인	-10.7272
▁구강	-10.7273
▁나눌	-10.7273
▁백업	-10.7275
▁감사해요	-10.7278
▁적용할	-10.7283
했으며	-10.729
o	-10.729
▁마실	-10.7297
▁세팅	-10.7301
▁생산량	-10.7301
▁변화가	-10.7305
▁제품들에	-10.7307
▁재입고	-10.7312
▁싶으시면	-10.7313
▁어울립니다	-10.7313
▁약속드립니다	-10.7314
▁증명	-10.7316
▁양질	-10.7317
▁못하게	-10.7317
카	-10.7322
▁경향	-10.7324
▁지효야	-10.7325
▁향을	-10.7327
▁출고가	-10.7337
▁해킹	-10.7339
▁한옥	-10.734
▁어떡해	-10.7342
▁고려해야	-10.7344
▁이것에	-10.7345
▁주식을	-10.7345
▁베개	-10.7346
▁인체공학적	-10.7348
▁쌓아	-10.7349
▁층	-10.7352
▁잘됐네요	-10.7354
▁많았습니다	-10.7355
▁모르겠네요	-10.7355
▁부여	-10.7357
▁가능성을	-10.7358
▁초대장	-10.7359
▁부서에	-10.736
▁원래는	-10.7361
▁광학	-10.7362
▁분사	-10.7364
▁세대	-10.7368
▁상세히	-10.7371
▁제기	-10.7372
주시기	-10.7374
▁스티커	-10.7374
시죠	-10.7377
▁예약하고	-10.7378
▁지속되는	-10.7378
▁밀어	-10.7383
▁매장을	-10.7389
▁같지	-10.7389
▁빈	-10.7389
▁사랑해	-10.7389
▁게임에	-10.739
▁색깔	-10.7393
▁죄송해요	-10.7394
▁돕습니다	-10.7394
▁골라	-10.7394
▁해주시기	-10.7395
▁찾았습니다	-10.7395
▁생각한다	-10.7399
▁대표님께서	-10.7403
▁조정할	-10.7405
▁무게가	-10.7406
▁철	-10.7407
▁발급	-10.741
▁시야	-10.741
▁어디서든	-10.7413
▁분해	-10.7414
▁접이식	-10.7414
▁구동	-10.7416
▁적게	-10.7418
▁통조림	-10.7419
▁기간에	-10.742
▁불가능한	-10.742
이신가요	-10.7428
▁노즐	-10.7433
▁백종원	-10.7434
▁전화드렸습니다	-10.7436
▁예정이니	-10.7438
▁갖게	-10.7439
▁돕는	-10.7439
▁정품	-10.744
▁대리	-10.7442
▁사이드	-10.7442
▁허용	-10.7443
▁안정적으로	-10.7443
▁넷	-10.7445
▁G	-10.7447
▁요청해	-10.745
▁소금	-10.7454
▁보시기	-10.7454
▁중앙	-10.7455
▁도착했습니다	-10.7459
▁양해해	-10.7461
▁주까지	-10.7466
▁되잖아	-10.7466
▁결정할	-10.7467
▁자율주행	-10.7471
▁출근	-10.7472
▁니즈	-10.7475
해줍니다	-10.7475
▁철저한	-10.7477
▁방문하는	-10.7477
▁용도	-10.7479
▁명시되어	-10.7479
▁향수	-10.7485
▁주제	-10.7489
▁안감	-10.749
▁음식물	-10.7492
▁Wi	-10.7495
뿐	-10.7495
▁되길	-10.7496
▁것이며	-10.7497
▁체계	-10.7497
▁회의실	-10.7498
력	-10.75
▁투숙	-10.7504
▁승리	-10.7504
▁안됩니다	-10.7507
▁모시고	-10.7516
▁도시락	-10.7516
▁원재료	-10.7516
▁드려요	-10.752
▁면접	-10.7522
하니까	-10.7523
▁유사한	-10.7523
▁주목	-10.7525
▁경	-10.7527
▁이불	-10.7532
▁작	-10.7533
▁공급합니다	-10.7537
▁국가에	-10.7537
▁잇몸	-10.7541
키	-10.755
▁그러는	-10.7554
▁무리	-10.7555
▁관련해	-10.7556
▁암호화폐	-10.7557
▁이르기까지	-10.7557
▁창	-10.756
▁얼굴이	-10.7565
▁듣기	-10.7566
▁종	-10.7567
▁용지	-10.7572
▁넣는	-10.758
▁아이들에게	-10.7582
▁제작에	-10.7583
▁어디에서	-10.7585
▁했고	-10.7586
▁해주실	-10.7586
▁궁금해	-10.7587
▁혁신적	-10.7589
▁가슴	-10.7594
▁애완	-10.7595
▁음식과	-10.7597
▁기념	-10.7598
▁견딜	-10.7598
▁없을까요	-10.7606
▁대여	-10.7607
▁매월	-10.7608
▁다음은	-10.7611
이네요	-10.7622
▁현황	-10.7623
▁확인하세요	-10.7625
▁등과	-10.763
▁크기를	-10.7631
▁취향	-10.7634
▁거품	-10.7636
▁싱글	-10.7639
▁높게	-10.764
▁광범위한	-10.7645
▁빨간색	-10.7646
▁텐데요	-10.7647
▁오징어	-10.7651
▁것만	-10.7658
▁전시회	-10.7659
▁비가	-10.7666
▁헤이	-10.7667
이어서	-10.7667
i	-10.7673
▁습도	-10.7675
▁주문했던	-10.7675
▁개발이	-10.768
▁라이선스	-10.7681
▁순조롭	-10.7681
▁싶을	-10.7681
▁한국산	-10.7682
▁26	-10.7685
▁룩	-10.7687
▁파트너를	-10.7688
▁판단	-10.7691
▁생기는	-10.7692
▁듣는	-10.7693
▁세게	-10.7694
▁광수야	-10.7695
▁간장	-10.7698
▁스크린	-10.7702
▁국가의	-10.7702
▁산소	-10.7703
▁연결해	-10.7704
▁들지	-10.7707
증	-10.7711
▁공유하고	-10.7713
▁양말	-10.7715
▁자세	-10.7715
▁애들	-10.7717
▁원인이	-10.7718
▁열려	-10.7722
▁옥수수	-10.7724
▁농장	-10.7725
하십니다	-10.7726
▁막아	-10.7727
▁경험할	-10.7727
▁절반	-10.7728
▁번째는	-10.7729
▁코딩	-10.7729
▁더블	-10.7729
▁인터뷰	-10.7731
▁속에서	-10.7731
▁시원하게	-10.7735
▁구매하시는	-10.7739
▁상품과	-10.774
▁하셨는데	-10.774
▁기억합니다	-10.7744
▁자신감	-10.7746
▁팀과	-10.7746
▁슬림	-10.7748
업	-10.7749
▁신축성	-10.775
▁새해	-10.775
▁받아보고	-10.7751
▁까	-10.7754
▁하단에	-10.7754
▁컴팩트	-10.7755
▁발전기	-10.776
▁로그인	-10.7762
▁모르겠지만	-10.7765
▁기일	-10.7766
▁휠	-10.7769
▁전문적으로	-10.7775
보겠습니다	-10.7777
▁나노	-10.7777
10	-10.7778
▁환불이	-10.7782
▁의미가	-10.7782
▁아닐	-10.7784
▁반영	-10.7801
▁사무실로	-10.7805
▁읽고	-10.7807
▁아니라고	-10.7808
▁영양소	-10.781
▁초대해	-10.7811
▁말은	-10.7814
▁그렇다고	-10.7815
▁스타일의	-10.7816
▁단순한	-10.7817
▁다이얼	-10.7819
▁선택하실	-10.7828
▁몰라요	-10.7833
▁현상이	-10.7835
준	-10.7837
▁지불해	-10.7841
▁수납	-10.7845
▁농산물	-10.785
▁설마	-10.785
▁나쁘지	-10.7853
▁거짓말	-10.7854
▁엉덩이	-10.7855
E	-10.7856
▁변동이	-10.786
으로서	-10.7861
▁피드백	-10.7863
▁도매가로	-10.787
▁되네요	-10.7873
디	-10.7875
강	-10.7878
이고요	-10.7879
말	-10.7879
▁부부	-10.788
▁구분	-10.7882
▁수확	-10.7883
▁소고기	-10.7883
▁투입	-10.7884
▁형이랑	-10.7886
▁사죄	-10.7892
▁여기로	-10.7899
주면	-10.7902
▁샘플과	-10.7905
▁예약할	-10.7906
채	-10.7913
▁끝났어	-10.7925
▁판촉	-10.7926
▁공간에서	-10.7927
▁지나면	-10.7932
▁앉으세요	-10.7935
▁안심	-10.7936
반	-10.7936
▁생산성	-10.7936
▁정상적으로	-10.7936
▁나요	-10.7938
▁15%	-10.794
▁비전	-10.7942
▁감염	-10.7947
▁다음으로	-10.7948
▁보관이	-10.795
으니까	-10.7956
▁주거	-10.7958
▁직원들에게	-10.796
▁손님들이	-10.7962
▁호텔이	-10.7969
▁직원에게	-10.797
▁양파	-10.7972
▁자신을	-10.7973
대의	-10.7973
▁얻는	-10.7974
▁저작권	-10.7977
▁뵙기	-10.7978
했지만	-10.7979
▁진심	-10.798
▁신뢰성	-10.798
▁구멍	-10.798
▁알았습니다	-10.798
▁국수	-10.7981
▁투자할	-10.7983
▁김밥	-10.7984
▁H	-10.7986
▁소매업체	-10.7986
는데요	-10.799
▁수락	-10.8
Fi	-10.8
▁수요일에	-10.8001
겠지만	-10.8004
▁F	-10.8008
▁세트로	-10.8009
만으로	-10.8009
▁사내	-10.8013
▁술을	-10.8014
▁리	-10.8018
▁통증	-10.8018
▁와이드	-10.8019
▁클렌징	-10.8019
▁염두에	-10.8021
난	-10.8028
▁텔레비전	-10.8028
▁객실에	-10.803
▁제안합니다	-10.803
▁닦아	-10.8034
▁확인해보니	-10.8042
▁줄이는	-10.805
▁장갑	-10.8053
냅니다	-10.8054
▁축구	-10.8057
▁한국인	-10.8059
▁압축	-10.806
▁충돌	-10.806
▁포켓	-10.806
▁이루어져	-10.8061
감	-10.8062
▁제공한다	-10.8063
▁세찬아	-10.8065
▁소프트	-10.8065
▁얻었습니다	-10.8066
▁제거할	-10.8067
▁연락주십시오	-10.8072
▁아실	-10.8074
▁컬러로	-10.8077
▁생각할	-10.8084
▁취급	-10.8084
▁화면을	-10.8085
▁많은데	-10.8085
▁이미지가	-10.8087
▁하네	-10.8089
천만	-10.8089
하려	-10.809
▁나왔다	-10.8091
▁배우고	-10.8092
▁단점	-10.8092
▁못합니다	-10.8097
▁냄비	-10.8099
▁비트	-10.81
▁그랬어	-10.81
▁제작하고	-10.8103
▁요리에	-10.8104
▁가급적	-10.8107
▁김준호	-10.8108
▁두꺼운	-10.8108
▁담배	-10.8109
▁특성상	-10.8109
▁알았는데	-10.811
▁나일론	-10.811
▁사야	-10.811
▁찾아야	-10.8112
▁동일하게	-10.8114
▁하려면	-10.8115
▁도착하는	-10.8118
▁계란	-10.8118
▁사건	-10.8122
▁긴장	-10.8124
▁리스트를	-10.8124
▁해결책을	-10.8125
▁달콤	-10.8128
▁않으셨	-10.8132
▁하십니다	-10.8134
▁신청서	-10.8136
▁매주	-10.8138
▁마모	-10.8139
▁달력	-10.814
▁알죠	-10.814
▁들어오는	-10.8142
▁아이들을	-10.8144
▁구워	-10.8147
▁붙여	-10.8148
▁문구	-10.815
▁구역	-10.8154
▁작가님	-10.8155
▁겁니까	-10.8157
▁대단하다	-10.8158
냐고	-10.8159
▁준수	-10.8162
▁시청	-10.8164
▁떨어진	-10.8175
▁소주	-10.8176
▁보이고	-10.8177
▁편의성	-10.8177
▁여보	-10.8178
▁겨울에	-10.8178
▁요금제	-10.8183
▁거잖아	-10.8187
▁스프링	-10.8196
▁처리하는	-10.8198
▁부사장님	-10.8198
▁찾으시는	-10.8201
▁불가합니다	-10.8203
▁보일	-10.8203
▁역	-10.8204
▁완화	-10.8209
▁이곳에서	-10.8209
▁뿌리	-10.8212
락	-10.8216
▁타일	-10.8217
▁펜	-10.822
▁보내겠습니다	-10.822
▁충전이	-10.822
▁해산물	-10.8224
▁않다는	-10.8224
▁혹시나	-10.8226
▁공유해	-10.8231
▁측정기	-10.8232
▁차이점	-10.8233
▁글	-10.8236
▁공연	-10.8239
민	-10.8239
▁관찰	-10.824
▁번거롭게	-10.824
▁제품인	-10.8244
▁메뉴는	-10.8246
▁다양합니다	-10.8247
▁앤	-10.8247
▁접촉	-10.8248
▁무게를	-10.8259
▁환기	-10.826
▁찬	-10.8261
해드립니다	-10.8265
▁시장이	-10.8266
▁의한	-10.827
▁맞네	-10.8273
▁전체를	-10.8273
▁사용에	-10.8273
▁아닌가	-10.8274
▁어렵지	-10.8275
▁파견	-10.8278
▁운행	-10.8281
▁다용도	-10.8283
▁아뇨	-10.8285
▁예쁘게	-10.8286
여서	-10.8288
▁음향	-10.8289
▁오직	-10.8289
▁가능하다	-10.8289
지를	-10.8293
▁재계약	-10.8294
낸	-10.8296
▁어묵	-10.8297
▁예전	-10.8297
▁결혼식	-10.83
▁사용법	-10.8303
▁정교	-10.8304
▁크기에	-10.8305
▁드라이버	-10.8305
▁순위	-10.8309
이신	-10.8321
▁간략	-10.8322
▁스타	-10.8323
▁진정한	-10.8324
▁가습기	-10.8325
▁협력하여	-10.8327
▁묻고	-10.8328
▁어두운	-10.8328
▁써야	-10.8329
▁주저하지	-10.833
▁아하	-10.833
▁재무	-10.8332
▁법	-10.8333
▁정해진	-10.8336
▁수영	-10.834
▁가세요	-10.8341
▁고마워요	-10.8342
▁출신	-10.8344
▁3%	-10.8348
▁팀에서	-10.835
▁인삼	-10.8351
▁갖는	-10.8352
▁필요는	-10.8353
▁금액에	-10.8353
▁정도가	-10.8354
▁유아용	-10.8355
▁내야	-10.8355
▁죽	-10.836
▁여기다	-10.8364
▁자원	-10.8365
일간	-10.8366
▁건가	-10.8368
▁온라인에서	-10.837
▁젖	-10.8371
▁평소에	-10.8374
▁공항에	-10.8376
▁허브	-10.8377
▁2,000	-10.8378
▁저축	-10.8379
▁명함	-10.839
▁주문하실	-10.8393
▁비닐	-10.8395
▁가로	-10.8397
▁뽑아	-10.8398
▁이동할	-10.8403
▁초과	-10.8405
▁점입니다	-10.8405
▁국물이	-10.8407
▁경우도	-10.8411
▁오른쪽	-10.8412
▁싶습니까	-10.8418
▁소규모	-10.8418
▁돕기	-10.8419
▁맞을	-10.842
▁페이스	-10.842
▁개가	-10.8424
▁있어도	-10.8426
▁이곳에	-10.8428
▁분위기가	-10.8432
▁절차에	-10.8433
▁약물	-10.8436
▁절약할	-10.8439
▁연동	-10.8439
▁직업	-10.844
량을	-10.8444
▁스위치	-10.8449
▁객실은	-10.845
▁음식에	-10.8456
▁상환	-10.846
▁불능	-10.8463
▁모르고	-10.8469
▁다닐	-10.847
▁노트북을	-10.8475
▁일본에서	-10.8476
▁미칠	-10.8484
스러운	-10.8484
으며	-10.8485
▁진행했습니다	-10.8486
▁식별	-10.8486
▁칩	-10.8489
▁자리에서	-10.8496
▁칼	-10.8507
▁말했다	-10.8507
▁사망	-10.8507
▁여섯	-10.8508
▁부지	-10.851
▁부득이하게	-10.851
시입니다	-10.851
▁360	-10.8513
▁냄새를	-10.8513
▁귀한	-10.8513
되었던	-10.8514
▁경우에도	-10.8514
▁뭔	-10.8519
코	-10.8521
▁잘하고	-10.8521
▁발을	-10.8522
▁취할	-10.8524
▁미세먼지	-10.8527
▁유연성	-10.8528
▁리조트	-10.8529
▁야간	-10.853
▁균일	-10.8531
▁측면에서	-10.8531
▁옆에서	-10.8536
▁비교해	-10.854
▁부탁을	-10.8546
▁마리	-10.8548
▁반찬	-10.8549
▁걱정을	-10.8549
▁것이고	-10.8551
▁창출	-10.8551
되어있습니다	-10.8554
▁가만히	-10.8555
▁걸려	-10.8558
▁유익한	-10.8559
▁장점은	-10.856
▁줘요	-10.856
▁보존	-10.8561
▁정확도	-10.8561
▁최우선	-10.8563
▁설정이	-10.8563
▁박사님	-10.8565
▁문제점	-10.8566
▁금지	-10.8568
▁CD	-10.8569
▁후에도	-10.8573
▁말씀이	-10.8577
인용	-10.8578
▁드레스	-10.8579
▁바람에	-10.8584
▁철강	-10.8585
▁창립	-10.8587
▁무척	-10.8594
▁많다는	-10.8598
▁어렸을	-10.8599
▁사진으로	-10.86
▁중량	-10.86
▁온도가	-10.8601
▁넌	-10.8603
▁수량에	-10.8607
▁이젠	-10.8608
▁예약도	-10.8615
년의	-10.8615
▁건데요	-10.8617
▁소화	-10.8618
▁조율	-10.8622
▁끝나는	-10.8622
▁진행하겠습니다	-10.8624
▁강의	-10.8625
▁갖다	-10.8632
▁억제	-10.8638
▁집안	-10.8638
▁유닛	-10.864
▁결함	-10.864
▁성능과	-10.8642
ing	-10.8646
▁드리면	-10.8647
▁재미있게	-10.8647
▁도와줄	-10.8647
정기적으로	-10.8653
▁조건은	-10.8658
▁끊임없이	-10.8661
▁램프	-10.8662
▁시대에	-10.8662
▁설문지	-10.8663
▁풀어	-10.8665
같이	-10.8666
▁시작됩니다	-10.8667
▁인터넷에	-10.8668
▁구두	-10.8668
되었다는	-10.8668
▁글자	-10.8669
었어	-10.8671
▁정보도	-10.8673
▁알코올	-10.8675
했었습니다	-10.8676
개만	-10.8679
▁슬	-10.8682
▁기구	-10.8682
▁도착한	-10.8686
▁기업에	-10.8686
▁말아	-10.8686
▁결과는	-10.8686
▁리뉴얼	-10.8691
▁대단한	-10.8691
▁철저히	-10.8691
▁흥미	-10.8692
▁프로세서	-10.8692
▁가능하신	-10.8694
▁연락할	-10.8694
▁기계가	-10.8696
▁연결되어	-10.8696
▁충분하지	-10.8697
▁해가지고	-10.87
▁이용해서	-10.8701
▁인생	-10.8701
▁정리해서	-10.8701
개와	-10.8708
▁알고리즘	-10.871
▁기반을	-10.8713
▁컴퓨터에	-10.8714
▁믿어	-10.8716
▁작동하는	-10.8721
▁사유	-10.8726
된다	-10.8728
▁보내신	-10.873
▁뷰티	-10.873
▁상쾌	-10.8731
어야	-10.8735
▁위기	-10.8737
▁먹지	-10.8737
▁먹겠습니다	-10.8738
▁모드로	-10.8738
▁유래	-10.8738
▁SEO	-10.8739
▁GPS	-10.874
해주는	-10.8741
▁팔고	-10.8741
▁정산	-10.8743
▁부모님	-10.8743
▁호환됩니다	-10.8744
▁청정	-10.8746
▁다음날	-10.8749
▁운동화	-10.8749
▁사진이	-10.8749
▁러시아	-10.8754
▁은행에	-10.8756
대한	-10.8756
▁용어	-10.8758
▁들려	-10.8766
▁영업일	-10.8766
▁업	-10.8771
▁껍질	-10.8773
▁소유하고	-10.8773
지에	-10.8775
▁사람과	-10.878
▁기재	-10.8783
▁있거나	-10.8784
▁방문이	-10.8784
▁법률	-10.8787
▁식	-10.879
▁생각해요	-10.8791
▁정상적인	-10.8792
▁치수	-10.8795
▁여행용	-10.8797
▁출시하였습니다	-10.8797
▁살펴보고	-10.8798
▁책정	-10.8802
▁캔	-10.8806
▁랩	-10.8806
▁구매하려고	-10.8808
▁색깔이	-10.8808
▁노력합니다	-10.8809
기능	-10.8809
▁물량이	-10.8814
▁O	-10.8814
셨어요	-10.8821
▁원하시는지	-10.883
▁코튼	-10.883
므로	-10.883
▁쿠키	-10.883
▁주었습니다	-10.8838
▁빌딩	-10.8839
▁V	-10.8841
▁출시되었습니다	-10.8844
▁얼룩	-10.8846
▁구매하기	-10.8847
▁듯한	-10.8853
▁방식이	-10.8857
▁모델에	-10.8857
둔	-10.8858
▁색상과	-10.8858
▁동일	-10.8864
▁홀	-10.8865
▁배경	-10.8866
▁해주시길	-10.887
▁주머니	-10.8874
▁명령	-10.8875
▁안부	-10.8877
▁매끄러운	-10.8877
▁다시한번	-10.8878
▁주셔도	-10.8878
공	-10.8878
▁데리고	-10.8879
▁연예인	-10.888
▁아휴	-10.8881
▁뷰	-10.8882
▁모험	-10.8883
▁생각하면	-10.8883
▁우수합니다	-10.8884
▁표시됩니다	-10.8885
▁해외로	-10.8885
▁창업	-10.8887
▁귀국	-10.8887
▁답을	-10.889
▁소개하고	-10.889
▁샘플이	-10.889
▁발송해	-10.8892
▁드리며	-10.8894
▁나누어	-10.8895
▁갱신	-10.8896
▁-	-10.8896
▁달라요	-10.8898
▁노고	-10.8898
▁그레이	-10.8903
▁막걸리	-10.8904
▁단단한	-10.8905
▁싶어서요	-10.8906
▁면도기	-10.8908
▁이용하고	-10.8911
▁보내드리는	-10.8911
▁넣어야	-10.8913
▁오프라인	-10.8913
▁하우스	-10.8913
▁현재는	-10.8913
▁창문	-10.8917
▁갔어	-10.8918
▁되었	-10.8919
▁피로	-10.8922
시키는	-10.8923
▁피트니스	-10.8924
▁진한	-10.8925
▁떠	-10.8925
▁BB	-10.8926
▁유용합니다	-10.8928
▁충분합니다	-10.8928
▁즐기는	-10.8928
▁단어	-10.8932
▁스케줄이	-10.8932
▁필리핀	-10.8935
▁끝날	-10.8939
▁테마	-10.894
▁가실	-10.894
▁소량	-10.8941
▁이야기할	-10.8952
▁기업으로	-10.8952
▁중심으로	-10.8952
▁게스트	-10.8955
▁문제입니다	-10.8959
▁포트폴리오	-10.896
▁직원들과	-10.8961
▁밀	-10.8962
▁입기	-10.8964
▁손실	-10.8965
▁플랜	-10.8965
▁파악할	-10.8967
▁으악	-10.8972
▁진지하게	-10.8973
▁가수	-10.8974
▁없으며	-10.8976
▁어렵게	-10.8976
▁히터	-10.8977
▁꺼내	-10.898
▁칭찬	-10.898
▁머신	-10.8982
▁낸	-10.8983
▁아이들은	-10.8983
▁규제	-10.8984
▁말씀드리고	-10.8985
▁면역	-10.899
▁보십시오	-10.8991
▁세정	-10.8993
▁앉아서	-10.8994
▁방식은	-10.8997
▁밀가루	-10.8998
▁보유	-10.8998
▁빚	-10.8998
▁책임이	-10.8999
▁고구마	-10.8999
▁휴대전화	-10.9
▁샐러드	-10.9002
▁퇴근	-10.9003
▁기여	-10.9005
▁상가	-10.9006
▁생활을	-10.9008
▁거주	-10.9008
▁숙성	-10.901
청	-10.901
▁쥐	-10.9013
▁증거	-10.9018
▁이리로	-10.9018
▁도어	-10.9019
▁미만	-10.902
▁거부	-10.9021
▁커	-10.9021
▁방지하기	-10.9021
▁중에도	-10.9024
▁제품이라	-10.9028
처리	-10.903
▁장점입니다	-10.9031
▁선호합니다	-10.9031
▁중에는	-10.9032
▁요청했습니다	-10.9032
▁들어가면	-10.9033
▁OOO	-10.9033
▁쓰	-10.9034
▁쳐	-10.9035
▁있으신지	-10.9037
▁올릴	-10.9039
▁삭제	-10.9041
▁입금해	-10.9043
▁변경하고	-10.9047
▁알림을	-10.9049
▁해드리고	-10.9052
▁원칙	-10.9057
▁것이니	-10.9058
▁비용에	-10.9059
▁편하신	-10.906
▁그렇기에	-10.9061
▁주꾸미	-10.9062
▁뛰어나	-10.9062
▁오렌지	-10.9062
즈	-10.9063
▁대리점	-10.9064
▁선생님이	-10.9066
▁티켓	-10.9067
▁식당은	-10.9068
▁표면에	-10.9069
▁연구하고	-10.907
▁2020	-10.9072
▁않았다	-10.9072
▁모양의	-10.9074
▁품종	-10.9075
N	-10.9076
▁나사	-10.9076
▁결정이	-10.9078
겠네	-10.9083
문	-10.9085
▁맛도	-10.9088
▁남편이	-10.9089
▁변경하고자	-10.9089
▁나온다	-10.9099
▁세계에	-10.91
직	-10.9101
▁종국	-10.9103
▁끓여	-10.9104
호텔	-10.9108
▁혹	-10.9111
▁치고	-10.9112
▁그곳에	-10.9115
▁고장이	-10.9115
▁애니메이션	-10.9115
▁선글라스	-10.9115
▁얼른	-10.9116
▁하이브리드	-10.9117
▁비교적	-10.9117
▁정원	-10.9119
▁기후	-10.9121
▁않았으	-10.9122
▁몰라서	-10.9123
▁광	-10.9126
▁잘했다	-10.9127
▁준비하는	-10.9129
▁모발에	-10.9132
▁않다고	-10.9133
▁소독	-10.9133
▁쇼	-10.9135
▁지문	-10.9137
▁번씩	-10.9138
▁감상	-10.9138
▁화	-10.9139
법	-10.914
▁가격대	-10.914
▁샌드위치	-10.9141
▁리스트	-10.9143
▁차례	-10.9145
▁일어난	-10.9145
▁감사하고	-10.9147
▁쓰기	-10.9149
▁다이어트	-10.9149
▁모습	-10.9151
▁사우나	-10.9156
▁소중	-10.9156
▁먹어요	-10.9158
친	-10.9159
▁정보와	-10.9161
▁온다	-10.9162
▁있긴	-10.9164
▁부탁드릴게요	-10.9166
▁분실	-10.9169
▁단계에서	-10.9172
F	-10.9177
▁멀지	-10.9178
▁주문하면	-10.9181
▁롱	-10.9183
▁방문하실	-10.9184
▁모양을	-10.9185
▁영업팀장	-10.9185
▁보호하는	-10.9188
▁물로	-10.9189
▁단계에	-10.919
▁부상	-10.9193
▁최근에는	-10.9193
▁데이터가	-10.9197
▁건전지	-10.9197
▁문의하고	-10.9197
▁그뿐만	-10.9198
▁달린	-10.9199
▁박람회에	-10.9202
▁공용	-10.9202
▁보여주는	-10.9203
▁죄송한데	-10.9203
▁춤	-10.9204
▁멋있어	-10.9207
분에	-10.9208
▁기가	-10.9209
▁죄송하게	-10.9211
▁일회용	-10.9211
▁패키지에	-10.9212
▁늦은	-10.9212
▁박테리아	-10.9212
드리려고	-10.9213
▁귀하는	-10.9213
▁저렴하게	-10.9215
▁짜	-10.9215
▁보였습니다	-10.9216
▁버섯	-10.9218
▁기어	-10.9221
▁소프트웨어에	-10.9221
▁물체	-10.9223
▁타임	-10.9226
▁플랫폼에	-10.9233
▁절차가	-10.9234
▁반대	-10.9235
▁아버님	-10.9239
▁장면	-10.9239
▁내장된	-10.9242
▁감독님	-10.9245
▁주장	-10.9245
▁분산	-10.9246
▁식당에	-10.9249
▁초에	-10.9249
▁생각은	-10.9251
▁시안	-10.9253
▁항균	-10.9254
▁문제들	-10.9254
▁관계로	-10.9254
▁답	-10.9256
▁시연	-10.9256
▁해양	-10.9256
▁것들	-10.9258
▁소설	-10.9258
▁준비해야	-10.9259
▁아닙니까	-10.9261
▁오리지널	-10.9261
▁지시	-10.9263
▁텐트	-10.9265
▁전화해	-10.9268
▁유용한	-10.9268
▁지적	-10.927
▁의사가	-10.927
▁VR	-10.9271
▁좋아하시는	-10.9274
제품은	-10.9274
▁차량에	-10.9276
▁후면	-10.9277
▁크지	-10.9278
▁응대	-10.9278
가고	-10.9279
▁동봉	-10.9281
▁할까	-10.9288
▁시에는	-10.9291
▁세입자	-10.9295
▁설계되어	-10.9303
▁관해서	-10.9304
d	-10.9308
▁인원이	-10.9311
▁알아봐	-10.9311
▁만나보세요	-10.9312
▁프린트	-10.9313
▁핸드	-10.9313
▁70%	-10.9314
▁공급할	-10.9314
▁방안	-10.932
▁신경써	-10.9323
▁장애	-10.9324
▁나왔어요	-10.9325
▁말이죠	-10.9326
▁제때	-10.9326
▁제시한	-10.9328
▁OO	-10.9328
▁공급하는	-10.9331
였어요	-10.9332
▁맛집	-10.9334
▁업체는	-10.9337
▁다가오는	-10.9337
▁제작하는	-10.9337
▁가지를	-10.9337
▁장비가	-10.9339
▁내부에서	-10.934
▁거면	-10.9343
▁특화	-10.9345
▁포인트를	-10.9346
▁할게	-10.9349
함	-10.9349
▁제안하신	-10.9349
시다	-10.9353
▁원희	-10.9355
▁사용하시는	-10.9356
▁잘하는	-10.9356
▁슈퍼	-10.9357
▁농기계	-10.9359
▁베스트	-10.9359
▁계십니까	-10.936
▁부츠	-10.936
▁전자책	-10.9361
▁끼	-10.9361
정도	-10.9362
▁변형	-10.9364
▁간편합니다	-10.9365
▁요청하는	-10.9365
▁커서	-10.937
▁원가	-10.9375
▁튀김	-10.9376
▁연결된	-10.9378
하십니까	-10.9382
▁영역	-10.9383
▁듯합니다	-10.9389
▁무상	-10.9392
▁배우는	-10.9392
▁달걀	-10.9398
▁브랜드입니다	-10.9401
▁교체할	-10.9403
▁간에	-10.9403
▁해봐	-10.9408
▁괜히	-10.9409
▁유모차	-10.9409
▁급격	-10.9409
▁않았다면	-10.9414
▁라이프	-10.9414
▁갓	-10.9415
▁자세하게	-10.9416
▁감독	-10.942
▁추천하는	-10.9424
▁일주일이	-10.9425
▁비서	-10.9426
▁5,000	-10.9429
▁지하철	-10.9432
▁가위바위보	-10.9434
▁터빈	-10.9435
▁부모	-10.9435
님의	-10.9436
▁옷이	-10.9438
▁과제	-10.9438
▁추진	-10.944
기로	-10.9444
▁회의록	-10.9444
▁받았	-10.9446
▁즐기기	-10.9446
▁자율	-10.945
▁없네	-10.945
▁여러분께	-10.9451
▁거리가	-10.9452
▁하던	-10.9452
▁혈압	-10.9452
▁섞어	-10.9454
▁피부가	-10.9458
▁기쁜	-10.9459
▁불행히도	-10.9459
▁선보입니다	-10.9459
▁사이버	-10.946
▁브라운	-10.9462
▁식탁	-10.9463
▁하시겠습니까	-10.9463
▁드셔도	-10.9466
▁염려	-10.9467
▁비밀	-10.9468
▁협력에	-10.9468
퍼	-10.9468
▁해주신	-10.9469
▁시작하고	-10.9469
▁올리고	-10.9471
▁끌고	-10.9472
▁과자	-10.9474
▁32	-10.9474
▁모여	-10.9478
▁기계는	-10.9479
▁데에	-10.9483
▁배포	-10.9484
▁스타일이	-10.9484
▁와이프	-10.9486
▁원룸	-10.9487
▁잘라	-10.9488
업체	-10.9488
▁드셔	-10.9489
개는	-10.9491
▁귀사로	-10.9498
▁해주셔야	-10.9503
▁카펫	-10.9509
▁때때로	-10.9509
▁뷔페	-10.9509
▁대폭	-10.9509
▁800	-10.9513
▁예뻐	-10.9515
▁면도	-10.9518
셨으면	-10.9518
▁주문하는	-10.9519
▁용량은	-10.9519
▁주문하겠습니다	-10.9525
▁연구가	-10.9529
▁실현	-10.953
▁시즌에	-10.9533
▁있었고	-10.9534
하시어	-10.9534
리터	-10.9537
▁군데	-10.9539
▁올해는	-10.9541
▁행사가	-10.9542
▁실례	-10.9546
▁폐	-10.9549
▁수출을	-10.9554
▁선택하는	-10.9554
▁가짜	-10.9555
▁척	-10.9555
▁손상된	-10.9557
▁까다로운	-10.9559
▁되겠습니까	-10.9559
▁담았습니다	-10.956
▁그랬는데	-10.9561
▁시간도	-10.9561
▁전반적인	-10.9561
▁첨부한	-10.9561
겠어	-10.9563
▁전동	-10.9566
▁담요	-10.9567
▁손가락	-10.9569
▁결과적으로	-10.957
▁아저씨	-10.957
▁들어온	-10.9571
▁하단	-10.9573
▁운송이	-10.9576
▁구하고	-10.9576
▁감사했습니다	-10.9576
▁구경	-10.9582
▁투자하는	-10.9582
▁곰팡이	-10.9582
▁구비	-10.9585
▁알려주셔서	-10.9589
▁반죽	-10.9591
▁웃겨	-10.9592
▁밀봉	-10.9595
▁바뀐	-10.9599
k	-10.96
▁영광	-10.9602
▁수출하고	-10.9604
▁고려하고	-10.9604
▁재질로	-10.9604
▁가방을	-10.9607
▁움직이는	-10.9608
듯이	-10.9614
▁인구	-10.9614
▁식당이	-10.9618
▁사람도	-10.9623
▁정보에	-10.9623
a	-10.9628
▁가능하니	-10.963
▁현재까지	-10.963
▁세트에	-10.9631
▁높이기	-10.9631
▁건물을	-10.9634
▁결과에	-10.9634
▁우주	-10.9643
▁제조기	-10.9643
▁상관	-10.9645
▁공장이	-10.9651
▁조속	-10.9651
▁구입한	-10.9651
▁편지를	-10.9658
▁워치	-10.9661
▁기한이	-10.9661
▁있겠네요	-10.9661
▁하거든요	-10.9662
▁상표	-10.9663
▁지닌	-10.9663
▁발라	-10.9664
▁관리하고	-10.9664
▁없었어요	-10.9666
▁낙지	-10.9666
▁들어올	-10.9666
▁마라	-10.9668
▁방식입니다	-10.967
▁영역을	-10.9671
▁공급해	-10.9671
▁그들과	-10.9672
▁영업부	-10.9677
▁연계	-10.9678
▁유지됩니다	-10.968
y	-10.9684
▁유발	-10.9686
▁관리에	-10.9688
▁육수	-10.9689
▁하시나요	-10.9693
▁숨겨	-10.9696
▁예상합니다	-10.9698
▁31	-10.97
▁과장	-10.97
▁휴식	-10.9702
▁프로필	-10.9704
▁음식입니다	-10.9705
루	-10.9705
▁맛있는데	-10.9708
▁밸브	-10.9709
더니	-10.971
▁너그러	-10.9711
▁산업용	-10.9714
▁한잔	-10.9714
▁핏으로	-10.9716
▁송부	-10.9718
▁운용	-10.9719
▁만화	-10.972
▁그러다	-10.9722
▁가루	-10.9722
▁서적	-10.9724
▁병원에서	-10.9725
▁원입니다	-10.9725
▁만나고	-10.9725
▁정비	-10.9726
▁그만해	-10.9727
▁모양이	-10.9731
▁가능성	-10.9732
▁감정	-10.9735
▁대충	-10.9736
▁꾸준	-10.9738
▁기업들	-10.9741
▁안에는	-10.9749
▁화질	-10.9749
하신다고	-10.9752
▁궁금	-10.9753
▁연출	-10.9754
▁센터로	-10.9755
▁물리적	-10.9756
▁경량	-10.9758
▁그때까지	-10.9758
복	-10.976
▁진료	-10.976
▁회	-10.9762
▁디비디비딥	-10.9762
▁있으십니까	-10.9762
▁결코	-10.9763
▁기저귀	-10.9764
께	-10.9765
▁보러	-10.977
▁등산	-10.9771
▁모레	-10.9771
▁이동이	-10.9772
▁기다려야	-10.9776
▁조건으로	-10.9778
▁지식이	-10.9781
▁사려고	-10.9781
보시면	-10.9785
▁프로필과	-10.9788
▁일어나지	-10.9789
미터	-10.9789
▁힌트	-10.9793
▁귀여운	-10.9794
▁사정으로	-10.9794
▁독립	-10.98
학년	-10.9801
▁잡는	-10.9802
▁직관적	-10.9803
▁요구하는	-10.9803
▁굿	-10.9814
▁과도	-10.9815
▁후보	-10.9816
거에요	-10.9816
▁40%	-10.9816
분만	-10.9817
▁머무를	-10.9822
▁낭비	-10.9824
▁싼	-10.9828
창	-10.9828
▁전세계	-10.9833
▁거울	-10.9837
▁생각하시면	-10.9842
▁반대로	-10.9843
▁초대하고	-10.9844
▁되는데요	-10.9845
▁어디든	-10.9845
▁이상으로	-10.9847
▁발표를	-10.9851
▁녹	-10.9857
▁영어로	-10.9857
▁부탁드려	-10.9858
▁불만이	-10.9861
▁만난	-10.9864
▁게이밍	-10.9866
▁유지보수	-10.9867
▁사용자에게	-10.9867
9	-10.9874
▁무사	-10.9876
▁공구	-10.9876
▁담당하는	-10.9878
▁떼	-10.9878
▁전문가가	-10.9878
▁인하여	-10.988
▁책이	-10.988
▁알려드릴	-10.9883
▁방사선	-10.9884
▁셀	-10.9885
▁인터넷에서	-10.9887
▁확인됩니다	-10.9888
▁고온	-10.9888
▁입소문	-10.9892
▁후회	-10.9894
▁하나하나	-10.9896
▁극대화	-10.9898
▁상황은	-10.9898
▁암호	-10.99
▁레시피	-10.9902
▁대답	-10.9903
수가	-10.9907
▁보험은	-10.9907
▁수도꼭지	-10.9908
▁부분에서	-10.9908
▁맞았어	-10.9909
▁산업에	-10.9914
▁시간대	-10.9915
▁빨간	-10.9915
▁기계에	-10.9917
봉	-10.9917
▁짧게	-10.9918
▁남녀노소	-10.9918
▁목욕	-10.9918
▁과연	-10.9918
▁즐겨보세요	-10.9919
▁엄청나게	-10.992
▁플랫폼에서	-10.9921
▁깜짝이야	-10.9922
▁바라고	-10.9926
된다면	-10.9926
▁소진되었	-10.9926
▁합시다	-10.9929
▁맞추	-10.9931
▁보호하기	-10.9937
▁비즈니스에	-10.9942
▁누	-10.9951
어서	-10.9955
▁전지판	-10.9961
▁사용해서	-10.9961
▁빨라	-10.9962
▁손질	-10.9962
▁테니까	-10.9962
▁복	-10.9963
▁두었습니다	-10.9963
▁복귀	-10.9964
▁것인가요	-10.997
▁이루어질	-10.9971
▁와인을	-10.9972
▁전산	-10.9973
▁편안합니다	-10.9977
▁배송된	-10.9979
▁조심	-10.9979
월부터	-10.9981
▁통계	-10.9983
용할	-10.9983
▁기숙사	-10.9983
▁대처	-10.9987
래요	-10.9989
년대	-10.9989
▁옆	-10.9991
▁바꾸는	-10.9992
▁눈물	-10.9995
▁덮개	-11.0002
▁반면	-11.0003
▁요리가	-11.0004
▁부분입니다	-11.0009
▁전달할	-11.0011
입	-11.0014
▁커플	-11.0015
▁얼굴을	-11.0017
▁요청이	-11.002
전에	-11.0023
▁놓은	-11.0023
▁당분간	-11.0023
▁오피스텔	-11.0025
▁완료된	-11.0028
▁보충	-11.003
▁N	-11.0034
▁고가	-11.0035
▁키워드	-11.004
▁막대	-11.0042
▁가전	-11.0044
▁양쪽	-11.0046
임	-11.0051
▁지출	-11.0052
하네요	-11.0054
▁만나는	-11.0056
▁하이	-11.0056
▁관해서는	-11.006
브	-11.0064
분이면	-11.0067
겠지	-11.0067
▁잡아야	-11.0067
하자	-11.0068
▁판매량	-11.0068
이잖아	-11.0074
▁드럼	-11.0076
▁만족스러운	-11.0077
▁보내주셔서	-11.0078
▁무대	-11.008
▁스테이크	-11.0081
▁발전에	-11.0081
▁비료	-11.0082
해보세요	-11.0082
▁소개해드리겠습니다	-11.0084
▁칠	-11.0088
였던	-11.0092
▁가능하다고	-11.01
▁난방	-11.0102
▁책자	-11.0103
축	-11.0104
▁없으니까	-11.0106
▁과거에	-11.0108
알	-11.011
▁젤	-11.011
▁들은	-11.0111
▁높이고	-11.0112
▁봄	-11.012
▁기기에	-11.0124
▁키가	-11.0125
▁으아	-11.0129
▁스트링	-11.0129
▁느껴보세요	-11.0129
▁교과서	-11.013
▁신중하게	-11.0134
▁넣지	-11.0137
▁소모	-11.0137
▁적용하였습니다	-11.0138
▁탐색	-11.0138
▁설	-11.0138
▁재료가	-11.0139
▁본인의	-11.0139
▁미치는	-11.014
▁건축물	-11.0142
▁상사	-11.0142
▁보호할	-11.0143
▁겸	-11.0144
▁알기	-11.0148
▁보정	-11.0151
▁AS	-11.0152
▁방식에	-11.0158
▁나고	-11.0163
▁선택하여	-11.0163
▁지난해	-11.0167
▁공기청정기	-11.0167
▁걸고	-11.0167
▁놔	-11.0172
▁캐비닛	-11.0175
▁가발	-11.0177
▁않으며	-11.0182
▁좁은	-11.0182
▁유튜브	-11.0184
▁않으시면	-11.0184
▁필요하신가요	-11.0185
▁조용히	-11.0185
▁탱크	-11.0187
▁핑크	-11.0187
▁결	-11.0189
약	-11.0192
▁아쉽게도	-11.0196
▁걸어서	-11.0197
▁골목식당	-11.0197
원이	-11.02
시간에	-11.0203
▁적혀	-11.0204
▁과정은	-11.0204
▁규격	-11.0205
기업	-11.0206
▁이용이	-11.0214
▁현대적	-11.0216
▁맞다	-11.0223
▁들어요	-11.0224
▁잠	-11.0224
▁좋	-11.0225
h	-11.0225
▁선적이	-11.0226
▁퍼	-11.0228
▁사장님께	-11.023
▁한달	-11.0231
▁증상	-11.0231
▁수동	-11.0232
▁시스템과	-11.0234
▁스마트폰을	-11.0235
일은	-11.0236
▁이러고	-11.0241
▁주문하시면	-11.0242
▁정해	-11.0247
▁작고	-11.0251
▁저희한테	-11.0253
▁주문과	-11.0254
▁일하게	-11.0258
▁배정	-11.0259
▁궁금하다	-11.0259
▁청	-11.026
▁출장이	-11.026
▁없으니	-11.0263
▁발생했습니다	-11.0264
▁다를	-11.0267
▁신용카드	-11.027
▁판매자	-11.0272
▁동업	-11.0274
▁몰랐어	-11.028
▁디자인도	-11.0282
▁바람이	-11.0283
▁켜	-11.0285
▁언제부터	-11.0286
▁누르	-11.0286
씨는	-11.0287
▁부분도	-11.0289
합시다	-11.029
▁ISO	-11.029
▁양세형	-11.029
▁움직일	-11.029
▁이승기	-11.029
▁갑작스럽	-11.029
▁부탁드리며	-11.0291
▁80%	-11.0293
였으면	-11.0294
▁변경해	-11.0295
▁편리하고	-11.0295
▁명시된	-11.0296
▁전에는	-11.0297
▁지원해	-11.0301
▁복사기	-11.0301
갑니다	-11.0306
▁되잖아요	-11.0306
▁작동이	-11.0308
▁체인	-11.0308
▁재촉	-11.0309
▁동의합니다	-11.0311
▁자유	-11.0313
▁때에는	-11.0314
▁받았다	-11.0317
▁나야	-11.0323
▁리모컨	-11.0327
▁소개할	-11.0327
▁구축할	-11.0332
▁예상하고	-11.0332
▁국	-11.0333
▁배수	-11.0333
▁체중	-11.0334
▁괜찮은데	-11.0339
▁그림을	-11.0339
▁탈모	-11.0339
액	-11.034
▁않으실	-11.0345
▁일시적	-11.0345
▁놀랐습니다	-11.0346
▁알려드리기	-11.0347
▁파일에	-11.0347
▁교정	-11.0348
▁연장해	-11.0349
망	-11.035
▁평	-11.0351
▁되겠네요	-11.0351
셨습니다	-11.0352
▁세로	-11.0354
▁중점을	-11.0354
▁사업자	-11.0355
출	-11.0356
▁구매했습니다	-11.0361
▁오리	-11.0361
▁운이	-11.0376
▁교수님	-11.0379
▁지연될	-11.0381
▁착용하기	-11.0383
▁코트	-11.0384
▁아닌지	-11.0385
관련	-11.0388
▁맞는지	-11.039
▁단축	-11.0393
▁한번에	-11.0394
▁잠재	-11.0396
▁보온	-11.0396
▁하루를	-11.0399
▁인상이	-11.0399
▁헉	-11.0399
▁문의사항	-11.0401
▁점유율	-11.0401
▁대신에	-11.0405
였는데	-11.0405
▁보유한	-11.0414
▁보리	-11.0415
▁연구소에서	-11.0422
0	-11.0424
▁저하	-11.0424
▁납부해	-11.0426
▁실크	-11.0427
▁추구	-11.0428
▁인수	-11.0431
▁직원분들	-11.0432
▁이체	-11.0433
▁골	-11.0439
▁질감	-11.0441
▁개조	-11.0446
c	-11.0447
▁퀴즈	-11.0448
▁디스크	-11.0448
▁생산된	-11.0449
▁검토하고	-11.045
▁아동	-11.045
▁이야기가	-11.0451
▁닿지	-11.0454
▁빅데이터	-11.0454
▁걸리지	-11.0454
▁으	-11.0455
▁차지	-11.0456
▁악보	-11.0456
▁보여드리겠습니다	-11.0456
▁카드로	-11.0457
▁시청자	-11.0458
▁한국인들	-11.0458
▁깔끔하고	-11.0458
▁멤버	-11.0461
▁칼로리	-11.0461
▁논의하기	-11.0462
▁매입	-11.0464
시기	-11.0468
▁조화	-11.0471
▁입자	-11.0473
▁날씨에	-11.0474
▁판매되고	-11.0476
용품	-11.0477
▁제거하는	-11.0477
명은	-11.0478
▁입장에서	-11.0478
▁클레임	-11.0481
▁변	-11.0481
▁2%	-11.0481
▁제공한	-11.0482
▁잡기	-11.0483
▁만족하실	-11.0484
▁체계적	-11.0485
▁직장	-11.0487
퍼센트	-11.0489
▁해보세요	-11.0491
▁라인에	-11.0494
▁종류에	-11.0494
▁지갑	-11.0494
▁스팀	-11.0497
됩니까	-11.0498
▁엔터테인먼트	-11.0505
▁파일이	-11.0507
▁쓰면	-11.0508
▁기다리는	-11.051
▁몰랐습니다	-11.051
▁좋죠	-11.0512
▁투자에	-11.0512
▁빅	-11.0513
▁언급한	-11.0514
▁의무	-11.0517
▁광물	-11.052
▁목요일에	-11.0522
▁해결하는	-11.0523
▁했잖아	-11.0525
▁칼슘	-11.0532
▁협조해	-11.0532
던데	-11.0535
▁혈액	-11.0536
▁삽입	-11.0539
▁가볍	-11.0543
▁책임감	-11.0544
▁말까지	-11.0551
▁지역을	-11.0551
절	-11.0551
▁좋다는	-11.0553
▁청소를	-11.0556
▁지역은	-11.0557
▁현지에서	-11.0558
힌	-11.0559
▁그걸로	-11.056
▁보여요	-11.056
t	-11.056
▁디젤	-11.0565
▁앞두고	-11.0565
▁말씀드리자면	-11.0565
▁탁월합니다	-11.0567
▁생존	-11.0568
▁박수	-11.057
▁삼각대	-11.057
▁부위에	-11.0571
▁화면에	-11.0571
▁촉촉한	-11.0572
▁헬멧	-11.0572
▁가르쳐	-11.0572
▁위주로	-11.0574
▁골드	-11.0575
▁중지	-11.0577
▁중고	-11.0579
▁작물	-11.058
▁살려	-11.058
▁도매용	-11.058
▁감사할	-11.0581
▁같다고	-11.0581
▁정도입니다	-11.0586
▁이번달	-11.0591
▁자본	-11.0593
▁남는	-11.0595
올	-11.06
▁작업자	-11.0602
▁얘기하는	-11.0605
▁세상	-11.0608
▁이야기해	-11.0611
▁파괴	-11.0614
▁지능	-11.0618
▁보충제	-11.0618
▁음반	-11.0618
▁맞춘	-11.0621
▁완비	-11.0621
▁타이머	-11.0623
▁열리지	-11.0625
▁아프리카	-11.0629
▁가격입니다	-11.0631
▁칼라	-11.0636
▁덕에	-11.0637
▁조심해	-11.0637
▁선수가	-11.0639
▁가지가	-11.0641
▁임신	-11.0644
▁빛나는	-11.0649
▁끝내	-11.065
▁매매	-11.0657
되었는지	-11.0657
▁펜션	-11.0659
▁급증	-11.0663
▁제거하고	-11.0663
▁것입니까	-11.0663
▁분기	-11.0665
▁마요	-11.0666
▁고춧가루	-11.0672
▁색이	-11.0673
▁바쁘신	-11.0675
▁바란다	-11.0677
▁돌아올	-11.0677
▁가능하시다면	-11.0677
되길	-11.0677
▁갖춰져	-11.0678
▁알리고자	-11.0679
▁이용자	-11.0679
▁이따가	-11.068
대가	-11.068
▁불가	-11.0681
▁진행한	-11.0686
▁세미나에	-11.0686
▁기업은	-11.0692
▁다양	-11.0693
림	-11.0696
▁신발을	-11.0698
거죠	-11.0698
▁필요하면	-11.0699
▁발열	-11.0699
▁의존	-11.0702
▁부품이	-11.0706
▁오늘도	-11.0709
▁설문	-11.0713
▁성함	-11.0714
▁숟가락	-11.0714
▁없는지	-11.0715
▁동생	-11.072
▁귀사에서는	-11.0721
▁녹색	-11.0728
▁애들이	-11.0728
▁고추	-11.0732
▁경영진	-11.0732
▁목소리	-11.0733
랍니다	-11.0733
▁팩에	-11.0733
l	-11.0734
▁잔디	-11.0734
명과	-11.0734
▁체류	-11.0734
▁사은품	-11.0735
▁선도	-11.0736
▁코로나로	-11.0738
▁하셨어요	-11.0739
▁현미경	-11.0739
▁풍성	-11.0742
▁장착된	-11.0743
▁깨	-11.0744
▁농도	-11.0748
▁지인	-11.0749
▁와요	-11.075
▁단점이	-11.0752
▁태국	-11.0753
▁버튼이	-11.0758
행	-11.0761
▁무드	-11.0763
▁제거해	-11.0763
▁하십시오	-11.0766
▁하나에	-11.0768
▁사용되고	-11.077
▁나만의	-11.0772
▁행운	-11.0774
)'	-11.0775
▁냉장	-11.0775
▁모임	-11.0776
▁특징으로	-11.0777
▁보여줄	-11.0781
▁다리를	-11.0784
▁있구나	-11.079
▁임무	-11.0791
량이	-11.0792
▁정수	-11.0793
▁국내산	-11.0795
▁짠	-11.0795
▁거구나	-11.0796
▁모델입니다	-11.0797
▁수학	-11.0797
▁된장	-11.0798
▁구비되어	-11.0802
▁말하면	-11.0803
▁체인점	-11.0804
▁위험한	-11.0804
▁29	-11.0806
▁해지	-11.0808
▁빈티지	-11.0809
▁출시될	-11.081
▁재미있다	-11.081
▁응원	-11.0812
▁그러면서	-11.0814
시나요	-11.0816
▁동현이	-11.0816
▁성장하고	-11.0818
▁부문	-11.0818
▁위반	-11.0818
▁어렵다	-11.082
▁부서로	-11.0823
▁조성	-11.0827
▁발송이	-11.0828
▁존재	-11.083
▁않는다고	-11.0834
▁이루어	-11.0835
▁저장할	-11.0837
▁주문량이	-11.0841
▁얼굴에	-11.0843
▁줄은	-11.0845
▁사인	-11.0845
▁회사도	-11.0845
▁말하고	-11.0846
▁먹은	-11.0848
▁서브	-11.0848
▁프레젠테이션에	-11.0849
▁얘기가	-11.0851
▁플러스	-11.0853
▁이익	-11.0854
▁받으시면	-11.0854
▁플레이트	-11.0856
▁종류는	-11.0858
▁조각	-11.0862
▁입찰	-11.0863
▁지난달	-11.0866
▁리뷰	-11.0866
다른	-11.0868
▁서서	-11.0869
▁끈	-11.0871
▁일종의	-11.0872
▁공부를	-11.0873
▁친구들	-11.0874
▁중소기업	-11.0877
▁제작해	-11.0881
▁미세한	-11.0885
▁가져가	-11.0887
시쯤	-11.0888
▁자석	-11.0889
기술	-11.089
▁죄송한	-11.0891
▁I	-11.0897
▁급	-11.0899
▁조정이	-11.0902
였어	-11.0903
▁현장에	-11.0903
▁이따	-11.0904
▁카레	-11.0904
▁디럭스	-11.0905
▁내비게이션	-11.0905
▁스킨케어	-11.0905
▁예정인데	-11.0905
▁씨앗	-11.0908
▁심플한	-11.0912
▁무기	-11.0913
▁핀	-11.0915
▁분말	-11.0915
▁조언	-11.0916
▁도착하면	-11.0917
▁비용으로	-11.0919
▁동기화	-11.0922
▁끝나	-11.0924
▁내용물	-11.0924
▁튜브	-11.0925
▁저항	-11.0926
▁케이스는	-11.0926
▁무상으로	-11.0928
족	-11.0928
하다는	-11.0931
▁좋아한다	-11.0935
▁보온성	-11.0935
▁경제적	-11.0936
▁바라는	-11.0937
시킨	-11.094
▁이행	-11.0941
▁대안	-11.0943
된다고	-11.0944
탄	-11.0945
▁연애	-11.0945
▁넘겨	-11.0948
▁적합	-11.0949
▁간이	-11.095
▁팀원	-11.0952
▁조기	-11.0954
▁시그니처	-11.0955
▁연락하시면	-11.0955
▁내면	-11.0957
▁부식	-11.0959
▁이름으로	-11.096
▁말한	-11.0961
▁얻기	-11.0963
▁선두	-11.0963
▁무리가	-11.0964
명입니다	-11.0965
▁기상	-11.0965
▁후회하지	-11.0967
▁주문했는데	-11.0969
▁소속	-11.0972
▁해줄	-11.0975
▁임	-11.0976
▁뭔가요	-11.0978
▁보인다	-11.098
▁고객센터로	-11.0981
상품	-11.0985
▁금리	-11.0985
▁상자에	-11.0988
▁지하	-11.099
▁인지도	-11.099
▁연구는	-11.0996
▁트렌디	-11.0997
▁청소가	-11.0999
함에	-11.1001
목	-11.1001
▁인재	-11.1013
▁저걸	-11.1014
▁시작해	-11.1014
▁조달	-11.1019
▁각도	-11.1019
▁물질이	-11.1019
▁맺을	-11.1021
▁밖으로	-11.1021
▁얻게	-11.1021
▁잠옷	-11.1021
▁오토바이	-11.1021
▁하하하	-11.1021
▁머리가	-11.1022
▁됐는데	-11.1022
▁이루어집니다	-11.1022
▁광택	-11.1024
▁절대로	-11.1025
▁샘플로	-11.1026
▁자랑스럽	-11.1027
▁않은데	-11.103
▁새우	-11.103
▁금액으로	-11.1031
▁만나기	-11.1034
▁불량품이	-11.1034
▁실루엣	-11.1034
▁필수적	-11.1035
▁참치	-11.1036
▁의학	-11.1036
▁도매가격	-11.1041
▁싶었다	-11.1042
팅	-11.1046
광	-11.1046
▁일하기	-11.105
▁맞이	-11.105
▁구입하는	-11.1051
▁살펴보	-11.1052
▁고소한	-11.1052
▁아닐까	-11.1055
드리면	-11.1055
▁제작할	-11.1058
▁롤	-11.1058
▁내릴	-11.1059
▁돌아	-11.1063
▁없	-11.1064
▁들으니	-11.1069
▁늦어진	-11.1069
▁홍콩	-11.1071
▁만났	-11.1077
▁속이	-11.1079
▁알람	-11.1081
▁상대적으로	-11.1081
▁간단합니다	-11.1082
▁자문	-11.1083
록	-11.1084
▁했지	-11.1087
▁기름이	-11.1087
▁받았어요	-11.1088
▁아빠가	-11.1088
년까지	-11.1091
▁몰랐어요	-11.1091
▁알러지	-11.1091
되면서	-11.1092
▁않고도	-11.1095
▁받침대	-11.1095
▁당사로	-11.1095
▁수십	-11.1096
▁영양제	-11.1098
▁보셨나요	-11.11
▁브로셔	-11.11
▁청결	-11.1101
▁뜯어	-11.1102
▁화요일에	-11.1103
▁이해하기	-11.1105
▁함	-11.1106
▁종자	-11.1114
이었어요	-11.1121
▁모공	-11.1123
▁제자리에	-11.113
▁할머니	-11.1137
▁원형	-11.1138
▁선보일	-11.1138
▁찍고	-11.1138
▁도자기	-11.1138
▁적용되어	-11.1139
▁용량이	-11.114
▁뉴욕에	-11.114
▁일주일에	-11.1141
처	-11.1141
▁비치	-11.1143
▁갑시다	-11.1146
▁표정이	-11.1148
▁장기적으로	-11.1148
▁설명과	-11.115
▁편지	-11.1151
▁ID	-11.1158
▁조용한	-11.1159
▁굴	-11.1159
짜리	-11.1159
▁마치고	-11.116
근	-11.116
▁경비	-11.1161
▁처음입니다	-11.1162
▁크다	-11.1165
▁박스에	-11.1165
▁성함과	-11.1165
▁서로를	-11.1171
▁말라고	-11.1172
▁장소에서	-11.1173
▁국민	-11.1175
▁되니	-11.1176
▁세형이	-11.1177
▁트랙	-11.1177
▁저거는	-11.1181
▁맡아	-11.1183
▁광고에	-11.1189
▁최악	-11.1191
▁도대체	-11.1197
▁고객님과	-11.1198
▁출산	-11.1198
▁난리	-11.1198
▁극세사	-11.1198
▁받아보았습니다	-11.1199
▁차가운	-11.1199
▁달라질	-11.12
▁않네요	-11.1201
▁토대로	-11.1201
▁장애인	-11.1202
▁있기에	-11.1203
▁이길	-11.1205
▁바꾸고	-11.1206
▁가득한	-11.1207
▁동일합니다	-11.1209
▁날을	-11.1213
▁입은	-11.1213
▁찍을	-11.1216
▁검출	-11.1216
설	-11.1216
▁전세	-11.1219
거리	-11.1219
▁납기일	-11.1225
▁막내	-11.1229
▁상기	-11.1234
▁만들어야	-11.1236
▁일어날	-11.1237
▁계획은	-11.1238
▁원격으로	-11.124
이십니다	-11.1241
▁진행하도록	-11.1241
▁지불하는	-11.1243
▁잠재적	-11.1243
▁각국	-11.1243
▁갈색	-11.1244
▁은행에서	-11.1248
▁재석	-11.125
▁부착되어	-11.1251
▁고객님들에게	-11.1254
▁받았는데	-11.1255
▁깊게	-11.1257
▁승용차	-11.1257
▁립스틱	-11.1257
▁닭고기	-11.1257
▁누출	-11.1257
▁때려	-11.1258
▁확산	-11.1259
▁마치겠습니다	-11.1259
▁마운트	-11.1259
▁마스터	-11.126
있어	-11.1261
▁항의	-11.1261
▁죽어	-11.1262
▁돌아가	-11.1263
▁노트	-11.1263
▁느끼고	-11.1264
하다가	-11.1266
▁윤기	-11.1268
▁증권	-11.1268
▁협력해	-11.1268
페이지	-11.1272
▁알려줍니다	-11.1274
▁데님	-11.1275
현	-11.1281
▁계정에	-11.1283
▁아시죠	-11.1283
▁이외에	-11.1289
주시고	-11.1289
▁촉진	-11.129
▁할인율	-11.1291
▁저요	-11.1294
in	-11.1298
▁샷	-11.1301
▁여러분들이	-11.1303
▁가위	-11.1304
▁비해서	-11.1304
▁프리젠테이션	-11.1307
잔	-11.1308
▁하라고	-11.1309
년째	-11.1312
▁않으신	-11.1316
▁줌	-11.1316
▁높고	-11.1317
▁맞습니까	-11.1317
▁노이즈	-11.1317
▁늦어질	-11.1319
▁볼트	-11.132
▁한국식	-11.132
▁성장할	-11.1321
▁HD	-11.1321
▁일시	-11.1322
▁입에	-11.1323
▁이루어지지	-11.1324
▁조절식	-11.1324
끼리	-11.1325
▁안쪽	-11.1331
▁욕조	-11.1331
▁찍어서	-11.1334
▁이용하시면	-11.1337
▁확인해주세요	-11.1338
▁용접	-11.134
▁입지	-11.1341
▁홀더	-11.1345
▁부엌	-11.1346
▁미생물	-11.1346
▁폭발	-11.135
▁더이상	-11.1353
▁손님들	-11.1354
▁배달해	-11.1355
▁봅시다	-11.1355
▁단독	-11.1357
▁했다고	-11.1357
▁수익성	-11.1358
▁엄격	-11.1358
▁구리	-11.1359
▁맡겨	-11.136
▁하더라도	-11.1364
▁페이지에	-11.1365
▁혹시라도	-11.1366
▁라운드	-11.1373
▁하냐	-11.1374
▁전지	-11.1375
▁않겠습니다	-11.1377
▁인건비	-11.1377
▁베이비	-11.1377
▁복사	-11.1379
정보	-11.1381
▁사태	-11.1383
▁들어가지	-11.1385
▁알겠어요	-11.1389
▁도보로	-11.139
▁진화	-11.1391
▁하늘	-11.1393
하였고	-11.1397
▁1.5	-11.1399
▁혼란	-11.1399
▁주류	-11.14
▁규정에	-11.1402
▁축하합니다	-11.1403
씨와	-11.1404
▁양면	-11.1406
▁대표님이	-11.1408
단계로	-11.141
▁연결하여	-11.1412
▁추정	-11.1413
▁다리가	-11.1417
룸	-11.1417
씨의	-11.1417
▁있다가	-11.142
▁확인하지	-11.1421
▁절	-11.1421
▁머리카락	-11.1422
▁허락	-11.1422
▁원하고	-11.1423
▁생각에는	-11.1423
달러로	-11.1426
▁식감이	-11.1427
▁배터리는	-11.1428
▁일부가	-11.1429
▁협력이	-11.143
▁미래의	-11.1433
▁불가피	-11.1433
▁미백	-11.1433
▁성사	-11.1436
주셔야	-11.1437
▁리튬	-11.1438
▁에이전트	-11.1438
▁긴밀	-11.1438
▁적힌	-11.1438
▁향상시킵니다	-11.144
▁비울	-11.144
▁문자로	-11.1441
▁그런지	-11.1442
▁발생하게	-11.1442
▁부정적인	-11.1444
▁소개드립니다	-11.1444
▁삼계탕	-11.1446
▁놀	-11.1446
▁선택하시면	-11.1447
▁편히	-11.1448
▁김치를	-11.1453
▁명시	-11.1454
▁관심에	-11.1456
▁주식회사	-11.1458
번째	-11.146
er	-11.1461
▁취소하고	-11.1463
▁지나	-11.1464
▁서류는	-11.1467
▁못하면	-11.147
▁완료했습니다	-11.1471
▁고객분들	-11.1471
철	-11.1471
▁탑	-11.1472
▁교환을	-11.1473
력이	-11.1482
▁확보할	-11.1484
▁캡슐	-11.1485
▁낚시	-11.1488
▁재산	-11.1489
▁캡	-11.1492
▁부자	-11.1493
▁다중	-11.1494
▁바를	-11.1495
▁시각적	-11.1495
▁파운데이션	-11.1499
▁인덕션	-11.1499
▁먹으러	-11.1499
▁LCD	-11.1499
하시죠	-11.1499
들로	-11.15
▁공공	-11.1501
▁90%	-11.1501
▁상용화	-11.1502
▁후속	-11.1503
▁신약	-11.1504
▁들었어	-11.1504
▁무늬	-11.1505
▁예정이며	-11.1505
▁않다면	-11.1507
▁가져갈	-11.1507
▁뚜껑이	-11.1507
r	-11.1516
▁허가	-11.1518
▁오버	-11.152
▁수행합니다	-11.1523
▁아기가	-11.153
▁감각	-11.1532
▁집중할	-11.1536
▁계단	-11.1537
▁방문하고	-11.1537
▁회로	-11.1539
▁독서	-11.1545
▁인체에	-11.1546
▁이만	-11.1548
▁확인되었습니다	-11.1549
▁어필	-11.1557
▁꿀	-11.1557
▁중요성	-11.1559
▁DNA	-11.156
▁거랑	-11.156
▁매끄럽게	-11.1561
▁한국에는	-11.1561
▁읽었습니다	-11.1561
▁우산	-11.1561
▁확인합니다	-11.1564
▁모르겠는데	-11.1564
량	-11.1566
▁법인	-11.1566
▁말씀하셨습니다	-11.157
▁제공하며	-11.1571
▁오기	-11.1572
▁700	-11.1573
▁스타트업	-11.1573
▁있으신지요	-11.1575
▁이대로	-11.1576
▁줄게	-11.1579
▁영업시간	-11.158
▁성공했습니다	-11.1582
▁이제부터	-11.1583
▁그렇다	-11.1587
암	-11.1589
▁장비에	-11.159
▁설문조사	-11.1595
▁이물질	-11.1596
▁감사한	-11.1601
▁기업에서	-11.1603
해주십시오	-11.1606
만으로도	-11.1607
지고	-11.161
션	-11.1613
자마자	-11.1616
▁변경된	-11.1616
▁10,000	-11.1616
+	-11.1617
▁잠을	-11.1619
▁반환	-11.1619
▁닿는	-11.1622
▁생깁니다	-11.1622
▁폰	-11.1622
▁물론이고	-11.1624
▁후기	-11.1625
▁지내	-11.1627
▁48	-11.1628
▁좋아하지	-11.163
▁섬	-11.1631
▁원료로	-11.1632
▁줄이	-11.1633
▁살펴	-11.1633
하긴	-11.1633
▁설치된	-11.1637
▁함량	-11.1639
▁의료용	-11.1639
▁작동하는지	-11.164
▁현명	-11.164
▁관리합니다	-11.1641
▁모르겠다	-11.1642
줘야	-11.1644
▁외식	-11.1645
▁가전제품	-11.1646
▁보내야	-11.1647
▁선사	-11.1648
▁갈아	-11.1648
▁원하세요	-11.1649
▁이미지와	-11.1652
▁대결	-11.1654
▁협조에	-11.1655
▁매체	-11.1655
▁비상	-11.1657
▁제외	-11.1657
▁예약하시면	-11.1662
▁했는지	-11.1665
찬	-11.1666
▁사서	-11.1672
▁제외하고	-11.1673
▁똑같아	-11.1675
▁아시는	-11.1677
▁아이디어에	-11.1677
▁내용과	-11.1681
▁장벽	-11.1681
▁책임자	-11.1682
▁간주	-11.1683
▁비쌉니다	-11.1684
▁본격적으로	-11.1684
▁생각에	-11.1684
▁없었던	-11.1685
▁엔지니어링	-11.1685
▁양치	-11.1686
▁용	-11.1687
▁사업가	-11.1689
▁불법	-11.1691
▁보이	-11.1691
▁훼손	-11.1691
▁존재합니다	-11.1694
▁캐리어	-11.1695
▁e	-11.1699
▁평판	-11.1699
▁마크	-11.1699
▁불리는	-11.17
▁제작합니다	-11.1701
▁다수의	-11.1703
▁노력했습니다	-11.1704
▁첨부파일로	-11.1705
▁씨를	-11.1708
셔	-11.1713
으니	-11.1713
▁유도	-11.1715
▁잡은	-11.1717
▁방으로	-11.1717
▁구매했던	-11.1717
▁전자제품	-11.1718
▁패턴을	-11.1719
w	-11.1723
▁리액션	-11.1724
▁브러쉬	-11.1729
▁결혼을	-11.173
▁맞고	-11.1735
▁해결을	-11.1736
테	-11.1737
▁조합	-11.174
향	-11.1741
▁입증	-11.1741
▁폐쇄	-11.1743
▁잡혀	-11.1745
▁고려할	-11.1746
▁맡고	-11.1746
▁비지니스	-11.1746
▁초고속	-11.1746
▁밸런스	-11.1748
▁늘릴	-11.1748
▁알아보겠습니다	-11.1749
▁먹어보고	-11.175
▁단기	-11.1751
▁발생하면	-11.1751
▁준비해서	-11.1751
▁문제없	-11.1753
▁소재가	-11.1754
제품에	-11.1755
▁그러게요	-11.1757
▁달이	-11.1758
▁거치대	-11.1765
▁하더군요	-11.1766
▁발달	-11.1766
▁카트	-11.1768
▁설립된	-11.1769
▁물과	-11.1774
▁써서	-11.1775
워	-11.1778
▁전구	-11.178
▁형성	-11.1783
▁미션을	-11.1784
▁가도	-11.1784
▁자원을	-11.1785
▁개발할	-11.1786
하나	-11.1787
▁장소가	-11.1787
▁산뜻	-11.1788
▁취미	-11.1788
겠다고	-11.1791
▁난다	-11.1792
▁민감	-11.1793
▁목록에	-11.1797
▁주어	-11.1797
▁곡	-11.1801
▁추	-11.1803
▁서둘러	-11.1803
▁홍보를	-11.1805
▁드리니	-11.1807
▁태그	-11.1807
▁추후에	-11.1808
▁화려한	-11.1809
▁괜찮으실까요	-11.1809
▁미칩니다	-11.181
으로써	-11.181
▁무려	-11.181
▁답신	-11.1811
▁다채로	-11.1812
▁중에서도	-11.1813
▁존경하는	-11.1815
▁대리님	-11.1816
▁알려드릴게요	-11.1816
▁입원	-11.1817
▁참기름	-11.1817
▁대기업	-11.182
▁혈관	-11.1821
▁부과	-11.1822
기만	-11.1822
▁바꾸	-11.1823
▁질을	-11.1824
▁강하게	-11.1825
▁처음이라	-11.1826
▁친	-11.1827
▁기업과	-11.1829
▁증명서	-11.183
▁고객께서	-11.183
하셨어요	-11.1831
▁첨부하였습니다	-11.1832
▁갑작스러	-11.1834
각	-11.1836
▁다할	-11.1836
▁해당하는	-11.1841
▁물품이	-11.1843
▁개월	-11.1843
▁호텔로	-11.1844
야겠다	-11.1844
▁입장에서는	-11.1844
▁단열	-11.1845
▁시도해	-11.1851
▁여분	-11.1851
▁기능입니다	-11.1856
I	-11.1859
▁왕	-11.186
▁포인트가	-11.1862
▁하더라고요	-11.1863
▁기업들이	-11.1864
▁함량이	-11.1865
되었다	-11.1866
벌	-11.1867
▁5000	-11.1867
되어서	-11.1867
▁재개	-11.1868
▁되네	-11.1868
▁임원	-11.1869
▁한우	-11.1869
▁그러게	-11.1869
▁자금이	-11.187
▁채택	-11.187
▁전체에	-11.1875
▁섬세한	-11.1875
▁안정	-11.1875
▁실수에	-11.1876
▁초등학교	-11.1877
▁맛있습니다	-11.1877
▁자켓	-11.1877
▁늘어나고	-11.1877
▁발휘	-11.1879
▁전압	-11.1879
▁보험이	-11.1879
▁기사를	-11.188
▁모른다	-11.1882
▁모기지	-11.1884
▁적용한	-11.1886
▁수제	-11.1887
X	-11.189
▁제조되었습니다	-11.1891
▁것임	-11.1893
산업	-11.1893
▁사물	-11.1895
▁확인하시는	-11.1896
▁바라	-11.1896
▁해결될	-11.1897
하신다면	-11.1904
▁나가고	-11.1904
▁이내	-11.1911
차원	-11.1911
▁원사	-11.1911
▁도마	-11.1914
버	-11.1915
▁선배	-11.1916
▁건물에	-11.1916
▁지지력	-11.1917
▁고객님들께서	-11.1917
▁백화점	-11.1919
▁이만큼	-11.1921
▁모습이	-11.1921
▁클	-11.1922
▁늘고	-11.1927
▁결과물	-11.1929
▁소민이가	-11.1931
▁배송할	-11.1931
편	-11.1932
▁너비	-11.1933
▁팩스로	-11.1933
▁분양	-11.1934
▁CEO	-11.1936
▁워터	-11.1936
▁모래	-11.1938
▁베이킹	-11.1938
▁참고하시기	-11.1938
▁중요하	-11.1939
▁페달	-11.1939
▁있더라고요	-11.1939
▁외출	-11.194
▁시내	-11.194
▁않았	-11.1941
▁훌륭합니다	-11.1942
▁들어있습니다	-11.1942
▁아는데	-11.1944
▁노력할	-11.1945
▁점도	-11.1946
▁사에서	-11.1947
▁권리	-11.1947
▁그전에	-11.1949
▁짐을	-11.1949
H	-11.195
▁중개	-11.1952
▁이상해	-11.1957
▁수행하는	-11.1958
▁해왔습니다	-11.1959
▁수명이	-11.1959
▁이로써	-11.1964
▁티셔츠	-11.1968
▁결정에	-11.1973
▁납품이	-11.1973
▁친한	-11.1973
▁곡선	-11.1981
▁비대면	-11.1981
▁속성	-11.1981
▁클립	-11.1982
▁망	-11.1984
▁피해가	-11.1986
▁차에	-11.1986
▁실력	-11.1989
▁해보겠습니다	-11.1993
▁회색	-11.1993
▁아내	-11.1996
▁필	-11.2
▁하나인	-11.2001
▁혼자서	-11.2003
▁정도만	-11.2005
▁편리함	-11.2007
시간이	-11.2008
▁이윤	-11.201
▁눈으로	-11.2011
태	-11.2012
▁이온	-11.2014
▁성형	-11.2015
▁상태에	-11.2016
▁열린	-11.2016
▁표합니다	-11.2017
▁비용도	-11.2017
▁쉬	-11.2019
▁당겨	-11.2022
▁스타일로	-11.2025
▁그러는데	-11.2025
▁놀라	-11.2026
릅니다	-11.2026
▁여지가	-11.2028
▁쓰이는	-11.2035
▁이용하시는	-11.2036
▁자고	-11.2036
감을	-11.2038
남	-11.2041
▁이내로	-11.2041
▁비싸	-11.2043
▁견고	-11.2047
▁토론	-11.2047
▁설치하는	-11.205
▁업체들	-11.2052
▁예산이	-11.2052
▁앱에	-11.2054
하셨다고	-11.2055
▁적용되는	-11.2057
▁교체해	-11.2058
▁했죠	-11.206
▁이후에는	-11.206
▁하락	-11.206
▁절연	-11.2062
▁걸리나요	-11.2066
▁비빔밥	-11.2068
▁맛있고	-11.207
▁밀도	-11.2071
▁생생한	-11.2075
▁센	-11.2077
▁소개해드립니다	-11.2078
▁놓을	-11.2078
▁아아	-11.208
▁스키	-11.2082
▁표기	-11.2085
▁시작해야	-11.2087
▁소장	-11.2087
▁강합니다	-11.2088
일입니다	-11.2088
▁부족합니다	-11.2088
▁측에	-11.2089
▁없이는	-11.2092
▁예비	-11.2093
▁광고가	-11.2093
▁기다리	-11.2094
▁시동	-11.2096
▁감사하게	-11.2104
물을	-11.2104
▁향기	-11.2105
▁모두를	-11.2106
▁음질	-11.2107
▁신분증	-11.211
▁제안한	-11.2112
▁좋아하는데	-11.2115
▁당신께	-11.2121
▁지원이	-11.2121
되었으며	-11.2123
▁면이	-11.2127
▁하시기	-11.2127
▁일도	-11.2128
▁특징은	-11.2129
▁블라인드	-11.213
▁얇고	-11.213
▁잊으신	-11.213
▁짓	-11.2131
▁일치	-11.2131
▁실외	-11.2131
▁고해상도	-11.2131
▁BPA	-11.2132
▁생각한	-11.2133
▁납품하고	-11.2133
▁상위	-11.2134
▁확률이	-11.2135
▁느끼는	-11.2136
은행	-11.2145
▁고려한	-11.2145
▁통화를	-11.2146
▁손상이	-11.2148
▁언니가	-11.215
▁시작을	-11.215
▁포함하고	-11.2151
▁모르겠어	-11.2151
▁쉬워	-11.2153
▁중요하지	-11.2154
▁나가서	-11.2156
▁피부과	-11.2156
▁아늑	-11.216
▁양산	-11.2164
▁캐주얼	-11.2164
장비	-11.2166
▁수건	-11.2167
▁취소가	-11.2168
▁탄	-11.2171
▁토	-11.2172
▁뭐죠	-11.2176
▁제외한	-11.2177
30	-11.2177
▁사용된	-11.218
▁지난달에	-11.2183
▁안되는	-11.2184
▁충전으로	-11.2185
▁약관	-11.2186
▁정도를	-11.2188
▁만기	-11.2191
▁탈락	-11.2192
▁센터를	-11.2193
▁그렇구나	-11.2195
▁내연기관	-11.2195
▁유니크	-11.2195
일까요	-11.2195
▁냉면	-11.2196
▁흔히	-11.2196
▁속도는	-11.2196
▁1~2	-11.2197
▁효과적입니다	-11.2199
▁숙련	-11.22
▁랙	-11.2204
▁원목	-11.2208
▁상품들이	-11.2208
▁딥	-11.2208
▁전역	-11.221
▁노란색	-11.2211
▁추가된	-11.2211
져서	-11.2215
▁선택입니다	-11.2216
▁슬라이드	-11.2217
리스	-11.222
▁할당	-11.2223
▁심한	-11.2233
▁연구개발	-11.2233
에서부터	-11.2236
▁충전식	-11.224
▁저쪽	-11.224
▁해본	-11.2242
▁약한	-11.2243
▁줘야	-11.2243
▁않았다는	-11.2244
▁모델로	-11.2245
▁스타일에	-11.2246
▁먹었어	-11.2247
▁공급자가	-11.2247
▁습관	-11.225
▁기름을	-11.2251
▁아직은	-11.2251
▁예정이라	-11.2252
▁전문가들	-11.2253
▁위치가	-11.2254
▁두부	-11.2257
▁여자친구	-11.2258
▁현재로서는	-11.2261
▁어울릴	-11.2261
▁즐기세요	-11.2262
▁필요성	-11.2263
▁블록	-11.2264
▁기회입니다	-11.2267
▁효소	-11.2268
▁폐기물	-11.2269
▁이끌어	-11.227
▁유효	-11.227
▁아악	-11.2271
▁가지로	-11.2272
▁월요일부터	-11.2273
▁짜장	-11.2276
인당	-11.2277
▁열쇠	-11.2277
▁학생들에게	-11.2278
일에서	-11.228
▁한정판	-11.2286
▁스타일링	-11.2286
▁틀	-11.2287
▁법을	-11.2288
▁빌라	-11.2288
▁발사	-11.229
▁위협	-11.2291
▁이해하는	-11.2293
▁냅니다	-11.2295
른	-11.2296
▁건강하고	-11.2296
하기에	-11.2301
▁치실	-11.2304
▁특징이	-11.2305
▁경찰	-11.2306
해집니다	-11.2307
▁퀵	-11.2309
하시게	-11.231
▁아파트에	-11.2314
▁디	-11.2314
▁햇빛	-11.2316
▁다루는	-11.2319
▁범죄	-11.2324
▁염증	-11.2326
▁드렸던	-11.2326
▁스위트	-11.2327
▁찾지	-11.2327
▁트레이	-11.2327
▁에센스	-11.2327
▁악취	-11.2327
▁재사용	-11.2327
▁탈착식	-11.2328
▁마쳤습니다	-11.2329
▁감성	-11.2329
▁넘	-11.2329
▁인력을	-11.233
▁유연제	-11.233
▁오더	-11.233
▁명품	-11.233
▁열릴	-11.2331
▁잘하네	-11.2331
▁미치지	-11.2331
▁본연	-11.2331
▁말씀드리면	-11.2332
▁차별화된	-11.2332
▁년간	-11.2333
▁가시죠	-11.2333
▁350	-11.2335
▁외국어	-11.2337
▁교육용	-11.2337
되거나	-11.2337
▁적용되었습니다	-11.2337
▁조용	-11.2339
▁투어를	-11.2339
▁로봇이	-11.234
▁만들어집니다	-11.234
▁동반	-11.2341
드리고	-11.2344
▁소개하는	-11.2346
▁활동에	-11.2346
▁날은	-11.2347
▁햄버거	-11.2348
▁의미로	-11.2348
▁미용	-11.2351
▁상점	-11.2353
▁보여드릴	-11.2355
▁좋아하고	-11.2358
▁전달하는	-11.2364
▁끝이	-11.2365
▁되는대로	-11.2365
▁카메라에	-11.2369
▁신중	-11.2371
▁180	-11.2371
했는데요	-11.2371
▁번창	-11.2372
사에	-11.2374
▁포장이	-11.2375
▁워크숍	-11.238
▁디바이스	-11.238
▁먹었	-11.2381
▁볶아	-11.2382
▁해결이	-11.2382
였다	-11.2383
▁어떨까	-11.2384
▁분자	-11.2384
▁이외에도	-11.2393
▁자랑	-11.2394
▁마음껏	-11.2394
▁소시지	-11.2394
▁작업할	-11.2395
▁유의	-11.2396
▁적당히	-11.2396
▁주간	-11.2397
▁벽에	-11.2397
▁걸릴까요	-11.2398
▁설명드리겠습니다	-11.2398
▁수프	-11.2401
▁레스토랑이	-11.2403
▁W	-11.2404
▁명확한	-11.2405
▁기호	-11.2405
▁그곳	-11.2409
자는	-11.2412
▁타는	-11.2412
▁물병	-11.2413
▁점차	-11.2414
▁장치와	-11.2416
해진	-11.2418
▁느낌의	-11.2418
▁아이를	-11.2423
▁인정받	-11.2427
▁아픈	-11.2428
▁너에게	-11.2428
▁투명한	-11.2432
▁났다	-11.2433
▁용도에	-11.2435
▁셀프	-11.2435
▁포뮬러	-11.2437
▁어떤지	-11.2448
▁레츠	-11.2451
▁진행하고자	-11.2452
▁세상을	-11.2453
▁거네	-11.2455
작	-11.2457
핑	-11.2458
드렸던	-11.2458
▁관람	-11.2461
▁파이프	-11.2461
▁제품군	-11.2461
▁갖췄습니다	-11.2462
했거든요	-11.2463
▁거거든요	-11.2465
▁최	-11.2465
▁감당할	-11.2467
▁스커트	-11.2468
▁고등학교	-11.2468
▁잡힌	-11.247
▁&	-11.2471
▁소비자들에게	-11.2475
▁거에	-11.2476
일자	-11.2478
▁옷장	-11.248
▁과실	-11.248
▁치즈를	-11.2481
▁예정일	-11.2483
▁되었을	-11.2485
▁홍합	-11.2486
▁소화기	-11.2487
▁수단	-11.2491
▁앱이	-11.2491
▁소비자들이	-11.25
▁팩에는	-11.2502
▁도움으로	-11.2507
▁좌우	-11.2508
▁첨가	-11.2512
▁연락하십시오	-11.2513
▁형도	-11.2517
▁사람들도	-11.2519
▁연수	-11.252
▁인류	-11.2521
▁실버	-11.2521
부탁드립니다	-11.2523
▁하셨나요	-11.2524
▁3000	-11.2526
▁레몬	-11.2526
▁CPU	-11.2528
▁한꺼번에	-11.2528
▁태양열	-11.253
▁스캐너	-11.253
▁벤처	-11.253
▁없었다면	-11.2532
▁애가	-11.2533
▁설명회	-11.2534
느냐	-11.2538
▁포함해서	-11.2539
▁객실이	-11.2542
하기도	-11.2546
▁아버지가	-11.2546
▁지연되는	-11.2546
▁떠나	-11.2549
▁활동이	-11.2553
▁담	-11.2557
▁변화에	-11.2557
▁주셨어야	-11.256
▁3,000	-11.2561
▁자체에	-11.2564
▁편이	-11.2565
▁셋째	-11.2566
▁노화	-11.2567
▁받으시는	-11.2567
▁차단합니다	-11.2568
▁보호해	-11.2569
▁필수입니다	-11.257
▁다니	-11.2574
▁올리	-11.2574
▁씻어	-11.2574
▁서류가	-11.2575
▁만족합니다	-11.2577
▁오늘까지	-11.2578
▁게시물	-11.2581
▁이점이	-11.2581
▁다음부터	-11.2582
▁정리해	-11.2585
이어야	-11.2586
▁아내가	-11.2595
▁한눈에	-11.2597
▁소문	-11.2597
▁따뜻하고	-11.2601
조차	-11.2603
▁효능	-11.2603
▁요구사항	-11.2603
▁개발하여	-11.2607
▁보이게	-11.2609
▁매뉴얼	-11.261
▁참석하실	-11.2612
름	-11.2619
심	-11.2623
▁보려고	-11.2624
▁분할	-11.2625
▁확인하시면	-11.263
▁밑창	-11.2632
▁생기지	-11.2636
▁용기를	-11.2639
▁모양으로	-11.2642
▁프린팅	-11.2645
▁생물	-11.2646
▁시술	-11.2646
▁차장님	-11.2646
▁수직	-11.2647
▁의상	-11.2655
▁모서리	-11.2655
▁아래로	-11.2655
▁주입	-11.2657
▁비싸다	-11.2658
님이	-11.2663
▁아날로그	-11.2664
▁시나리오	-11.2665
▁일곱	-11.2665
주시고요	-11.2665
▁우수	-11.2666
▁드셔보세요	-11.2666
▁다행이다	-11.2668
▁칼국수	-11.267
▁합금	-11.2672
▁자체적으로	-11.2672
▁루프	-11.2678
▁입어	-11.2679
▁걸리	-11.268
▁되시나요	-11.2681
▁얘기할	-11.2682
▁파우치	-11.2682
▁그랬어요	-11.2682
▁생산한	-11.2682
▁어어	-11.2683
곤	-11.2684
▁해소	-11.2688
▁이산화탄소	-11.2688
▁누워	-11.2688
▁않았기	-11.2691
품	-11.2691
▁재료는	-11.2692
▁감싸	-11.2692
▁강하고	-11.2693
시키기	-11.2694
▁톤을	-11.2696
▁출입	-11.2701
▁스틱	-11.2702
▁수급	-11.2702
▁지역으로	-11.2704
▁와중에	-11.2712
▁더해서	-11.2714
▁뒷면	-11.2715
까지도	-11.2721
▁옮겨	-11.2722
▁정신이	-11.2723
▁고리	-11.2726
▁불이	-11.2726
봐야	-11.273
▁활성	-11.2734
▁합격	-11.2734
▁포스터	-11.2734
▁품질보장기간	-11.2735
▁주셨던	-11.2735
▁보석	-11.2735
힐	-11.2736
▁방역	-11.2736
▁빛이	-11.2737
▁동전	-11.2738
▁김치찌개	-11.2739
▁트윈	-11.2741
▁중요하다고	-11.2741
▁염색약	-11.2743
▁가족을	-11.2743
▁시작하면	-11.2748
▁우승	-11.2749
▁기장	-11.2752
▁날개	-11.2754
▁강남	-11.2755
주간	-11.2757
▁옆으로	-11.276
▁불안	-11.2761
▁연출할	-11.2761
▁담겨	-11.2762
▁북	-11.2765
▁친구들과	-11.2767
료	-11.2768
▁코스를	-11.2769
▁갖	-11.2774
▁비율이	-11.2775
▁한두	-11.2776
▁반려동물이	-11.2778
▁브라우저	-11.2779
▁오빠는	-11.2779
▁보도	-11.278
▁처리해야	-11.2783
할까요	-11.2784
▁잔금	-11.2788
맛	-11.279
▁포함해	-11.2798
▁중형	-11.2801
▁도구가	-11.2802
▁이뤄	-11.2802
▁많기	-11.2803
▁미치겠네	-11.2803
▁그랬더니	-11.2803
▁동남아	-11.2803
▁감사드리고	-11.2804
▁폴리에스테르	-11.2805
▁로드	-11.2805
▁한해	-11.2805
▁전반적으로	-11.2805
▁명확히	-11.2806
▁어린이용	-11.2806
▁관계없이	-11.2806
▁알려주시겠습니까	-11.2806
▁이외	-11.2807
▁짜장면	-11.2808
▁솔루션입니다	-11.2808
▁점프	-11.2809
▁스크래치	-11.2809
거라	-11.2811
▁귀엽다	-11.2813
▁한참	-11.2813
▁활력	-11.2813
▁UV	-11.2814
▁석유	-11.2818
▁나아가	-11.2819
▁유감	-11.2821
▁떨어질	-11.2823
▁원한다면	-11.2823
▁스위트룸	-11.2827
동안	-11.2829
라인	-11.2831
▁호환성	-11.2831
▁인터넷은	-11.2832
▁넘어가	-11.2838
▁구멍이	-11.2839
인이	-11.2842
▁개리	-11.2843
보니	-11.2844
▁형식으로	-11.2845
▁투자가	-11.2846
까봐	-11.2848
등이	-11.2849
▁가시면	-11.285
▁소스가	-11.285
▁첨부파일	-11.2851
▁흥분	-11.2853
▁기대를	-11.2855
씨를	-11.2856
너	-11.2858
▁전염병	-11.286
▁75	-11.2866
▁채권	-11.2866
▁압박	-11.2867
▁제한된	-11.2868
▁판매에	-11.2871
▁확인하여	-11.2872
▁맛으로	-11.2872
▁자료들	-11.2873
▁홍삼	-11.2873
▁SUV	-11.2873
▁집사부일체	-11.2873
▁정해지면	-11.2874
▁호스팅	-11.2874
▁계시나요	-11.2875
항	-11.2875
▁익숙하지	-11.2878
▁주시니	-11.2882
▁지원하고	-11.2883
▁청구됩니다	-11.2883
더라	-11.2885
▁계좌번호	-11.2885
▁지원에	-11.2886
▁자부심	-11.2886
▁방출	-11.2887
▁장르	-11.2887
드리는	-11.2888
▁요가	-11.2892
▁가시는	-11.2895
▁링	-11.2896
▁부담없	-11.2896
▁구축하고	-11.2901
▁방지하는	-11.2902
▁다크	-11.2903
▁소민	-11.2905
▁보여주신	-11.2909
▁프라이팬	-11.2913
▁거네요	-11.2914
▁시차	-11.2914
▁계셨	-11.2917
▁배달을	-11.2919
▁알맞은	-11.292
▁적재	-11.2921
▁팬데믹	-11.2922
노	-11.2926
▁추억	-11.2926
등을	-11.2933
▁코인	-11.2933
▁끼쳐드려	-11.2935
▁보내기	-11.2935
▁가져올	-11.2936
▁공인	-11.2936
▁대사	-11.2936
▁포장되어	-11.2937
▁메	-11.2938
▁싶지만	-11.2943
▁가솔린	-11.2944
▁기뻤습니다	-11.2944
▁데스크톱	-11.2944
▁원터치	-11.2944
▁기대할	-11.2944
▁웃어	-11.2945
▁촉촉하게	-11.2946
▁마친	-11.2946
▁입맛에	-11.2946
되므로	-11.2946
▁시원하고	-11.2948
합	-11.2949
▁거고요	-11.295
▁전문점	-11.295
▁누락된	-11.295
▁정도에	-11.2952
▁도시에	-11.2953
▁일요일	-11.2955
▁전문성	-11.2955
▁잠재력	-11.2956
▁찾아주셔서	-11.2956
▁모던한	-11.2957
▁어릴	-11.296
▁구성됩니다	-11.296
▁성격	-11.2961
▁선별	-11.2961
▁좋을까요	-11.2962
▁연구원	-11.2962
▁좋아해서	-11.2963
▁이상은	-11.2964
▁이용하면	-11.2965
▁새벽	-11.2967
▁문제인	-11.2968
▁말이에요	-11.2968
▁이거야	-11.297
▁분에게	-11.2974
▁보내시기	-11.2975
▁마케팅부	-11.2976
▁기억하고	-11.2979
▁탭	-11.298
▁감기	-11.2985
▁일일이	-11.299
니깐	-11.2992
결	-11.2994
▁젓가락	-11.2995
립	-11.2999
▁높다	-11.2999
▁누락	-11.3
▁지속적	-11.3001
것이	-11.3003
▁가죽으로	-11.3003
▁일일	-11.3005
▁형한테	-11.3006
▁포착	-11.3009
율이	-11.3012
▁시범	-11.3013
▁공유하는	-11.3014
등급	-11.3014
▁지붕	-11.3014
▁GPU	-11.3015
▁파라벤	-11.3015
▁실험실	-11.3016
▁알려주시겠어요	-11.3017
▁원리	-11.3018
▁포기	-11.3018
▁있었나요	-11.3021
▁나름	-11.3021
▁지키지	-11.3023
▁없잖아요	-11.3025
▁계절	-11.3025
하거든요	-11.3026
▁생각하세요	-11.3028
▁인증서	-11.3029
▁허	-11.303
▁완료되었습니다	-11.303
▁친구를	-11.3035
주셨나요	-11.3038
▁차려	-11.3038
▁들어와서	-11.304
▁송금이	-11.3041
▁주문하셨습니다	-11.3042
▁골목	-11.3042
▁세관	-11.3044
들께	-11.3044
▁수거	-11.3044
▁드라이	-11.3047
겠군요	-11.3048
▁도와주실	-11.305
▁정화	-11.3054
만이	-11.3055
▁식사에	-11.3056
▁자신만	-11.3059
이잖아요	-11.306
▁음료수	-11.306
스트	-11.3061
▁신뢰가	-11.3063
▁추가하고	-11.3064
▁무엇보다도	-11.3064
▁약속한	-11.3067
▁들어오면	-11.3067
▁가야지	-11.3068
▁공기가	-11.3068
▁메일이	-11.3071
▁동력	-11.3074
▁주제를	-11.3075
▁유산균	-11.3079
▁읽는	-11.3085
▁불량이	-11.3086
▁정렬	-11.3086
▁내리는	-11.3087
▁매진	-11.3088
▁어머니가	-11.3088
▁동화	-11.309
▁올림	-11.309
▁아티스트	-11.3091
마리	-11.3093
▁제작하여	-11.3094
▁구매하면	-11.3095
▁운	-11.3096
▁분유	-11.3096
▁콘솔	-11.3097
▁필요하다면	-11.3097
▁유출	-11.3099
▁큐	-11.3099
▁얘기하면	-11.31
▁분께서	-11.3104
▁계기가	-11.3105
▁내구성과	-11.3105
▁연습을	-11.3106
▁놓겠습니다	-11.3107
장이	-11.3108
▁보관해	-11.3108
▁독특	-11.3113
볼게요	-11.3113
▁연금	-11.3116
▁조건과	-11.3122
▁가정에	-11.3123
▁데스크	-11.3124
▁했는데요	-11.3126
▁선물이	-11.3136
▁멤버들	-11.3136
▁아트	-11.3137
▁없애	-11.3137
▁런칭	-11.3139
▁이겨	-11.314
▁가능할지	-11.314
▁차고	-11.3141
▁즉각	-11.3142
▁즐거움을	-11.3142
▁탁	-11.3143
▁카메라와	-11.3149
▁라운지	-11.3149
▁필리핀에	-11.3151
▁즉각적	-11.3154
▁거래해	-11.3157
▁드림	-11.3158
▁골고루	-11.3158
▁낫지	-11.3158
▁넓고	-11.3158
▁설렙니다	-11.3158
▁살펴보시고	-11.3158
▁마침내	-11.3159
▁있으나	-11.3159
었다	-11.316
▁안테나	-11.3161
▁일체형	-11.3162
▁이벤트에	-11.3162
▁모르게	-11.3162
▁있는지도	-11.3165
▁교체가	-11.3167
▁간편하고	-11.3167
▁오피스	-11.3168
▁갔을	-11.317
▁트래픽	-11.317
▁선명하게	-11.3176
▁입구	-11.3177
술	-11.3178
▁냉장고를	-11.3178
▁제거하여	-11.3181
▁맛볼	-11.3181
▁수년간	-11.3182
하셨습니까	-11.3184
▁공원	-11.3184
▁주거용	-11.3184
▁것인가	-11.3185
▁할수	-11.3186
▁아이디어는	-11.3187
▁시간으로	-11.3187
▁나누	-11.3187
▁결정해	-11.3188
▁여러분과	-11.3189
▁진입	-11.3191
▁빠진	-11.3194
▁이것들은	-11.3194
▁씨도	-11.3194
▁소요	-11.3197
▁했었는데	-11.3199
▁필수적인	-11.3199
▁씨와	-11.3205
▁메신저	-11.3206
▁대신하여	-11.3209
▁캠	-11.321
▁전공	-11.3217
▁친구들이	-11.3221
시간까지	-11.3222
▁인도네시아	-11.3224
권을	-11.3224
▁운송비	-11.3225
▁귀사께	-11.3226
▁대만	-11.3226
▁비싸지	-11.3226
▁때보다	-11.3227
▁경쟁사	-11.3228
▁장난감을	-11.3228
▁있지요	-11.3229
▁콘크리트	-11.3231
▁하잖아요	-11.3231
▁마이너스	-11.3232
▁슬리퍼	-11.3234
▁평범한	-11.3234
▁턱	-11.3234
▁노력해	-11.3235
▁취급하는	-11.3235
▁거치	-11.3235
▁얼마를	-11.3236
▁메탈	-11.3236
▁때에도	-11.3236
▁변기	-11.3237
▁재발	-11.3237
▁섞어서	-11.324
▁안내드립니다	-11.324
▁롤러	-11.324
▁수천	-11.324
세포	-11.3242
▁회장님	-11.3243
▁투자하고	-11.3243
든지	-11.3247
▁걸음	-11.3251
▁가능하실	-11.3251
▁제공하지	-11.3252
있게	-11.3252
▁해제	-11.3257
▁토요일에	-11.3258
▁펴	-11.3262
▁얼마에	-11.3263
▁냉장고에	-11.3266
▁중개인	-11.3267
▁촬영이	-11.3267
▁만찬	-11.3269
▁항공편	-11.3274
▁차는	-11.3279
▁화상회의	-11.328
▁붙	-11.328
했죠	-11.3281
▁설명할	-11.3281
▁부탁드리고	-11.3281
▁36	-11.3282
▁시설에	-11.3283
▁들어본	-11.3283
▁평일	-11.3285
▁과장입니다	-11.3285
▁어울려	-11.3287
센터	-11.3287
▁세일	-11.3287
▁배상	-11.3288
▁어디야	-11.3292
▁원할	-11.3295
▁팀장님과	-11.3297
▁어머님이	-11.3302
▁씨의	-11.3303
▁세척기	-11.3303
▁너무너무	-11.3304
▁트리트먼트	-11.3304
▁폭넓	-11.3304
▁당뇨병	-11.3304
▁만화책	-11.3304
▁스타일리시	-11.3304
▁콜	-11.3304
▁뿌려	-11.3306
▁마스크를	-11.3306
▁라인이	-11.3307
▁개발해	-11.3307
▁상민이	-11.3308
▁생각하시나요	-11.3308
▁창의적인	-11.3311
▁화면이	-11.3311
▁등에서	-11.3312
▁시일내	-11.3322
▁추억을	-11.3323
블	-11.3323
▁강연	-11.3326
▁발전소	-11.3327
▁폐기	-11.3327
페이지에	-11.3327
▁뒤에서	-11.3328
▁주십시요	-11.3328
▁이번주에	-11.333
▁표시되어	-11.333
▁차량이	-11.3331
▁푸드	-11.3332
▁극	-11.3332
▁인물	-11.3334
▁맞추기	-11.3335
▁걱정은	-11.3336
▁시스템에서	-11.3337
▁했었습니다	-11.3337
▁산화	-11.3338
▁내지	-11.3339
▁점수를	-11.334
▁태	-11.3341
▁기본으로	-11.3342
▁베스트셀러	-11.3345
▁쉽	-11.3347
▁장비입니다	-11.3347
u	-11.3348
주셨습니다	-11.3348
▁하잖아	-11.3351
▁반사	-11.3351
▁회사에서도	-11.3352
▁모집	-11.3355
▁임직원	-11.336
▁환영	-11.3363
맨	-11.3364
▁내리	-11.3364
▁시작으로	-11.3364
▁진짜야	-11.3364
▁도움에	-11.3368
▁주기적	-11.3368
▁잡으면	-11.3371
▁보호하고	-11.3372
▁뭐라	-11.3377
▁고밀도	-11.3377
▁찌꺼기	-11.3377
▁프랜차이즈	-11.3377
▁VIP	-11.3377
▁데스크탑	-11.3377
▁풍력	-11.3378
▁벗어나	-11.3379
▁결실	-11.3379
▁종양	-11.3379
▁보이는데	-11.3381
▁지체	-11.3382
▁논문	-11.3382
▁빗	-11.3383
북	-11.3383
▁물티슈	-11.3385
▁품절	-11.3385
▁바가	-11.3388
▁친화적	-11.3389
▁호텔입니다	-11.339
▁주문하시겠습니까	-11.339
▁봐서	-11.3391
▁카시트	-11.3391
▁취급하고	-11.3393
▁작동할	-11.3394
성급	-11.3395
▁정해져	-11.3395
상의	-11.3395
▁벽지	-11.3397
이거든요	-11.3399
▁전달합니다	-11.3399
▁이슈	-11.34
▁믿는다	-11.3402
▁흙	-11.3405
▁원만	-11.3406
▁대비하여	-11.3406
▁그림이	-11.3406
봐요	-11.3408
▁줄이기	-11.3412
▁후기를	-11.3412
▁실물	-11.3412
▁서명한	-11.3414
▁하거나	-11.3414
1"	-11.3415
▁언어로	-11.3415
▁편하고	-11.3416
▁후드	-11.3417
되었다고	-11.3417
▁마트	-11.3418
▁일들이	-11.3419
▁거듭	-11.3419
▁취득	-11.3419
▁출하	-11.342
▁하셨던	-11.3425
▁통지	-11.3425
▁여러분에게	-11.3428
▁물어	-11.3429
▁와야	-11.3429
▁타겟	-11.3431
▁그러	-11.3432
▁언제가	-11.3436
장치	-11.3439
▁내기	-11.344
▁대가	-11.3443
▁욕	-11.3443
▁결정한	-11.3443
▁고수	-11.3445
▁1:1	-11.3445
▁화면에서	-11.3446
속	-11.3447
▁사용한다	-11.3447
▁성장하는	-11.3449
▁키워	-11.345
▁괜찮다	-11.3451
▁괜찮으세요	-11.3451
▁실장님	-11.3451
▁시설과	-11.3452
▁어플리케이션	-11.3452
분을	-11.3452
▁조건에서	-11.3456
▁낮습니다	-11.3456
▁필요도	-11.3456
납니다	-11.3458
▁본사로	-11.3458
▁누수	-11.3461
▁듣지	-11.3462
▁중국에	-11.3463
▁보내드리면	-11.3467
▁방어	-11.3467
▁탑승	-11.3468
▁땡	-11.3468
▁없이도	-11.3468
프로	-11.3469
▁체험해	-11.3469
▁아끼	-11.3472
▁않았는데	-11.3475
▁적고	-11.3477
▁것이죠	-11.348
▁전화가	-11.348
▁선풍기	-11.3483
▁세워	-11.3483
안에	-11.3483
▁걸까요	-11.3484
▁배송으로	-11.3485
플	-11.3486
▁총액	-11.3487
▁해상	-11.3487
▁되고요	-11.349
▁계약의	-11.349
▁영	-11.3491
함이	-11.3493
▁기준에	-11.3494
주셨던	-11.3495
▁코너	-11.3495
▁해드려	-11.3502
▁게시	-11.3502
▁설계했습니다	-11.3505
▁실무	-11.3506
▁도시의	-11.3507
▁얻어	-11.3508
▁학교에서	-11.3509
▁비용과	-11.3513
▁해봐야	-11.3513
▁할부	-11.3516
▁맛있지	-11.3516
▁관	-11.3516
▁카드가	-11.3518
▁얼	-11.3518
▁대중	-11.3518
▁공을	-11.3521
▁대리입니다	-11.3522
▁여기도	-11.3523
▁드리	-11.3525
▁럭셔리	-11.3526
▁스탠다드	-11.3526
▁기쁠	-11.3526
▁패브릭	-11.3526
▁베이직	-11.3526
▁커팅	-11.3526
겠지요	-11.3526
▁그룹웨어	-11.3526
▁곧바로	-11.3526
▁누릴	-11.3526
▁세럼	-11.3526
▁차갑게	-11.3527
▁가능하신가요	-11.3527
▁넉넉하게	-11.3527
▁즐거웠습니다	-11.3527
▁살이	-11.3527
▁플래시	-11.3528
▁옵션으로	-11.3528
▁올라갈	-11.353
▁보여주세요	-11.3531
주시겠습니까	-11.3531
된다는	-11.3531
▁한가지	-11.3532
▁일정으로	-11.3533
▁베어링	-11.3535
▁색소	-11.3535
▁조금이라도	-11.3536
▁성장에	-11.3537
▁MRI	-11.3537
▁작게	-11.354
▁여과	-11.3541
분들이	-11.3542
▁너의	-11.3542
▁주목받	-11.3545
▁인터넷이	-11.3545
▁재킷	-11.3546
▁춤을	-11.3546
▁담당자에게	-11.3546
▁하러	-11.3555
▁뛰어나고	-11.3556
▁삼촌	-11.3558
▁제품만	-11.3559
▁만족할	-11.356
▁기념으로	-11.3561
▁동시	-11.3566
▁모델과	-11.3566
▁발표회	-11.3567
▁올해도	-11.3568
▁남기	-11.3571
글	-11.3574
▁출간	-11.3575
▁사안	-11.3577
▁스펙	-11.3578
▁제조하는	-11.3578
▁초보자	-11.3579
▁공감	-11.3579
▁넣어도	-11.3581
▁본사에	-11.3582
해주시고	-11.3585
▁연기를	-11.3586
▁스토리	-11.3586
지지	-11.3587
▁해결해야	-11.3591
혀	-11.3594
▁측정할	-11.3597
▁상단에	-11.3597
명으로	-11.36
▁렌탈	-11.36
▁문의사항은	-11.36
▁귀걸이	-11.3601
▁같으면	-11.3603
▁해동	-11.3605
▁구운	-11.3605
▁당신도	-11.3606
▁흔적	-11.3607
개월이	-11.3607
▁저렴하고	-11.361
▁되었는지	-11.3615
값	-11.3615
▁택시	-11.3617
▁불과	-11.3618
▁카탈로그와	-11.3619
▁센터에	-11.3619
▁알릴	-11.3621
화된	-11.3625
▁숙소를	-11.363
▁번식	-11.363
▁고객센터	-11.3633
▁구하는	-11.3633
▁콜라겐	-11.3634
식으로	-11.3634
▁누리	-11.3634
▁발목	-11.3635
▁엘리베이터	-11.3637
▁마련해	-11.3638
▁소개된	-11.3641
▁공간으로	-11.3646
▁은퇴	-11.3646
점이	-11.3647
▁전량	-11.365
▁토크	-11.3651
▁효율이	-11.3652
▁섭외	-11.3656
▁기억에	-11.3658
▁순대	-11.3659
년입니다	-11.3659
되었고	-11.3661
▁캐릭터를	-11.3663
▁놀랐어	-11.3667
▁적합하지	-11.3668
번이	-11.3674
▁각질	-11.3674
▁연휴	-11.3675
▁도서관	-11.3676
▁그분이	-11.3676
▁고화질	-11.3677
▁있구요	-11.3677
▁적외선	-11.3677
▁퍼포먼스	-11.3677
▁레이아웃	-11.3677
▁카트리지	-11.3677
▁등받이	-11.3677
▁알려드리게	-11.3678
▁예외	-11.3679
▁메세지	-11.368
▁치료에	-11.3681
▁작아	-11.3681
▁궁금해서	-11.3682
▁부장님이	-11.3682
▁기원	-11.3683
▁저건	-11.3683
▁머무는	-11.3685
▁올림픽	-11.3686
봅니다	-11.3686
▁단추	-11.3687
▁주가	-11.3687
▁제품에서	-11.3688
▁팀장님께서	-11.3691
▁석	-11.3694
▁빌려	-11.3695
팀이	-11.3698
▁연락해주세요	-11.37
▁영향력	-11.3701
▁알리기	-11.3703
▁기술력으로	-11.3703
▁낮	-11.3703
▁상당	-11.3708
종일	-11.3708
▁위해서입니다	-11.371
▁알아보	-11.371
시설	-11.3711
▁개발되었습니다	-11.3713
▁그려	-11.3713
▁수입을	-11.3714
▁위치는	-11.3718
▁주시	-11.3718
▁선택해야	-11.3719
▁상상력	-11.372
▁발판	-11.3722
▁자가	-11.3723
▁재정적	-11.3723
▁정리할	-11.3724
▁싸움	-11.3725
▁주최	-11.3726
▁구하기	-11.3727
▁수립	-11.3729
▁것이라면	-11.373
▁친구는	-11.3731
▁찾아서	-11.3732
▁동기	-11.3735
하겠다고	-11.3735
▁드시	-11.3735
▁방문하시면	-11.3736
▁즉석	-11.374
▁드	-11.3748
▁내서	-11.3752
▁편안	-11.3752
겐	-11.3753
▁도넛	-11.3753
▁어쩌면	-11.3753
▁PDF	-11.3753
▁목걸이	-11.3753
▁돕고	-11.3753
▁특집	-11.3754
▁위함입니다	-11.3756
▁테니스	-11.3758
▁실용적인	-11.3758
▁신선하고	-11.3759
▁마른	-11.3761
건에	-11.3763
▁요청드리고자	-11.3765
▁부드러움	-11.3766
▁느낌으로	-11.3768
▁분량	-11.3768
▁했다는	-11.3769
▁외에는	-11.3769
▁떨어지지	-11.3772
▁명확하	-11.3772
▁말로	-11.3772
▁갖지	-11.3773
▁말씀해주시면	-11.3773
▁예약한	-11.3777
▁회신이	-11.3777
▁통화할	-11.3777
▁침구	-11.3778
▁이루어진	-11.3779
▁행위	-11.3783
▁최저	-11.3783
▁지속됩니다	-11.3784
▁음식도	-11.3784
▁작성하여	-11.3785
▁수백	-11.3785
b	-11.3789
▁줄였습니다	-11.3789
▁어려웠	-11.379
▁밀고	-11.3793
▁메이커	-11.3796
▁결론을	-11.38
▁초대합니다	-11.3801
▁계약과	-11.3802
▁가장자리	-11.3805
▁축제	-11.3806
▁식단	-11.3807
▁유료	-11.3807
▁뭔가를	-11.3807
▁톡톡	-11.3808
▁지면	-11.3814
▁시절	-11.3817
▁캐	-11.3819
▁촉감	-11.382
▁야구	-11.3826
▁너를	-11.3827
▁가려고	-11.3828
▁선보이는	-11.383
▁났습니다	-11.383
▁간혹	-11.383
▁받으세요	-11.383
▁덜어	-11.3831
▁치매	-11.3831
▁펫	-11.3835
▁모션	-11.3835
▁알로에	-11.3835
▁식량	-11.3835
▁진행해야	-11.3836
▁생각해서	-11.3836
▁설립되었습니다	-11.3836
▁보여주고	-11.3837
▁입는	-11.3839
▁방문해서	-11.3839
▁툴	-11.3842
▁주저	-11.3842
서비스	-11.3843
▁확보하고	-11.3844
▁강력하게	-11.3846
▁사실이	-11.3846
▁도심	-11.3847
▁몰입	-11.3848
▁짐	-11.3851
▁보내주시는	-11.3852
▁한편	-11.3856
▁뻔	-11.3859
명까지	-11.3859
▁첨부하겠습니다	-11.3859
▁그간	-11.386
▁저자	-11.3862
▁좋지만	-11.3862
▁추천할	-11.3862
▁싱크대	-11.3863
▁널	-11.3863
▁비주얼	-11.3863
▁되었어요	-11.3867
▁것들은	-11.3867
▁조심해야	-11.3867
▁작업은	-11.3869
▁매치	-11.387
▁수평	-11.387
▁죽을	-11.3871
▁산업에서	-11.3872
▁00	-11.3872
▁연기가	-11.3872
▁기대해	-11.3874
▁산책	-11.3876
▁되시면	-11.3877
상태	-11.3878
보험	-11.3878
▁적용이	-11.3878
▁미친	-11.3879
▁미안	-11.388
▁연결하는	-11.388
▁팔리는	-11.3883
▁의사소통	-11.3884
듯	-11.3885
씨에게	-11.3886
▁마을	-11.3888
▁심사	-11.389
▁리필	-11.389
▁맛있을	-11.3893
▁보여줘	-11.3893
▁이력	-11.3894
▁변경해야	-11.3895
▁수준으로	-11.3896
▁기뻐	-11.3897
▁배운	-11.3897
▁어른	-11.3899
▁느끼	-11.3901
▁햄	-11.3902
▁시뮬레이션	-11.3902
쉬운	-11.3902
▁케이스에	-11.3902
▁여기를	-11.3905
▁수염	-11.3907
▁씹는	-11.3907
▁커넥터	-11.3907
▁블록체인	-11.3907
▁있겠습니까	-11.3908
▁묘목	-11.3908
▁있었다고	-11.391
▁마음대로	-11.3912
▁발명	-11.3913
▁입사	-11.3913
▁유통업체	-11.3913
▁화학물질	-11.3915
▁그나마	-11.3917
▁라인업	-11.3917
▁먹이	-11.3918
▁다목적	-11.3919
▁파업	-11.392
▁파악하고	-11.3921
▁차지하고	-11.3921
▁입맛	-11.3922
▁문이	-11.3922
▁있었기	-11.3922
▁결론이	-11.3923
▁주문할게요	-11.3923
▁일어나는	-11.3925
▁양방향	-11.3925
▁구독자	-11.3926
▁결정하였습니다	-11.3926
▁클렌저	-11.3929
▁배웠	-11.3931
▁급속	-11.3931
▁친화적인	-11.3934
▁즐기	-11.3937
▁그립감	-11.3937
▁들어가야	-11.394
▁가방에	-11.394
▁만든다	-11.3941
▁점수	-11.3944
▁물건은	-11.3948
▁접착	-11.3952
▁필요해	-11.3953
▁전자파	-11.3955
▁다양하고	-11.3956
▁멋지	-11.3958
이지요	-11.3961
▁모피	-11.3962
▁이자율	-11.3965
▁말해서	-11.3968
▁약을	-11.3968
▁약품	-11.3968
▁시작될	-11.3977
▁못했다	-11.3979
▁이겼어	-11.398
▁철학	-11.3982
▁주제에	-11.3983
▁보시다시피	-11.3986
▁늘어날	-11.3986
▁힘듭니다	-11.3986
▁같군요	-11.3986
▁복제	-11.3986
▁컨디셔너	-11.3986
▁컴퓨팅	-11.3987
▁2016	-11.3987
▁김에	-11.3987
▁해석	-11.3988
▁군	-11.3991
▁체형	-11.3993
▁꽃이	-11.3995
▁이름과	-11.3996
이었는데	-11.3997
케어	-11.3997
▁어디에서나	-11.3999
▁넘치는	-11.4
▁당면	-11.4
▁스마트폰으로	-11.4004
이었던	-11.4004
▁느	-11.4005
▁때로는	-11.4005
▁온수	-11.4007
▁임시	-11.4007
▁교환은	-11.4008
▁되며	-11.4011
▁취소할	-11.4012
▁메일에서	-11.4013
▁환자들	-11.4014
▁시중에	-11.4016
▁그러네요	-11.4017
▁모습으로	-11.4017
▁예정인	-11.4018
▁재료의	-11.402
▁컬러를	-11.402
▁편합니다	-11.4023
▁뜨거워	-11.4024
▁영지	-11.4025
▁보내드리고	-11.4027
봤습니다	-11.4028
▁전류	-11.403
▁정식으로	-11.4031
▁부주의	-11.4031
▁파손된	-11.4036
▁이식	-11.404
▁답장이	-11.4046
▁부족으로	-11.4048
으신	-11.4048
▁위생적인	-11.405
▁없었다	-11.4052
▁생산하기	-11.4054
▁대부분이	-11.4054
▁립	-11.4056
▁앨범	-11.4057
커	-11.4059
▁기쁨	-11.4059
▁극장	-11.406
▁볼까요	-11.4062
▁곱창	-11.4064
▁다르지	-11.4064
▁도저히	-11.4064
▁스쿠터	-11.4064
▁않죠	-11.4064
▁여기저기	-11.4064
▁강원도	-11.4064
▁육류	-11.4065
▁부작용	-11.4065
▁조항	-11.4065
▁쉴	-11.4069
하셨다는	-11.4069
▁고르게	-11.407
▁방석	-11.4074
▁맘	-11.4074
▁플랜트	-11.4075
▁문의주신	-11.4076
하느라	-11.4077
시네요	-11.408
▁날로	-11.408
▁목표입니다	-11.4082
▁코팅이	-11.4086
▁필요한지	-11.4087
▁우선적으로	-11.4089
▁주방에	-11.409
▁어떻게든	-11.4091
▁알려주는	-11.4092
▁참고하여	-11.4094
▁참여하고	-11.4095
▁저감	-11.4096
▁가져오	-11.4096
▁대중교통	-11.4101
▁지연된	-11.4103
▁기울	-11.4105
▁주말까지	-11.4107
▁이상하게	-11.4111
▁색감	-11.4113
▁경과	-11.4114
▁졸업	-11.4115
▁종류로	-11.4117
▁서로에게	-11.4121
했으니	-11.4121
▁경쟁력이	-11.4121
▁줄어들	-11.4121
▁생각도	-11.4123
▁리더	-11.4125
머	-11.4126
▁같다는	-11.4129
▁재미있어	-11.4133
▁거기에서	-11.4134
▁장소와	-11.4134
▁구비한	-11.4135
압	-11.4135
▁주인이	-11.4137
▁은혜	-11.4138
해드릴	-11.4141
▁보증서	-11.4141
▁귀중	-11.4144
▁맞으시죠	-11.4144
▁해변	-11.4144
▁매진되어	-11.4146
▁도료	-11.4148
▁협력하는	-11.4148
▁구성품	-11.415
▁콘센트	-11.4151
▁확인해보겠습니다	-11.4152
겹	-11.4155
▁보장하기	-11.4163
▁전시회에	-11.4163
▁멀리서	-11.4165
년동안	-11.4168
▁가능해요	-11.417
▁놓았습니다	-11.4172
▁지상	-11.4172
개국	-11.4177
니까요	-11.4178
▁연령	-11.4179
시장	-11.4179
▁너한테	-11.418
▁상징	-11.418
▁사항입니다	-11.4181
▁불가능할	-11.4182
▁내려가	-11.4186
▁전문가들이	-11.4186
▁협력하고	-11.4187
▁순한	-11.4188
▁대학교	-11.4189
▁기술적	-11.419
했습니까	-11.4191
▁근무하는	-11.4197
▁패스	-11.4198
▁나는데	-11.4201
▁회사들이	-11.4202
▁외부에	-11.4203
▁소문이	-11.4208
▁시계는	-11.421
▁디자인되었습니다	-11.4212
▁다니는	-11.4212
▁1,500	-11.4213
▁발이	-11.4214
습	-11.4218
▁앱에서	-11.4218
▁지도를	-11.4218
▁찍는	-11.4222
▁닭갈비	-11.4223
▁맡은	-11.4224
▁겨우	-11.4224
▁직경	-11.4224
▁계	-11.4224
▁고속도로	-11.4224
▁미치겠다	-11.4224
▁암세포	-11.4224
▁상표권	-11.4225
▁철저하게	-11.4225
▁급증하였습니다	-11.4227
▁선택하고	-11.4227
▁짝	-11.4228
f	-11.4228
▁받았으며	-11.4228
▁사탕	-11.423
▁달부터	-11.4232
슬	-11.4234
▁가보고	-11.4236
▁위생적으로	-11.4236
자를	-11.4238
▁무섭다	-11.4239
▁벌칙이	-11.424
▁목록이	-11.424
▁마시기	-11.424
▁초대하고자	-11.424
원으로	-11.4243
▁손실이	-11.4243
▁패치	-11.4243
▁주주	-11.4244
▁가족의	-11.4245
▁어디를	-11.4247
▁팀원들과	-11.4248
▁불편함이	-11.4248
▁도장	-11.425
▁가는데	-11.4252
),	-11.4252
▁단맛	-11.4253
▁생겼	-11.4253
▁지장	-11.4263
▁알려드리고	-11.4263
▁사랑받	-11.4265
▁화장	-11.4266
▁점에서	-11.427
▁길어	-11.4271
▁경보	-11.4272
▁요인	-11.4275
▁관광지	-11.4276
▁머리에	-11.4278
▁파트너사	-11.4281
▁밝기	-11.4285
▁활용이	-11.4285
▁아파트가	-11.4287
▁흡입	-11.429
▁65	-11.429
▁명단	-11.4291
▁없어서요	-11.4293
하시지	-11.4293
▁구축하는	-11.4294
▁완성된	-11.4297
새	-11.4297
▁커버가	-11.4298
에게도	-11.4299
▁견과류	-11.4304
▁슬랙스	-11.4304
▁계시죠	-11.4306
▁호스트	-11.4307
▁페이	-11.4307
▁접을	-11.4307
▁보장하는	-11.4307
▁건강과	-11.4308
▁몰래	-11.4309
▁우표	-11.4309
▁보내드리니	-11.431
▁외모	-11.4311
▁거절해야	-11.4311
▁밖에도	-11.4311
▁노력하는	-11.4316
▁만들어줍니다	-11.4318
▁건조하고	-11.4319
▁배로	-11.4323
▁아이스	-11.4324
▁바보	-11.4326
▁무시	-11.4326
▁오우	-11.4326
▁알맞	-11.4326
▁가족들과	-11.4326
▁개방	-11.4327
al	-11.4327
▁시각화	-11.4327
▁청바지	-11.4329
▁석진	-11.4329
▁도착하기	-11.4332
▁수술을	-11.4333
▁판독	-11.4333
▁주방에서	-11.4334
서는	-11.4334
▁튼튼	-11.4335
▁면을	-11.4335
▁존	-11.4342
▁재현	-11.4343
▁영향이	-11.4344
다리	-11.4347
▁흐르는	-11.4347
▁뜨	-11.4347
▁품질로	-11.4351
▁업그레이드된	-11.4353
▁수익률	-11.4355
▁하셨죠	-11.4355
▁먼지가	-11.4357
▁이러는	-11.4357
▁문제집	-11.4358
▁할인됩니다	-11.436
▁제도	-11.4361
▁적합할	-11.4362
▁도와주는	-11.4364
▁편할	-11.4367
시가	-11.4369
▁말레이시아	-11.437
법을	-11.4371
▁함께할	-11.4372
▁원을	-11.4373
▁어플	-11.4374
서요	-11.4374
▁이상입니다	-11.4375
▁지는	-11.4377
▁골프장	-11.4377
것을	-11.4378
▁페어링	-11.4381
▁나아	-11.4382
▁틈새	-11.4382
▁일련	-11.4382
▁않으니	-11.4384
▁미술	-11.4384
▁요즘에	-11.4385
▁스페셜	-11.4385
▁구석구석	-11.4386
▁날카로운	-11.4386
▁있으십니다	-11.4386
▁천만에요	-11.4386
▁키즈	-11.4386
골	-11.4387
▁얼마든지	-11.4387
▁종국아	-11.4387
었죠	-11.4388
▁정수기	-11.4388
▁대회	-11.4389
원에	-11.4389
▁있듯이	-11.4389
▁환율	-11.4389
회사에서	-11.4392
▁기다려주세요	-11.4392
▁튼튼하고	-11.4395
▁주위	-11.4396
▁입점	-11.4398
▁유통기한	-11.4399
▁선택하세요	-11.4403
▁보답	-11.4404
▁모드에서	-11.4406
▁이래서	-11.4408
▁통과한	-11.4411
▁하시는지	-11.4413
▁분과	-11.4416
▁포켓이	-11.4416
▁버	-11.4421
▁썰어	-11.4421
▁휴일	-11.4422
▁보험금	-11.4423
▁출연	-11.4427
▁학원	-11.4428
▁답이	-11.4428
▁추구하는	-11.4431
▁투표	-11.4431
▁집에서도	-11.4431
▁먹자	-11.4433
▁간편	-11.4434
▁대행	-11.4435
20	-11.4435
▁완료될	-11.4436
▁정성	-11.4438
▁일본에	-11.4439
▁음원	-11.4444
▁건물이	-11.4446
▁중동	-11.4448
▁만남을	-11.4449
▁빨	-11.4449
▁싶다는	-11.445
▁프로그램으로	-11.4451
▁결정하는	-11.4452
바랍니다	-11.4452
▁순서	-11.4456
시간을	-11.4457
▁판매량이	-11.4457
▁신축	-11.446
▁통신사	-11.4461
▁비교할	-11.4461
▁삶은	-11.4462
▁그녀에게	-11.4462
▁개선하고	-11.4466
▁도난	-11.4467
▁안드로이드	-11.4468
▁많으십니다	-11.4468
▁에디션	-11.4468
▁그러시군요	-11.4468
▁했거든요	-11.447
▁회식	-11.447
▁판매됩니다	-11.4471
▁이어질	-11.4471
▁갔는데	-11.4472
▁지났는데	-11.4472
▁신기하다	-11.4472
▁메이크업을	-11.4472
▁씰	-11.4474
▁다룰	-11.4474
▁장사를	-11.4474
▁아니라는	-11.4475
▁똥	-11.4475
▁말씀드렸습니다	-11.4475
가지로	-11.4476
▁무선으로	-11.4479
▁농사	-11.4479
▁개성	-11.4481
▁생각했던	-11.4482
▁방문하기	-11.4482
▁완료해	-11.4484
▁해외영업팀	-11.4484
▁고기가	-11.4485
곳	-11.4487
▁행복하게	-11.4487
▁주셨는데	-11.4487
이었다	-11.4489
▁마찬가지입니다	-11.449
▁만료	-11.4492
▁무언가를	-11.4495
▁템플스테이	-11.4499
▁연관	-11.4501
▁근거	-11.4501
▁생산되고	-11.4503
▁차량용	-11.4507
▁일해	-11.4508
▁지불한	-11.4512
▁참가자	-11.4513
▁준다	-11.4516
▁비어	-11.4518
▁논	-11.452
▁저희로서	-11.4521
▁월간	-11.4522
▁55	-11.4523
▁전략에	-11.4523
▁탐지	-11.4523
오고	-11.4527
▁단자	-11.4532
▁가능하기	-11.4532
▁데가	-11.4533
▁패키지는	-11.4536
▁보급	-11.4537
이었어	-11.4539
▁대체할	-11.454
▁없잖아	-11.4541
▁이달	-11.4542
▁질문은	-11.4547
▁모를	-11.4547
▁꽃다발	-11.455
▁나타납니다	-11.455
▁아쉽지만	-11.455
▁레이더	-11.455
▁총판	-11.4551
▁리뷰를	-11.4551
▁부드럽습니다	-11.4551
▁어렵다는	-11.4552
▁OEM	-11.4552
▁대파	-11.4553
▁남았습니다	-11.4553
▁드렸는데	-11.4555
▁데는	-11.4556
▁적절하게	-11.4556
▁주어진	-11.4557
▁싶었는데	-11.4557
▁과학자들	-11.4559
▁고객들로부터	-11.4562
하잖아요	-11.4563
▁파리	-11.4563
▁부르	-11.4564
▁들었다	-11.4564
▁지불하지	-11.4564
이구나	-11.4565
▁폴더	-11.4565
▁요리는	-11.4566
▁나가면	-11.4567
▁심하게	-11.4567
▁가지만	-11.4569
▁끌어	-11.4569
줄게	-11.4569
면목이	-11.4571
▁마피아	-11.4571
▁일정과	-11.4572
▁직원과	-11.4572
▁다량	-11.4573
▁지점에	-11.4574
▁상장	-11.4577
▁문제의	-11.4577
▁이밖에	-11.4578
▁밑	-11.4582
▁활용하는	-11.4585
▁들어있는	-11.4587
▁저보다	-11.4588
▁연락처는	-11.4591
▁확신이	-11.4594
▁전시회에서	-11.4597
▁고도	-11.4599
▁재료들	-11.4599
▁고객사에서	-11.46
홀	-11.46
시키고	-11.4602
▁멀	-11.4605
▁구매시	-11.4605
주시는	-11.4606
▁맛있다고	-11.4608
▁사무	-11.461
▁예약하신	-11.4611
▁쌍	-11.4611
▁바베큐	-11.4615
▁무서운	-11.4616
▁조정해야	-11.4618
▁그러던	-11.4618
▁추가되었습니다	-11.4618
▁유통기한이	-11.4619
시에서	-11.4622
▁기억해	-11.4624
▁강점	-11.4625
▁내추럴	-11.4627
막	-11.4628
▁소개하기	-11.4629
▁중요해	-11.4629
▁체육관	-11.4629
▁황금	-11.4631
▁애견	-11.4631
▁운임	-11.4631
▁추가하여	-11.4632
시네	-11.4632
▁콩나물	-11.4633
▁맡게	-11.4634
▁먹습니다	-11.4634
▁단계로	-11.4634
▁자유로운	-11.4634
▁통찰력	-11.4635
▁토양	-11.4636
re	-11.4636
▁전하고	-11.4636
할까	-11.4637
▁말씀드려서	-11.4637
▁간단하고	-11.4638
▁병에	-11.4639
▁형제	-11.4639
▁쌀을	-11.4641
▁반영하여	-11.4643
▁바꿔야	-11.4645
▁없어도	-11.4645
▁반장	-11.4645
▁넓어	-11.4646
▁소개해드리고자	-11.4646
▁미국으로	-11.4647
했나요	-11.4648
▁일부입니다	-11.4648
▁많이들	-11.4648
▁물어볼	-11.465
▁담고	-11.4651
보자	-11.4652
하시면서	-11.4658
▁창고에서	-11.4658
▁얘기하고	-11.4658
▁분께	-11.4662
▁소지	-11.4663
▁변경되었습니다	-11.4664
▁고주파	-11.4666
여야	-11.4666
▁내용입니다	-11.4667
님에게	-11.4668
▁수분이	-11.467
▁개선하는	-11.4671
시스템	-11.4672
▁이자	-11.4672
▁거품이	-11.4674
▁스피커를	-11.4677
▁사면	-11.4678
▁그런가요	-11.4679
자에게	-11.4682
드려도	-11.4683
▁문의하시면	-11.4686
▁게임에서	-11.4689
▁광고는	-11.469
▁증대	-11.4692
개에	-11.4693
▁캡처	-11.4697
▁교수	-11.4701
▁유형에	-11.4704
▁용이	-11.4708
▁흰	-11.4708
▁허가를	-11.4708
▁전체가	-11.4709
▁공통	-11.471
▁항공사	-11.4717
▁차지하는	-11.4717
▁긁힘	-11.4718
▁왠지	-11.4718
▁펀딩	-11.4718
▁느껴집니다	-11.4718
▁배송하기	-11.4719
▁시너지	-11.4719
해졌습니다	-11.472
▁나오나요	-11.4721
▁도금	-11.4721
▁풀고	-11.4722
▁갈수록	-11.4723
▁예쁘고	-11.4724
▁바른	-11.4724
▁다녀	-11.4725
▁클래스	-11.4725
▁25%	-11.4727
▁누나가	-11.4729
▁인력이	-11.4729
▁판매되는	-11.4731
▁개선된	-11.4731
▁저기서	-11.4734
▁않았나	-11.4735
▁생산되는	-11.4735
월까지	-11.4738
▁막기	-11.474
▁판매하기	-11.4742
▁캐주얼한	-11.4742
▁업적	-11.4742
▁도시에서	-11.4746
▁교환이	-11.4747
▁좋았어요	-11.4749
▁연말에	-11.4749
▁추세	-11.4749
▁전반에	-11.4753
▁정책에	-11.4753
▁완성도	-11.4756
▁일자리	-11.476
▁기모	-11.476
▁잎	-11.4762
▁피할	-11.4762
▁밀폐	-11.4763
▁스위치를	-11.4764
이냐	-11.4766
▁전신	-11.4769
▁관리해	-11.4769
교	-11.477
▁거래할	-11.477
▁배송료	-11.4775
▁제목	-11.4776
▁마시는	-11.4777
▁처	-11.4777
▁빨래	-11.4779
쳐	-11.4781
▁반면에	-11.4781
▁복원	-11.4783
▁떨려	-11.4783
▁여쭤볼	-11.4784
▁정통	-11.4786
▁거로	-11.4789
▁가만있어	-11.4792
▁어렵	-11.4792
으실	-11.4793
킹	-11.4795
▁착각	-11.4797
on	-11.4798
▁애매	-11.4799
▁주인공	-11.4801
▁한국과	-11.4802
라운드	-11.4802
▁아이디	-11.4802
▁출퇴근	-11.4802
▁도메인	-11.4802
▁스크랩	-11.4802
▁칸막이	-11.4802
▁종류와	-11.4803
▁교류	-11.4803
▁자부합니다	-11.4803
▁본격적인	-11.4804
▁아크릴	-11.4804
▁충족시킬	-11.4804
▁60%	-11.4805
▁익혀	-11.4805
▁아이키	-11.4806
받고	-11.4806
▁제품들과	-11.4806
▁받았고	-11.4807
▁대책	-11.4809
▁있었지만	-11.4812
▁적합하다	-11.4813
▁체제	-11.4814
▁나누는	-11.4814
▁쉬고	-11.4814
▁포도	-11.4816
▁신선함	-11.4817
▁넘지	-11.4818
▁마중	-11.4818
잉	-11.4818
▁사원입니다	-11.4821
켤레	-11.4821
▁어유	-11.4823
▁표면이	-11.4825
▁성공할	-11.4826
해질	-11.4828
▁아시나요	-11.4829
드리기	-11.4837
▁배송지	-11.4838
번호	-11.4838
▁싸게	-11.484
▁쿠션감	-11.4841
▁주문하시는	-11.4841
▁유치	-11.4842
▁활	-11.4848
▁필요한데	-11.4848
▁누구에게	-11.4853
▁노력이	-11.4853
▁업데이트가	-11.4853
▁전략적	-11.4862
▁기재되어	-11.4863
▁U	-11.4869
▁합	-11.4871
순	-11.4873
▁참조해	-11.4874
▁양자	-11.4874
▁들러	-11.4876
▁장비와	-11.4876
▁가벼워	-11.4877
▁반납	-11.4878
▁게임용	-11.4881
▁지역이	-11.4881
▁아니잖아	-11.4883
▁접종	-11.4885
하시려면	-11.4886
▁한정	-11.4886
드려요	-11.4887
제곱미터	-11.4887
▁병을	-11.4887
▁블렌딩	-11.4888
▁스테인레스	-11.4888
▁여덟	-11.4888
▁프론트	-11.4888
▁SSD	-11.4888
▁안타깝지만	-11.4888
▁메모리폼	-11.4888
▁빠릅니다	-11.4888
▁어려우시다면	-11.4888
▁여쭙고	-11.4888
▁처리합니다	-11.4888
▁스케쥴	-11.4889
▁지니고	-11.489
▁제조한	-11.489
▁상관없습니다	-11.489
▁않았어	-11.489
▁커지고	-11.4891
▁지친	-11.4891
▁특급	-11.4892
사이즈	-11.4893
▁와플	-11.4894
▁카테고리	-11.4895
▁일으킬	-11.4896
▁테이블을	-11.4896
▁본래	-11.4898
▁명세서	-11.4898
개발	-11.4899
▁해명	-11.49
▁물가	-11.4901
▁임원진	-11.4901
▁보네요	-11.4903
▁가능하세요	-11.4903
▁나눠서	-11.4904
▁대표님과	-11.4904
▁원단이	-11.4904
▁기금	-11.4905
▁핫	-11.4907
▁준호	-11.4908
▁있었을	-11.491
▁작성할	-11.4911
▁지불하고	-11.4912
▁단독으로	-11.4915
▁미소	-11.4915
▁팁을	-11.4918
▁개인정보	-11.4921
▁신제품들	-11.4921
▁중이에요	-11.4921
▁낮아	-11.4923
▁나네	-11.4925
▁호랑이	-11.4926
U	-11.4926
▁참여해	-11.4928
▁사용으로	-11.4929
▁피지	-11.493
▁이사님	-11.4931
▁독	-11.4937
▁비율	-11.4938
▁사진은	-11.4939
▁하셨는데요	-11.4941
▁버전이	-11.4942
▁무언가	-11.4945
분들	-11.4949
▁저온	-11.495
▁무료입니다	-11.4954
길래	-11.4956
▁경계	-11.496
▁써도	-11.496
▁적절	-11.4961
▁이렇게까지	-11.4963
▁버튼으로	-11.4963
▁있으리라	-11.4965
▁맺어	-11.4967
▁벗어	-11.4967
▁보기에는	-11.4967
▁야기	-11.497
▁여드름	-11.4973
▁네트워킹	-11.4974
▁스냅	-11.4974
▁에스프레소	-11.4974
▁말하자면	-11.4975
▁선호도	-11.4975
▁초래	-11.4975
▁보류	-11.4976
▁아니잖아요	-11.4977
▁배신	-11.4977
▁보내드릴테니	-11.4978
▁농구	-11.4978
환경	-11.4979
성과	-11.4979
▁거다	-11.4979
▁나와야	-11.498
▁내렸습니다	-11.498
▁설치해	-11.4981
▁짜증	-11.4982
▁허벅지	-11.4982
겠는데	-11.4982
▁하시죠	-11.4984
▁금형	-11.4984
▁비중	-11.4984
▁표시등	-11.4986
▁되었다고	-11.4987
▁개발하기	-11.4987
▁알지만	-11.4989
▁통장	-11.499
an	-11.499
▁영국에서	-11.4991
▁맡기	-11.4995
▁볶음밥	-11.4995
법에	-11.4995
▁정제	-11.4996
▁차별화	-11.4996
▁매장이	-11.4997
▁소개해드릴	-11.4999
▁재료에	-11.5
▁인정을	-11.5
칸	-11.5001
▁제안할	-11.5001
▁선생님께서	-11.5001
▁구성원	-11.5002
▁세기	-11.5002
▁계약자	-11.5005
▁드리려	-11.5006
▁깔	-11.5006
n	-11.5009
직원	-11.501
▁감상할	-11.5012
▁딸이	-11.5014
▁배송하는	-11.5014
메	-11.5016
▁해주신다면	-11.5019
▁갈치	-11.5024
았습니다	-11.5024
분간	-11.5025
▁공간과	-11.5027
하더라고요	-11.5031
▁분쇄	-11.5031
예	-11.5032
▁그거야	-11.5034
▁빠르면	-11.5036
▁달러입니다	-11.5037
▁신뢰에	-11.5038
▁보통은	-11.5038
▁현금으로	-11.5038
▁타지	-11.5041
▁만들면	-11.5041
▁생산한다	-11.5045
▁후배	-11.5048
▁장치로	-11.5053
등은	-11.5054
가지가	-11.5054
▁다행히도	-11.5054
▁육개장	-11.5056
▁적정	-11.5057
▁아세요	-11.5059
▁띄는	-11.5061
▁맑은	-11.5061
▁심박수	-11.5061
▁안타까운	-11.5061
▁하여튼	-11.5061
▁터보	-11.5062
▁2019	-11.5062
▁수업에	-11.5062
▁불가능하다	-11.5065
▁싶었어요	-11.5066
담	-11.5067
▁비슷하게	-11.5067
▁소송	-11.5071
▁한쪽	-11.5071
▁채식	-11.5072
▁소유권	-11.5072
▁얼마인지	-11.5073
▁쓰여	-11.5074
▁이씨	-11.5074
▁끼워	-11.5075
▁실망했습니다	-11.5076
▁시력	-11.5077
▁데뷔	-11.5078
▁사실상	-11.5079
▁정리하여	-11.5079
생산	-11.508
▁신뢰도	-11.5083
▁찾아가	-11.5084
▁방문하시는	-11.5086
▁원씩	-11.5087
▁추세입니다	-11.5093
▁기운	-11.5094
▁트리	-11.5096
▁결과로	-11.5101
▁아연	-11.5104
▁비행기로	-11.5105
▁분도	-11.5106
▁스파이	-11.5106
2"	-11.5107
▁중이라	-11.5108
▁이들	-11.5109
▁적용될	-11.5111
▁상해	-11.5111
▁아이돌	-11.5111
▁배송까지	-11.5115
▁다음달에	-11.5116
▁걸린	-11.5117
▁쉽다	-11.5121
▁방귀	-11.5121
▁배합	-11.5121
▁물건들	-11.5122
▁사양에	-11.5122
▁팀원들	-11.5126
▁레일	-11.5126
▁부분의	-11.5126
▁특징인	-11.5127
타입	-11.5132
▁사이즈에	-11.5132
▁참석이	-11.5135
▁가게는	-11.5135
▁협회	-11.5136
▁비율을	-11.5136
▁대의	-11.5142
염	-11.5143
▁표시가	-11.5144
▁머그	-11.5148
▁크롬	-11.5149
▁노력에	-11.5149
▁DVD	-11.5149
▁김동현	-11.5149
▁찍은	-11.5149
▁추첨	-11.5149
▁로스팅	-11.5149
▁어찌	-11.5151
▁원피스	-11.5151
▁안정적이고	-11.5151
▁올린	-11.5152
▁거쳤습니다	-11.5153
▁밀착	-11.5154
▁소름	-11.5155
▁스윙	-11.5155
▁따뜻함	-11.5155
▁밝고	-11.5156
▁생산해	-11.5156
▁전담	-11.5158
▁명성	-11.5158
▁가시	-11.5159
▁기억을	-11.516
▁완료되지	-11.516
▁물의	-11.516
▁씨에게	-11.5161
▁런던	-11.5161
▁인정받고	-11.5161
▁댓글	-11.5162
▁등록할	-11.5164
컵	-11.5166
▁특약	-11.5168
▁미션은	-11.517
▁창조	-11.5176
▁접근성	-11.5177
▁남을	-11.5178
▁문제인지	-11.5179
▁못했어요	-11.5181
▁흠	-11.5182
▁부속품	-11.5189
▁메뉴에	-11.5189
▁협력업체	-11.519
▁고안	-11.519
▁망설이	-11.5191
▁믿음	-11.5192
률	-11.5194
▁도권이	-11.5201
▁내년에는	-11.5202
▁명씩	-11.5203
▁가도록	-11.5206
번호를	-11.5208
▁밝혀	-11.5209
▁증가하는	-11.5209
▁적자	-11.5212
▁놓치	-11.5215
▁옮기	-11.5221
▁디테일이	-11.5222
▁쑥	-11.5225
▁났어	-11.5227
▁장애물	-11.5233
▁세션	-11.5233
▁환경이	-11.5234
▁경력이	-11.5234
▁회계사	-11.5234
번으로	-11.5236
▁가깝습니다	-11.5237
▁늦지	-11.5237
▁썼습니다	-11.5237
▁임플란트	-11.5237
▁초경량	-11.5237
▁온실가스	-11.5237
▁연례	-11.5237
▁앰프	-11.5238
▁등등	-11.5238
▁엽서	-11.5239
▁배열	-11.5239
▁매운맛	-11.5239
▁확정되면	-11.524
▁되도록이면	-11.524
▁고혈압	-11.5244
▁플랫	-11.5244
▁여권	-11.5244
▁지식과	-11.5244
▁늦어지는	-11.5246
▁MC	-11.5247
▁담당자와	-11.5249
▁외장	-11.5249
▁좋은데요	-11.5249
▁조선	-11.5251
▁그러다가	-11.5253
▁되거든요	-11.5254
▁속옷	-11.5254
▁택배로	-11.5255
▁와이프가	-11.5255
▁확인해서	-11.5256
▁수정할	-11.5256
▁열이	-11.5259
▁유기	-11.5259
킬로그램	-11.526
▁즐기고	-11.5262
▁실은	-11.5262
▁본다	-11.5263
▁성공한	-11.5266
▁업체로	-11.5266
▁수정이	-11.5268
▁상이	-11.5269
▁원본	-11.5271
▁이용에	-11.5271
▁하중	-11.5272
▁참석하기	-11.5273
▁활발	-11.5274
▁않았을	-11.5275
팀에서	-11.5277
부로	-11.5281
▁쉬는	-11.5281
▁개발과	-11.5281
▁채소를	-11.5282
▁배를	-11.5286
▁다르	-11.5289
▁주문량	-11.5293
하셨으면	-11.5294
▁인플레이션	-11.5296
▁가게가	-11.5297
▁증가할	-11.5299
▁일과	-11.53
▁렌즈는	-11.5303
▁울어	-11.5304
▁편의점	-11.5304
▁사장님과	-11.5304
▁수록	-11.5306
▁차질	-11.5307
▁만나뵙	-11.5307
▁핸드폰을	-11.5311
▁마음입니다	-11.5311
▁안될	-11.5312
▁극복	-11.5314
▁관심사	-11.5315
▁싶어합니다	-11.5315
▁보관하는	-11.5316
▁개선하기	-11.5317
▁3~4	-11.5317
되었음	-11.5319
▁좋으면	-11.5319
▁납품해	-11.532
▁외국에서	-11.5321
▁아기의	-11.5321
▁찾아볼	-11.5321
코스	-11.5321
하시거나	-11.5321
착	-11.5324
▁지점이	-11.5325
▁밀려	-11.5325
▁히트	-11.5325
▁코코넛	-11.5326
▁번거로움	-11.5326
▁유능	-11.5327
▁확답	-11.5327
▁바코드	-11.5328
▁갖추었습니다	-11.5328
▁기울여	-11.5328
텐데	-11.5328
▁남미	-11.5329
▁마요네즈	-11.5329
▁올립니다	-11.533
▁컨텐츠	-11.5331
▁정확하고	-11.5331
둘	-11.5332
▁높아지고	-11.5332
▁도중에	-11.5333
▁풍부합니다	-11.5333
▁알려드리려고	-11.5334
▁정리를	-11.5335
▁포근한	-11.5336
▁과다	-11.5338
▁요청하셨습니다	-11.5339
▁생각하며	-11.534
▁버클	-11.5341
▁그리하여	-11.5342
걸로	-11.5343
▁컨퍼런스	-11.5343
▁영향	-11.5344
▁통신망	-11.5345
▁연락드릴게요	-11.5346
▁취급합니다	-11.5346
▁아쉬운	-11.5347
▁구조가	-11.5348
▁아들이	-11.5351
▁세월	-11.5351
▁회사들	-11.5354
기간	-11.5354
개월간	-11.5355
▁사업체	-11.5355
▁걸리니	-11.5357
▁만나면	-11.5357
▁있겠다	-11.5359
▁권한을	-11.536
▁회의실에서	-11.536
▁숙지	-11.5361
▁아프	-11.5361
▁나오게	-11.5363
▁유감스럽게	-11.5363
방식	-11.5363
▁있으시	-11.5365
▁브랜드와	-11.5367
▁컨디션	-11.5368
▁농담	-11.5369
▁팀으로	-11.5369
▁숙박을	-11.5371
▁복용	-11.5373
▁낫다	-11.5378
▁귀가	-11.5378
▁거군요	-11.5382
▁이른	-11.5382
▁들어가기	-11.5382
▁진행하게	-11.5384
▁비율은	-11.5384
▁생각하시는	-11.5384
▁안경을	-11.5384
▁기사가	-11.5384
▁진주	-11.5386
▁표현을	-11.5386
▁못했던	-11.5387
▁피하고	-11.5389
▁뒷	-11.539
▁구매해야	-11.5394
상을	-11.5395
200	-11.5397
▁기밀	-11.5398
▁웃는	-11.54
▁제품이라고	-11.5401
▁음식으로	-11.5401
▁주방이	-11.5402
▁방수가	-11.5402
▁변호사	-11.5404
▁위탁	-11.5411
▁꼴찌	-11.5411
▁소자	-11.5412
▁사장님은	-11.5413
▁지불에	-11.5413
▁연락하는	-11.5415
▁납	-11.5416
▁맺은	-11.5417
▁추수감사절	-11.5417
▁수고하셨습니다	-11.5417
▁매끄럽고	-11.5418
▁다가오고	-11.5418
▁책임지고	-11.542
▁관장님	-11.5422
▁지낼	-11.5422
▁플랫폼이	-11.5422
▁가능성은	-11.5422
▁인정해	-11.5422
▁99%	-11.5423
▁뜻이	-11.5423
mL	-11.5424
▁솔	-11.5424
주시겠어요	-11.5427
▁탄생	-11.5427
▁변색	-11.5427
ic	-11.5427
▁모르지만	-11.5428
▁여러모	-11.5429
▁놀랐어요	-11.5429
▁얘기는	-11.543
분기	-11.543
▁서점	-11.5431
▁곳곳에	-11.5432
지가	-11.5433
▁포함되지	-11.5433
▁촬영할	-11.5433
▁후원	-11.5435
▁아기를	-11.5435
▁받으셨나	-11.5435
▁베이컨	-11.5436
▁우리끼리	-11.5436
▁피하기	-11.5439
▁봐주세요	-11.544
▁전달하겠습니다	-11.5442
▁격려	-11.5448
▁불어	-11.5449
▁타월	-11.5451
▁어렵다면	-11.5452
▁요리사	-11.5454
▁시설에서	-11.5455
▁말하지	-11.5455
죽	-11.5455
▁예전에는	-11.5459
▁매너	-11.5462
▁돼야	-11.5464
▁유지하면서	-11.5464
▁분배	-11.5466
▁매물이	-11.5466
▁직접적으로	-11.5467
▁침	-11.5468
▁개요	-11.5469
▁그분	-11.5471
▁쓰레기통	-11.5472
주었습니다	-11.5475
▁변이	-11.5475
▁움직여	-11.5479
한데	-11.5479
▁돈은	-11.5484
▁헬스장	-11.5489
▁이것만	-11.5489
▁희철이	-11.5492
▁브랜드로	-11.5493
▁보내지	-11.5493
▁원자	-11.5496
▁수출하는	-11.5496
▁사무실이	-11.5497
▁귀신	-11.5497
▁공항으로	-11.5498
싱	-11.55
▁유지시켜	-11.55
▁버전으로	-11.55
▁푸시	-11.5501
▁융합	-11.5503
▁인테리어를	-11.5503
▁유망	-11.5504
▁갖춰	-11.5505
▁나타나는	-11.5506
▁앉을	-11.5506
▁SBS	-11.5507
▁샀다	-11.5507
▁99.9%	-11.5508
▁소켓	-11.5508
▁상호작용	-11.5508
▁척추	-11.5508
▁실린더	-11.5508
▁레이어	-11.5508
▁들어가고	-11.5508
▁여태까지	-11.5509
▁세밀	-11.551
▁새롭고	-11.551
▁되지만	-11.551
▁아쉽네요	-11.551
▁알았지	-11.551
▁주제는	-11.551
▁소모품	-11.5511
▁반가워요	-11.5512
▁드시기	-11.5513
▁실용성	-11.5514
▁되시길	-11.5515
▁근처에서	-11.5515
▁깔아	-11.552
▁배터리로	-11.5522
▁열매	-11.5522
▁제공된	-11.5523
▁훈련을	-11.5523
▁원치	-11.5523
폭	-11.5524
계획	-11.5527
박스를	-11.5528
자의	-11.5529
▁키우는	-11.5531
▁장소로	-11.5531
▁완벽합니다	-11.5532
▁동요	-11.5533
▁결제할	-11.5534
▁데서	-11.5536
▁귀에	-11.5538
▁만족해	-11.5539
케	-11.5542
▁상황으로	-11.5542
▁부동산은	-11.5543
▁꼬리	-11.5549
▁치는	-11.5549
▁데로	-11.555
주셔도	-11.5552
업무	-11.5553
년도	-11.5556
▁부장	-11.5556
▁힘써	-11.5557
▁보내드려	-11.5562
셨	-11.5563
▁야외에서	-11.5563
▁친구와	-11.5564
▁받아보	-11.5565
▁않아서요	-11.5567
▁전화번호를	-11.5569
▁살펴보았	-11.5573
▁전투	-11.5574
▁주위에	-11.5574
▁태도	-11.5575
▁달라서	-11.5577
▁그중	-11.5577
▁전화해서	-11.5577
에만	-11.5578
▁당시에	-11.5579
받아	-11.5579
되는지	-11.5581
▁노래방	-11.5582
▁누적	-11.5584
하든	-11.5588
▁자동차에	-11.5588
▁지지대	-11.5591
▁봐라	-11.5592
▁아웃소싱	-11.5592
▁되었고	-11.5594
▁폭이	-11.5594
▁동물의	-11.5597
▁우리나라에서	-11.5598
▁건의	-11.5598
▁몸의	-11.5599
▁반가운	-11.5599
▁원두커피	-11.5599
▁낮출	-11.5599
▁우연히	-11.56
▁온열	-11.5601
▁넣었습니다	-11.5602
▁재주문	-11.5602
▁리드	-11.5602
▁관하여	-11.5605
▁먹었습니다	-11.5606
▁판매율	-11.5607
▁티슈	-11.5608
▁캘리포니아	-11.5611
▁설득	-11.5613
▁라우터	-11.5613
▁이벤트가	-11.5614
로써	-11.5615
▁아동용	-11.5615
▁국제적으로	-11.562
받으실	-11.562
▁컨셉	-11.562
▁버려	-11.5622
▁늘리고	-11.5622
▁다르기	-11.5624
오신	-11.5624
▁안정적	-11.5625
겨	-11.5626
선생님	-11.5626
▁곤란한	-11.5627
▁보내실	-11.5629
▁했네	-11.563
▁스피드	-11.563
▁넣기	-11.5632
▁오빠랑	-11.5638
▁색조	-11.5639
▁고대합니다	-11.564
▁통화하고	-11.564
▁그저	-11.564
▁했잖아요	-11.5641
▁테이블에	-11.5642
▁예정이	-11.5642
▁청중	-11.5645
▁s	-11.5647
▁약속합니다	-11.5651
▁좋겠어	-11.5654
▁SD	-11.5655
▁담을	-11.5661
▁급수	-11.5662
▁긴장을	-11.5663
▁주문시	-11.5667
▁계시면	-11.5668
▁같	-11.5673
▁관리하기	-11.5677
▁여는	-11.5679
▁달아	-11.5679
▁안심하셔	-11.5683
▁차원	-11.5684
▁중국어	-11.5685
▁스마트폰에	-11.5687
▁알겠어	-11.5687
▁물고기	-11.5688
▁힘들고	-11.5688
하잖아	-11.569
▁서랍	-11.5691
▁하지요	-11.5692
▁뜻입니다	-11.5692
▁크라우드	-11.5692
▁관례	-11.5692
▁독보적	-11.5692
▁충치	-11.5692
▁찾으실	-11.5693
▁괜찮으시면	-11.5693
▁어학	-11.5694
▁미역	-11.5695
▁염소	-11.5695
▁축적	-11.5695
▁당연한	-11.5697
▁클린	-11.5697
▁말씀이신가요	-11.5697
▁설레	-11.5699
▁베드	-11.5699
▁수입하고	-11.5699
▁크로스	-11.57
건데	-11.5703
▁보니깐	-11.5703
▁기간동안	-11.5703
▁예정이에요	-11.5704
▁오셨어요	-11.5706
▁봉지를	-11.571
령	-11.571
▁들여	-11.5713
▁준다고	-11.5714
▁보아	-11.5715
▁임대할	-11.5716
▁소득	-11.5718
▁해줘	-11.5718
▁게시판	-11.572
▁깜빡	-11.5723
로우	-11.5723
▁인천	-11.5725
▁진행하려고	-11.5726
주의	-11.5726
계약	-11.5726
▁모니터링할	-11.5728
▁참여하는	-11.5728
▁말씀하세요	-11.5729
▁놓으면	-11.573
▁그것만	-11.5731
▁문장	-11.5731
▁바구니	-11.5733
▁도구입니다	-11.5743
▁베	-11.5746
▁일한	-11.5747
▁조정해	-11.575
▁요약	-11.5751
▁절감할	-11.5753
▁기입	-11.5754
▁모금	-11.5754
▁기준이	-11.5757
▁검토했습니다	-11.5759
▁생태계	-11.5761
이었으면	-11.5764
▁파트너로	-11.5765
▁화면으로	-11.5767
▁컬러감	-11.5767
끼	-11.5767
▁플라스틱으로	-11.5771
감이	-11.5771
▁늘려	-11.5773
▁문제도	-11.5773
셨던	-11.5774
▁성취	-11.5774
▁채팅으로	-11.5776
받을	-11.5778
었고	-11.5779
▁사용하셔	-11.5779
▁용량의	-11.578
▁다수	-11.578
▁도착합니다	-11.5782
▁엑셀	-11.5783
▁스낵	-11.5784
▁취해	-11.5785
▁인수인계	-11.5785
▁나타날	-11.5785
▁갑피	-11.5785
▁웹툰	-11.5785
▁염료	-11.5786
▁힐링	-11.5786
▁모시겠습니다	-11.5786
간의	-11.5787
▁들립니다	-11.5787
▁트레이닝	-11.5787
▁회사인	-11.5788
▁대장	-11.5789
▁도와주세요	-11.579
▁참고해주세요	-11.579
▁비슷합니다	-11.579
▁열립니다	-11.579
▁출원	-11.579
▁인사드립니다	-11.5791
▁영지야	-11.5792
▁풍부하고	-11.5792
▁인터넷으로	-11.5794
▁최종적으로	-11.5795
▁죄송하게도	-11.5795
▁연체	-11.5795
▁사항이나	-11.5796
▁준비된	-11.5797
▁의지	-11.5797
▁하긴	-11.5798
▁내용물이	-11.5798
▁보증기간	-11.5798
▁덕분입니다	-11.5799
▁웃기다	-11.5799
▁세찬이가	-11.58
▁눈치	-11.5801
▁마음은	-11.5802
▁나만	-11.5803
▁그래가지고	-11.5807
▁주머니에	-11.5807
했었는데	-11.581
▁체온	-11.5813
▁좋았다	-11.5813
▁자극이	-11.5813
▁지불하겠습니다	-11.5818
▁연어	-11.5819
▁개발합니다	-11.5822
▁될까	-11.5822
▁발생하여	-11.5825
▁지금이	-11.5825
▁방송에	-11.5825
▁몰	-11.5826
▁성실	-11.5827
▁물통	-11.5829
▁재판매	-11.5829
▁안심할	-11.5833
▁콘셉트	-11.5834
▁호흡	-11.5836
▁시제품	-11.5837
▁고층	-11.5837
or	-11.5839
▁나가야	-11.584
▁이겨야	-11.5842
▁라	-11.5845
▁열풍	-11.5846
▁맞추고	-11.5847
▁장갑을	-11.585
▁일본의	-11.5851
▁박사	-11.5851
해보고	-11.5852
▁이력서	-11.5852
▁경쟁이	-11.5855
쯤	-11.586
▁동남아시아	-11.5861
승	-11.5865
만원입니다	-11.5865
▁저기요	-11.5866
▁소비자가	-11.5867
세기	-11.5868
▁제품이에요	-11.5868
▁노인	-11.5869
▁지원할	-11.587
▁콘도	-11.587
▁미안하다	-11.5873
▁센터에서	-11.5873
▁대표님께	-11.5875
▁결합한	-11.5878
▁넓습니다	-11.588
▁먹거리	-11.588
▁재훈이	-11.588
▁향신료	-11.588
▁테두리	-11.588
▁안그래도	-11.588
▁캔슬링	-11.588
▁팔찌	-11.588
▁고맙겠습니다	-11.588
▁하하하하	-11.588
▁떠날	-11.588
▁사이즈와	-11.5881
▁초록색	-11.5881
▁수고하세요	-11.5881
▁국밥	-11.5881
▁기억하시나요	-11.5882
▁독일에서	-11.5882
▁방지하고	-11.5882
▁시키는	-11.5884
▁장담	-11.5884
▁착	-11.5884
▁세미	-11.5884
▁했기	-11.5885
▁보내주시겠습니까	-11.5887
▁지키	-11.5887
▁달라집니	-11.5888
풍	-11.5889
▁경매	-11.589
▁흔한	-11.5891
신가요	-11.5892
▁입력하면	-11.5892
▁완성됩니다	-11.5893
▁작성한	-11.5894
▁일들	-11.5894
▁지연되	-11.5895
▁이루어져야	-11.5896
▁소비자에게	-11.5898
▁예매	-11.5899
▁셰프	-11.5901
▁극한	-11.5904
밤	-11.5905
▁축하하는	-11.5907
▁깨끗이	-11.5909
▁다르다	-11.591
▁파트	-11.5912
▁해커	-11.5912
▁봉	-11.5918
희	-11.5918
사입니다	-11.5918
▁이현이	-11.5923
▁한글	-11.5924
▁알려줄	-11.5925
▁남아있는	-11.5925
▁시킬	-11.5927
▁확장하고	-11.5927
▁추가해	-11.5928
돼서	-11.593
▁분입니다	-11.5933
▁지효가	-11.5933
▁조절기	-11.594
▁청정기	-11.5942
거대한	-11.5943
▁머무르	-11.5947
▁성격이	-11.5948
▁유입	-11.5948
▁추석	-11.5948
▁추천해주실	-11.5951
▁대나무	-11.5952
▁아니고요	-11.5955
▁비스킷	-11.5956
장으로	-11.5957
▁외주	-11.5958
▁IP	-11.5958
▁지점에서	-11.5959
▁올라	-11.596
▁묶음	-11.5964
▁괜찮지	-11.5967
▁고소	-11.5969
▁홍	-11.5973
해주셔야	-11.5973
▁가만	-11.5974
▁비영리	-11.5975
▁넓게	-11.5975
▁스마트워치	-11.5975
▁아미노산	-11.5975
▁찾은	-11.5975
▁고객과의	-11.5975
▁리소스	-11.5975
▁여유로운	-11.5975
▁남녀	-11.5975
힙니다	-11.5975
▁생강	-11.5975
▁고효율	-11.5975
▁간절히	-11.5976
▁채울	-11.5976
▁때문이죠	-11.5976
▁채로	-11.5977
▁풍경	-11.5978
▁윈도우	-11.5978
▁바뀌었습니다	-11.5979
▁흡연	-11.5979
▁교사	-11.5979
▁신선하게	-11.598
▁칫솔모	-11.5981
▁잭	-11.5982
▁판단됩니다	-11.5983
▁의외로	-11.5983
▁맞혀	-11.5983
▁영화관	-11.5984
▁알립니다	-11.5985
▁느끼게	-11.5985
▁잘할	-11.5985
츠	-11.5985
▁미뤄야	-11.5986
▁해드려서	-11.5987
▁셋이	-11.5987
▁수익이	-11.5987
▁가능하지만	-11.5987
뿐입니다	-11.599
▁지정할	-11.5991
▁데이터에	-11.5991
▁불편하게	-11.5991
율	-11.5992
▁먹었는데	-11.5992
▁보장해	-11.5995
빵	-11.5996
▁거라는	-11.5996
▁PD	-11.5997
▁근	-11.5999
▁전선	-11.6
▁인기있는	-11.6
핀	-11.6
▁돌아가는	-11.6
▁중복	-11.6001
적이	-11.6002
롤	-11.6004
▁보호대	-11.6004
▁경험하세요	-11.6004
▁하시게	-11.6005
비용	-11.6005
▁납품하는	-11.6008
▁열기	-11.6012
듭니다	-11.6013
▁소재와	-11.6013
일이면	-11.6014
▁나타냅니	-11.6017
▁세척할	-11.6019
▁강사	-11.6023
▁옵니다	-11.6024
▁여행이	-11.6025
▁도착해서	-11.6025
▁소변	-11.6028
▁유발하는	-11.6032
▁든	-11.6034
▁부동산이	-11.6037
▁협력하기	-11.6037
▁주부터	-11.6037
▁발명품	-11.6038
▁압축기	-11.6038
외	-11.6042
▁프레젠테이션이	-11.6043
▁자랑하고	-11.6044
▁물품들	-11.6045
▁일인지	-11.6046
▁정장	-11.6047
▁만나게	-11.6048
▁참석하는	-11.6048
▁기회로	-11.6053
▁조절하는	-11.6056
▁트	-11.6056
▁주의해	-11.6057
▁섭취할	-11.6059
▁일관	-11.606
로만	-11.606
수도	-11.6061
▁고급형	-11.6061
▁탐험	-11.6061
▁관세	-11.6062
▁항산화	-11.6067
▁팝업	-11.6068
▁발로	-11.607
▁왔을	-11.6071
▁프로젝터	-11.6071
▁생명공학	-11.6071
▁보강	-11.6071
▁호기심	-11.6071
▁미역국	-11.6072
▁사항과	-11.6072
▁발굴	-11.6074
▁궁금하네요	-11.6074
물이	-11.6074
▁의미에서	-11.6075
▁베이커리	-11.6075
▁심각하게	-11.6075
▁스톱	-11.6076
▁거래하는	-11.6076
▁장미	-11.6077
▁조심히	-11.6077
▁이상민	-11.6079
▁제작진	-11.6079
▁싶으면	-11.608
▁입자를	-11.608
▁됐네요	-11.608
▁화폐	-11.6081
▁우아한	-11.6082
▁제공합니까	-11.6083
▁따르	-11.6085
▁적당	-11.6085
▁미끄러지	-11.6087
▁먹었어요	-11.6087
▁끼고	-11.6089
▁음식들	-11.6092
▁거기는	-11.6093
▁예스	-11.6093
▁정치	-11.6095
▁어울리	-11.6096
이라서요	-11.6096
▁주소와	-11.6097
▁선택하면	-11.6099
이긴	-11.6099
볼까	-11.61
부를	-11.6101
보면	-11.6102
▁침투	-11.6103
▁구성으로	-11.6103
▁하이킹	-11.6104
호선	-11.6105
▁천장	-11.6107
▁하려	-11.6107
▁제조하고	-11.6109
▁신선도	-11.6113
▁참아	-11.6115
▁검은	-11.6116
돌	-11.6116
▁작동하고	-11.6116
▁추가했습니다	-11.6117
▁줄어	-11.6117
▁운전을	-11.6118
▁대신해서	-11.612
보는	-11.6121
▁해드릴게요	-11.6123
▁강의를	-11.6126
▁더해줍니다	-11.6132
▁배출량	-11.6133
▁떡을	-11.6135
▁말해야	-11.6136
종의	-11.6136
▁가량	-11.6138
▁아이콘	-11.6138
▁팀장님이	-11.614
▁구현할	-11.614
▁돌아오	-11.614
▁청소년	-11.6142
▁에너지가	-11.6143
▁무제한	-11.615
▁없고요	-11.6151
▁전까지는	-11.6151
▁증상이	-11.6152
▁충분할	-11.6155
▁맛있네	-11.6159
▁자국	-11.6161
▁해야할	-11.6162
▁소식입니다	-11.6163
과정	-11.6163
▁개최할	-11.6167
▁맞은	-11.6168
▁싶기	-11.6168
▁대역폭	-11.6168
▁색다른	-11.6169
▁연락드렸어요	-11.6169
▁트랙터	-11.617
표를	-11.6171
▁인내심	-11.6171
▁여쭙고자	-11.6171
돈	-11.6171
▁장치에서	-11.6171
▁확인해보시고	-11.6172
▁계약한	-11.6173
▁일치하지	-11.6173
▁대답을	-11.6174
▁목소리가	-11.6174
▁공식적으로	-11.6175
▁대략적으로	-11.6177
쪽	-11.6177
▁셀러	-11.618
▁카드는	-11.6185
▁가속	-11.6189
▁많으신	-11.6189
▁올리는	-11.6192
▁저녁을	-11.6194
▁성함이	-11.6196
▁제안하고	-11.6197
▁얘네	-11.6198
▁쓰실	-11.6198
▁아니기	-11.6199
▁측면에	-11.6199
파운드	-11.6199
▁가사	-11.62
▁130	-11.62
▁철도	-11.62
전자	-11.6201
▁정말요	-11.6202
▁안된다면	-11.6202
▁예상보다	-11.6203
▁폴리	-11.6203
▁할아버지	-11.6205
▁인상된	-11.6206
▁발음	-11.6208
▁구해	-11.6215
▁제품이나	-11.6216
12	-11.6219
▁더운	-11.6219
▁입술	-11.622
▁순간을	-11.6221
▁만나보실	-11.6221
▁필요해서	-11.6222
▁필요하기	-11.6227
▁잡아서	-11.6228
▁우호적	-11.6232
▁조명이	-11.6233
▁보장이	-11.6234
▁초기에	-11.6235
▁놀러	-11.6235
▁수질	-11.6238
▁모던	-11.6239
▁해보자	-11.6239
▁훌륭	-11.6239
▁교실	-11.6241
▁먹어봐	-11.6241
▁존재하는	-11.6248
▁부합	-11.6249
▁뚜껑은	-11.625
▁주문해야	-11.6253
▁전문의	-11.6256
▁되겠네	-11.6257
▁원하실	-11.6257
▁칸	-11.6257
▁바비큐	-11.6258
기술을	-11.6259
▁오시기	-11.626
▁통과할	-11.626
▁그와	-11.6262
▁중인데	-11.6265
▁추천하고	-11.6266
▁깻잎	-11.6266
▁바늘	-11.6266
▁빕니다	-11.6266
▁울트라	-11.6266
▁쟤는	-11.6266
▁파프리카	-11.6266
▁둥근	-11.6266
▁원산지	-11.6266
▁팔레트	-11.6266
▁영상물	-11.6266
주시나요	-11.6267
▁아쉽습니다	-11.6267
▁그러세요	-11.6267
▁되신	-11.6269
▁요새는	-11.627
애	-11.627
▁탄수화물	-11.627
▁지능형	-11.6271
▁시승	-11.6271
▁앱으로	-11.6272
▁예정대로	-11.6272
▁종국이가	-11.6272
▁대상이	-11.6273
▁부장님께서	-11.6275
▁보관하고	-11.6275
▁85	-11.6276
▁뒷면에	-11.6278
▁빔	-11.6278
▁틀어	-11.6279
▁견고하고	-11.6281
▁이전에는	-11.6283
▁보호자	-11.6286
▁장치입니다	-11.6288
▁사시는	-11.6288
▁힘으로	-11.6289
▁축	-11.629
▁반려동물에게	-11.629
▁공급망	-11.6291
▁설명하겠습니다	-11.6292
▁게이머	-11.6293
▁형님이	-11.6293
▁시점	-11.6294
▁갔어요	-11.6295
▁경제적인	-11.6295
}	-11.6298
겠다는	-11.63
▁상점에서	-11.6301
층으로	-11.6303
선용	-11.6303
▁호환되는	-11.6303
▁더할	-11.6306
▁출장으로	-11.6307
▁팬이	-11.6308
▁데려가	-11.6309
▁특성에	-11.6309
▁인원수	-11.6311
▁결합된	-11.6311
▁상상해	-11.6313
▁이야기하는	-11.6313
▁사랑합니다	-11.6317
▁여행자	-11.632
▁고정할	-11.6322
▁협상이	-11.6324
▁결론	-11.6329
▁끊임없	-11.633
▁사용된다	-11.6334
▁예로	-11.6335
▁해주고	-11.6338
▁장착할	-11.634
▁첫번째	-11.6345
▁변경에	-11.6345
▁구상	-11.6348
페	-11.6348
▁배추	-11.6352
▁고압	-11.6354
▁지어	-11.6354
하더라도	-11.6356
곡	-11.6358
▁인연이	-11.6361
▁국산	-11.6362
▁그리스	-11.6364
▁높을	-11.6365
▁똑바로	-11.6365
▁폴리에스터	-11.6365
▁핫도그	-11.6365
▁라이센스	-11.6365
▁핸드메이드	-11.6365
▁무엇에	-11.6366
▁흥미롭게	-11.6366
▁출국	-11.6366
▁않았지만	-11.6366
▁화소	-11.6366
▁보일러	-11.6366
▁팬티	-11.6367
▁퍼즐	-11.6368
▁캐시미어	-11.6369
▁지불은	-11.637
▁늦어져서	-11.637
▁차체	-11.6374
▁유사	-11.6374
▁해주시는	-11.6376
▁올라가는	-11.6376
▁예정인가요	-11.6376
▁얘기한	-11.6377
▁규정이	-11.6377
▁구성되었습니다	-11.6378
▁제공해드립니다	-11.638
▁물어보고	-11.638
▁때만	-11.6382
주기	-11.6383
▁들어가요	-11.6383
▁맞추는	-11.6384
▁지표	-11.6387
▁얘기도	-11.6387
개까지	-11.6387
▁했더니	-11.6387
▁이러면서	-11.6388
▁코디	-11.6391
다니까	-11.6391
▁인상에	-11.6392
▁혁명	-11.6393
▁하시길	-11.6393
▁개는	-11.6395
▁들었는데요	-11.6395
▁장인	-11.6397
으세요	-11.6397
▁문의드릴	-11.6398
쌍	-11.6399
▁참고하시면	-11.64
▁가드	-11.6401
▁젤리	-11.6403
▁교환할	-11.6403
▁일어나고	-11.6404
▁생성합니다	-11.6405
▁부드러워	-11.6407
▁참석자	-11.6408
▁숙소는	-11.641
▁들리	-11.6412
▁박스를	-11.6413
▁건이	-11.6413
하였으며	-11.6413
▁구입했습니다	-11.6414
▁담백	-11.642
▁멈춰	-11.642
▁이것으로	-11.6422
▁등장	-11.6422
▁되서	-11.6422
▁푸	-11.6426
▁밥이	-11.6428
▁완료한	-11.6428
▁단백질이	-11.6429
투	-11.6431
▁당일에	-11.6438
픈	-11.6442
▁주신다고	-11.6442
▁견	-11.6444
▁보라색	-11.6445
▁홍보하는	-11.6447
▁주변에서	-11.6449
▁이분	-11.6452
▁제시하는	-11.6455
▁물어보	-11.6455
▁상품권	-11.6456
▁관계에	-11.646
▁견인	-11.646
▁높이가	-11.6461
▁최고입니다	-11.6462
▁싶은지	-11.6462
▁아기들	-11.6463
▁크루	-11.6465
▁숨을	-11.6465
▁집사부	-11.6465
▁크리스탈	-11.6465
▁입체	-11.6465
▁과열	-11.6466
▁돋보이는	-11.6466
▁가산될	-11.6466
▁비쌀	-11.6466
▁현저	-11.6466
▁사랑스러운	-11.6466
▁순서대로	-11.6466
▁뚜왈기	-11.6467
▁호박	-11.6467
▁공급처	-11.6468
▁변신	-11.6468
하라는	-11.6469
▁분기에	-11.647
▁복수	-11.6472
▁재미있고	-11.6472
에서만	-11.6472
코드	-11.6472
▁세련되고	-11.6473
▁지나치	-11.6474
▁세탁이	-11.6475
얼	-11.6475
▁든든한	-11.6476
▁생수	-11.6478
▁둘러보고	-11.6478
▁심해	-11.6479
▁운영되고	-11.6481
▁선택하신	-11.6482
▁접목	-11.6482
▁나보다	-11.6482
카드	-11.6483
▁기회라고	-11.6483
▁있으셨	-11.6484
▁다양성	-11.6485
▁싫어하는	-11.6485
▁비교하여	-11.6486
▁보험사	-11.6486
▁마법	-11.6487
▁오오	-11.6489
▁초보	-11.649
▁세트가	-11.6491
▁지목	-11.6492
▁케이블이	-11.6493
에게는	-11.6494
▁그쪽에서	-11.6494
꺼	-11.65
▁착한	-11.65
▁이메일이	-11.6501
피트	-11.6501
침	-11.6503
▁어려워요	-11.6503
▁완료해야	-11.6504
▁사용감	-11.6507
리는	-11.6508
▁예금	-11.6512
▁오일이	-11.6513
▁봉사	-11.6513
▁새끼	-11.6514
▁길고	-11.6516
▁알려주신	-11.6516
▁캐릭터가	-11.6517
▁고집	-11.6518
▁타이밍	-11.6519
▁타격	-11.652
기와	-11.6521
▁다시마	-11.6522
▁휴대성	-11.6523
▁아니라서	-11.6526
▁상태는	-11.6526
공장	-11.653
▁컴퓨터의	-11.653
▁가격보다	-11.6531
▁좋아하실	-11.6535
▁사업과	-11.6536
▁다름	-11.6543
▁용량으로	-11.6544
▁볼까	-11.6545
▁저소음	-11.6546
▁이들은	-11.6548
▁데이트	-11.6549
▁포장해	-11.6552
구매	-11.6555
치료	-11.6559
나무	-11.6559
▁신생아	-11.6561
▁외부에서	-11.6561
▁회사로부터	-11.6564
▁회장	-11.6564
▁듬뿍	-11.6566
▁겉창	-11.6566
▁진드기	-11.6566
▁라켓	-11.6566
▁라이너	-11.6566
▁성적	-11.6566
▁베타	-11.6566
▁나오는데	-11.6567
▁부르는	-11.6567
▁화석	-11.6567
▁그러시죠	-11.6568
▁필기	-11.6568
▁인조	-11.6568
▁격리	-11.6569
▁추천드려요	-11.6569
▁아름답게	-11.6569
▁티타늄	-11.6569
▁튀겨	-11.6569
▁오디오를	-11.6571
▁니켈	-11.6572
▁욕실이	-11.6573
▁댄스	-11.6573
▁상담이	-11.6574
▁말아야	-11.6575
▁목적에	-11.6576
▁고대하겠습니다	-11.6576
▁바르고	-11.6576
▁룩에	-11.6576
▁이론	-11.6579
▁IoT	-11.6579
▁기울이고	-11.6579
▁전극	-11.658
▁기재된	-11.6581
▁적도	-11.6581
▁대접	-11.6583
▁자격증	-11.6584
▁안락	-11.6587
▁쿨	-11.6588
▁분당	-11.6588
▁성능에	-11.659
환	-11.6591
▁설정하는	-11.6592
▁궁금해요	-11.6593
▁이쪽에	-11.6597
해주시는	-11.6598
▁최소화합니다	-11.6601
▁답답	-11.6602
가능합니다	-11.6604
▁해고	-11.6606
▁OS	-11.6608
▁발전하고	-11.6609
▁것만으로	-11.661
비를	-11.6611
▁복잡	-11.6612
▁어디가	-11.6613
▁개인이	-11.6614
▁물어봐도	-11.6617
▁많았	-11.6621
▁고민하고	-11.6621
▁연출해	-11.6622
▁부품에	-11.6622
책	-11.6624
▁에어컨이	-11.6625
▁방에서	-11.6628
▁팸플릿	-11.6631
▁집주인	-11.6636
▁소재에	-11.6636
▁의문	-11.6638
님과	-11.6639
▁두께감	-11.6639
▁평방	-11.6643
▁적립	-11.6643
▁뛰	-11.6643
▁푹신	-11.6644
▁부가	-11.665
▁제공했습니다	-11.6653
틱	-11.6655
년도에	-11.6656
▁두번째	-11.6656
▁변형이	-11.6656
▁도면	-11.6662
▁스푼	-11.6664
▁배송과	-11.6667
▁알림이	-11.6668
▁일러스트	-11.6668
▁논픽션	-11.6668
▁섞여	-11.6668
▁양배추	-11.6668
▁미니멀	-11.6668
▁포털	-11.6668
▁바쁘시겠지만	-11.6668
하셨는데	-11.6668
▁육아	-11.6669
▁동화책	-11.6669
▁왕복	-11.6669
▁있겠죠	-11.6669
▁들어오세요	-11.6669
▁돌아왔습니다	-11.667
▁설정되어	-11.6671
▁2015	-11.6671
▁있었거든요	-11.6671
▁없었어	-11.6672
▁유일하게	-11.6672
봤어요	-11.6672
라이트	-11.6674
▁딴	-11.6674
▁방치	-11.6675
▁방대한	-11.6676
해줄	-11.6676
페소	-11.6676
▁가셔서	-11.6677
▁열고자	-11.6677
▁안정화	-11.6681
▁대구	-11.6681
▁간략하게	-11.6683
▁정직	-11.6684
▁콜라	-11.6688
▁입이	-11.6688
▁톱	-11.6688
▁협력관계	-11.6689
▁없던	-11.6691
▁잘못이	-11.6692
▁힌트를	-11.6692
봅시다	-11.6692
▁목적이	-11.6693
▁향해	-11.6694
▁언젠가	-11.6695
▁피부로	-11.6698
▁텀블러	-11.6699
▁것이므로	-11.67
웨어	-11.67
▁시계를	-11.6701
▁신랑	-11.6701
▁신기술	-11.6701
▁직장에서	-11.6702
▁털이	-11.6704
▁먹어본	-11.6705
▁돌아오는	-11.6705
방지	-11.6708
▁처리되어	-11.6708
▁아니니	-11.6709
40	-11.6709
▁운동할	-11.6711
▁양식에	-11.6711
해보겠습니다	-11.6712
▁들어주셔서	-11.6712
▁여행에	-11.6714
▁본사와	-11.6716
▁찾아보	-11.6716
▁확인해보고	-11.6717
ed	-11.6721
▁1%	-11.6723
▁도망가	-11.6723
▁모실	-11.6727
▁회사들과	-11.6728
▁최저가	-11.6731
▁버텨	-11.6732
없는	-11.6733
▁방송국	-11.6735
▁보내면	-11.6735
▁활용하기	-11.6735
▁만들어졌다	-11.6737
▁컴퓨터와	-11.6743
▁33	-11.675
▁조작이	-11.675
▁어렵고	-11.6753
▁구조에	-11.6753
원을	-11.6754
▁달리기	-11.6754
▁세계로	-11.6755
▁높지	-11.6756
▁110	-11.6761
▁곳도	-11.6762
▁나왔는데	-11.6763
▁촉매	-11.6766
▁화를	-11.6766
▁저자극	-11.6766
▁스토어	-11.6766
▁있던데	-11.6767
▁지불했습니다	-11.6768
▁곰탕	-11.6769
독	-11.6769
▁물품은	-11.677
▁총괄	-11.6771
▁맞도록	-11.6771
▁올바르	-11.6771
▁멤버십	-11.6771
▁핸드크림	-11.6771
▁압류	-11.6771
▁발바닥	-11.6772
▁없습니까	-11.6772
▁있었죠	-11.6773
▁은근히	-11.6773
▁예정이신가요	-11.6773
▁윤지	-11.6774
▁보답하겠습니다	-11.6774
▁생긴다면	-11.6776
▁익	-11.6776
▁이동하는	-11.6776
▁작지만	-11.6777
▁어디까지	-11.6778
▁궁극	-11.6778
▁한방	-11.6778
▁양념을	-11.6778
▁명을	-11.678
▁딱히	-11.678
▁정책이	-11.6781
▁버거	-11.6781
야죠	-11.6786
▁켜고	-11.6789
▁없었는데	-11.6789
▁오게	-11.6789
▁더했습니다	-11.679
▁보냈	-11.679
▁변속기	-11.6794
비가	-11.6795
▁우편물	-11.6796
▁문화에	-11.6796
▁강화된	-11.6799
▁추출한	-11.6801
▁예약에	-11.6802
취	-11.6803
▁썰	-11.6803
le	-11.6804
▁있기는	-11.6807
▁찌개	-11.6808
▁패턴이	-11.681
▁마이크를	-11.681
▁신장	-11.6811
▁마케팅에	-11.6812
▁핏이	-11.6812
▁감성을	-11.6814
▁제모	-11.6816
▁먹으면서	-11.6816
▁체내	-11.6817
▁빵을	-11.6819
▁전복	-11.6819
▁원이	-11.6821
▁형상	-11.6822
▁나오	-11.6824
▁십	-11.6828
▁군대	-11.6828
▁캘린더	-11.683
▁은우	-11.683
▁치료법	-11.6832
▁시작이	-11.6833
▁재산을	-11.6835
▁발에	-11.6835
라니	-11.6835
▁해외배송	-11.6836
▁수동으로	-11.6836
▁묻어	-11.6839
▁설치하고	-11.6839
▁있으니까요	-11.6839
▁기억나	-11.6842
▁아이템으로	-11.6844
▁$	-11.6848
▁함께하는	-11.6848
▁승객	-11.6849
▁스페인	-11.6854
▁연령대	-11.6854
▁피곤	-11.6855
▁맛에	-11.6856
▁비롯해	-11.6856
▁제작자	-11.6857
▁고쳐	-11.6858
▁따라야	-11.686
▁원단은	-11.6862
▁자수	-11.6864
기기	-11.6864
▁명확	-11.6864
▁납품할	-11.6865
▁지고	-11.6865
해드리고	-11.6866
▁버전의	-11.6868
▁팀장님께	-11.6868
▁충전재	-11.6868
▁이용하기	-11.6868
▁평평	-11.687
▁발표할	-11.687
▁유용하	-11.6871
▁교	-11.6871
▁관여	-11.6871
▁추측	-11.6872
▁환전	-11.6872
▁삶에	-11.6872
이상	-11.6873
11	-11.6873
▁상시	-11.6874
,000	-11.6875
▁악영향	-11.6875
▁스트레치	-11.6876
▁코코아	-11.6876
▁같습니까	-11.6876
▁아무쪼록	-11.6876
▁요거트	-11.6876
▁못하였습니다	-11.6877
▁많으면	-11.6878
▁다이아몬드	-11.6878
▁최상급	-11.6878
▁일체	-11.6878
▁목소리를	-11.6879
▁당연하지	-11.6879
▁공동체	-11.6879
▁받아들여	-11.688
60	-11.6881
▁끓인	-11.6881
▁하트	-11.6881
▁연장할	-11.6882
밭	-11.6882
▁길이를	-11.6883
있더군요	-11.6884
▁옵션에	-11.6884
▁세우고	-11.6884
▁금액과	-11.6884
▁전파	-11.6885
▁이어서	-11.6887
▁성공하였습니다	-11.6889
▁레스토랑에	-11.6889
▁겨울철	-11.6891
▁취소해	-11.6891
▁의자에	-11.6893
▁모아서	-11.6893
▁호수	-11.6893
▁성별	-11.6893
▁되었다는	-11.6898
▁지키고	-11.6899
▁들어오고	-11.6899
▁알잖아	-11.6899
▁에어프라이어	-11.69
▁중독	-11.6901
▁주문해주신	-11.6905
▁첨부파일을	-11.6905
▁곳과	-11.6905
들로부터	-11.6906
▁위치와	-11.6907
리에	-11.6909
▁프로젝트에서	-11.6913
▁시작했다	-11.6915
▁그것으로	-11.6915
인실	-11.6915
▁이물질이	-11.6918
▁개척	-11.6923
었거든요	-11.6925
▁연구와	-11.6925
▁진행하면	-11.6926
▁쯤	-11.6926
치고	-11.6927
▁수수료는	-11.6929
▁일정한	-11.6933
▁원금	-11.6934
▁준비하도록	-11.6935
줘요	-11.6937
▁배송되는	-11.6943
▁너랑	-11.6945
▁멕시코	-11.695
▁실을	-11.6951
▁첨부파일에	-11.6951
시지	-11.6957
▁아름다움을	-11.6957
▁알리고	-11.6958
▁명은	-11.6958
▁환경과	-11.6959
▁주자	-11.6959
▁도보	-11.6959
▁체력	-11.6962
▁순간에	-11.6963
▁봤지	-11.6965
▁몸체	-11.6966
▁계절에	-11.6967
▁수요일까지	-11.6967
▁혀	-11.6968
▁섹션	-11.6968
▁콘	-11.6969
▁기사님	-11.6969
▁계신지	-11.6969
▁짧아	-11.697
▁좋겠는데	-11.6971
▁처방	-11.6975
▁꾸	-11.6975
▁붉은	-11.6978
됨	-11.6979
▁많죠	-11.6981
▁백과사전	-11.6981
▁속눈썹	-11.6981
▁스테레오	-11.6981
▁스캐닝	-11.6981
▁토큰	-11.6981
▁슈즈	-11.6981
▁비듬	-11.6981
▁버블	-11.6981
▁밀키트	-11.6981
▁계시겠지만	-11.6981
▁우울증	-11.6981
▁감자탕	-11.6981
▁농약	-11.6981
▁있었는지	-11.6981
▁쉬울	-11.6981
▁빠질	-11.6982
▁증식	-11.6982
▁동급	-11.6982
▁우린	-11.6982
▁인마	-11.6983
▁숙면	-11.6983
▁전념	-11.6983
▁생각하십니까	-11.6983
▁회사에게	-11.6983
▁문구류	-11.6984
▁툭	-11.6985
▁개별적으로	-11.6986
▁튼튼하게	-11.6989
▁2010	-11.6989
▁농지	-11.6989
▁다루고	-11.699
▁이제야	-11.6991
덕	-11.6993
▁찾아뵙고	-11.6993
▁센터가	-11.6994
▁아이템입니다	-11.6994
▁작전	-11.6995
▁데모	-11.6995
▁단말기	-11.6995
▁미쳤다	-11.6995
▁대학생	-11.6997
▁운영합니다	-11.6997
▁끝이야	-11.6998
▁메커니즘	-11.7
▁연출합니다	-11.7
▁신발은	-11.7002
▁연락드린	-11.7003
▁웃긴다	-11.7003
▁전날	-11.7005
▁짓고	-11.7005
▁옷에	-11.7006
▁나날	-11.7008
빨리	-11.7008
▁모두에	-11.7008
식품	-11.701
▁미안해요	-11.7012
베	-11.7013
▁송	-11.7013
▁기도	-11.7015
▁유지하도록	-11.7016
▁당사자	-11.7021
▁전표	-11.7021
하기만	-11.7023
금을	-11.7023
▁선불	-11.7024
50	-11.7026
년생	-11.7026
▁신축성이	-11.7031
▁고려해서	-11.7033
▁날짜로	-11.7034
▁하시겠어요	-11.7035
▁바닥을	-11.7038
▁사계절	-11.7039
▁복지	-11.7042
▁슬롯	-11.7043
▁처리하고	-11.7046
▁신메뉴	-11.7048
▁내린	-11.7049
▁비우	-11.705
가능	-11.7051
▁일만	-11.7051
▁돈으로	-11.7054
▁요즘에는	-11.7059
자로	-11.7062
▁배송됩니다	-11.7063
▁개선에	-11.7065
▁먹는데	-11.7066
▁기계들	-11.707
▁의도	-11.707
▁인근	-11.7074
▁품목이	-11.7076
▁싶고	-11.7076
▁탈부착이	-11.7077
▁제공해드리고	-11.7077
▁교통사고	-11.7077
▁나오네	-11.7079
▁늘리는	-11.7082
▁다진	-11.7084
▁애프터	-11.7084
▁해라	-11.7084
▁나뉘어	-11.7087
▁무브먼트	-11.7087
▁뵙게	-11.7087
▁아보카도	-11.7087
▁얇게	-11.7087
▁쟤가	-11.7087
▁브라질	-11.7087
▁카탈로그에서	-11.7088
▁장거리	-11.7088
▁숙제	-11.7089
▁중식	-11.7089
▁안다	-11.7091
▁끝났습니다	-11.7091
▁효율적이고	-11.7091
▁풍부하게	-11.7092
▁나왔던	-11.7092
▁솜	-11.7093
▁니가	-11.7093
거예요	-11.7094
송	-11.7094
▁협회장	-11.7094
▁누구인지	-11.7095
▁사소	-11.7096
▁땐	-11.7097
▁낮게	-11.7098
탕	-11.7098
▁록	-11.71
▁자율주행차	-11.7101
▁공법	-11.7101
▁취업	-11.7105
▁제공해야	-11.7106
였	-11.7109
▁프로그램입니다	-11.711
▁우드	-11.7111
▁카운터	-11.7114
▁한마디	-11.7114
▁합류	-11.7115
에게서	-11.7116
▁이메일에서	-11.7116
지역	-11.7121
▁의뢰서	-11.7121
▁입국	-11.7123
필	-11.7125
▁프로그램에서	-11.7125
▁같기도	-11.7126
▁작성해야	-11.7127
좀	-11.7128
▁힘들게	-11.7129
▁함유량	-11.7131
▁운영할	-11.7133
▁노동	-11.7134
▁둘러	-11.7134
▁바닥이	-11.7134
▁물은	-11.7134
▁그치	-11.7134
▁전기자동차	-11.7137
▁무인	-11.7137
▁예약하겠습니다	-11.7139
가량	-11.7141
▁양은	-11.7145
하셨죠	-11.7145
▁조합을	-11.7146
▁자체를	-11.715
▁머물고	-11.7151
▁베트남에	-11.7151
▁봉지	-11.7152
▁집단	-11.7154
▁것이지요	-11.7156
바이	-11.7157
▁상권	-11.7158
▁보상해	-11.7159
▁구입하기	-11.7162
▁끊어	-11.7162
▁못한다	-11.7164
▁가족들	-11.7167
▁측정합니다	-11.7169
▁잃을	-11.7171
▁분들께서	-11.7172
▁변경될	-11.7174
▁이슈가	-11.7175
▁오차	-11.7176
▁수석	-11.7177
▁사장	-11.7179
▁$1	-11.7179
▁불순물	-11.7179
▁워크샵	-11.7182
▁치즈가	-11.7182
▁명소	-11.7183
TB	-11.7185
▁다해서	-11.7188
밥	-11.7188
▁될것	-11.7189
▁찾았어	-11.7189
▁부대찌개	-11.7193
모델	-11.7193
▁사업장	-11.7195
▁봤던	-11.7195
▁임팩트	-11.7195
▁콘도미니엄	-11.7195
▁콘서트	-11.7195
▁스펀지	-11.7195
▁클리너	-11.7195
▁보여드리고	-11.7195
▁알다시피	-11.7195
▁싶었던	-11.7196
▁않으신가요	-11.7196
▁재난	-11.7196
▁알아볼	-11.7196
▁비교했을	-11.7196
▁망원경	-11.7197
▁금주	-11.7197
▁좋은지	-11.7197
▁랜턴	-11.7198
▁철판	-11.7198
▁뜨겁게	-11.7199
▁은색	-11.72
▁서신	-11.7202
▁지진	-11.7202
제품이	-11.7203
▁짬뽕	-11.7203
▁수리가	-11.7203
▁RGB	-11.7204
▁배관	-11.7205
▁학위	-11.7206
▁올게요	-11.7206
▁되겠죠	-11.7206
▁행	-11.7207
▁기대에	-11.7207
▁성의	-11.7208
▁연설	-11.7209
▁시작된	-11.7209
▁보증합니다	-11.7212
▁날려	-11.7213
▁의식	-11.7217
▁룰	-11.7217
▁웃	-11.7217
▁수출할	-11.722
▁운영에	-11.722
▁리얼	-11.7222
▁캠핑용	-11.7223
▁진행되기	-11.7225
▁볶음	-11.7225
▁나라로	-11.7225
▁미디어에	-11.7225
▁늦어지	-11.7225
▁후방	-11.7225
▁있다니	-11.7227
▁완료됩니다	-11.7228
▁그랬지	-11.7229
▁인쇄기	-11.723
▁차원에서	-11.7232
▁안돼	-11.7232
▁성인용	-11.7233
▁장어	-11.7235
▁곳이면	-11.7235
▁계산서	-11.7237
▁마찰	-11.7237
▁물어봐	-11.724
▁다운로드할	-11.7243
▁지수	-11.7245
▁학교에	-11.7247
▁던져	-11.7247
▁배송받	-11.725
▁아이템이	-11.7254
▁되었다	-11.7256
▁해안	-11.7256
서비스를	-11.7257
▁스마트폰과	-11.726
▁가져온	-11.726
▁어울린다	-11.7261
▁낮춰	-11.7261
▁두어	-11.7261
▁화제	-11.7262
▁종사	-11.7263
▁미국과	-11.7263
▁거래처에	-11.7263
▁그쪽으로	-11.7268
▁번은	-11.727
▁돌리	-11.727
▁그렇게까지	-11.727
▁검사가	-11.7273
▁아이에게	-11.7274
▁특이	-11.7275
▁당황	-11.7277
보실	-11.7278
▁떼어	-11.7279
▁이전보다	-11.728
▁해결하고	-11.7283
▁재미가	-11.7286
▁자식	-11.7289
▁업데이트된	-11.7292
▁덮어	-11.7292
▁많네	-11.7293
▁살펴볼	-11.7294
▁출장에	-11.7295
▁세다	-11.7296
▁디자인된	-11.7298
▁라벤더	-11.73
▁차후	-11.7301
▁아니네	-11.7302
▁신입	-11.7302
▁작업장	-11.7302
▁식초	-11.7302
▁멸치	-11.7303
▁스케이트	-11.7303
▁떠났	-11.7303
▁갈비찜	-11.7303
▁분홍색	-11.7304
▁상거래	-11.7304
▁굿즈	-11.7304
▁포즈	-11.7304
▁높았습니다	-11.7305
▁재석아	-11.7305
▁하우징	-11.7305
▁먹으니까	-11.7305
가능한	-11.7306
▁유틸리티	-11.7306
▁남겨주시면	-11.7306
▁입증되었습니다	-11.7307
▁서빙	-11.7307
▁않았고	-11.7308
▁올라와	-11.7309
▁호르몬	-11.731
▁하체	-11.731
▁들어갔	-11.731
▁월별	-11.731
▁기관에	-11.7311
▁유학	-11.7311
▁두가지	-11.7312
했	-11.7313
▁둘러보	-11.7313
▁살게요	-11.7314
▁공제	-11.7315
▁크림을	-11.7316
▁가졌습니다	-11.7316
▁수출입	-11.7317
가격	-11.7317
되었습니까	-11.7317
▁맞는데	-11.7319
▁사와	-11.7319
라니까	-11.732
▁횟수	-11.732
▁이웃	-11.7321
▁쪽이	-11.7324
▁활용하면	-11.7331
▁cm	-11.7333
▁값이	-11.7334
▁팔아	-11.7335
▁세안	-11.7336
딩	-11.7339
▁품목에	-11.734
▁충격에	-11.734
▁알면	-11.7341
▁선명하고	-11.7346
▁환자에게	-11.7346
▁했으나	-11.7348
▁발전할	-11.7349
▁인플루언서	-11.7349
▁특별하게	-11.735
사업	-11.735
▁내일부터	-11.7351
▁여유롭	-11.7354
▁연락하실	-11.7355
▁포함하는	-11.7356
되었을	-11.7356
▁방송에서	-11.7357
▁출항	-11.736
▁전략이	-11.7363
▁상을	-11.7366
했어야	-11.7367
▁출시되는	-11.7374
신다면	-11.7377
▁젊은이들	-11.7378
▁씨랑	-11.7378
▁용서해	-11.7378
▁관광객	-11.7378
▁협상할	-11.7378
▁단맛이	-11.7381
▁실망시키	-11.7382
▁먹어서	-11.7382
▁그때부터	-11.7383
▁조건들	-11.7389
▁용기에	-11.7389
▁여기다가	-11.7392
비는	-11.7395
되니	-11.7396
▁고객분들이	-11.74
▁완료되는	-11.7401
▁의자가	-11.7402
▁자는	-11.7402
▁발생하고	-11.7403
▁묵을	-11.7405
▁아이들도	-11.7405
▁가격에서	-11.7406
▁마케팅팀	-11.7407
▁준비될	-11.7409
하셨을	-11.7409
▁취합	-11.741
▁내일은	-11.741
Hz	-11.741
▁빨리빨리	-11.741
▁하얀	-11.7411
▁수행하고	-11.7412
▁안마	-11.7412
▁타워	-11.7412
▁증강	-11.7413
▁검정	-11.7413
▁낯선	-11.7413
▁닫을	-11.7413
▁뜻을	-11.7413
▁서스펜션	-11.7413
▁스니커즈	-11.7413
▁칵테일	-11.7413
▁케이터링	-11.7413
▁미나리	-11.7413
▁리스크	-11.7413
▁이루	-11.7413
▁연필	-11.7414
▁직진	-11.7414
▁생활용품	-11.7415
▁고른	-11.7415
▁않으셨나요	-11.7416
▁들으면	-11.7416
▁친구에게	-11.7416
▁감사드려요	-11.7416
▁생각해야	-11.7417
▁달러로	-11.7418
▁후추	-11.7419
▁덩어리	-11.742
▁토너	-11.7421
▁경치	-11.7421
▁제철	-11.7421
▁교육에	-11.7422
▁향료	-11.7422
▁회의장	-11.7423
▁차후에	-11.7423
▁너희들	-11.7424
▁포장재	-11.7425
▁보네	-11.7427
▁미안합니다	-11.7427
▁대전	-11.7427
▁고민해	-11.7428
▁호텔과	-11.743
▁결합하여	-11.7431
▁특허권	-11.7431
군데	-11.7433
▁제출해야	-11.7433
▁의하면	-11.7434
▁락	-11.7435
▁죽은	-11.7436
▁보내드리기	-11.7441
▁아버님이	-11.7442
▁원천	-11.7444
▁백팩	-11.7448
▁얼마죠	-11.7449
▁38	-11.7449
▁숙박비	-11.745
▁사용하려면	-11.7451
▁영상으로	-11.7451
▁노래가	-11.7452
▁출시합니다	-11.7456
하시는데	-11.7457
▁예상하지	-11.7458
▁삐	-11.7461
▁해드릴까요	-11.7462
▁신용카드로	-11.7464
▁주셨는데요	-11.7464
▁출력이	-11.7464
▁계산기	-11.7465
▁유전	-11.7467
▁쉬어	-11.7467
▁협의가	-11.7467
▁전화나	-11.7468
▁세탁물	-11.7468
분석	-11.7471
▁명절	-11.7472
▁사용량	-11.7473
▁탑재된	-11.7474
▁시작해서	-11.7475
▁축하해	-11.7478
이랍니다	-11.7478
▁시킨	-11.7481
▁m	-11.7482
▁보행	-11.7484
느라	-11.7487
▁여정	-11.7489
▁밝	-11.7489
▁시작하여	-11.7489
▁잃	-11.7492
▁빠르다	-11.7495
▁세트입니다	-11.7497
▁하므로	-11.7497
▁메뉴로	-11.7499
▁꼬	-11.7501
▁색상에	-11.7503
▁전환할	-11.7504
▁좋기	-11.7508
▁해주	-11.7509
분까지	-11.7514
▁한국이	-11.7515
▁설거지	-11.7519
▁말하기	-11.752
효과	-11.752
▁완	-11.752
▁해주시고	-11.7521
▁족발	-11.7521
▁그중에	-11.7523
▁개그	-11.7524
▁룸으로	-11.7524
▁글러브	-11.7524
▁스웨이드	-11.7524
▁아바타	-11.7524
▁인센티브	-11.7524
▁임산부	-11.7524
▁있니	-11.7524
▁텍스처	-11.7524
▁컴포트	-11.7524
틀	-11.7525
▁가공식품	-11.7525
▁보내드리오니	-11.7525
▁피팅	-11.7525
▁되리라	-11.7526
▁강화하고	-11.7526
▁많으셨습니다	-11.7526
▁집행	-11.7527
▁느꼈습니다	-11.7528
▁동행	-11.753
▁힘쓰고	-11.753
▁영상이	-11.7531
▁도매업자	-11.7533
▁나이에	-11.7534
▁세울	-11.7535
▁났어요	-11.7538
▁나비	-11.7539
▁카라	-11.754
▁다니고	-11.754
▁받았던	-11.754
▁참가자들	-11.7542
▁42	-11.7544
▁0.5	-11.7545
▁담당자님께	-11.7546
▁기기에서	-11.7547
▁레시피를	-11.7548
▁베트남에서	-11.7548
▁컷	-11.7549
▁사용하던	-11.7549
▁걱정하실	-11.755
▁책에	-11.7552
▁기계식	-11.7553
▁욕심	-11.7555
일수록	-11.7555
▁확인하신	-11.7556
▁신형	-11.7556
▁잡았다	-11.7558
▁좋겠다고	-11.7558
▁항목이	-11.7559
▁언	-11.756
▁보는데	-11.756
인증	-11.7561
▁해주십시오	-11.7561
▁친환경적인	-11.7561
▁예약했습니다	-11.7562
▁가입할	-11.7565
▁/	-11.7569
▁준비하였습니다	-11.757
▁확인차	-11.757
v	-11.7573
▁:	-11.7575
▁목적지	-11.7576
▁123	-11.7577
구조	-11.7578
▁컴퓨터는	-11.758
대에	-11.7582
▁우리한테	-11.7586
▁승	-11.7587
▁주의사항	-11.7588
제를	-11.759
▁3.5	-11.7592
▁살기	-11.7597
▁가이드라인	-11.7602
▁삶아	-11.7603
▁사부님이	-11.7603
▁소매업자	-11.7605
▁미주	-11.7607
▁관계자	-11.7607
상자	-11.7608
▁인터뷰를	-11.7608
▁주택에	-11.7612
▁있는지요	-11.7613
▁캐나다에서	-11.7614
▁검	-11.7615
▁식품입니다	-11.7616
▁연구진	-11.7619
▁당장은	-11.7621
▁포크	-11.7623
▁도포	-11.7623
▁고통	-11.7624
▁돌아갈	-11.7624
다고요	-11.7624
▁왔네	-11.7626
▁않나	-11.7626
▁괜찮네	-11.7627
▁조사에	-11.7628
▁완충	-11.7628
▁고자	-11.7628
▁신혼	-11.7628
▁변명	-11.7629
▁시식	-11.763
▁엄선	-11.7631
▁청소하는	-11.7631
▁호평	-11.7632
▁가보자	-11.7633
▁사람만	-11.7633
MB	-11.7633
▁붐	-11.7634
▁EV	-11.7634
▁와주셔서	-11.7635
▁다큐멘터리	-11.7637
▁무함유	-11.7637
▁협약	-11.7637
▁조리기구	-11.7637
▁잠자리	-11.7638
▁배너	-11.7638
▁신생	-11.7638
▁매력적이며	-11.7638
▁미처	-11.7638
▁표시된	-11.7638
▁세심하게	-11.7638
▁오로지	-11.7638
▁지방이	-11.7639
▁높아졌습니다	-11.7639
▁보여드릴게요	-11.764
▁하위	-11.764
▁잡았습니다	-11.7641
▁공업용	-11.7641
▁햇	-11.7642
▁재료와	-11.7644
▁+	-11.7644
▁이빨	-11.7644
▁혈당	-11.7645
▁수있는	-11.7645
▁서버에	-11.7645
▁유효기간	-11.7646
▁치면	-11.7647
▁혼선	-11.7647
▁진행하시는	-11.7648
▁중요시	-11.7649
▁알루미늄으로	-11.7649
이나마	-11.765
▁보내주셔야	-11.765
▁우선은	-11.765
▁수저	-11.7652
▁스트레스가	-11.7654
▁버는	-11.7654
▁저만	-11.7658
▁수압	-11.766
▁오배송	-11.7661
▁좀비	-11.7661
▁밑으로	-11.7663
▁매트를	-11.7663
▁서양	-11.7665
▁저번주에	-11.7665
▁사람한테	-11.7666
▁입장이	-11.7666
▁아이씨	-11.7668
▁악화	-11.7669
▁한동안	-11.7669
▁원인은	-11.7674
▁지나도	-11.7675
▁가시성	-11.7676
▁시점에서	-11.7677
▁발주서	-11.7679
▁같지만	-11.7681
▁제조된	-11.7681
▁드릴께요	-11.7683
▁차트	-11.7683
▁사지	-11.7683
검사	-11.7685
▁매력이	-11.7686
▁소리야	-11.7686
하겠다는	-11.7688
▁유연	-11.7693
▁알았다	-11.7693
▁했으니까	-11.7695
졌어	-11.7697
▁시리즈를	-11.7699
▁욕실에	-11.77
▁검토한	-11.7701
▁먹어야지	-11.7704
▁아니니까	-11.7704
▁점화	-11.7705
▁평면	-11.7709
▁마스크는	-11.771
▁안쪽에	-11.771
▁기운이	-11.7712
▁정리가	-11.7713
▁여가	-11.7714
▁헤	-11.7714
되었기	-11.7715
▁판매해	-11.7717
▁증폭	-11.7719
▁샵	-11.7721
▁때에	-11.7721
▁진행된	-11.7726
▁반짝이	-11.7726
▁단열재	-11.7727
▁운송해	-11.7729
되시면	-11.7731
밀	-11.7731
▁물건에	-11.7731
되게	-11.7732
▁포장에	-11.7733
▁항	-11.7733
▁부를	-11.7739
▁대행사	-11.7741
▁맞으면	-11.7743
▁착용해	-11.7744
▁보기에	-11.7746
장에	-11.7746
▁발병	-11.7747
▁보고를	-11.7747
▁판정	-11.7748
악	-11.7749
▁린넨	-11.775
▁찹쌀	-11.775
▁생쥐	-11.775
▁관측	-11.775
▁넣으세요	-11.7751
살이	-11.7751
▁역동적	-11.7751
▁송별회	-11.7751
▁수준입니다	-11.7751
▁축소	-11.7751
▁사오리	-11.7751
▁면밀히	-11.7751
▁입학	-11.7752
▁올인원	-11.7752
▁있으시거나	-11.7752
▁독창적인	-11.7753
▁해야죠	-11.7754
▁패킹	-11.7755
▁굉장한	-11.7756
▁팔리고	-11.7756
▁수작업으로	-11.7756
▁소독제	-11.7757
▁쓱	-11.7757
▁픽셀	-11.7758
▁모양입니다	-11.7758
▁구성이	-11.7759
피스	-11.776
▁마칠	-11.776
▁향은	-11.776
▁임대로	-11.776
▁필터로	-11.776
▁예민한	-11.7763
▁글라스	-11.7763
▁살면서	-11.7765
▁사고로	-11.7767
▁고체	-11.7767
▁흔들림	-11.7768
▁하셨다면	-11.7768
▁만족하지	-11.7769
하라	-11.7769
▁안되	-11.7769
▁좋았	-11.777
▁아무거나	-11.777
▁줬어	-11.777
리가	-11.7771
▁상판	-11.7771
▁운송장	-11.7772
▁버그	-11.7772
▁하루가	-11.7776
▁연구비	-11.7776
▁되었네요	-11.7776
▁축하하기	-11.7778
80	-11.7778
컴퍼니	-11.778
▁지원자	-11.7781
▁마찬가지	-11.7782
▁발전이	-11.7782
▁설명에	-11.7784
▁적어서	-11.7786
▁알기로는	-11.7787
▁사람이야	-11.779
▁방문자	-11.7791
내역	-11.7791
짐	-11.7792
▁자체는	-11.7792
▁세정제	-11.7792
▁부대	-11.7793
▁특이한	-11.7796
임에	-11.7796
았습니까	-11.7797
▁계시	-11.7798
▁관심있	-11.7799
▁독성	-11.7801
▁양도	-11.7801
▁제조합니다	-11.7802
▁지연되어	-11.7803
▁물품에	-11.7803
▁싱가포르	-11.7805
▁예산에	-11.7806
▁계열	-11.7806
▁모두는	-11.7807
▁상담원	-11.7808
▁약국	-11.781
았	-11.781
▁넘어서	-11.7812
▁달간	-11.7815
▁해결책	-11.7817
▁남편은	-11.7817
▁눈썹	-11.7818
▁렌트	-11.7818
▁연봉	-11.7818
▁연회	-11.7818
▁감각을	-11.7819
▁조종	-11.7824
▁쓰입니다	-11.7825
심에	-11.7835
▁출시에	-11.7839
▁도와드리고	-11.7841
▁밴딩	-11.7841
▁근로자	-11.7843
▁그런가	-11.7843
▁애용해	-11.7845
▁기술력이	-11.7846
▁인출	-11.7847
▁문의하세요	-11.7847
▁모양과	-11.7851
▁여러번	-11.7856
▁설치하여	-11.7857
▁품	-11.7857
▁체	-11.7858
▁포인트로	-11.7859
▁톡	-11.7859
▁탈부착	-11.7859
▁온도로	-11.786
▁연회장	-11.7861
▁민트	-11.7861
▁라텍스	-11.7863
▁퓨전	-11.7865
▁청양고추	-11.7865
▁힘입어	-11.7865
▁발가락	-11.7865
▁쇠고기	-11.7865
▁린스	-11.7865
▁딜러	-11.7865
▁보편적	-11.7865
▁얘들아	-11.7866
▁선크림	-11.7866
▁운동기구	-11.7866
▁서핑	-11.7866
▁천재	-11.7867
▁풍선	-11.7867
▁혼방	-11.7867
▁진보	-11.7868
▁치석	-11.7868
▁무궁	-11.7868
▁고생하셨습니다	-11.7868
탈	-11.7869
▁세심한	-11.7871
▁만족시킬	-11.7872
▁보내려고	-11.7872
▁되신다면	-11.7874
▁증기	-11.7874
▁살살	-11.7875
▁넣었어요	-11.7875
▁오르고	-11.7875
▁매콤한	-11.7878
▁감정을	-11.7879
▁인테리어에	-11.788
▁부어	-11.7881
▁향상시키는	-11.7881
▁중이며	-11.7882
▁수준이	-11.7884
해가지고	-11.7884
▁선명도	-11.7885
▁점심에	-11.7885
▁가려	-11.7887
▁나타나	-11.7887
▁님이	-11.7888
▁사가	-11.7888
100	-11.7888
▁기획안	-11.7889
▁나갑니다	-11.7892
▁비워	-11.7893
으로만	-11.7894
깁니다	-11.7894
▁끝났어요	-11.7894
▁날아	-11.7896
▁늦어서	-11.7898
▁지사에서	-11.7898
▁싶어하는	-11.7899
회의	-11.7899
▁보셨	-11.7899
▁요리할	-11.79
▁상황이라	-11.7901
▁않았다고	-11.7902
▁보죠	-11.7903
▁지나가	-11.7904
▁간다고	-11.7905
▁도착했	-11.7905
▁넥	-11.7906
▁부분만	-11.7907
▁후크	-11.7909
폰	-11.791
▁글씨	-11.791
이기에	-11.791
▁끝낼	-11.7913
▁독자적	-11.7914
▁조언이	-11.7916
▁잘해요	-11.7917
▁이보다	-11.7919
▁사부	-11.7923
▁일으키는	-11.7923
▁카메라로	-11.7924
명씩	-11.7924
▁대리인	-11.7926
▁예상되는	-11.7926
▁좋을지	-11.7934
▁이기는	-11.7934
▁배달원	-11.7934
▁이야기는	-11.7934
▁깨끗	-11.7935
▁방문한	-11.7937
▁사건이	-11.7938
▁J	-11.7938
사로	-11.7939
▁트렁크	-11.7943
▁가능성에	-11.7944
▁기억력	-11.7944
▁상관이	-11.7944
▁주셨	-11.7948
▁단계입니다	-11.7949
▁제공이	-11.7949
▁침체	-11.7952
▁로비	-11.7952
율을	-11.7952
▁원유	-11.7953
▁움직임이	-11.7955
▁녹아	-11.7956
▁출시되어	-11.7958
▁흔들어	-11.7959
▁제형	-11.7959
▁결정하기	-11.7961
기계	-11.7964
▁터	-11.7964
▁구조물	-11.7968
▁대량구매	-11.797
▁논의한	-11.7971
▁소요되는	-11.7974
▁힐	-11.7976
▁디지털화	-11.7976
▁진행하시면	-11.7978
▁20,000	-11.7978
▁농축	-11.7979
셜	-11.798
▁뒤꿈치	-11.7982
▁뮤지컬	-11.7982
▁믹싱	-11.7982
▁아몬드	-11.7982
▁옮길	-11.7982
▁왔으며	-11.7982
▁라이딩	-11.7982
▁한라산	-11.7982
▁식자재	-11.7982
▁스티치	-11.7982
▁웬만하면	-11.7982
▁헌터	-11.7982
▁쿨러	-11.7982
▁무엇일까요	-11.7982
▁찬스	-11.7982
▁카본	-11.7983
▁분석해	-11.7983
▁슬퍼	-11.7983
▁에탄올	-11.7984
▁엔터	-11.7985
▁보트	-11.7985
▁나와있는	-11.7986
▁합판	-11.7986
▁배워야	-11.7986
▁건성	-11.7987
▁촉촉하고	-11.7987
▁부과됩니다	-11.7988
▁면허	-11.7988
▁등산화	-11.7989
▁근력	-11.7989
▁누구한테	-11.7989
▁거요	-11.799
▁보여주시면	-11.799
▁저장된	-11.7991
▁연락바랍니다	-11.7991
▁내용으로	-11.7992
▁접착제	-11.7992
▁부탁드릴	-11.7992
▁그다	-11.7994
▁있었다는	-11.7996
▁준수하지	-11.7996
용으로도	-11.7997
▁칼날	-11.7997
▁않으시	-11.7997
▁모여서	-11.7997
▁모방	-11.7997
▁비데	-11.7999
▁산출	-11.8
▁수입하는	-11.8001
▁연락하세요	-11.8001
▁측정하는	-11.8002
▁대답해	-11.8002
▁밑단	-11.8002
▁2.5	-11.8003
▁플랫폼으로	-11.8004
▁향으로	-11.8005
▁확보하기	-11.8006
▁마땅	-11.8007
▁직책	-11.8007
▁고르	-11.8007
▁나오기	-11.8008
▁떨어지	-11.8009
▁진행에	-11.8009
▁빛내	-11.801
▁원에	-11.801
▁휴대하기	-11.8012
▁상대방	-11.8013
녀	-11.8013
▁달라는	-11.8014
▁효과로	-11.8015
문제	-11.8015
▁일어나서	-11.8017
▁컨설턴트	-11.8017
▁학습에	-11.8017
▁교체해야	-11.8018
▁노트북에	-11.8018
▁구축했습니다	-11.8019
▁수락할	-11.802
▁당황스럽	-11.8024
▁문의드리고	-11.8024
▁버리	-11.8025
▁닫아	-11.8026
▁n	-11.8029
배송	-11.803
▁빠지	-11.8035
▁열차	-11.8035
▁사회에	-11.8035
▁탈출	-11.8036
▁자료와	-11.8036
▁이르는	-11.8037
▁등록을	-11.8038
▁사용하십시오	-11.804
▁AC	-11.8042
로운	-11.8042
▁비만	-11.8043
▁37	-11.8047
▁조리법	-11.8047
▁권한	-11.805
▁설명하는	-11.8051
했다면	-11.8051
▁경우에만	-11.8056
▁구조는	-11.8058
▁불편하지	-11.8058
▁벌레	-11.8059
▁제공되지	-11.806
▁황	-11.8061
▁소원	-11.8066
▁34	-11.8067
▁모텔	-11.807
▁침입	-11.8071
▁조직이	-11.8071
▁1500	-11.8071
▁인식이	-11.8074
▁들어오	-11.8075
▁반으로	-11.8076
▁메시	-11.8078
▁공포	-11.8078
▁목이	-11.808
▁배송일	-11.8081
▁개그맨	-11.8085
▁썼어	-11.8089
▁되냐	-11.8089
▁구입하신	-11.809
▁연락드려	-11.8092
▁최고로	-11.8094
▁헌신	-11.8094
▁입력한	-11.8095
▁인턴	-11.8095
▁열면	-11.8098
▁위험에	-11.8098
▁멋스러운	-11.8099
▁믿지	-11.8099
▁쌍안경	-11.8099
▁우롱차	-11.8099
▁믹스	-11.8099
▁pH	-11.8099
▁스타킹	-11.8099
▁방부제	-11.81
▁광채	-11.81
▁마커	-11.8101
▁되십시오	-11.8101
개월입니다	-11.8103
▁지남	-11.8103
▁쉘	-11.8104
▁카페인	-11.8104
▁기기와	-11.8104
▁달랐	-11.8106
▁없었기	-11.8106
▁기대하며	-11.8107
▁파트너와	-11.8108
▁잃지	-11.8111
▁작아서	-11.8111
▁계기로	-11.8111
▁지불하셔야	-11.8112
▁식이섬유	-11.8112
▁말씀해주신	-11.8112
▁불과합니다	-11.8114
▁이해하지	-11.8116
▁무한한	-11.8116
해지고	-11.8117
▁각별	-11.8118
▁방전	-11.8119
▁질이	-11.8119
▁케이블은	-11.8119
두고	-11.8121
▁하셨지요	-11.8122
테니	-11.8122
▁않는데	-11.8122
▁찾으면	-11.8123
▁약해	-11.8123
▁막상	-11.8124
▁측정이	-11.8125
▁배달이	-11.8126
▁살아있는	-11.8127
▁요점	-11.8128
▁900	-11.8129
▁아래에서	-11.813
▁보장됩니다	-11.813
▁착용이	-11.8131
▁지부	-11.8131
쇼	-11.8133
▁일괄	-11.8133
오는	-11.8133
▁AR	-11.8134
▁늘어나는	-11.8138
▁여기에다가	-11.8139
▁있냐	-11.8139
선을	-11.8145
▁제안하는	-11.8145
도까지	-11.8146
▁참석하지	-11.8147
*	-11.8147
▁호흡기	-11.8148
▁공급가	-11.8149
▁아이들과	-11.8151
▁인정합니다	-11.8151
▁단어를	-11.8152
▁냉	-11.8152
▁제공될	-11.8152
노래	-11.8153
▁개수	-11.8154
▁지킬	-11.8155
▁오신다고	-11.8155
▁저희쪽에서	-11.8158
▁표지	-11.8158
움	-11.816
▁드라이기	-11.816
▁도착했다	-11.8161
거하고	-11.8165
▁특히나	-11.8165
▁꿈이	-11.8165
▁99	-11.8167
관리를	-11.8167
▁부산에	-11.8168
소리	-11.8169
드릴까요	-11.817
▁요리하는	-11.817
▁전설	-11.8175
들어	-11.8175
▁완공	-11.8175
▁바르	-11.8179
▁변경하는	-11.8179
▁f	-11.818
▁아직까지도	-11.818
▁타이틀	-11.818
▁물탱크	-11.8186
▁첨가물	-11.8188
▁정신을	-11.8191
▁a	-11.8193
째	-11.8194
대는	-11.8196
▁차주	-11.8199
▁수백만	-11.8202
▁논의해	-11.8203
닝	-11.8206
▁찾았	-11.8206
▁투숙객	-11.8207
▁뒤집	-11.8207
슈	-11.8208
▁빠를	-11.8208
▁완제품	-11.8209
▁남아공	-11.8209
▁유압	-11.8211
▁남았어	-11.8213
▁지혜	-11.8214
▁순면	-11.8214
▁정성을	-11.8214
▁드링크	-11.8216
▁발송할	-11.8217
▁대출이	-11.8218
▁스팸	-11.8218
▁높입니다	-11.8218
▁샹들리에	-11.8218
▁쌓인	-11.8218
▁에피소드	-11.8218
▁거꾸로	-11.8218
▁스포티	-11.8218
일까지는	-11.8218
▁길거리	-11.8219
▁매각	-11.8219
▁손목에	-11.8219
▁아홉	-11.8219
▁막을	-11.822
▁채우	-11.8221
▁않았던	-11.8221
▁놀랍습니다	-11.8222
▁수영복	-11.8222
려는	-11.8222
▁받겠습니다	-11.8222
▁키운	-11.8223
▁상영	-11.8223
▁걸렸습니다	-11.8224
▁주철	-11.8226
▁있겠지만	-11.8227
▁스타트	-11.8227
▁많아질	-11.8228
▁휴대폰에	-11.8228
▁FDA	-11.8228
▁미용실	-11.8229
▁늦어지고	-11.8229
▁남았어요	-11.823
▁이동합니다	-11.8231
▁피드백이	-11.8233
▁고전	-11.8234
▁드렸어요	-11.8234
▁이루어지는	-11.8235
치를	-11.8235
▁판단했습니다	-11.8235
▁초대할	-11.8236
▁면제	-11.8238
▁찾으	-11.824
▁직업이	-11.8241
▁분야는	-11.8241
▁완료할	-11.8243
▁거주하고	-11.8243
▁방울	-11.8243
▁부담하겠습니다	-11.8244
▁가족분들	-11.8245
▁근육이	-11.825
▁이사회	-11.8252
▁누구를	-11.8253
모드	-11.8253
▁확인되면	-11.8254
▁요리와	-11.8255
▁더워	-11.8255
▁존재하지	-11.8255
▁일이야	-11.8256
▁되었는데	-11.8256
▁임차인	-11.8256
▁확인하고자	-11.8256
삼	-11.8256
▁손해가	-11.8257
▁보냈다	-11.8257
점으로	-11.8258
▁이루어지	-11.8258
변	-11.8259
▁되었는데요	-11.826
▁제로	-11.8262
▁상반기	-11.8265
▁우유를	-11.8268
들한테	-11.8268
▁힘들어요	-11.827
▁살지	-11.8273
▁비밀로	-11.8274
하느냐	-11.8275
▁영양분	-11.8276
▁비슷해	-11.8277
▁음료와	-11.8277
수를	-11.8278
자들이	-11.8279
▁지금이라도	-11.8279
▁검토할	-11.828
▁조류	-11.828
▁투자자들	-11.8281
▁룸이	-11.8282
▁청국장	-11.8283
▁띠	-11.8284
▁증진	-11.8285
▁복장	-11.8288
▁오겠습니다	-11.8289
거라고	-11.8289
▁못했을	-11.829
▁기다리게	-11.8296
▁힘들지	-11.8296
▁광수가	-11.8298
▁하반기	-11.8299
▁문제와	-11.83
▁게임입니다	-11.83
▁침해	-11.8301
▁사모님	-11.8301
▁에이전시	-11.8303
▁홍보할	-11.8305
▁갈비	-11.8306
▁선사하는	-11.8307
▁생활에	-11.8307
중인	-11.8308
▁실적이	-11.831
▁수출에	-11.831
%	-11.831
▁체결을	-11.8311
-1	-11.8313
▁유니폼	-11.8319
▁어이	-11.832
▁생생	-11.8321
▁숨어	-11.8321
▁연구에서	-11.8322
▁문학	-11.8323
▁진동을	-11.8323
▁화학적	-11.8324
▁220	-11.8324
▁드론이	-11.8325
였고	-11.8326
▁식료품	-11.8326
▁진행하지	-11.8328
▁그랬잖아	-11.8329
다운	-11.8331
▁파기	-11.8331
▁리셀러	-11.8331
▁들리는	-11.8332
▁해봤는데	-11.8333
▁그래프	-11.8333
▁방송이	-11.8335
▁나누었	-11.8338
▁셀카	-11.8339
▁매일매일	-11.8339
▁머플러	-11.8339
▁아키텍처	-11.8339
▁트로피	-11.8339
▁템플릿	-11.8339
▁고강도	-11.8339
▁탄산음료	-11.8339
▁인사이트	-11.8339
▁지내셨어요	-11.8339
▁감탄	-11.8339
▁어떠실까요	-11.8339
▁응급	-11.8339
▁찾아뵙겠습니다	-11.834
▁솔루션이	-11.834
▁마그네틱	-11.834
▁아이폰	-11.834
▁일방적	-11.8341
▁생기시면	-11.8341
▁키울	-11.8341
▁치러	-11.8341
▁깨달았습니다	-11.8341
▁안하셔도	-11.8342
▁채취	-11.8342
▁인식을	-11.8342
▁어휴	-11.8342
▁아름답고	-11.8343
▁교체하는	-11.8343
▁이기면	-11.8344
▁참여하기	-11.8344
▁말씀드렸던	-11.8345
▁먹으려고	-11.8345
▁짤	-11.8346
▁느린	-11.8346
▁되었기	-11.8347
▁오메가	-11.8347
▁소통이	-11.8348
▁기쁘고	-11.8348
▁눈길	-11.835
▁늘었습니다	-11.835
▁딱딱	-11.8351
▁확실하지	-11.8351
▁동물성	-11.8352
▁향상에	-11.8352
▁존중	-11.8353
▁이러지	-11.8353
어졌습니다	-11.8353
▁대박이야	-11.8356
▁사용해보세요	-11.8356
▁사이즈입니다	-11.8357
▁이해하실	-11.8357
▁라면을	-11.8357
▁작업일	-11.8358
▁가능하신지	-11.8359
▁수락해	-11.836
▁분리형	-11.836
▁당첨	-11.8361
co	-11.8362
▁재단	-11.8362
고객	-11.8363
▁확인하시기	-11.8364
▁통일	-11.8366
▁장애가	-11.8366
▁힘들다	-11.8366
해드렸습니다	-11.8368
▁층에	-11.8372
▁가입자	-11.8372
▁담아서	-11.8373
▁이룰	-11.8375
극	-11.8376
▁레	-11.8378
▁마다	-11.8378
▁운동이	-11.8379
▁거냐	-11.8384
▁일어났	-11.8386
▁것부터	-11.8386
▁전문가와	-11.8389
시겠습니까	-11.8389
▁과일과	-11.839
▁심리	-11.8391
▁거래하고	-11.8391
▁취하고	-11.8391
띠	-11.8392
▁부문에서	-11.8394
▁세상에서	-11.8395
▁갑작스	-11.8398
놨	-11.8399
▁불편해	-11.8401
▁무게로	-11.8403
▁모르는데	-11.8403
▁도착했어	-11.8404
▁음색	-11.8408
▁간격	-11.8412
▁다기능	-11.8414
▁해산물을	-11.8415
▁이하로	-11.8415
▁끄는	-11.8418
▁전자레인지에	-11.842
▁무례	-11.8421
▁음악이	-11.8423
▁믹서	-11.8425
▁수송	-11.8425
▁가져와	-11.843
되었나요	-11.843
▁킹	-11.8432
▁다년간	-11.8436
▁산이	-11.8441
▁역전	-11.8441
▁못해요	-11.8442
님은	-11.8442
▁바빠	-11.8444
렸습니다	-11.8444
▁오프	-11.8444
이시라면	-11.8447
▁손바닥	-11.8451
▁고객층	-11.8452
▁바뀌었	-11.8452
▁개발팀	-11.8452
▁표적	-11.8453
하시기를	-11.8454
▁많은데요	-11.8455
▁나가지	-11.8455
▁평판이	-11.8456
▁만두를	-11.8459
▁묻는	-11.846
▁배변	-11.8461
▁높낮이	-11.8461
▁맺게	-11.8461
▁먹게	-11.8461
▁불일치	-11.8461
▁않겠습니까	-11.8461
▁어쩐지	-11.8461
▁부담합니다	-11.8461
▁비트코인	-11.8461
▁놀랄	-11.8461
▁토퍼	-11.8461
▁조끼	-11.8461
▁습식	-11.8463
▁물걸레	-11.8463
▁가지는	-11.8463
부서	-11.8463
▁동등	-11.8464
▁하얀색	-11.8464
▁없거든요	-11.8464
▁먹는다	-11.8464
▁체리	-11.8465
▁분비	-11.8465
▁필터링	-11.8466
▁아가씨	-11.8467
▁채식주의자	-11.8467
▁유통망	-11.8467
▁팀워크	-11.8467
▁자료에	-11.8467
▁만성	-11.847
▁베이지	-11.8473
왕	-11.8474
▁금번	-11.8474
▁상황에서도	-11.8475
중입니다	-11.8476
▁신상	-11.8478
▁선보이고	-11.8479
분야	-11.8479
▁각도를	-11.8481
▁필요하게	-11.8483
▁수분감	-11.8485
▁말려	-11.8486
▁존경	-11.8486
▁기장감	-11.8486
▁뒤집어	-11.8487
▁시골	-11.8487
▁장착하여	-11.849
▁영구적	-11.8491
▁네트워크에	-11.8493
▁빠지는	-11.8494
▁i	-11.8494
나갈	-11.8494
▁어렵다고	-11.8494
▁시간동안	-11.8495
▁버리고	-11.8495
▁구현합니다	-11.8495
▁거주자	-11.8495
▁매니저입니다	-11.8497
▁담당자님과	-11.8497
▁신선	-11.8497
▁해볼게요	-11.8498
판매	-11.8498
▁부모님이	-11.8502
▁컴퓨터에서	-11.8504
▁팜플릿	-11.8504
▁바에	-11.8504
▁패키지로	-11.8505
추	-11.8506
▁이득	-11.8507
▁약속된	-11.8508
▁가꾸어	-11.851
▁고를	-11.8511
▁환상적인	-11.8514
▁박물관	-11.8516
분들께	-11.8517
▁시간입니다	-11.8518
▁됐을	-11.8519
▁협업이	-11.8519
천원	-11.8523
마력	-11.8525
▁변화하는	-11.8526
▁요청드린	-11.8529
졌어요	-11.853
▁주선	-11.8531
▁하기에	-11.8532
▁비자	-11.8534
▁말린	-11.8534
▁청구서에	-11.8534
▁패턴으로	-11.8535
졌으면	-11.8537
▁경기도	-11.8538
▁윤곽	-11.8538
▁추위	-11.854
▁껴	-11.854
5%	-11.8541
▁동안에	-11.8542
▁무엇	-11.8543
하냐	-11.8544
▁견적에	-11.8547
▁내용들	-11.8548
▁안전하다	-11.8548
▁쓰시는	-11.8549
해서요	-11.8551
▁영구	-11.8552
▁제품들도	-11.8552
▁작성하는	-11.8552
▁선택해서	-11.8554
▁상무님	-11.8554
시스템을	-11.8556
▁이긴	-11.856
▁타이	-11.8562
▁끈이	-11.8563
▁시키	-11.8563
▁약초	-11.8564
▁이용권	-11.8565
▁전환이	-11.8565
▁약속이	-11.8566
▁개설해	-11.8566
▁실질적	-11.8568
▁절단기	-11.8569
훈	-11.8572
▁언어가	-11.8574
▁트리플	-11.8574
▁감안	-11.8575
▁계신다고	-11.8575
▁비벼	-11.8578
▁업계에	-11.8578
▁바빠서	-11.8579
손	-11.858
▁신제품인	-11.858
▁뵙는	-11.8583
▁노폐물	-11.8584
▁다룹니다	-11.8584
▁동아시아	-11.8584
▁뜻인가요	-11.8584
▁마스카라	-11.8584
▁맑고	-11.8584
▁있든	-11.8584
▁잦은	-11.8584
▁통째로	-11.8584
▁패밀리	-11.8584
▁래치	-11.8584
▁PVC	-11.8584
▁흑백	-11.8584
▁강좌	-11.8584
▁오작동	-11.8585
▁좋으며	-11.8585
▁수준에	-11.8585
▁과목	-11.8586
at	-11.8586
▁웃으면서	-11.8586
▁준비에	-11.8587
▁난이도	-11.8587
▁주방용품	-11.8587
▁대량주문	-11.8588
▁팽창	-11.8588
▁높아질	-11.8588
▁넘었습니다	-11.8588
▁온도에서	-11.859
▁콜레스테롤	-11.859
▁이것들	-11.8592
▁제격	-11.8592
▁꼴등	-11.8594
▁형광	-11.8595
▁궁금하신가요	-11.8595
▁온도계	-11.8598
▁항공권	-11.8599
▁일전에	-11.8599
▁임대료는	-11.8599
▁교육생	-11.8599
▁주셨네요	-11.8599
▁중요해요	-11.8602
▁대를	-11.8602
▁룸서비스	-11.8602
▁시스템도	-11.8603
▁욕을	-11.8603
▁발휘합니다	-11.8603
팔	-11.8603
▁효율적입니다	-11.8604
▁수량과	-11.8604
▁있을겁니다	-11.8606
▁안정감	-11.8607
▁건강하시고	-11.8609
▁근육을	-11.8611
▁벗겨	-11.8611
▁들어야	-11.8612
▁연락해주시기	-11.8612
▁비하면	-11.8614
▁친절하고	-11.8614
▁좋았을	-11.8615
▁구조입니다	-11.8616
▁인지하고	-11.8617
▁이전과	-11.8619
▁흘리	-11.862
▁같고요	-11.8621
▁보호용	-11.8622
▁권고	-11.8624
▁생산라인	-11.8624
▁감이	-11.8625
▁만드신	-11.8626
▁필요한가요	-11.8629
▁위치에서	-11.8632
▁애플	-11.8633
계의	-11.8634
▁인상하게	-11.8635
▁연구원들	-11.8637
▁각도로	-11.8639
▁자기야	-11.8644
▁선택에	-11.8649
▁시료	-11.8651
▁행사에서	-11.8652
▁희	-11.8654
▁추워	-11.8654
▁되었나요	-11.8654
▁기차	-11.8654
▁달까지	-11.8654
▁감수	-11.8655
▁완료되었	-11.8659
▁포함될	-11.8659
▁맞이해	-11.866
▁공학적	-11.8661
▁나눴	-11.8662
건으로	-11.8662
층은	-11.8663
일이나	-11.8665
▁내선	-11.8667
▁위기에	-11.8667
▁가을에	-11.8668
▁지인들	-11.8671
귀	-11.8671
▁계정이	-11.8672
▁음식점이	-11.8673
▁분기별	-11.8674
▁뉴욕에서	-11.8676
겠	-11.8677
▁배선	-11.8681
▁초반에	-11.8681
▁공부하는	-11.8684
▁선택지	-11.8686
▁시선을	-11.8686
▁착용감이	-11.8687
▁집중하고	-11.8688
▁부품들	-11.8688
▁태풍	-11.8689
▁줘서	-11.869
▁옷감	-11.869
▁뭐요	-11.869
▁단계별	-11.8691
▁귀를	-11.8692
줘서	-11.8692
▁출판사에서	-11.8692
렌	-11.8693
▁교차	-11.8693
장의	-11.8693
▁거기다	-11.8694
▁상승으로	-11.8694
셨습니까	-11.8696
▁행복해	-11.8698
▁갔다가	-11.8699
▁모르니	-11.8699
형으로	-11.87
▁타입으로	-11.8701
▁계약에서	-11.8703
팀에	-11.8703
▁편하실	-11.8706
▁됐지	-11.8707
▁용액	-11.8707
▁예정이다	-11.8708
▁도우	-11.8709
▁뜻깊	-11.8709
▁론칭	-11.8709
▁번거로운	-11.8709
▁국어사전	-11.8709
▁영지버섯	-11.8709
▁오션뷰	-11.8709
▁아웃도어	-11.8709
▁평생보증	-11.8709
▁품격	-11.8709
▁동결	-11.871
▁승차감	-11.8711
▁통상	-11.8711
▁브리핑	-11.8711
▁드네요	-11.8711
▁Ms	-11.8711
▁현미	-11.8713
▁기념일	-11.8713
▁흐름에	-11.8713
▁도와드릴게요	-11.8714
▁생성된	-11.8715
▁가방은	-11.8716
▁걸립니	-11.8716
▁계산을	-11.8716
▁전골	-11.8716
▁됐네	-11.8716
▁소식이네요	-11.8717
▁수표	-11.8717
▁빠	-11.8719
▁연구하는	-11.8719
▁중학교	-11.8719
▁개인화	-11.872
었는데요	-11.872
▁조리가	-11.872
▁비비	-11.8721
▁지성	-11.8722
▁누구랑	-11.8724
▁숟갈	-11.8725
▁챙기	-11.8729
▁의미한다	-11.873
▁나무로	-11.873
▁테라스	-11.873
▁내리고	-11.873
▁평소보다	-11.8732
▁들어간다	-11.8733
▁택	-11.8733
▁러닝	-11.8733
▁대단해	-11.8737
▁익히	-11.8737
▁부족하다는	-11.8738
능력	-11.8741
▁전쟁	-11.8741
▁세찬	-11.8741
▁현지에	-11.8741
▁중요하지만	-11.8742
▁주사	-11.8743
▁맥	-11.8743
▁비율로	-11.8743
쓰	-11.8744
▁항구	-11.8745
▁작품이	-11.8745
▁이기	-11.8747
▁락스	-11.8747
▁일했습니다	-11.8747
▁차분	-11.8747
▁했었어요	-11.8751
▁부족해서	-11.8754
있어요	-11.8757
건은	-11.8757
▁문어	-11.8758
▁더해져	-11.8758
▁나왔을	-11.8759
▁바위	-11.876
▁내년부터	-11.8761
일정	-11.8763
▁기록했습니다	-11.8763
▁계산해	-11.8764
▁언론	-11.8764
▁저희측에서	-11.8768
▁도출	-11.8768
▁차원이	-11.8772
▁밝혀졌	-11.8774
▁익은	-11.8774
▁목에	-11.8775
가면서	-11.8775
▁진행하였습니다	-11.8776
▁뚫	-11.8777
▁발매	-11.8778
됐	-11.8778
▁전후	-11.8779
▁체결할	-11.8781
측	-11.8782
▁짓는	-11.8782
풀	-11.8787
해온	-11.879
▁익숙	-11.8792
▁들어가게	-11.8792
정보를	-11.8793
▁생활에서	-11.8795
▁기록하고	-11.88
▁선물입니다	-11.8809
▁나열	-11.8809
▁신인	-11.8811
▁보스	-11.8812
▁해운대	-11.8815
격	-11.8817
탑	-11.8817
▁대체품	-11.8818
▁놈	-11.8818
▁땀이	-11.8822
▁상품인	-11.8823
▁이상하다	-11.8824
▁다른데	-11.8824
▁밑에서	-11.8825
▁개정	-11.8826
▁초대하기	-11.8827
▁배우기	-11.8828
▁아버지는	-11.8829
▁주방을	-11.883
▁심어	-11.8833
▁떨어지면	-11.8834
기준	-11.8835
▁넓혀	-11.8835
▁너그럽	-11.8836
▁모쪼록	-11.8836
▁브랜딩	-11.8836
▁서프라이즈	-11.8836
▁콤팩트	-11.8836
▁클리닝	-11.8836
▁송구스럽습니다	-11.8836
▁이지훈	-11.8836
▁메쉬	-11.8836
▁수업이	-11.8836
▁주황색	-11.8836
▁트레이너	-11.8836
▁영양이	-11.8836
▁충족시키기	-11.8838
▁잡채	-11.8838
▁소개팅	-11.8838
▁노란	-11.8839
▁신청할	-11.8839
▁고칠	-11.8839
▁스판	-11.8839
▁다니면서	-11.884
▁많아졌습니다	-11.884
▁관점	-11.8841
▁미터	-11.8841
▁계셔서	-11.8842
했나	-11.8842
▁유연하게	-11.8843
▁터널	-11.8844
▁고급스럽고	-11.8844
▁떠오르는	-11.8844
▁일상생활	-11.8844
▁기관에서	-11.8846
김	-11.8846
▁정리하고	-11.8846
▁걱정없이	-11.8846
▁초당	-11.8846
▁부스터	-11.8847
▁핵	-11.8847
▁보내드릴까요	-11.8848
▁통풍	-11.8849
▁편리성	-11.8849
▁적금	-11.8855
이라니	-11.8855
▁배달될	-11.8855
▁건조함	-11.8857
▁유통하는	-11.8859
▁신사	-11.886
▁턴	-11.8861
▁우위	-11.8863
▁국내에	-11.8866
▁외국인들	-11.8871
렸	-11.8871
▁중요하다	-11.8872
▁품질관리	-11.8875
▁요청드리	-11.8875
▁나니까	-11.8876
▁사용했을	-11.8878
▁의향	-11.8879
▁대비해	-11.888
짜	-11.888
▁연인	-11.888
하셨는지	-11.8882
▁붙이는	-11.8882
하셨다면	-11.8883
▁화사	-11.8885
▁되면서	-11.8886
▁되는구나	-11.8886
▁사양이	-11.8886
▁무드로	-11.8888
▁자신에게	-11.8888
▁반영한	-11.8889
▁자선	-11.8892
갖고	-11.8893
▁구성하는	-11.8894
이래	-11.8895
패드	-11.8895
이군요	-11.8896
▁처리하기	-11.8897
셀	-11.8897
▁바뀌어	-11.8899
화를	-11.8902
▁담당하게	-11.8902
▁꼼꼼한	-11.8906
▁지분	-11.8907
▁제시합니다	-11.8909
▁실패를	-11.891
▁승부	-11.891
▁벌칙을	-11.891
할인	-11.8911
▁신청이	-11.8912
▁겨울이	-11.8913
▁원단에	-11.8913
▁실내에서	-11.8917
▁받았어	-11.8918
▁유용	-11.8919
하시더라고요	-11.892
▁물리	-11.892
▁중요하다는	-11.8921
었다고	-11.8922
▁지퍼가	-11.8924
자고	-11.8926
▁입었	-11.8927
▁과장님이	-11.8929
▁봐야지	-11.8931
▁오른	-11.8932
▁않기로	-11.8932
▁견적서에	-11.8933
▁학생이	-11.8938
▁충실	-11.8939
▁의논하고	-11.894
▁썩	-11.894
▁달고	-11.8941
▁면역력	-11.8944
▁북미권	-11.8944
▁제공업체	-11.8947
▁일요일에	-11.8951
▁내려와	-11.8953
들입니다	-11.8954
버려	-11.8955
▁사무소	-11.8956
▁접합	-11.8956
사용	-11.8957
▁주문의	-11.8957
▁부득이	-11.8958
▁본부장님	-11.8959
▁기법	-11.8959
▁전이	-11.896
▁행정	-11.896
▁괜찮으신지	-11.8961
▁개업	-11.8962
▁효능이	-11.8962
▁요소입니다	-11.8962
▁싱싱	-11.8964
▁흔쾌히	-11.8964
▁재택근무	-11.8964
▁대다수	-11.8964
▁루틴	-11.8964
▁차은우	-11.8964
▁드롭	-11.8964
▁줄기세포	-11.8964
▁취침	-11.8964
▁나아갈	-11.8964
▁세분화	-11.8964
▁무궁화	-11.8965
▁면으로	-11.8965
▁중금속	-11.8966
▁말씀이시죠	-11.8966
▁소재감	-11.8966
▁남겨주세요	-11.8967
▁선보인	-11.8967
▁퇴사	-11.8969
▁창고로	-11.897
▁결정해야	-11.897
▁이자를	-11.8972
▁곱	-11.8972
▁사생활	-11.8973
▁들어왔습니다	-11.8973
▁매워	-11.8974
▁만들었어요	-11.8974
▁왔다고	-11.8974
▁형이야	-11.8974
▁맞이하여	-11.8974
▁얻고자	-11.8976
▁많네요	-11.8976
▁점심을	-11.8976
▁꺼낼	-11.8977
볼까요	-11.8977
▁축적된	-11.898
▁받으시고	-11.898
▁원짜리	-11.898
▁운송에	-11.8981
선이	-11.8983
▁표현할	-11.8984
▁이처럼	-11.8987
▁양념이	-11.8987
▁번으로	-11.8988
▁정한	-11.8989
▁키스	-11.899
했고요	-11.8991
▁먹었던	-11.8992
▁분리하여	-11.8993
is	-11.8994
돼요	-11.8995
▁증정	-11.8996
▁주조	-11.8996
▁제한적	-11.8998
▁방진	-11.8998
▁들었	-11.9002
▁성록이	-11.9004
▁조합으로	-11.9005
옵니다	-11.9008
▁곤란	-11.9009
▁지금처럼	-11.9013
▁여자가	-11.9016
▁경보기	-11.9016
▁불량률	-11.9017
▁부분과	-11.9018
보았습니다	-11.9018
▁주문하기	-11.9019
하시	-11.902
▁집도	-11.9023
▁인형은	-11.9024
▁굽	-11.9025
▁유의해	-11.9025
▁드신	-11.9027
▁넘어갈	-11.9028
기능이	-11.9029
▁요일	-11.903
▁부재	-11.9032
하시던	-11.9032
▁깔창	-11.9036
▁쓰던	-11.9036
▁강아지가	-11.9038
▁임대하는	-11.904
▁전개	-11.904
▁카페에서	-11.904
▁넣	-11.9041
스터	-11.9041
▁불리	-11.9044
보다도	-11.9047
▁매니저님	-11.9049
▁제공되어	-11.9051
▁흘러	-11.9053
▁업소	-11.9054
번은	-11.9054
▁웃음	-11.9056
▁의논해	-11.9056
▁특성이	-11.9059
내용	-11.906
을까요	-11.9061
▁이분은	-11.9061
▁디테일로	-11.9064
▁벽면	-11.9064
▁판매팀	-11.9067
▁전집	-11.9067
▁240	-11.9067
▁오프닝	-11.9068
▁독자들	-11.907
▁판단을	-11.907
▁연락해서	-11.9072
▁표시로	-11.9074
▁판매한	-11.9076
▁덮	-11.9077
▁대고	-11.9078
▁바이	-11.9079
▁달성하기	-11.908
질환	-11.9081
▁충분	-11.9081
▁성원	-11.9082
▁샀어	-11.9083
▁있거든	-11.9083
▁인간이	-11.9085
▁140	-11.9085
▁일본어	-11.9086
하겠다	-11.9088
▁부족할	-11.9089
▁깎아	-11.9091
▁그러기	-11.9093
▁경운기	-11.9094
▁높기	-11.9094
▁스토브	-11.9094
▁웰컴	-11.9094
▁커스터마이징	-11.9094
▁헤어드라이어	-11.9094
▁태양전지	-11.9094
▁베젤	-11.9094
▁정성껏	-11.9094
▁QR	-11.9094
▁말했듯이	-11.9094
▁그러시다면	-11.9094
▁국경	-11.9094
▁시리얼	-11.9095
▁배틀	-11.9095
▁희생	-11.9095
▁창의성	-11.9095
▁참고하시라고	-11.9095
▁나간	-11.9096
▁미스트	-11.9096
▁굴곡	-11.9096
▁미안한데	-11.9096
▁불을	-11.9097
▁2018	-11.9097
▁배려해	-11.9097
▁대시보드	-11.9097
▁품절되었습니다	-11.9098
▁낙하	-11.9099
▁관장	-11.9099
주신다면	-11.91
▁심플하고	-11.91
▁멋지다	-11.91
▁당시에는	-11.9102
위에	-11.9103
제작	-11.9103
▁치열한	-11.9104
▁많아지고	-11.9104
▁샀어요	-11.9104
▁와봐	-11.9106
▁95	-11.9107
겠습니까	-11.9107
▁확인하셨나요	-11.9108
25	-11.9109
▁든다	-11.911
▁틀리지	-11.9111
▁이름표	-11.9111
졌는데	-11.9111
자로서	-11.9112
▁키우고	-11.9112
▁눈빛	-11.9113
▁제품인가요	-11.9114
▁제안서에	-11.9115
▁받기로	-11.9115
▁미디어에서	-11.9116
▁빠지지	-11.9116
▁드셨	-11.9116
▁온다고	-11.9117
▁전화했습니다	-11.912
▁빡빡	-11.9122
적입니다	-11.9122
▁가운	-11.9124
▁연마	-11.9126
▁느껴지	-11.9128
▁즉각적으로	-11.9131
▁올랐	-11.9131
▁생각했는데	-11.9132
▁하신다고	-11.9132
▁가족에게	-11.9134
▁돌고	-11.9134
▁변함없	-11.9137
▁XL	-11.9138
숙	-11.914
▁겹	-11.9142
▁모셔	-11.9142
▁우체국	-11.9143
됐다	-11.9145
▁한창	-11.9147
▁따릅니	-11.9147
▁세정력	-11.9147
▁웃긴	-11.9148
▁고지	-11.9149
▁익숙한	-11.9151
하시겠어요	-11.9152
▁게임과	-11.9155
▁토론을	-11.9156
잎	-11.9157
▁사용하거나	-11.9158
▁있었는데요	-11.9158
▁이주	-11.9159
거리는	-11.9159
▁녹이	-11.916
▁되었음	-11.9161
▁때나	-11.9161
▁기자	-11.9162
하셨네요	-11.9163
▁똑같	-11.9164
▁털어	-11.9164
▁동현	-11.9166
▁경험에	-11.9169
▁게이지	-11.917
▁누구보다	-11.917
▁생성할	-11.9171
하셨	-11.9172
▁프	-11.9172
▁속도에	-11.9172
공간	-11.9173
▁방식과	-11.9175
▁물기를	-11.9176
함과	-11.9177
▁리가	-11.9178
상에	-11.9178
▁블로거	-11.9179
▁격	-11.9181
▁노하우와	-11.9181
▁하시는데	-11.9181
▁사건을	-11.9182
▁넣었어	-11.9182
▁위치로	-11.9183
▁금이	-11.9186
▁스위스	-11.9186
▁방법과	-11.9187
▁거라서	-11.9188
▁정할	-11.9189
▁신기	-11.9194
▁걸러	-11.9194
▁청소하기	-11.9196
▁안심이	-11.9196
▁자회사	-11.9197
▁수중	-11.9204
견	-11.9204
▁경주	-11.9206
▁추천드리는	-11.9206
▁배고파	-11.9208
▁이름표를	-11.921
했지	-11.9216
▁동향	-11.9217
▁종목	-11.9218
▁회사인가요	-11.9218
▁구비하고	-11.9218
▁조금은	-11.9219
▁도는	-11.9221
▁다르다는	-11.9223
▁이겼다	-11.9223
▁신을	-11.9224
▁꼴	-11.9224
▁모르지	-11.9225
▁감귤	-11.9225
▁냉난방	-11.9225
▁요구르트	-11.9226
▁고급스러움	-11.9226
▁파트너쉽	-11.9226
▁터치스크린	-11.9226
▁재충전	-11.9226
▁소녀	-11.9226
▁백라이트	-11.9226
▁물감	-11.9226
▁늘어났습니다	-11.9227
▁기술자님께서	-11.9227
▁완판	-11.9227
▁나오니까	-11.9227
▁건강보험	-11.9228
▁석탄	-11.9228
▁살펴보겠습니다	-11.9228
▁영역에	-11.9228
▁오니까	-11.9228
▁원자력	-11.9229
▁개방형	-11.9229
▁가입하고	-11.9229
▁하와이	-11.9231
▁감칠맛	-11.9231
▁과감하게	-11.9231
▁유럽에서	-11.9232
▁느려	-11.9233
▁엄선된	-11.9233
▁생각하기	-11.9235
▁밝게	-11.9235
▁불소	-11.9236
층을	-11.924
▁이루어졌	-11.924
▁터져	-11.9241
▁공장과	-11.9243
▁텐	-11.9243
▁유형이	-11.9243
▁넘버	-11.9244
▁판매하지	-11.9245
룩	-11.9247
▁신청해	-11.9249
소재	-11.9251
봤는데	-11.9254
▁은행과	-11.9254
▁동그	-11.9257
▁맞춤화	-11.9259
교육	-11.9263
▁믹서기	-11.9264
▁연기해야	-11.9265
▁마감일	-11.9265
▁제작진이	-11.9265
▁버릴	-11.9266
▁올려서	-11.9267
▁관찰할	-11.9268
▁계시다면	-11.9269
▁성원에	-11.927
▁깔끔	-11.9272
▁사람이에요	-11.9272
▁일식	-11.9273
▁한강	-11.9274
▁결과입니다	-11.9277
OOOO	-11.9278
▁콘텐츠에	-11.9279
빈	-11.9279
▁선호하시는	-11.9279
▁예정이라고	-11.9284
▁보여서	-11.9285
▁오르	-11.9285
▁배지	-11.9286
▁가방이	-11.9286
▁얻었	-11.9286
▁대통령	-11.9288
▁개선하여	-11.9288
$	-11.9288
▁작품들	-11.929
▁만족하는	-11.9291
▁않아야	-11.9294
▁어색해	-11.9294
▁의견에	-11.9296
▁사업에서	-11.9297
▁열람	-11.9298
▁해물	-11.9299
▁모기	-11.9299
800	-11.93
▁성우	-11.93
15	-11.9302
▁눈물이	-11.9303
문에	-11.9304
▁지불하기	-11.9305
▁지불합니다	-11.9305
▁점장님	-11.9306
드는	-11.9306
▁대표하여	-11.9306
▁공연을	-11.9308
▁관광객들	-11.9311
▁모습입니다	-11.9312
▁불가한	-11.9312
▁무한	-11.9313
▁에너지원	-11.9319
▁비서실	-11.932
▁피트	-11.9321
▁내역이	-11.9324
▁지켜야	-11.9327
▁특징에	-11.9327
▁숫자가	-11.9328
▁좋고요	-11.9329
▁컬러와	-11.9335
▁일상에서	-11.9335
▁정확성	-11.9336
▁영문	-11.9339
▁보내서	-11.934
텐데요	-11.9341
▁많으실	-11.9341
▁안건	-11.9341
▁찾아뵙	-11.9343
▁너가	-11.9346
▁구매팀	-11.9347
▁이분이	-11.9347
▁요청하기	-11.9348
▁남자가	-11.9348
▁분석이	-11.9351
▁입안	-11.9352
▁의논할	-11.9354
▁생각나는	-11.9355
▁뱃살	-11.9355
▁탈착	-11.9357
▁부서가	-11.9357
▁면도날	-11.9357
▁여러분들께	-11.9358
지면	-11.9358
▁스텝	-11.9359
▁운영체제	-11.9359
▁가상현실	-11.9359
▁그렇긴	-11.9359
▁닭가슴살	-11.9359
▁닮은	-11.9359
▁먹던	-11.9359
▁않거나	-11.9359
▁웨어러블	-11.9359
▁슈팅	-11.9359
▁하이라이트	-11.9359
▁남깁니다	-11.9359
▁가공육	-11.9359
▁전형적인	-11.9359
▁유무	-11.936
▁느껴질	-11.936
▁만드실	-11.936
▁싶으세요	-11.936
▁표현이	-11.936
▁바뀌는	-11.936
▁그림책	-11.9361
▁첨부했으니	-11.9361
▁다르죠	-11.9362
▁조심하세요	-11.9363
▁플래너	-11.9363
▁캠퍼스	-11.9364
▁모델링	-11.9364
▁참깨	-11.9364
▁소개서	-11.9366
▁탄성	-11.9366
▁하네스	-11.9366
▁왁스	-11.9366
▁피치	-11.9366
▁없으실	-11.9368
▁농가	-11.9368
▁속을	-11.9368
▁떨어지고	-11.9369
▁이루어지고	-11.9369
했음	-11.937
▁지금껏	-11.9372
▁제조업체에서	-11.9373
▁팔지	-11.9373
▁각기	-11.9373
▁처분	-11.9376
일날	-11.9376
▁일주일간	-11.9377
▁편이라	-11.9377
▁소개드릴	-11.9378
▁승기야	-11.9378
▁가능하시면	-11.9379
▁마음도	-11.9379
▁정부에서	-11.938
▁입으로	-11.9385
▁안주	-11.9386
▁트렌드에	-11.9386
▁수습	-11.9386
▁고객으로부터	-11.9387
균	-11.9387
▁느끼지	-11.9389
▁자존심	-11.939
▁원화	-11.9391
▁보내십시오	-11.9391
▁원하기	-11.9392
▁레버	-11.9392
▁들기	-11.9393
경우	-11.9394
황	-11.9394
▁전하고자	-11.9394
받지	-11.9395
▁온도에	-11.9396
▁페	-11.9396
칩니다	-11.9397
▁전하게	-11.9399
▁사은품으로	-11.9405
▁나타내는	-11.9406
▁자란	-11.9406
▁모르	-11.9406
줘야지	-11.9407
▁점이나	-11.9411
23	-11.9413
▁연락드리	-11.9413
병을	-11.9415
▁추억이	-11.9418
혈	-11.9419
▁건너	-11.9419
▁풍부	-11.9419
▁떨어져서	-11.9421
응	-11.9422
▁금고	-11.9424
▁달라지	-11.9426
그램	-11.9426
현황	-11.9426
뷰	-11.9427
하신다는	-11.9427
스럽습니다	-11.9428
▁감사드린다	-11.9432
▁공급하기	-11.9437
킵니다	-11.9437
▁생각하여	-11.9437
▁괜찮은지	-11.9438
드리	-11.944
스타	-11.9442
액을	-11.9443
▁국가로	-11.9444
▁입술을	-11.9444
▁말고도	-11.9444
▁대응이	-11.9445
릿	-11.9447
▁부분까지	-11.9448
ar	-11.945
▁심각	-11.9451
▁멘트	-11.9451
▁지침이	-11.9453
▁취약	-11.9453
▁로우	-11.9456
보려고	-11.9457
▁만드는데	-11.9457
▁방향에	-11.946
▁것보다는	-11.9461
▁독립적	-11.9463
년에는	-11.9465
▁역사와	-11.9466
▁판매될	-11.9466
님을	-11.9467
▁주었다	-11.9467
▁상담사	-11.9475
▁있었지	-11.9477
▁뭐하는	-11.9478
▁건설회사	-11.948
▁테	-11.9481
▁은행이	-11.9482
▁제공받	-11.9488
▁있었나	-11.949
▁프레	-11.9491
▁하신다는	-11.9492
MP	-11.9493
▁아이보리	-11.9493
▁영화에	-11.9493
▁프로파일	-11.9494
▁셔틀	-11.9494
food	-11.9494
▁겪는	-11.9494
▁김연경	-11.9494
▁호불호	-11.9494
▁회원가입	-11.9494
▁레이싱	-11.9494
▁가벼우며	-11.9494
▁당연하죠	-11.9494
▁립밤	-11.9494
▁공룡	-11.9494
▁육우	-11.9494
▁없으세요	-11.9494
▁타협	-11.9494
▁두툼	-11.9495
▁찾으세요	-11.9495
▁리본	-11.9495
▁구름	-11.9495
▁만들었다	-11.9495
▁저널	-11.9495
▁말끔	-11.9495
▁물어보세요	-11.9496
▁지내세요	-11.9496
▁빌릴	-11.9497
▁잡아주는	-11.9498
▁질소	-11.9498
▁분포	-11.95
▁민감성	-11.95
▁집중적으로	-11.9501
상황	-11.9501
▁시작되면	-11.9502
▁배구	-11.9502
▁참조하세요	-11.9502
▁탑재하였습니다	-11.9503
▁화물이	-11.9503
▁시민들	-11.9503
▁기념품	-11.9503
▁헹	-11.9504
▁설명해드리겠습니다	-11.9505
컬러	-11.9505
▁우정	-11.9506
▁구독료	-11.9507
▁건강이	-11.9508
▁감히	-11.9509
▁마진	-11.9509
▁책장	-11.9509
▁드리자면	-11.9509
▁흡수력	-11.9509
▁연결되는	-11.9509
▁계정으로	-11.951
룰	-11.9511
건지	-11.9512
▁망고	-11.9513
구먼	-11.9514
▁보셔야	-11.9515
▁있더라도	-11.9515
▁했어야	-11.9516
▁관점에서	-11.9517
▁해결되지	-11.9517
▁시장으로	-11.9518
▁소매점	-11.9518
▁거쳐야	-11.9518
▁오토	-11.952
▁결제해	-11.9521
▁공간입니다	-11.9521
▁연구의	-11.9521
▁아드님	-11.9523
▁컴퓨터로	-11.9525
▁스타일은	-11.9526
▁반응성	-11.9527
70	-11.9528
▁테이블이	-11.9528
▁주문했다	-11.9529
▁여행지	-11.953
▁변경으로	-11.9532
것입니다	-11.9533
▁보시겠어요	-11.9533
▁구입해	-11.9534
▁걸었습니다	-11.9537
▁담당할	-11.9537
▁말레이시아에서	-11.9538
▁솔기	-11.9539
▁모르니까	-11.9546
▁커피머신	-11.9552
투자	-11.9553
▁갈게	-11.9553
하기는	-11.9554
▁선적할	-11.9554
끈	-11.9555
▁기대하는	-11.9556
▁받아들이기	-11.9557
▁거리는	-11.9558
▁하도	-11.9559
▁것들에	-11.9559
▁아냐	-11.956
▁소품	-11.9561
하자마자	-11.9561
▁알리는	-11.9564
▁보다는	-11.9566
▁봄에	-11.9567
▁가능하나	-11.9568
문화	-11.957
점입니다	-11.957
▁분석하여	-11.9571
▁자세로	-11.9573
▁인쇄할	-11.9576
▁소진	-11.9577
▁모자를	-11.9577
▁라는	-11.9578
▁보안에	-11.9579
▁프로그램과	-11.9579
▁장사가	-11.958
데이	-11.958
▁대지	-11.9582
▁적기	-11.9582
▁거래처에서	-11.9586
와서	-11.9586
▁새벽에	-11.9588
만큼은	-11.9588
▁수정하고	-11.9589
▁시세	-11.9591
등이야	-11.9592
▁대학에서	-11.9593
▁기사님이	-11.9594
▁핸드폰으로	-11.9594
90	-11.9595
▁도와드리	-11.9599
▁포장지	-11.96
▁켤레	-11.96
▁몰랐다	-11.96
▁세부정보	-11.9603
▁근태	-11.9603
▁듣	-11.9604
▁표준화	-11.9604
▁배워	-11.9605
▁어머나	-11.9605
▁치워	-11.9605
▁담보	-11.9608
▁중성	-11.9611
▁시키고	-11.9612
해보시고	-11.9616
▁평가해	-11.9617
▁났네	-11.962
▁지불하면	-11.962
▁맞잖아	-11.962
▁원료만	-11.9621
▁선수들	-11.9621
▁봤다	-11.9622
▁견적이	-11.9622
▁화장실이	-11.9623
▁규명	-11.9623
▁기업인	-11.9625
▁항암	-11.9626
▁개성을	-11.9628
▁인도에서	-11.9629
▁문제라	-11.9629
[...]
