<unk>	0
<s>	0
</s>	0
<pad>	0
<bos>	0
<eos>	0
.	-2.93909
,	-4.10247
을	-4.21306
의	-4.28584
이	-4.57802
에	-4.60101
를	-4.63931
가	-4.70198
는	-4.70349
▁	-4.80038
은	-5.00778
▁수	-5.01082
도	-5.35041
과	-5.38353
?	-5.42966
로	-5.53157
고	-5.59542
▁있다	-5.62259
에서	-5.68472
▁이	-5.70277
와	-5.71338
으로	-5.73754
일	-5.79293
한	-5.83203
▁있는	-5.89102
)	-5.89115
▁‘	-5.9027
▁있습니다	-5.9605
’	-6.00305
(	-6.00799
▁“	-6.02764
인	-6.03514
·	-6.04843
”	-6.1217
▁등	-6.13302
▁1	-6.25138
▁한	-6.25221
다	-6.25367
지	-6.26483
할	-6.30201
년	-6.30407
▁그	-6.30787
만	-6.33032
하고	-6.33669
하는	-6.35748
▁제	-6.40878
해	-6.40947
▁및	-6.44603
▁한다	-6.46064
▁2	-6.46567
▁대한	-6.54301
▁3	-6.55964
▁더	-6.56237
▁것	-6.5722
월	-6.57963
입니다	-6.59057
▁것으로	-6.59946
▁위해	-6.66298
기	-6.68952
▁전	-6.69854
▁할	-6.80656
▁저희	-6.81775
서	-6.82106
▁안	-6.89269
▁나는	-6.91008
나	-6.91009
▁중	-6.918
시	-6.92308
▁5	-6.92387
▁4	-6.98085
까지	-6.99008
▁함께	-6.99156
▁때	-6.999
자	-7.01214
1	-7.01417
▁따라	-7.01555
▁저는	-7.01885
했다	-7.02548
들이	-7.0309
▁잘	-7.03102
▁네	-7.03561
▁통해	-7.04236
▁내	-7.04709
개	-7.0544
대	-7.05693
▁10	-7.06891
▁대해	-7.07257
▁다른	-7.07843
▁경우	-7.07907
▁한국	-7.08394
▁많은	-7.08746
된	-7.09714
▁하는	-7.12582
▁지난	-7.12937
▁이번	-7.13324
면	-7.14018
▁합니다	-7.14867
에는	-7.16056
2	-7.17749
며	-7.19253
▁것이	-7.2063
하게	-7.21308
▁우리	-7.21343
▁위한	-7.2336
게	-7.23449
야	-7.24149
▁것을	-7.24253
요	-7.26775
▁가장	-7.26948
▁제가	-7.2875
▁두	-7.29699
▁밝혔다	-7.33652
에게	-7.34593
▁많이	-7.34768
▁6	-7.35146
▁후	-7.35587
▁때문에	-7.35827
▁게	-7.37322
라	-7.38536
주	-7.38704
▁다	-7.38883
▁김	-7.39061
하지	-7.39293
▁아	-7.40031
사	-7.4035
▁모든	-7.40603
▁같은	-7.40771
▁해	-7.41553
▁다음	-7.41862
이다	-7.42014
▁큰	-7.42493
▁것은	-7.43459
▁그리고	-7.43547
▁다시	-7.43726
▁있어	-7.44507
하기	-7.45077
하여	-7.45245
▁좋은	-7.46429
▁지금	-7.46988
수	-7.47036
어	-7.47067
▁BBB	-7.47453
▁것이다	-7.47919
명	-7.47935
▁7	-7.48453
▁하고	-7.48627
▁등을	-7.48912
▁우리는	-7.491
▁시	-7.49978
▁각	-7.50127
적	-7.50646
합니다	-7.51935
▁너무	-7.53416
이라고	-7.53882
▁다양한	-7.54053
▁필요한	-7.54649
진	-7.54966
▁될	-7.55567
▁내가	-7.55727
▁말했다	-7.55855
이나	-7.56196
▁했다	-7.57358
▁있도록	-7.57984
▁또는	-7.58026
성	-7.5811
▁8	-7.58357
제	-7.58358
▁현재	-7.58802
▁것입니다	-7.58822
리	-7.59411
▁미국	-7.60299
!	-7.61576
차	-7.618
▁바랍니다	-7.64307
한다	-7.65041
▁서울	-7.65049
▁관련	-7.65127
▁주	-7.65326
상	-7.66529
▁제품	-7.66607
장	-7.66673
▁나	-7.66974
▁모두	-7.67142
동	-7.67792
▁좀	-7.68411
▁9	-7.68495
미	-7.68706
▁또한	-7.68807
▁이상	-7.6886
적인	-7.68896
▁FFF	-7.69236
▁AAA	-7.6993
▁어떤	-7.70104
화	-7.7042
▁어떻게	-7.70467
분	-7.71099
-	-7.72018
해야	-7.72779
하며	-7.7293
▁특히	-7.73046
보다	-7.73468
스	-7.73525
▁가운데	-7.73788
▁거	-7.74745
▁없는	-7.7486
▁오	-7.75392
원	-7.75743
▁최근	-7.76326
에서는	-7.76492
▁그는	-7.76538
▁20	-7.76568
▁직접	-7.77019
▁있을	-7.7713
라고	-7.7773
▁오늘	-7.78447
▁데	-7.78821
용	-7.79025
조	-7.79367
선	-7.81106
아	-7.81117
▁보고	-7.81505
형	-7.81937
세	-7.82075
회	-7.82506
부	-7.82915
▁새로운	-7.82981
▁매우	-7.83209
▁정말	-7.84466
▁이런	-7.8458
▁등이	-7.84628
▁동안	-7.84689
▁지역	-7.84887
▁또	-7.85073
▁12	-7.85648
되는	-7.85754
▁따른	-7.85825
부터	-7.85948
구	-7.86255
▁뒤	-7.86331
▁아니라	-7.86651
될	-7.86671
3	-7.87228
▁있다는	-7.88164
호	-7.88174
▁이후	-7.88192
▁총	-7.88407
▁국내	-7.89343
▁약	-7.89403
▁이렇게	-7.89458
▁30	-7.89618
히	-7.89815
여	-7.90034
전	-7.90954
했습니다	-7.91029
▁지난해	-7.91411
▁이날	-7.92017
라는	-7.92488
▁중국	-7.92645
던	-7.9299
비	-7.93284
▁올해	-7.93365
▁11	-7.93529
▁제품을	-7.94265
하면	-7.94517
▁건	-7.94939
▁경기도	-7.95086
▁바로	-7.953
신	-7.95472
▁저희는	-7.95599
▁해당	-7.95824
정	-7.95893
▁원	-7.95922
니	-7.95956
▁있어요	-7.96036
▁그래서	-7.96469
▁됩니다	-7.96703
▁사용	-7.96776
▁하지만	-7.97473
▁몇	-7.97964
소	-7.98206
산	-7.98262
"	-7.9852
▁일	-7.99734
하면서	-7.99802
▁아니	-7.99846
▁지	-8.00715
▁자	-8.01664
면서	-8.02268
▁저희가	-8.0436
들은	-8.04511
▁당신이	-8.04564
▁당신의	-8.05192
▁지원	-8.0533
▁구청장은	-8.05869
▁높은	-8.05942
▁싶습니다	-8.06665
▁따르면	-8.06669
▁위하여	-8.06807
▁A	-8.07019
▁못	-8.07626
▁당신은	-8.07982
▁오후	-8.08045
우	-8.08493
▁세계	-8.08539
실	-8.08715
▁있다고	-8.08916
▁볼	-8.09268
▁등의	-8.0931
▁사업	-8.09458
명이	-8.09529
▁그럼	-8.09712
▁이제	-8.1011
▁미	-8.1064
▁왜	-8.10928
됐다	-8.1102
▁줄	-8.1104
▁진짜	-8.11162
▁이를	-8.11532
▁같습니다	-8.11611
▁추가	-8.11645
▁저	-8.11751
▁감사합니다	-8.12242
▁말	-8.12463
▁관한	-8.1251
▁않은	-8.12537
식	-8.12796
▁없이	-8.13022
에도	-8.13341
들의	-8.13377
▁번	-8.13449
▁사	-8.13595
이라는	-8.14748
중	-8.14763
들을	-8.14849
▁문제가	-8.14957
▁없다	-8.15107
당	-8.15154
이하	-8.154
돼	-8.15723
▁다만	-8.15909
▁여러	-8.15948
▁먼저	-8.15989
▁첫	-8.16123
▁같이	-8.16132
되어	-8.17321
▁고	-8.18007
▁그런데	-8.18118
▁시장	-8.18192
▁알고	-8.18443
▁만큼	-8.18656
▁관리	-8.18659
억	-8.18833
▁박	-8.18973
▁달	-8.19076
▁우리가	-8.19097
▁이어	-8.19116
▁경우에는	-8.19156
위	-8.19258
▁운영	-8.19609
▁된	-8.20025
▁그런	-8.20237
▁어	-8.20342
▁세	-8.20539
」	-8.20574
▁있고	-8.21015
▁당시	-8.21017
드	-8.21344
~	-8.21595
▁구	-8.21644
되고	-8.21724
▁간	-8.2183
▁대	-8.21965
▁15	-8.22014
▁비	-8.22099
▁확인	-8.22141
천	-8.22228
▁결과	-8.2238
▁하나	-8.22708
보	-8.22784
마	-8.22836
해서	-8.22843
▁가지	-8.22927
▁기존	-8.22931
▁않고	-8.23184
▁정	-8.2322
▁이미	-8.23256
▁「	-8.23525
▁가	-8.23648
▁이거	-8.23696
'	-8.23822
▁된다	-8.24095
시간	-8.24195
▁때문이다	-8.24325
지만	-8.24953
했던	-8.25806
▁알	-8.25952
▁제품은	-8.25974
▁있나요	-8.26022
트	-8.26037
이라	-8.26215
▁교육	-8.26233
▁경기	-8.26236
처럼	-8.2731
▁난	-8.27366
▁전에	-8.27614
▁장	-8.27728
습니다	-8.27997
▁일본	-8.28035
▁있으며	-8.28611
▁회사	-8.28758
4	-8.28768
▁최대	-8.28805
▁혹시	-8.2881
적으로	-8.28979
▁계속	-8.29155
▁가능합니다	-8.29906
▁없습니다	-8.30181
▁가지고	-8.30431
▁신	-8.30741
▁계약	-8.30792
▁안녕하세요	-8.30865
▁아직	-8.31389
▁100	-8.31429
▁정도	-8.3149
치	-8.3166
관	-8.32081
법	-8.32302
▁기업	-8.32671
네	-8.32857
▁설치	-8.32989
▁더욱	-8.33059
▁시간이	-8.33087
오	-8.33243
경	-8.33369
하여야	-8.34039
▁사람이	-8.34144
▁받은	-8.34259
▁등에	-8.34631
▁되는	-8.34731
▁일부	-8.34839
▁조	-8.34906
하	-8.34995
석	-8.35149
▁주요	-8.35179
▁문	-8.35256
▁시간	-8.35443
▁진행	-8.36243
▁판매	-8.36284
▁가능한	-8.36519
▁어느	-8.36524
▁보내	-8.36809
들	-8.3719
▁오전	-8.37373
영	-8.37616
▁유	-8.3764
데	-8.37812
▁기술	-8.3809
▁바	-8.38158
▁되어	-8.38252
▁있었다	-8.38799
▁연락	-8.39224
▁생산	-8.39562
국	-8.39649
▁날	-8.39695
▁19	-8.39801
▁야	-8.3988
▁일이	-8.40508
▁여기	-8.40511
▁오는	-8.40622
▁관심	-8.40735
▁귀하의	-8.40931
▁한번	-8.41136
질	-8.41321
방	-8.4153
▁주문	-8.41546
▁주세요	-8.41628
재	-8.42073
▁해외	-8.42303
▁관계자는	-8.42867
유	-8.42967
▁트럼프	-8.43065
하도록	-8.43073
▁거예요	-8.43161
권	-8.43219
m	-8.43417
배	-8.43617
▁도	-8.43725
계	-8.43788
▁서	-8.438
하거나	-8.44463
▁않는	-8.44511
▁새	-8.44747
▁보인다	-8.4562
▁본	-8.45639
▁배송	-8.45928
▁받고	-8.46233
단	-8.46439
▁경제	-8.46568
▁열린	-8.46744
▁형	-8.46855
문	-8.46928
되지	-8.47167
▁구매	-8.47711
▁거야	-8.47855
항에	-8.47906
▁관심이	-8.4808
▁들어	-8.48187
5	-8.48314
군	-8.48343
▁걸	-8.48415
현	-8.48473
▁북한	-8.48862
거나	-8.49009
연	-8.49231
▁있지만	-8.49245
물	-8.49655
▁수도	-8.49733
내	-8.49823
란	-8.49859
▁해야	-8.49865
▁대표	-8.49967
는데	-8.50206
▁대통령이	-8.50838
민	-8.51469
▁개발	-8.51773
간	-8.51812
▁강	-8.51814
▁부	-8.51815
▁물론	-8.51863
▁온	-8.52082
▁차	-8.5218
모	-8.52812
▁않습니다	-8.52972
▁빨리	-8.53316
▁그렇게	-8.53358
▁조금	-8.53477
▁영화	-8.53653
러	-8.53956
금	-8.54134
▁초	-8.5418
▁투자	-8.54188
개월	-8.54549
무	-8.54741
▁같아요	-8.54768
▁가능성이	-8.54821
▁처음	-8.55185
▁예정이다	-8.55271
강	-8.55536
이에요	-8.55849
▁학교	-8.55944
▁우선	-8.5596
인데	-8.56068
▁있어서	-8.56192
▁재	-8.56398
▁있는데	-8.56419
▁18	-8.56472
▁설명했다	-8.56576
▁그러면	-8.56703
▁조사	-8.56786
번	-8.56823
▁크게	-8.56855
점	-8.56968
관리	-8.57162
▁하겠습니다	-8.57192
▁뭐	-8.57467
▁이용	-8.57586
▁반	-8.57605
▁국가	-8.57885
▁정부	-8.57911
▁귀사의	-8.58094
▁받을	-8.58286
급	-8.58358
▁하지	-8.58651
▁도움이	-8.58731
▁기	-8.58832
▁올	-8.58837
▁대상으로	-8.58922
▁양	-8.59081
▁좋아	-8.59114
▁전국	-8.59145
▁서비스	-8.59416
▁예	-8.59735
엔	-8.59785
일까지	-8.59822
▁이러한	-8.59841
▁동	-8.60018
포	-8.60126
건	-8.60382
했고	-8.60534
공	-8.60547
▁돼	-8.60673
▁드립니다	-8.60838
▁부산	-8.60843
▁환경	-8.60852
▁쉽게	-8.61007
▁역시	-8.6126
길	-8.61562
▁아닌	-8.61675
▁사실	-8.61677
▁문화	-8.61761
▁사람들이	-8.61762
▁얼마나	-8.6177
▁해요	-8.61835
▁하면	-8.62213
▁갈	-8.62254
안	-8.62255
▁보면	-8.62268
▁그냥	-8.62294
▁앞으로	-8.62406
▁50	-8.62645
▁호의	-8.6269
▁분	-8.62913
▁정부가	-8.62968
▁인해	-8.63296
▁국제	-8.63317
▁문제	-8.63414
양	-8.63451
▁사항을	-8.6354
▁있게	-8.63767
▁하	-8.63818
▁선	-8.64124
파	-8.64181
▁시설	-8.64373
▁준비	-8.64419
▁연	-8.64611
▁서비스를	-8.64697
▁부탁드립니다	-8.65195
▁이에	-8.6536
▁열	-8.65435
▁전체	-8.65499
일부터	-8.65531
▁당	-8.65558
▁16	-8.6558
▁일정	-8.65622
▁법	-8.65808
▁받아	-8.65808
▁14	-8.66137
▁여성	-8.66165
됩니다	-8.66284
▁연구	-8.66301
르	-8.66383
▁빠른	-8.66415
▁사용할	-8.66462
▁물	-8.66483
▁자신의	-8.66511
학	-8.6662
▁13	-8.66668
▁것도	-8.6701
▁그러나	-8.67163
▁자동차	-8.67323
6	-8.67362
▁기간	-8.67421
억원	-8.67506
▁않을	-8.6797
▁사고	-8.67985
▁말한다	-8.68034
▁중요한	-8.68166
하다	-8.68223
▁때에는	-8.68285
▁보	-8.68345
조제	-8.68362
▁피	-8.68617
▁대부분	-8.68913
▁무	-8.68937
▁됐다	-8.69339
병	-8.69552
▁모	-8.69617
▁이게	-8.69743
▁시간을	-8.69769
기를	-8.69884
▁방문	-8.70103
▁그동안	-8.70108
▁이번에	-8.7051
▁노	-8.70707
▁꼭	-8.70786
▁상품	-8.70873
▁도지사	-8.71058
▁글로벌	-8.71274
▁개	-8.71394
▁배우	-8.71562
▁항상	-8.71583
타	-8.71803
▁만들어	-8.71873
▁평가	-8.71943
랑	-8.72077
▁소	-8.72547
▁명	-8.72617
▁성	-8.72653
7	-8.72761
종	-8.72902
▁가격	-8.72903
▁집	-8.73014
온	-8.73027
▁수출	-8.73215
▁와	-8.73333
▁타	-8.73417
▁처리	-8.73439
교	-8.735
위원회	-8.73594
▁있기	-8.73648
에서도	-8.73682
▁한국의	-8.73776
▁그것은	-8.73827
청	-8.73867
별	-8.73963
반	-8.74038
▁게임	-8.74415
만원	-8.74551
▁없어	-8.74884
▁정보를	-8.75101
박	-8.75338
▁업무	-8.75381
▁각종	-8.75477
죠	-8.75595
▁25	-8.75612
▁마	-8.75728
▁하루	-8.75748
▁일반	-8.7575
▁점	-8.75783
▁산	-8.75785
도록	-8.76117
초	-8.76136
▁조례	-8.76276
▁남	-8.76356
▁등으로	-8.76449
▁사람	-8.76562
▁청와대	-8.76679
▁참여	-8.76701
▁디자인	-8.76724
▁17	-8.76732
▁전문	-8.76859
약	-8.76888
▁실제	-8.7694
▁단	-8.77043
▁온라인	-8.77073
▁사진	-8.77107
▁개인	-8.77118
▁살	-8.77191
▁상	-8.77477
▁24	-8.77506
조에	-8.77844
▁인기	-8.77897
▁추진	-8.77993
▁영향을	-8.78111
했지만	-8.78115
▁않아	-8.78238
운	-8.7832
▁K	-8.78366
▁시작	-8.78456
▁B	-8.78629
▁중인	-8.78671
▁북	-8.78739
▁우리의	-8.78893
거	-8.79047
▁각각	-8.79321
로부터	-8.79446
▁같아	-8.79575
▁활동	-8.79722
▁계획	-8.79804
▁과정에서	-8.80381
역	-8.80727
▁되고	-8.80766
▁앞서	-8.80851
▁산업	-8.80869
▁도시	-8.81051
▁차량	-8.81094
했다고	-8.81139
▁불	-8.81146
승	-8.81196
씨	-8.814
▁배	-8.8146
▁전했다	-8.81553
▁최	-8.8163
항	-8.81666
▁국회	-8.81673
▁협력	-8.81697
▁내일	-8.81939
▁문의	-8.81945
▁서울특별시	-8.82081
▁손	-8.82113
D	-8.82334
했어요	-8.82337
▁발생	-8.82357
G	-8.82369
▁사업을	-8.82526
명의	-8.82538
▁있는지	-8.82662
▁일을	-8.8278
된다	-8.83003
▁맞아	-8.83076
▁결정	-8.83126
▁사회	-8.83387
▁최고	-8.83494
노	-8.83497
▁있을까요	-8.83672
▁생각합니다	-8.83771
지역	-8.8392
▁대학	-8.84234
▁아주	-8.84349
▁규모	-8.84412
해요	-8.84504
개의	-8.8455
등	-8.84587
▁안전	-8.84989
▁하며	-8.85008
▁문제를	-8.85088
▁행사	-8.8519
▁제공	-8.85273
▁인터넷	-8.85342
▁해서	-8.85522
▁번째	-8.85722
되면	-8.86054
▁너	-8.86176
▁제공합니다	-8.86277
▁군	-8.86338
지는	-8.86411
직	-8.86666
심	-8.86779
▁보호	-8.86824
태	-8.86905
▁나온다	-8.86957
▁이것은	-8.87373
층	-8.87458
준	-8.87712
▁부동산	-8.8794
▁것이라고	-8.87941
▁되었습니다	-8.88161
▁주셔서	-8.88573
▁속	-8.88642
▁예정입니다	-8.88738
▁제대로	-8.88745
카	-8.88827
▁만에	-8.88841
▁거의	-8.88934
▁피부	-8.88942
어요	-8.88953
▁원하는	-8.88982
▁갖고	-8.89051
▁고객님	-8.89086
▁정책	-8.89206
▁대비	-8.89213
두	-8.89637
▁현지	-8.89662
티	-8.89713
터	-8.89866
▁변경	-8.89983
감	-8.90181
▁공동	-8.90269
교육	-8.90271
▁지난달	-8.90356
린	-8.90414
▁미리	-8.9049
하였다	-8.90687
▁생활	-8.90847
▁겁니다	-8.90857
▁그의	-8.90861
▁여행	-8.90873
래	-8.91177
▁이는	-8.91214
발	-8.91288
이었다	-8.91439
▁기록	-8.9144
생	-8.91577
▁채	-8.91748
자가	-8.9176
씨가	-8.91794
려	-8.91839
▁경험	-8.92049
▁40	-8.92256
▁분석	-8.92276
명을	-8.92325
▁경기도가	-8.92358
▁요청	-8.92468
레	-8.9248
▁일자리	-8.92655
임	-8.92693
▁씨	-8.9271
▁두고	-8.92733
▁있으면	-8.92773
피	-8.92956
▁나타났다	-8.92991
▁안에	-8.932
년간	-8.93233
▁어려운	-8.9332
▁서로	-8.93326
▁한다는	-8.93343
▁거래	-8.93405
▁어제	-8.93738
8	-8.94099
네요	-8.94106
사업	-8.94295
▁역할을	-8.94399
▁최종	-8.9443
바	-8.94494
▁예약	-8.94563
였다	-8.94576
산업	-8.94825
살	-8.94981
▁작은	-8.94983
판	-8.95135
이란	-8.95203
▁네가	-8.9524
남	-8.95249
프	-8.95285
▁방	-8.95306
▁개선	-8.95412
▁만든	-8.95526
▁경찰은	-8.95665
크	-8.95797
▁회사의	-8.95952
▁정보	-8.95971
▁수사	-8.9602
▁그가	-8.96163
▁발전	-8.96273
▁고객	-8.96275
▁했습니다	-8.96326
▁감사	-8.96733
▁제작	-8.96821
▁회신	-8.96868
▁가는	-8.97224
▁단체	-8.97249
▁지급	-8.97302
▁백	-8.97328
▁받는	-8.9785
▁21	-8.97874
증	-8.97902
▁목적으로	-8.98002
▁그들은	-8.9812
▁소속	-8.98185
9	-8.98254
▁정도로	-8.98298
▁일단	-8.98337
▁아파트	-8.98376
▁취소	-8.98766
철	-8.98783
▁만	-8.98788
단체	-8.98932
▁설명	-8.99077
▁않았다	-8.99117
▁이야기	-8.9919
▁중심으로	-8.9925
▁알려	-8.99334
▁23	-8.99343
▁공급	-8.99474
▁이동	-8.9948
집	-8.9954
다고	-8.99638
▁따라서	-8.9969
▁하는데	-8.99731
▁현장	-8.99761
하기로	-8.99817
마다	-8.99933
희	-8.99974
▁인사	-9.00051
이며	-9.00156
▁건강	-9.00322
문화	-9.00741
▁대통령	-9.00764
하던	-9.00855
▁회의	-9.00915
▁변화	-9.00937
었다	-9.00942
지원	-9.01016
▁계획이다	-9.01045
▁메일	-9.01244
▁전화	-9.01576
▁있습니까	-9.01581
▁결제	-9.0159
▁발표	-9.01636
▁대신	-9.01838
류	-9.01883
▁해당하는	-9.0196
▁나왔다	-9.01987
▁무슨	-9.02053
▁점을	-9.02178
▁중에	-9.02197
토	-9.02346
행	-9.02349
니까	-9.02352
▁필요가	-9.02363
▁위	-9.02529
▁언제	-9.02589
그	-9.02661
시설	-9.0276
▁검토	-9.02788
▁신청	-9.0296
▁최대한	-9.02962
▁이상의	-9.03104
▁호텔	-9.03211
▁22	-9.03224
▁제품이	-9.0329
▁발	-9.0357
▁비해	-9.03686
▁찾아	-9.03719
▁문재인	-9.03807
▁회사는	-9.03874
▁적이	-9.03963
▁내용을	-9.0399
▁가진	-9.04002
▁보다	-9.04004
▁것이라는	-9.0406
▁직원	-9.04147
▁논의	-9.04295
▁강조했다	-9.04299
▁생각	-9.04382
▁달리	-9.04432
▁확대	-9.04436
▁구성	-9.04508
다는	-9.04531
▁매년	-9.04643
▁고용	-9.04686
▁샘플	-9.04733
하겠습니다	-9.04778
▁같다	-9.04807
▁당사	-9.04884
▁27	-9.04905
▁임	-9.04998
창	-9.04998
하세요	-9.05001
▁답변	-9.05055
▁외	-9.05113
▁핵심	-9.0531
불	-9.05336
▁그룹	-9.05529
즈	-9.05532
디	-9.05677
센터	-9.05795
림	-9.05831
▁피해	-9.05855
▁러시아	-9.06068
▁대해서는	-9.0607
▁우	-9.06093
▁작업	-9.06279
장은	-9.06341
체	-9.06403
이고	-9.06419
▁대하여	-9.06444
▁한국에서	-9.06546
▁것에	-9.06571
▁주변	-9.06573
▁봐	-9.06643
▁모습을	-9.06653
▁드리겠습니다	-9.06746
▁브랜드	-9.06793
▁지정	-9.06933
코	-9.0694
▁파	-9.06991
되었습니다	-9.07184
▁못한	-9.07327
▁마지막	-9.07354
▁도입	-9.07372
▁음악	-9.07395
▁수입	-9.07465
▁독일	-9.07474
▁장비	-9.07605
▁주택	-9.07614
▁영어	-9.07696
들과	-9.0786
▁도내	-9.07862
▁만약	-9.07911
▁유지	-9.0794
▁기준	-9.07974
▁심	-9.07974
▁프로그램	-9.08002
▁대형	-9.08127
▁실제로	-9.08249
▁공	-9.08459
▁막	-9.085
▁좋습니다	-9.08513
▁추천	-9.08552
▁건설	-9.08846
▁매	-9.08856
▁공연	-9.09066
▁과거	-9.09117
▁경	-9.0912
기업	-9.09187
백	-9.09226
)’	-9.09253
▁관계	-9.09541
▁입	-9.09542
▁오래	-9.09574
대로	-9.09638
▁28	-9.09649
▁있다면	-9.0967
되면서	-9.09781
▁죄송합니다	-9.09934
▁내부	-9.09942
▁알려졌다	-9.10044
▁조정	-9.10061
▁따로	-9.1011
▁있었습니다	-9.10249
하였습니다	-9.10624
▁성과	-9.10895
▁영	-9.10929
▁상황에서	-9.10996
▁내년	-9.11164
▁자체	-9.11239
▁만나	-9.11254
▁버스	-9.11336
▁하기	-9.11365
▁26	-9.11376
▁외국인	-9.11386
▁싶은	-9.11419
▁공개	-9.11492
▁(	-9.11515
▁결과를	-9.11571
▁평균	-9.1158
▁의견을	-9.11627
▁되지	-9.11683
▁남북	-9.11786
▁제품에	-9.12006
▁드라마	-9.12073
▁선택	-9.12195
▁여전히	-9.12216
▁집중	-9.12326
▁요즘	-9.12425
▁거쳐	-9.12459
기도	-9.1265
▁경찰	-9.12708
▁최고의	-9.1279
▁리	-9.12826
력	-9.12889
▁그렇지	-9.13004
▁별지	-9.13087
▁신고	-9.13203
▁동시에	-9.13247
▁새로	-9.13325
▁규제	-9.13471
한다는	-9.1348
▁특별	-9.13511
으며	-9.13551
▁영업	-9.13556
▁그래	-9.13696
하실	-9.13778
▁광고	-9.13786
▁송	-9.13927
▁증가	-9.13958
▁품질	-9.14051
▁아이	-9.14072
하고자	-9.14206
▁베트남	-9.14213
▁주시기	-9.14226
▁사실을	-9.14261
▁있던	-9.14457
▁방송	-9.14493
더	-9.14562
▁건물	-9.14633
▁2016	-9.14839
▁운동	-9.1484
▁인상	-9.14931
으면	-9.15208
하는데	-9.1521
▁한다고	-9.15266
▁때는	-9.15455
▁약간	-9.15605
▁없을	-9.15723
본	-9.15751
▁경영	-9.1593
▁집에	-9.15972
색	-9.16145
▁가족	-9.16299
/	-9.16464
▁되면	-9.16488
▁시즌	-9.16506
긴	-9.16517
▁등록	-9.16524
들에게	-9.16625
▁전기	-9.16773
환	-9.16808
▁아니야	-9.16816
▁이전	-9.16836
▁학생	-9.17063
▁제일	-9.17154
▁인천	-9.17183
▁자신이	-9.17295
루	-9.17318
▁아래	-9.17432
▁향후	-9.17777
▁검사	-9.17853
▁영상	-9.17875
년부터	-9.17899
▁빠르게	-9.17995
▁전통	-9.18003
▁들	-9.1804
인지	-9.18076
▁성장	-9.18148
▁알겠습니다	-9.18169
▁촬영	-9.18246
▁그대로	-9.1826
▁통합	-9.18344
▁맞는	-9.18356
▁필요	-9.18372
▁음식	-9.184
▁상황이	-9.18465
▁출시	-9.18542
복	-9.18584
나요	-9.18608
▁주로	-9.18649
▁요구	-9.18666
▁시행	-9.18759
▁관련해	-9.1884
▁예산	-9.18887
통	-9.18935
C	-9.19011
▁홍보	-9.19036
▁둘	-9.19053
▁특별한	-9.19132
열	-9.19155
▁편	-9.1931
으로부터	-9.19347
광	-9.19669
▁전달	-9.19713
되었다	-9.19735
▁구축	-9.19776
▁컴퓨터	-9.19848
근	-9.19996
▁2018	-9.20011
▁주민	-9.20099
▁위원	-9.20236
▁불법	-9.20284
▁자주	-9.20311
▁대해서	-9.20316
▁행정	-9.20426
▁주시면	-9.20463
키	-9.20473
▁주는	-9.20484
사가	-9.20556
▁가격이	-9.20632
▁공식	-9.20849
▁스	-9.20858
▁많다	-9.20921
▁곧	-9.21043
▁돈을	-9.21145
▁구조	-9.21206
▁확인해	-9.21211
▁후에	-9.21233
▁지방	-9.21235
업	-9.21312
져	-9.21333
▁적	-9.21346
▁관광	-9.21447
▁학습	-9.21484
▁만들	-9.21498
▁국민	-9.2155
후	-9.21553
▁강화	-9.21611
▁상승	-9.21667
▁정확한	-9.21814
▁나와	-9.2185
▁한국에	-9.21962
▁대상	-9.2198
▁황	-9.22017
▁자기	-9.22024
▁당신	-9.22057
▁삼	-9.22061
▁나라	-9.22111
▁발생한	-9.22117
▁200	-9.22208
▁장애인	-9.22265
▁자연	-9.22268
▁성공	-9.22326
▁위해서는	-9.22457
씨는	-9.2246
▁해도	-9.2251
▁도움을	-9.22518
▁진	-9.22613
▁중에서	-9.22641
저	-9.22655
▁제조	-9.22841
▁여	-9.22858
▁체험	-9.22993
▁안내	-9.23026
▁신규	-9.23068
▁화	-9.23077
▁않도록	-9.23125
▁보는	-9.23259
▁현	-9.23259
▁관련된	-9.23345
▁스스로	-9.23557
▁연결	-9.23619
▁기관	-9.23704
▁당신에게	-9.23715
▁좋아하는	-9.23819
▁중구	-9.23838
S	-9.24018
순	-9.2403
▁그러니까	-9.24053
매	-9.24069
▁사진을	-9.24115
▁대통령은	-9.24127
▁의원	-9.24188
세요	-9.24195
▁심사	-9.24252
▁받았다	-9.24319
▁이유로	-9.24498
▁만드는	-9.24529
▁잘못	-9.24552
▁점이	-9.24673
▁기본	-9.24725
▁적극	-9.24729
▁특정	-9.24777
절	-9.24897
▁그녀는	-9.24907
▁건가요	-9.24955
▁대회	-9.25037
▁그것을	-9.25069
▁위해서	-9.25146
▁설계	-9.25164
▁얼마	-9.25236
▁필요하다고	-9.25269
▁통한	-9.25345
▁사용하는	-9.25392
▁얘기	-9.25445
▁점검	-9.25526
▁그게	-9.25598
A	-9.25633
▁비핵화	-9.25684
▁인한	-9.25734
▁활동을	-9.25766
▁중소기업	-9.25805
▁때문입니다	-9.25808
▁지원을	-9.26028
성이	-9.26103
▁기능을	-9.26191
▁선정	-9.26233
▁규정에	-9.26298
▁말을	-9.26362
하려고	-9.26375
▁C	-9.26385
s	-9.26481
▁금융	-9.26493
▁나도	-9.26523
처	-9.26544
▁주문을	-9.26568
▁29	-9.26654
▁한국어	-9.26665
▁곳이	-9.26671
▁이유는	-9.26859
▁명이	-9.26905
▁은행	-9.26923
▁보안	-9.26962
▁금	-9.26964
▁여자	-9.27012
▁사회적	-9.27027
▁사건	-9.27053
▁결국	-9.27068
▁윤	-9.27127
▁상품을	-9.27227
▁교체	-9.27248
▁저에게	-9.27262
▁친구	-9.27294
줄	-9.27304
▁밤	-9.27421
▁에너지	-9.27479
B	-9.27568
▁31	-9.27576
▁S	-9.27591
▁기계	-9.27665
▁정부의	-9.27727
각	-9.27768
▁참	-9.278
▁유럽	-9.27815
▁전시	-9.27928
▁가수	-9.28056
▁전혀	-9.28073
장이	-9.28152
▁업체	-9.28217
▁미세먼지	-9.28414
▁전문가	-9.28612
▁선생님	-9.2865
▁데이터	-9.28717
까	-9.28729
▁모습이	-9.28756
표	-9.28836
▁청년	-9.28889
▁소재	-9.28917
▁말씀	-9.28957
▁공장	-9.29038
▁시스템	-9.29184
기가	-9.29188
▁경쟁	-9.29205
▁조성	-9.29267
▁비즈니스	-9.29309
▁나의	-9.29322
10	-9.29325
▁설립	-9.29325
장을	-9.29507
▁인	-9.29531
여명이	-9.29548
▁걱정	-9.29553
▁싶어요	-9.29629
▁법률	-9.29638
했다는	-9.29665
▁광주	-9.29723
▁검찰	-9.29726
▁비롯해	-9.29804
▁받지	-9.2986
▁여러분	-9.29898
▁시험	-9.29946
▁기술을	-9.29957
▁공유	-9.30052
▁청소년	-9.30103
목	-9.302
▁있지	-9.30214
▁공공	-9.3022
했으며	-9.30321
▁남자	-9.30322
난	-9.30342
▁전망이다	-9.30344
에선	-9.30351
▁기회를	-9.30682
▁60	-9.3078
▁귀사	-9.30786
▁사람은	-9.30835
▁감사드립니다	-9.30939
▁내용	-9.30942
월부터	-9.31031
▁저녁	-9.31145
위를	-9.31238
▁할인	-9.31333
▁공사	-9.31368
달	-9.31482
▁2017	-9.31535
▁선수	-9.31554
▁제품입니다	-9.31559
▁지금까지	-9.3157
겠습니다	-9.31609
▁팀	-9.31831
▁내용이	-9.3186
▁필요합니다	-9.31872
▁앞두고	-9.31946
▁오늘은	-9.31958
▁아시아	-9.31975
입	-9.32004
▁밖에	-9.3201
▁적용	-9.32031
설	-9.32106
했을	-9.32384
▁공무원	-9.32479
채	-9.32537
▁예상	-9.32562
▁보통	-9.32575
이야	-9.32587
▁제공하는	-9.32609
▁나온	-9.32615
음	-9.32623
▁연기	-9.32659
▁제주	-9.32774
울	-9.32779
▁상황을	-9.32978
이지만	-9.32983
▁물건	-9.33
▁경우가	-9.33075
브	-9.33211
하신	-9.33218
▁호	-9.33243
학교	-9.33295
▁경기도는	-9.333
▁치	-9.33313
든	-9.33386
▁변	-9.33436
▁제안	-9.33471
▁2015	-9.33515
e	-9.33529
▁영국	-9.33575
▁좋을	-9.33686
▁보니	-9.33854
▁사람들	-9.33888
▁그래도	-9.33889
▁않다	-9.33958
조의	-9.33976
▁작성	-9.34069
김	-9.34089
서를	-9.3419
▁도는	-9.34198
했는데	-9.34205
▁수립	-9.34264
▁해결	-9.34276
봉	-9.3431
▁출장	-9.34375
▁조직	-9.34524
▁스마트폰	-9.34535
하자	-9.34555
▁연락을	-9.34564
▁저도	-9.34569
▁혁신	-9.34575
▁담당	-9.34827
▁연장	-9.3485
▁자유한국당	-9.34891
▁실	-9.35038
▁훨씬	-9.35107
지도	-9.35128
▁보도했다	-9.35156
▁사전	-9.35226
론	-9.35265
환경	-9.3534
▁모델	-9.35378
워	-9.35433
km	-9.35435
▁반대	-9.35553
▁화재	-9.35572
▁규정	-9.35577
▁이야기를	-9.35596
▁기업이	-9.35706
▁타고	-9.35722
▁민간	-9.35835
▁마무리	-9.35885
▁눈	-9.35944
구청장	-9.35968
▁싶어	-9.35972
▁회사에서	-9.35984
라도	-9.35984
▁개최	-9.35988
▁위반	-9.36002
▁대한민국	-9.36045
▁마을	-9.36096
▁환불	-9.36189
▁병원	-9.36203
▁활성화	-9.36267
▁제도	-9.3632
별로	-9.36363
규	-9.36444
▁정치	-9.3645
성을	-9.36456
▁없다는	-9.36615
항의	-9.36695
▁활용	-9.36941
▁될까요	-9.36961
▁효과가	-9.37048
▁필요하다	-9.37124
▁딱	-9.37132
▁혐의로	-9.37167
▁어린이	-9.37195
경제	-9.37226
▁부담	-9.37291
▁감	-9.37327
▁뭐야	-9.37361
속	-9.37377
▁대통령의	-9.374
었습니다	-9.37417
▁외부	-9.37527
▁미래	-9.37544
▁유통	-9.37594
▁이들	-9.37624
예	-9.37656
▁취업	-9.3769
▁별	-9.37747
▁비롯한	-9.3775
▁우려	-9.3784
평	-9.37995
▁여기서	-9.38039
년에	-9.38052
▁논란이	-9.38066
외	-9.38124
▁없어요	-9.38199
▁미국의	-9.38217
덕	-9.38287
현지시간	-9.38312
▁받았습니다	-9.38576
한다고	-9.38685
▁중앙	-9.38699
▁사는	-9.3883
▁열리는	-9.38939
하지만	-9.38945
▁대로	-9.38945
▁수밖에	-9.38959
▁구청장이	-9.38982
기술	-9.39
▁넘는	-9.3908
▁예술	-9.39114
량	-9.3912
▁매일	-9.39126
▁가능하다	-9.39201
▁의미	-9.39204
▁허	-9.39253
업체	-9.39365
▁확장	-9.39394
▁감독	-9.39419
▁심의	-9.39502
▁너는	-9.39532
가지	-9.39629
▁TV	-9.3999
망	-9.40014
▁500	-9.40061
▁가서	-9.40081
▁음식을	-9.4014
▁불구하고	-9.40144
▁인도	-9.40192
▁포함한	-9.40217
▁진출	-9.40433
▁내에	-9.40484
▁사항은	-9.40499
주세요	-9.40519
▁나섰다	-9.40561
되며	-9.4059
▁합의	-9.40606
▁자리	-9.40692
▁열심히	-9.40758
▁스마트	-9.40767
님	-9.40768
▁한류	-9.40777
로서	-9.40802
▁보수	-9.40867
▁맞춰	-9.4088
▁단지	-9.40904
▁입니다	-9.40952
료	-9.40975
▁상담	-9.41015
▁기능	-9.41017
▁의해	-9.41096
▁사이	-9.41118
▁채용	-9.41128
말	-9.41129
▁나서	-9.41139
▁즉시	-9.41148
▁조선	-9.4115
▁보관	-9.41152
▁대구	-9.41157
▁의한	-9.41159
▁완료	-9.41187
곡	-9.41196
▁회장	-9.41209
▁중단	-9.41227
▁창업	-9.41367
▁인근	-9.41391
▁근무	-9.41449
▁메일을	-9.41531
▁지속	-9.41601
▁생각이	-9.41625
▁감소	-9.41652
▁충분히	-9.41655
▁부품	-9.41668
▁추가로	-9.41735
날	-9.41915
▁권	-9.42013
▁길	-9.42121
▁소개	-9.42143
▁디지털	-9.42178
립	-9.42208
▁돼요	-9.42213
▁찾고	-9.4231
t	-9.42361
▁플랫폼	-9.42375
▁지불	-9.42427
▁제출	-9.42485
▁참석	-9.42485
시장	-9.42557
▁것과	-9.42648
▁의원이	-9.42666
정보	-9.42668
작	-9.42692
▁팔	-9.42744
▁갑자기	-9.42849
▁인구	-9.42994
▁콘텐츠	-9.43005
▁프랑스	-9.43182
함을	-9.43247
▁한반도	-9.43254
▁인기가	-9.43276
▁원래	-9.43289
▁병	-9.43308
▁위원장은	-9.4333
▁가입	-9.43438
출	-9.43508
▁나에게	-9.43552
▁위치	-9.43559
▁코	-9.43627
▁책	-9.43634
▁마케팅	-9.43736
볼	-9.43744
▁반드시	-9.43784
▁우와	-9.43791
▁소프트웨어	-9.43804
M	-9.43818
▁있었던	-9.4385
▁어려움	-9.43851
▁교통	-9.4387
P	-9.43912
▁지원할	-9.43996
송	-9.44131
▁OK	-9.44373
▁낮은	-9.44383
▁프로젝트	-9.44409
추	-9.44414
▁그때	-9.44432
▁업무를	-9.44439
인가요	-9.44442
다면	-9.44545
K	-9.44547
),	-9.44613
▁문제는	-9.44622
주의	-9.44634
▁의원은	-9.44656
▁참석한	-9.44688
▁찾는	-9.44706
▁식사	-9.44716
▁수정	-9.44729
▁방식으로	-9.44754
범	-9.44768
▁확인할	-9.44794
▁자금	-9.45169
예요	-9.45186
▁접수	-9.45208
▁비용	-9.45411
▁학생들이	-9.45411
편	-9.45452
▁선발	-9.45498
팀	-9.45508
▁사항이	-9.45622
락	-9.45626
▁치료	-9.45654
암	-9.45686
▁예방	-9.4569
령	-9.45795
▁포	-9.45854
▁유명	-9.4587
결	-9.4591
▁위치한	-9.46105
▁달러	-9.46121
▁먹고	-9.46233
▁대화	-9.4624
너	-9.46315
▁어디	-9.46516
▁예산의	-9.4652
▁결혼	-9.46693
▁처음으로	-9.46772
▁전자	-9.46786
▁요리	-9.46789
▁상황	-9.46863
▁삼성전자	-9.46902
▁제한	-9.4697
▁즐길	-9.47009
▁식품	-9.47042
▁앞	-9.47067
씩	-9.47086
▁크다	-9.47159
▁여기에	-9.47173
▁아동	-9.47221
▁자료	-9.47224
▁재정	-9.47294
▁월	-9.47303
기관	-9.47343
지를	-9.47353
▁자료를	-9.47362
▁당신을	-9.47363
▁물품	-9.47383
▁사랑	-9.47409
▁기회가	-9.47416
▁300	-9.47456
▁삼성	-9.4761
▁종합	-9.47645
▁포함	-9.47648
▁보험	-9.47707
일에	-9.47751
▁축제	-9.47839
개발	-9.47891
버	-9.47921
▁좋다	-9.48058
20	-9.48211
▁되	-9.4824
▁응	-9.48243
변	-9.48411
▁최선을	-9.48505
▁소비자	-9.48579
▁정상	-9.48588
▁나오는	-9.48635
▁순	-9.48676
▁통신	-9.48715
▁포장	-9.48751
▁인간	-9.48828
향	-9.48832
▁못하고	-9.48838
▁의료	-9.48874
▁민	-9.48926
▁제재	-9.48963
▁지적했다	-9.48987
▁동의	-9.48989
▁강한	-9.49026
▁아니다	-9.49074
▁기타	-9.49232
▁카	-9.49283
▁도널드	-9.49418
▁이하	-9.49477
▁범위에서	-9.4955
▁말고	-9.49567
▁쓰	-9.49586
▁왔다	-9.49615
▁명의	-9.49661
▁대출	-9.49667
▁보이는	-9.49691
▁우리나라	-9.49734
▁현대	-9.49834
북	-9.4985
▁홍	-9.49891
▁했어요	-9.49936
▁않으면	-9.50128
▁않는다	-9.50133
▁곳	-9.50181
한테	-9.50325
▁우려가	-9.50394
▁최저임금	-9.50409
▁선거	-9.50421
▁분야	-9.50593
▁입장을	-9.50646
▁수가	-9.50705
▁이들이	-9.50725
시에	-9.50727
▁아침	-9.50746
사의	-9.50753
▁우수	-9.50805
런	-9.50859
▁모바일	-9.50867
▁주신	-9.50881
▁목	-9.50891
▁알게	-9.50925
이라며	-9.50948
▁도로	-9.51013
▁김정은	-9.51035
주는	-9.51037
▁전환	-9.51054
자는	-9.51056
▁사람들은	-9.51119
▁<	-9.51147
▁출신	-9.5119
하기도	-9.51201
L	-9.51324
▁지금은	-9.51579
▁많아	-9.51676
▁위원장이	-9.51746
▁카드	-9.51747
▁M	-9.51833
▁아무	-9.51835
▁역	-9.51839
▁보여	-9.51879
▁차례	-9.51887
▁확보	-9.51962
▁인정	-9.51986
▁쉽지	-9.52061
▁작동	-9.52108
▁사람을	-9.52203
▁부분이	-9.52257
▁드릴	-9.52261
▁가구	-9.52283
원이	-9.52371
▁점에서	-9.52391
▁노래	-9.52431
▁그것이	-9.52432
▁스포츠	-9.52438
▁같은데	-9.52449
▁질	-9.52508
▁아닙니다	-9.52565
▁부과	-9.52582
▁회사에	-9.52586
▁공부	-9.52685
▁오히려	-9.52701
하시는	-9.52707
▁수행	-9.52739
▁회복	-9.52908
▁늘	-9.52951
▁D	-9.53006
▁지도	-9.5302
▁눈에	-9.53042
▁더불어민주당	-9.53061
▁표시	-9.53145
▁대규모	-9.53213
▁시민	-9.53257
▁애	-9.53281
▁되나요	-9.53286
▁조치를	-9.53318
되기	-9.53402
▁것처럼	-9.53416
▁이용해	-9.53439
▁협상	-9.53579
▁'	-9.53643
▁프로그램을	-9.5368
달러	-9.53719
▁도착	-9.53754
▁준	-9.53778
▁무료	-9.53779
▁이건	-9.53851
▁반도체	-9.53892
▁마음을	-9.5391
▁앞에	-9.53984
▁기다리고	-9.53991
▁보장	-9.54011
▁협의	-9.54071
▁공격	-9.54094
▁없다고	-9.5412
▁들어가	-9.5412
릴	-9.54147
▁혼자	-9.54196
▁자리를	-9.54257
▁귀하께서	-9.54293
▁주장했다	-9.54298
▁아니면	-9.54307
풍	-9.54314
▁경찰이	-9.54404
▁추	-9.54481
경기	-9.54606
퍼	-9.54652
▁했는데	-9.54683
▁하나에	-9.54697
▁선물	-9.54743
▁저희에게	-9.54747
▁상대	-9.54835
▁기획	-9.54844
▁때까지	-9.54926
▁힘을	-9.5493
▁교수	-9.54951
▁바탕으로	-9.54964
▁완전히	-9.54978
▁언론	-9.55056
▁완화	-9.55062
하려는	-9.55129
▁놓고	-9.55363
▁집에서	-9.55381
▁사실이	-9.5559
▁굉장히	-9.55603
졌다	-9.55687
이자	-9.55743
▁설	-9.55774
▁참가	-9.55798
▁있어야	-9.55838
▁들었습니다	-9.55878
애	-9.55975
뿐만	-9.55997
▁건축	-9.56006
▁조례는	-9.56039
▁발송	-9.56068
▁주십시오	-9.56092
▁차이가	-9.56115
▁천	-9.56198
▁조치	-9.56204
▁경험이	-9.56217
▁원인	-9.56233
▁실시	-9.56313
병원	-9.56418
▁이해	-9.56537
정책	-9.56688
▁대응	-9.56769
∼	-9.56888
▁신경	-9.56923
▁지역의	-9.56926
&	-9.56928
▁뿐	-9.56968
▁비판	-9.56984
▁토	-9.57003
▁방안을	-9.57099
▁전부	-9.57179
▁재고	-9.57186
▁전망	-9.57302
▁남성	-9.57535
품	-9.57635
▁북미	-9.57689
▁누가	-9.57707
▁커피	-9.57754
▁시장에서	-9.57969
▁민주당	-9.57988
▁예상된다	-9.5802
▁육성	-9.58046
▁이내에	-9.58049
▁먹는	-9.58061
▁무엇을	-9.58302
▁"	-9.58358
▁없고	-9.58391
기는	-9.5854
주년	-9.5867
T	-9.5874
▁범죄	-9.58756
▁지속적으로	-9.58938
▁없었다	-9.5895
▁사이에	-9.58956
▁여부를	-9.58957
▁젊은	-9.59101
▁판단	-9.59199
▁가정	-9.59289
▁2014	-9.59326
▁있으니	-9.59364
하시면	-9.59368
▁P	-9.59448
▁2019	-9.59509
▁선적	-9.59608
▁강원도	-9.59721
▁않았습니다	-9.59722
▁노력	-9.59747
협회	-9.59874
▁음	-9.59922
▁운영하는	-9.59954
▁좋겠습니다	-9.5996
▁파일	-9.60031
▁방법을	-9.60063
▁작품	-9.60128
▁복지	-9.60175
거리	-9.60192
▁좋아요	-9.60295
▁회사가	-9.60337
왕	-9.60394
스트	-9.60454
▁배터리	-9.60518
▁나머지	-9.60522
뿐	-9.60536
보다는	-9.6069
려고	-9.6076
▁오빠	-9.60762
▁먹을	-9.60777
▁상대로	-9.60782
▁회의를	-9.60796
만큼	-9.60843
’(	-9.60933
▁위에	-9.61064
▁소비	-9.61131
▁높다	-9.61204
▁수요	-9.61284
▁승리	-9.61353
▁죽	-9.61403
▁광	-9.61506
시켜	-9.61516
▁통과	-9.61527
▁중이다	-9.61622
▁홈페이지	-9.61686
▁도전	-9.61791
▁청	-9.61849
▁지지	-9.6188
계획	-9.61901
▁말이	-9.6197
있는	-9.62015
▁수도권	-9.62018
▁동물	-9.62032
▁경쟁력	-9.62061
▁대표가	-9.62062
안전	-9.62064
30	-9.62178
▁연간	-9.6227
▁확산	-9.62312
링	-9.62335
▁과정을	-9.62543
▁앞에서	-9.62552
▁부분	-9.62582
▁효과를	-9.62734
▁발표한	-9.62879
▁축구	-9.62932
▁사용자	-9.62937
▁고민	-9.63031
▁모여	-9.63036
▁긴급	-9.63097
탄	-9.63111
▁비용을	-9.63146
▁최초로	-9.63176
운영	-9.63194
▁신제품	-9.63199
▁지적이	-9.63223
▁확정	-9.63308
▁발견	-9.6334
▁계산	-9.63358
▁배달	-9.63371
개를	-9.63498
▁최소	-9.63559
▁벌	-9.63561
곳	-9.6361
으로서	-9.63612
▁가까운	-9.63695
▁유명한	-9.63709
▁세부	-9.63722
▁정상회담	-9.63736
▁정부는	-9.63864
▁못하는	-9.63876
▁인증	-9.63889
▁지역에	-9.64043
기에	-9.64044
▁개정	-9.64048
▁협조	-9.6406
▁주시길	-9.64083
서비스	-9.64086
▁장치	-9.64143
▁가야	-9.64243
▁하락	-9.64271
▁인식	-9.64294
▁덧붙였다	-9.64316
▁연속	-9.64358
독	-9.6436
▁사실상	-9.64376
▁운송	-9.64378
기간	-9.64406
▁암	-9.64423
구나	-9.64477
▁되었다	-9.64652
▁거리	-9.64656
▁표현	-9.64675
▁오랜	-9.6469
▁이용할	-9.64699
R	-9.64738
▁사항	-9.64746
▁공간	-9.64785
▁장관	-9.6479
▁높이	-9.64869
▁돈	-9.64948
▁직무	-9.64954
▁마련	-9.64975
▁듣고	-9.65005
▁G	-9.65113
▁납품	-9.65129
▁홍콩	-9.65139
▁가능	-9.65156
▁친애하는	-9.6516
▁주장	-9.65173
▁부인	-9.65236
▁구입	-9.65278
▁하여	-9.65348
▁그들	-9.65368
평가	-9.6538
▁통	-9.65387
▁때마다	-9.65557
사를	-9.65588
▁계획을	-9.65688
▁의사	-9.65692
▁미디어	-9.65727
▁기준으로	-9.6578
액	-9.65797
▁팬들	-9.65813
▁적극적으로	-9.65815
▁감독이	-9.65869
▁씨가	-9.65882
▁나를	-9.65885
▁시절	-9.65886
갈	-9.66009
▁그건	-9.66152
▁그들이	-9.66286
대상	-9.66428
스타	-9.66442
▁길이	-9.66506
▁피해를	-9.66521
▁듯	-9.66556
▁전용	-9.66589
▁담긴	-9.66626
대가	-9.66626
▁진심으로	-9.66632
공사	-9.66656
자를	-9.66737
▁비슷한	-9.66746
투	-9.66849
▁규모의	-9.66882
▁부서	-9.66892
▁조사를	-9.6695
▁있으시면	-9.66954
▁관계자	-9.6709
숙	-9.671
50	-9.67107
권을	-9.67164
▁상태	-9.67217
들도	-9.67237
극	-9.67293
분기	-9.67328
▁고려	-9.67413
찬	-9.67437
▁청구	-9.67717
한국	-9.67732
▁기능이	-9.6775
▁줍니다	-9.6777
겠다	-9.67788
▁70	-9.67827
담	-9.67877
▁세트	-9.6789
▁설정	-9.67903
▁왕	-9.67974
대학교	-9.68027
▁알아	-9.68045
▁교류	-9.68052
▁피해자	-9.68059
잖아	-9.68093
▁낮	-9.68093
▁넘어	-9.68136
▁경찰에	-9.68164
골	-9.6825
▁왜냐하면	-9.68355
▁담당자	-9.68359
▁외국	-9.68399
▁입고	-9.68438
▁교환	-9.68446
▁일주일	-9.68456
▁여름	-9.68503
시면	-9.68538
언	-9.68569
▁돌	-9.68608
▁알려주세요	-9.68634
▁대표는	-9.68645
라면	-9.68651
▁방지	-9.68699
▁것이에요	-9.68702
거든요	-9.68713
▁주실	-9.68811
▁시스템을	-9.68907
▁훈련	-9.6893
▁기반	-9.68975
▁뿐만	-9.69029
▁자세한	-9.6904
▁시장에	-9.69042
▁측정	-9.69108
▁마음에	-9.69116
▁우수한	-9.69204
▁임대	-9.6921
이기	-9.69213
▁귀	-9.69213
축	-9.69241
▁의견	-9.69257
▁만들기	-9.69296
▁마음이	-9.6934
g	-9.69538
▁참여하는	-9.69541
▁들고	-9.69595
▁환자	-9.69655
조원	-9.69666
▁기대	-9.69692
▁보도	-9.69755
▁이상이	-9.69831
▁노인	-9.69844
▁요	-9.69878
▁이와	-9.6995
▁위험	-9.69995
까요	-9.70121
▁운영에	-9.70169
▁감사하겠습니다	-9.70181
▁하나요	-9.70235
수가	-9.70351
▁이름을	-9.70378
년까지	-9.70408
▁소식을	-9.70422
▁석	-9.70449
▁바란다	-9.70488
력을	-9.70498
▁위원은	-9.70521
▁방문해	-9.70528
월에	-9.70547
▁수요가	-9.70566
▁창출	-9.70592
▁종류의	-9.70598
▁카메라	-9.70604
▁기억	-9.70648
▁부탁	-9.70669
▁강력한	-9.70719
▁사람의	-9.70721
▁하다	-9.70766
▁생각을	-9.70897
시부터	-9.7095
▁그렇죠	-9.70953
▁맛	-9.70997
염	-9.71002
▁되게	-9.71102
▁팬	-9.71112
▁주고	-9.71234
cm	-9.7128
도시	-9.71298
▁극	-9.71299
함	-9.71307
윤	-9.71315
▁청소	-9.7135
▁잡아	-9.71392
▁뛰어난	-9.71424
▁결과가	-9.71435
▁그거	-9.71542
▁아름다운	-9.71556
조사	-9.7165
▁나올	-9.71788
▁소통	-9.7179
▁법인	-9.71831
▁신뢰	-9.71845
▁완전	-9.71945
▁직	-9.71971
▁업계	-9.72006
▁낸	-9.72015
▁변호사	-9.72115
▁승인	-9.72196
▁동영상	-9.72199
▁곳에	-9.72247
회사	-9.72265
▁주에	-9.72333
▁새롭게	-9.72335
테	-9.72337
▁열어	-9.72355
▁친환경	-9.72405
▁순간	-9.72463
▁좋지	-9.72496
▁작업을	-9.72497
▁풀	-9.72504
▁사장	-9.72516
▁가격을	-9.72558
▁아마	-9.72668
▁검찰은	-9.72673
처리	-9.72677
▁매출	-9.72705
▁가고	-9.7292
▁용	-9.72948
함으로써	-9.72989
▁시장이	-9.72991
▁노동	-9.73179
▁끝난	-9.73196
▁사무	-9.73218
▁자전거	-9.73235
사회	-9.73292
션	-9.73361
▁시간에	-9.73441
▁주의	-9.73443
▁방침이다	-9.73477
▁블록체인	-9.735
▁친	-9.73507
세대	-9.73554
F	-9.73688
▁본사	-9.73916
▁않아요	-9.73939
것	-9.73999
커	-9.74026
은행	-9.74044
▁주문한	-9.74086
▁안에서	-9.74094
▁문서	-9.741
▁성적	-9.74159
▁조건	-9.74169
▁맛이	-9.74234
▁보였다	-9.74252
▁2013	-9.74305
▁이유	-9.74345
▁꾸준히	-9.74514
협의회	-9.74544
▁주제로	-9.74559
▁기업의	-9.74574
▁완성	-9.74683
▁눈길	-9.74686
▁소리	-9.74805
▁사업에	-9.74837
:	-9.74881
▁기대하고	-9.74886
▁오픈	-9.74887
글	-9.74947
▁개의	-9.74986
▁대기	-9.74998
▁최신	-9.75067
▁보기	-9.75086
▁자녀	-9.75153
▁라	-9.75187
명으로	-9.75326
▁면	-9.75334
▁배출	-9.75356
▁확인하고	-9.75357
▁임금	-9.75391
▁생각해	-9.75472
▁하여야	-9.75518
▁자동	-9.75551
▁입주	-9.7556
▁정하는	-9.75567
▁보세요	-9.75744
▁적은	-9.75781
▁수술	-9.75812
▁행복	-9.75815
▁엄마	-9.75841
▁했던	-9.75897
▁종	-9.7594
▁교회	-9.75975
▁책임	-9.75994
▁긴	-9.76144
▁행사를	-9.76196
▁북한이	-9.76267
▁교육을	-9.76303
▁이들은	-9.76326
▁대전	-9.76335
▁위탁	-9.7635
그룹	-9.76351
▁넣어	-9.76352
▁전략	-9.7636
회의	-9.76383
▁위원회의	-9.76383
▁책을	-9.76395
▁저기	-9.76399
▁본다	-9.76404
▁사용하여	-9.7642
였던	-9.76523
▁점점	-9.76555
▁판	-9.76557
▁전력	-9.76628
▁지원하는	-9.76692
총	-9.76726
▁그녀	-9.76731
▁주식	-9.76785
W	-9.76863
▁단계	-9.76899
군요	-9.7705
▁존재	-9.77057
니다	-9.77089
▁하게	-9.77129
▁서울시	-9.77174
▁충격	-9.77187
▁가게	-9.77187
▁역사	-9.77191
▁속에서	-9.77194
▁무역	-9.77211
점을	-9.77278
▁딸	-9.77302
▁대통령과	-9.77379
▁깊은	-9.77386
▁다소	-9.77396
▁약속	-9.77407
▁소득	-9.77407
▁관련하여	-9.77443
▁입장	-9.77467
▁언어	-9.77488
▁분위기	-9.77498
▁따	-9.77523
▁나무	-9.77548
▁통일	-9.77548
투자	-9.77575
▁뒤에	-9.77621
임을	-9.77647
▁잔	-9.77729
▁혹은	-9.77735
▁예정	-9.77742
하려면	-9.77747
▁경남	-9.77809
대학	-9.77825
▁장기	-9.77839
▁SNS	-9.77864
▁왔습니다	-9.77877
O	-9.77881
분야	-9.77881
▁측은	-9.77926
▁운전	-9.78007
▁얼굴	-9.78022
▁네트워크	-9.7804
▁질문	-9.78126
▁가격은	-9.78144
▁연출	-9.78153
자로	-9.78214
▁힘든	-9.78218
▁열고	-9.78275
▁언제든지	-9.78371
율	-9.78387
분의	-9.78394
▁고객이	-9.78431
▁실적	-9.78433
필	-9.78457
▁향	-9.78483
함에	-9.78489
▁전날	-9.78497
▁이행	-9.785
▁저의	-9.78509
기로	-9.78571
▁관계를	-9.78573
▁아니요	-9.78587
▁충전	-9.78607
년이	-9.78625
▁갈등	-9.78647
▁의심	-9.78649
▁겸	-9.7875
▁부족	-9.78845
막	-9.7891
▁정리	-9.78941
▁사과	-9.78994
▁경북	-9.79102
▁대만	-9.79104
▁상황에	-9.79118
▁평화	-9.79119
▁지역에서	-9.79166
▁디	-9.7918
▁중국의	-9.79192
▁사고가	-9.79269
▁캐나다	-9.79323
▁사망	-9.79352
▁세대	-9.79494
mm	-9.79539
▁귀사와	-9.79574
▁하면서	-9.7958
▁후보	-9.79635
▁미팅	-9.79797
▁이메일	-9.79807
▁독립	-9.79838
▁나중에	-9.79848
▁자산	-9.79854
▁망	-9.79881
▁남아	-9.79914
밖에	-9.79974
▁의장	-9.80052
제를	-9.8014
▁만한	-9.80156
대표	-9.80187
▁시작한	-9.80238
▁호주	-9.80327
충	-9.80424
▁셈이	-9.80456
때	-9.80487
0	-9.80708
▁비가	-9.80752
▁투	-9.80861
하겠다는	-9.80938
▁정비	-9.80982
▁요소	-9.80993
▁화장품	-9.81006
▁꽃	-9.81047
▁발생하는	-9.8105
▁토지	-9.81053
▁매장	-9.81061
▁했지만	-9.81117
▁제거	-9.81126
▁수수료	-9.81134
▁테스트	-9.81155
습	-9.81167
▁살아	-9.81217
▁부족한	-9.81229
▁덕분에	-9.81286
▁갖춘	-9.81299
▁이야	-9.8132
자에게	-9.81361
▁입금	-9.81367
▁색상	-9.81384
▁비용이	-9.81391
▁차단	-9.81404
▁쓸	-9.81411
▁평	-9.81439
▁누구나	-9.81475
▁회원	-9.81506
활동	-9.81514
▁통화	-9.81608
빈	-9.81624
패	-9.8163
▁초기	-9.81635
▁시작했다	-9.81678
▁발굴	-9.81678
▁주민들	-9.817
▁있기를	-9.81749
▁일상	-9.8177
공원	-9.81799
▁F	-9.81861
에게는	-9.81901
▁이벤트	-9.81925
했기	-9.81926
력이	-9.81937
▁한국인	-9.81956
y	-9.81962
▁체결	-9.81991
▁도서관	-9.82064
▁키	-9.82142
잖아요	-9.82201
▁맞	-9.82215
시키는	-9.82252
손	-9.82257
▁자유	-9.82257
▁소개해	-9.82265
▁있겠습니다	-9.82269
▁의지	-9.82283
▁써	-9.82309
▁와서	-9.82318
▁T	-9.82342
▁비행기	-9.82352
운동	-9.82384
▁예측	-9.82394
▁평가를	-9.82402
▁수리	-9.82433
▁분야에서	-9.82437
훈	-9.8245
11	-9.82459
▁생	-9.82485
자의	-9.82509
▁보이고	-9.82509
단계	-9.8252
▁2012	-9.82527
학년	-9.8254
▁시도	-9.82552
▁우리에게	-9.82576
▁집을	-9.82591
▁R	-9.82597
▁속에	-9.82626
▁주말	-9.82667
했으나	-9.82691
▁못했다	-9.82871
들에	-9.82938
▁위원회	-9.82945
▁남은	-9.83041
▁제출하여야	-9.83086
▁뉴스	-9.83091
▁문제에	-9.83115
▁의미가	-9.83184
▁이유가	-9.83228
▁목표	-9.83246
해주세요	-9.83345
▁절	-9.83354
▁식	-9.83358
▁자체가	-9.83375
되	-9.83382
▁참석해	-9.83391
▁있을지	-9.83412
▁직원이	-9.83417
▁분들이	-9.83444
▁등은	-9.8348
▁제공할	-9.83515
▁싶다	-9.83525
▁이것이	-9.83601
▁내에서	-9.83601
▁저희도	-9.83616
▁수업	-9.8362
보험	-9.8363
▁인도네시아	-9.83681
▁문을	-9.83735
▁화제	-9.83789
▁위기	-9.83824
▁지적	-9.8392
대를	-9.83924
▁희망	-9.83955
▁커	-9.83957
▁모두가	-9.83964
▁절대	-9.84009
▁AI	-9.84077
▁현실	-9.84217
▁이란	-9.84238
▁누구	-9.84253
주택	-9.84281
▁꽤	-9.84338
비를	-9.84372
지구	-9.84398
▁당신과	-9.84443
▁겨울	-9.84511
▁채널	-9.84553
▁거죠	-9.84556
▁공정	-9.84643
▁종료	-9.84715
▁음료	-9.84718
▁밥	-9.84726
▁제시	-9.84769
▁형성	-9.84805
▁사용해	-9.84807
▁손을	-9.84947
▁밝힌	-9.84949
▁살고	-9.84968
▁허용	-9.84975
상을	-9.85004
▁느낄	-9.85063
이면	-9.85089
▁앱	-9.85133
였습니다	-9.85143
▁실패	-9.85151
지고	-9.85165
▁금지	-9.85248
▁초대	-9.85279
▁머리	-9.85343
▁카페	-9.85362
책	-9.8538
▁미국이	-9.85437
▁기초	-9.85454
▁접	-9.85481
▁실내	-9.85518
폭	-9.85566
메	-9.85655
▁내려	-9.85704
▁대체	-9.85704
▁싱가포르	-9.85708
▁포함되어	-9.85731
▁유치원	-9.85786
▁노조	-9.858
▁일찍	-9.85838
▁반면	-9.85888
▁수집	-9.85891
삼	-9.85925
생활	-9.85934
▁가면	-9.85955
▁포함된	-9.85994
▁협업	-9.86008
▁운행	-9.86046
▁직원들	-9.86074
▁몸	-9.86146
▁택시	-9.86205
▁처벌	-9.86306
▁담	-9.86307
▁임명	-9.86322
▁강남	-9.86424
년대	-9.86457
▁첨부	-9.8648
a	-9.86509
없이	-9.8652
▁당장	-9.8652
▁중심	-9.86722
▁기쁩니다	-9.86766
격	-9.86883
마을	-9.86919
▁수용	-9.87017
▁아까	-9.87066
▁걸쳐	-9.87098
균	-9.87107
▁구체적인	-9.87112
▁참여한	-9.87151
▁받아야	-9.87157
▁관	-9.87163
합	-9.87236
▁불러	-9.87248
▁지구	-9.87249
7%	-9.87249
▁찾을	-9.875
▁그렇다면	-9.87529
▁SK	-9.87538
▁무엇보다	-9.87556
▁논란	-9.87589
▁전화를	-9.87622
▁만들고	-9.8765
19	-9.87685
▁표	-9.87699
대회	-9.87717
업무	-9.87734
▁북한의	-9.8776
▁멤버	-9.87763
지요	-9.87892
▁원내대표	-9.87905
이번	-9.87936
시까지	-9.87987
▁의견이	-9.88023
▁나오고	-9.88032
시는	-9.88041
걸	-9.88046
▁10%	-9.88056
▁수준	-9.8809
탈	-9.88255
▁객실	-9.88272
▁마음	-9.88333
▁실험	-9.88367
교회	-9.8845
▁전해졌다	-9.8852
▁농업	-9.88541
▁고정	-9.88581
▁확실히	-9.88588
o	-9.88612
▁관세	-9.88632
▁이미지	-9.88709
▁카탈로그	-9.88715
팅	-9.88725
▁과학	-9.8875
▁싶은데	-9.88757
▁스타	-9.88785
▁주차	-9.88793
▁너의	-9.88812
▁구성된	-9.88901
▁80	-9.88906
▁관련한	-9.88997
▁대법원	-9.89027
인이	-9.89055
▁범위	-9.89079
▁폐	-9.89188
▁제주도	-9.89237
X	-9.89275
▁맞아요	-9.89337
▁국방부	-9.89349
▁가능성	-9.89433
▁골	-9.89469
N	-9.89539
▁방법이	-9.89546
▁아니에요	-9.89561
▁많았다	-9.89563
▁안전한	-9.89636
▁뉴욕	-9.89639
▁통해서	-9.89681
▁요금	-9.89682
▁사업이	-9.89688
▁품목	-9.89693
▁현장에서	-9.89704
▁회장이	-9.89721
시스템	-9.89744
▁맞춤형	-9.89774
▁검색	-9.89803
▁롯데	-9.89811
▁생각한다	-9.89815
▁무선	-9.89837
▁사례	-9.89847
▁교수는	-9.89937
▁센터	-9.89976
▁행사가	-9.90007
▁골프	-9.90034
▁보상	-9.90034
▁미국과	-9.90044
제품	-9.9005
▁교	-9.90092
▁정확히	-9.90186
▁진행할	-9.90334
▁외에	-9.90337
발전	-9.90396
알	-9.90456
▁정책을	-9.90611
▁귀사에서	-9.90646
▁의하여	-9.90649
▁대해서도	-9.90703
시킬	-9.9071
▁마세요	-9.90737
▁기부	-9.90758
▁저장	-9.90765
▁고급	-9.90783
▁기대된다	-9.90866
▁출발	-9.90879
▁전남	-9.90936
▁사건이	-9.91034
▁수많은	-9.91154
▁취지	-9.91165
▁공항	-9.91167
▁부문	-9.91199
사는	-9.91251
위원	-9.91253
▁회계	-9.91264
▁조절	-9.91326
▁발생할	-9.91332
▁개혁	-9.91334
▁제공하고	-9.91365
개국	-9.91478
냐	-9.91486
▁작가	-9.915
▁핵	-9.91535
▁재난	-9.91549
▁혐의를	-9.91558
▁기기	-9.91602
▁등에서	-9.91636
▁인력	-9.91658
15	-9.91658
▁국	-9.9168
▁납부	-9.91746
V	-9.91808
▁이달	-9.91855
하겠다	-9.91863
▁LG	-9.91889
가요	-9.91918
▁압박	-9.91934
▁둔	-9.91937
▁진단	-9.91946
택	-9.9195
▁유형	-9.91962
▁위촉	-9.91968
▁H	-9.9199
▁글	-9.92163
▁삶을	-9.92174
▁총리	-9.92178
kg	-9.92196
▁여행을	-9.92221
왔다	-9.92234
족	-9.92236
한다면	-9.92245
▁메일로	-9.92335
▁아이들이	-9.92338
▁무료로	-9.92347
움	-9.9236
▁앞으로도	-9.92405
▁전면	-9.92417
▁긍정적인	-9.92451
▁만족	-9.92514
▁많습니다	-9.92566
▁먹	-9.92584
쳐	-9.92594
▁보내주신	-9.92634
▁지자체	-9.92634
▁보낸	-9.92639
▁배치	-9.92671
▁길을	-9.92674
▁삶의	-9.92717
자들이	-9.92727
만명	-9.92778
▁근거	-9.92829
▁곳에서	-9.92853
12	-9.92937
▁실현	-9.92965
▁건조	-9.93015
▁금리	-9.93039
▁초청	-9.93056
▁것인지	-9.93089
▁이용자	-9.93102
▁이름	-9.93106
▁그림	-9.93118
▁알려져	-9.93148
▁있음을	-9.93157
▁레	-9.9317
▁대책	-9.93183
▁소송	-9.93199
▁팀이	-9.93253
▁공간을	-9.93262
▁기술이	-9.93294
▁글을	-9.93326
▁작년	-9.93377
▁패션	-9.93427
▁분리	-9.9358
▁가까이	-9.93587
▁술	-9.93654
▁고려해	-9.93714
▁못해	-9.93733
▁폭행	-9.93775
▁일부를	-9.93784
▁시기	-9.93836
▁지시	-9.93841
▁제품들	-9.93844
▁마지막으로	-9.93851
악	-9.93909
▁버	-9.93921
▁국회의원	-9.93982
▁가득	-9.94139
▁암호화폐	-9.9414
▁편하게	-9.94205
▁번역	-9.9424
▁공모	-9.94337
름	-9.94372
▁업데이트	-9.94385
▁발급	-9.94463
▁말씀해	-9.9447
복지	-9.94471
▁벌써	-9.94474
▁100%	-9.94481
▁구분	-9.94492
▁쪽	-9.94499
▁반영	-9.94511
새	-9.94519
았다	-9.94615
▁징계	-9.9467
▁전원	-9.94675
▁진입	-9.94699
촌	-9.94705
▁옷	-9.94717
▁조명	-9.94738
▁기금	-9.94751
▁발행	-9.9476
▁참석했다	-9.94819
▁회사를	-9.94843
▁상대적으로	-9.94845
록	-9.94879
▁한국당	-9.94895
▁집행	-9.94904
▁검증	-9.94906
▁창	-9.94912
▁참고	-9.94978
라며	-9.94985
▁나선	-9.95055
▁보내드리겠습니다	-9.95117
쯤	-9.95121
홍	-9.95137
▁유리	-9.95168
8%	-9.95176
▁신문	-9.95216
▁상당	-9.95244
▁멕시코	-9.95254
톤	-9.95271
금융	-9.95273
▁기회	-9.95305
옥	-9.95307
▁영화를	-9.95339
▁아니냐	-9.95418
▁일은	-9.9545
▁진행된	-9.95477
▁이곳	-9.95517
▁만날	-9.95553
▁제안을	-9.95572
▁사전에	-9.95579
황	-9.95629
▁장관이	-9.95639
▁없어서	-9.95646
▁담은	-9.95659
성과	-9.95711
▁앨범	-9.95714
▁착용	-9.95716
월까지	-9.95761
▁맞게	-9.95766
▁E	-9.95781
▁보조	-9.95819
▁검찰이	-9.96011
▁서류	-9.96049
▁부위원장	-9.96084
▁휴대폰	-9.96085
▁수상	-9.96114
▁불편을	-9.9612
▁책임을	-9.96135
▁실행	-9.96283
▁마치	-9.96354
▁운용	-9.96387
▁분이	-9.96396
▁직업	-9.96451
▁하자	-9.96482
▁의회	-9.96486
▁특허	-9.96516
▁제공해	-9.96607
▁시군	-9.96639
▁절반	-9.96644
▁복	-9.96676
▁솔루션	-9.96684
▁얻을	-9.96815
낸	-9.96856
받은	-9.96867
▁0	-9.96868
40	-9.96876
▁상호	-9.96954
싱	-9.9698
▁의혹	-9.97011
▁방법	-9.9704
▁가치	-9.97057
▁상황이다	-9.97085
▁민원	-9.97108
▁유치	-9.97303
▁잡고	-9.97323
▁프로	-9.97366
▁규정함을	-9.97393
▁시행령	-9.97395
었던	-9.97401
▁주방	-9.97421
▁끝에	-9.97436
▁브라질	-9.97469
슬	-9.9748
▁않게	-9.97525
▁탈	-9.97525
▁못할	-9.97577
▁인프라	-9.97638
▁2000	-9.97765
▁참여해	-9.97765
효	-9.97803
이었던	-9.97843
친	-9.97858
▁절차	-9.9786
▁국내외	-9.9788
▁지연	-9.9792
▁태	-9.97988
▁충분한	-9.97996
▁귀하	-9.98023
▁나가	-9.98036
▁태국	-9.9804
서는	-9.98052
됐고	-9.98071
▁쌀	-9.98107
▁지하철	-9.98129
하십시오	-9.98181
▁구속	-9.9819
▁이메일을	-9.9819
▁언급	-9.98207
학과	-9.98229
연구	-9.98271
▁사건을	-9.98308
▁인수	-9.98381
▁자극	-9.98396
▁쓰는	-9.98405
▁폐지	-9.98414
▁관하여	-9.98415
▁올려	-9.98435
▁성인	-9.98437
▁나갈	-9.98449
압	-9.98451
▁허가	-9.98496
▁알려진	-9.98518
▁분석이	-9.98521
▁그럴	-9.98532
▁대기업	-9.98546
▁보완	-9.98554
▁표준	-9.986
▁여야	-9.986
▁개별	-9.98629
▁크기	-9.98656
▁위원장	-9.98658
▁참여할	-9.98771
▁개발한	-9.98802
▁진행하고	-9.98802
▁보증	-9.98802
▁출연	-9.98819
▁열린다	-9.98842
▁특수	-9.98902
▁우승	-9.98921
억원을	-9.98928
▁영상을	-9.9896
▁증거	-9.98962
▁항공	-9.99
▁풍부한	-9.99031
▁중요	-9.99107
었어요	-9.99109
▁프리미엄	-9.9912
▁사장님	-9.99122
▁그린	-9.99177
▁힘	-9.9918
▁행동	-9.99189
▁식당	-9.99266
▁커지고	-9.99289
▁위로	-9.99335
▁강남구	-9.99345
▁빈	-9.99351
버스	-9.99372
▁방안	-9.99413
▁회	-9.99424
건설	-9.99435
돌	-9.99555
▁협약	-9.99642
▁전까지	-9.99666
▁보입니다	-9.99722
▁직후	-9.9979
▁통보	-9.99835
겠다는	-9.99841
▁기다려	-9.99891
씨의	-9.99893
▁문제로	-9.99901
▁후반	-9.99955
▁별표	-9.99957
l	-9.99958
▁중입니다	-9.9998
▁대표적인	-10.0003
▁사무실	-10.0003
▁반복	-10.0005
▁그리	-10.0008
▁제품으로	-10.0008
▁건립	-10.0008
▁쓴	-10.0008
갑	-10.0009
▁당일	-10.0013
▁구청장에게	-10.0032
▁겪고	-10.0033
▁비디오	-10.0033
▁덜	-10.0037
▁상당히	-10.0037
▁피해가	-10.0038
▁목소리가	-10.0038
께서	-10.004
▁과정	-10.0042
▁주가	-10.0043
▁모집	-10.006
▁현금	-10.0062
▁본인	-10.0064
▁노력을	-10.0065
▁자사	-10.0065
▁물을	-10.0085
▁누	-10.0087
▁바른미래당	-10.0088
▁메뉴	-10.0089
▁행	-10.0091
▁보유하고	-10.0099
농	-10.01
n	-10.0103
▁아들	-10.0109
▁투입	-10.0117
▁악화	-10.0119
▁평소	-10.0122
▁교육감	-10.0126
집니다	-10.0128
▁부여	-10.0129
▁합	-10.0134
i	-10.0136
▁공원	-10.0136
▁의결	-10.0145
▁궁금합니다	-10.0147
▁징수	-10.0148
▁교사	-10.0148
구조	-10.0149
▁파티	-10.0163
▁안전하게	-10.0169
▁클럽	-10.0172
▁의혹을	-10.0173
▁조작	-10.0174
▁아니고	-10.0178
▁서명	-10.018
▁비상	-10.0182
▁출석	-10.0184
▁바람	-10.0192
▁이전에	-10.0193
▁종목	-10.0194
▁공공기관	-10.0194
13	-10.0197
▁떠나	-10.0203
▁번호	-10.0205
세기	-10.0205
▁집단	-10.0205
행정	-10.0211
▁직장	-10.0214
▁처음이다	-10.0217
▁어린	-10.0218
▁가능성을	-10.0223
▁스타트업	-10.0225
▁자문	-10.0225
▁보낼	-10.0228
▁효율적인	-10.0229
정부	-10.0229
해온	-10.0229
▁아직도	-10.023
호에	-10.0231
▁이어질	-10.0236
▁이메일로	-10.024
▁이제는	-10.0241
▁가스	-10.0244
해도	-10.0245
▁회담	-10.0245
▁결정을	-10.0246
사진	-10.0246
▁지속적인	-10.0247
▁자신을	-10.025
▁데이터를	-10.0251
▁심각한	-10.0253
▁부담이	-10.0254
▁잠시	-10.0254
▁친구가	-10.026
▁한편	-10.0264
▁일정이	-10.0268
▁이들의	-10.027
▁장은	-10.0272
곤	-10.0274
▁주차장	-10.0283
▁점은	-10.0289
적이고	-10.0293
▁혜택을	-10.0294
▁자리에	-10.0296
츠	-10.0298
▁개설	-10.0303
▁성분	-10.0304
▁따뜻한	-10.0304
▁장면	-10.0309
해주셔서	-10.0318
▁분양	-10.0322
▁별로	-10.0323
▁공개된	-10.0325
▁어머니	-10.0332
▁사상	-10.0334
▁메시지를	-10.0335
▁월드컵	-10.0335
위에	-10.0339
▁스페인	-10.0342
▁저를	-10.035
4%	-10.0352
▁받게	-10.0363
▁주거	-10.0366
감독	-10.0367
▁반응	-10.0371
▁축하	-10.0376
▁시작된	-10.0379
▁진행된다	-10.0383
▁IT	-10.0387
▁부분을	-10.0389
▁혐의	-10.039
▁양국	-10.0399
▁보급	-10.04
▁손상	-10.0402
er	-10.0405
렌	-10.0409
p	-10.041
▁통제	-10.0414
▁응원	-10.0416
▁입력	-10.0418
▁아버지	-10.0418
▁계정	-10.0419
▁낼	-10.042
▁형태	-10.0422
▁따른다	-10.0425
▁취	-10.0431
협	-10.0431
▁만난	-10.0432
▁가치를	-10.0437
▁외에도	-10.0438
▁끝	-10.0438
익	-10.044
▁철도	-10.0441
▁울	-10.0448
▁2010	-10.0453
▁방법으로	-10.0453
▁철	-10.0453
▁기업들	-10.0456
▁시대	-10.0459
▁기대한다	-10.0468
방송	-10.047
▁종이	-10.0471
단지	-10.0472
▁150	-10.0474
▁뜻을	-10.0475
14	-10.0479
▁부모	-10.048
▁더불어	-10.049
▁어려울	-10.049
▁로봇	-10.0497
▁촉진	-10.0501
▁활용해	-10.0504
▁곳으로	-10.0511
수록	-10.0513
▁섬	-10.0514
▁등과	-10.052
▁엔진	-10.0528
▁진술	-10.053
▁보존	-10.0531
이랑	-10.0534
하겠다고	-10.0539
▁뭘	-10.0542
▁기념	-10.0549
▁이사	-10.0562
혜	-10.057
▁시장의	-10.0574
▁건강한	-10.0577
▁발생했다	-10.0577
▁터키	-10.0577
▁후원	-10.0579
▁예를	-10.0581
▁평양	-10.0584
▁뜨거운	-10.0584
▁N	-10.0588
▁드러났다	-10.0589
▁사랑을	-10.0591
▁공연을	-10.0592
▁빼	-10.0595
▁사용이	-10.0595
▁공기	-10.0596
개가	-10.0596
▁역량	-10.0596
▁맛있는	-10.0598
▁질문에	-10.06
▁구간	-10.0605
▁조리	-10.0606
▁뭔가	-10.0607
▁플라스틱	-10.0608
돈	-10.0608
▁안건	-10.0609
▁김씨	-10.061
▁L	-10.061
▁홈	-10.0611
▁변화가	-10.0617
▁20%	-10.0618
제도	-10.0623
▁뇌	-10.0625
▁향해	-10.0626
▁실무	-10.0632
데요	-10.0636
▁그만큼	-10.0637
▁아이템	-10.064
▁면접	-10.0642
▁마감	-10.0659
▁필요하다는	-10.066
▁위협	-10.0663
▁악	-10.0665
▁나이	-10.0669
▁인권	-10.0679
▁하나로	-10.068
▁향상	-10.0681
▁연구원	-10.0681
체험	-10.0685
▁생각하는	-10.0688
▁게임을	-10.0689
▁못했습니다	-10.0692
▁정한	-10.0693
▁그것	-10.0693
▁파악	-10.0701
▁2011	-10.0704
▁괜찮아	-10.0704
▁루	-10.0709
지가	-10.071
▁손님	-10.0711
▁현상	-10.0718
▁생각하고	-10.0719
▁전쟁	-10.0723
술	-10.0726
▁기록했다	-10.0731
▁죄송하지만	-10.0732
하시고	-10.0733
▁간의	-10.0735
▁공간이	-10.0736
도로	-10.074
▁적절한	-10.0744
▁부드러운	-10.0746
▁송금	-10.0748
▁판매하는	-10.075
협력	-10.0758
▁1000	-10.0759
으니	-10.076
▁나오	-10.0761
고요	-10.0762
▁적합한	-10.0764
▁장소	-10.077
▁온도	-10.0778
▁기반으로	-10.078
▁제외한	-10.0781
▁노동자	-10.0793
▁저렴한	-10.0795
서울특별시	-10.0795
려면	-10.0795
▁어렵다	-10.0797
관련	-10.0798
▁캐릭터	-10.0799
▁수사를	-10.0801
▁잡	-10.0808
▁필요할	-10.0808
▁쓰고	-10.0813
▁보유한	-10.0814
▁지하	-10.0826
칠	-10.0827
▁인하	-10.0829
▁한국과	-10.0836
U	-10.0846
▁힘이	-10.0846
▁개편	-10.0849
국가	-10.0852
분쯤	-10.0854
▁생일	-10.0855
▁이틀	-10.0856
▁가치가	-10.0862
▁인공지능	-10.0863
▁베	-10.0867
▁가을	-10.0868
밀	-10.0869
▁해소	-10.0877
연구소	-10.0877
▁바이오	-10.0885
0%	-10.0892
▁다수	-10.0895
▁CCTV	-10.0896
련	-10.09
▁일대	-10.0901
▁가동	-10.0901
▁상품이	-10.0903
▁달에	-10.0911
▁느낌	-10.0912
차례	-10.0914
▁사업장	-10.0914
▁컬러	-10.0922
▁일제	-10.0927
▁봄	-10.0932
기준	-10.0936
▁격	-10.0936
취	-10.0941
▁자세히	-10.0942
▁아이들	-10.0954
▁중요하다	-10.0956
▁인천광역시	-10.0957
▁어린이집	-10.0961
▁혼	-10.0963
▁아는	-10.0967
▁신설	-10.0969
▁마이크	-10.097
게요	-10.0971
▁보이지	-10.0975
▁그간	-10.098
▁불편	-10.0982
▁높아	-10.0984
▁지급할	-10.0987
▁완벽한	-10.0988
▁사용하고	-10.099
▁불이	-10.0993
▁힘들	-10.0996
▁것보다	-10.0997
▁곡	-10.0997
▁미술	-10.0997
▁거래를	-10.0999
▁당사는	-10.1005
▁쇼핑	-10.1007
구역	-10.1011
▁사이즈	-10.1012
▁추진하는	-10.1014
Pop	-10.1014
베	-10.1015
▁대금	-10.1016
▁옆에	-10.1019
▁이유를	-10.102
슨	-10.1021
▁지사	-10.1021
▁색	-10.1021
▁반환	-10.1023
▁연습	-10.1023
▁확인됐다	-10.1023
▁정보가	-10.1024
검사	-10.1025
▁적극적인	-10.1026
렸다	-10.1029
▁없	-10.1029
▁특별히	-10.1033
▁오랫동안	-10.1043
▁여부	-10.1044
▁내용은	-10.1048
▁사이에서	-10.1051
비가	-10.1052
16	-10.1054
▁이거는	-10.1058
▁최근에	-10.106
▁패	-10.1069
▁시각	-10.1069
플	-10.107
▁구현	-10.1072
가구	-10.1074
▁사업은	-10.1074
▁유출	-10.1075
▁선언	-10.1076
▁주장이	-10.1077
축제	-10.1077
▁포함해	-10.108
▁이중	-10.1085
거래	-10.1085
▁함	-10.1085
▁의뢰	-10.1089
▁원장	-10.1089
▁눈이	-10.1092
하다는	-10.1096
▁견적	-10.1099
▁투자를	-10.11
▁수원	-10.1101
▁서류를	-10.1111
▁양성	-10.1114
▁선박	-10.1118
▁동일한	-10.1119
상담	-10.1121
H	-10.1123
▁효과	-10.1126
▁전반	-10.1128
▁재고가	-10.1131
▁중국이	-10.1132
▁이번에는	-10.1135
▁현황	-10.1136
일간	-10.1136
▁고등학교	-10.1137
▁특성	-10.114
개소	-10.1141
▁차를	-10.1149
▁자동으로	-10.1149
▁수준의	-10.115
명과	-10.1152
▁비용은	-10.1153
▁연계	-10.1166
▁시장을	-10.1167
▁상장	-10.117
▁경제적	-10.1172
하려	-10.1174
▁재판	-10.1178
▁숙소	-10.1181
더라도	-10.1181
▁스타일	-10.1182
▁단축	-10.1184
조차	-10.1185
같은	-10.1191
▁실수	-10.1192
벌	-10.1194
▁서비스에	-10.1206
▁상반기	-10.1208
▁특징이다	-10.1208
▁시작으로	-10.1214
▁모임	-10.1216
▁문건	-10.1216
▁아이디어	-10.1222
▁그걸	-10.1223
▁곳은	-10.1227
▁급	-10.1228
▁선수들이	-10.1228
▁바꿔	-10.1234
▁인원	-10.1234
▁웹	-10.1237
▁숨	-10.1238
▁연주	-10.1246
▁35	-10.1247
▁달성	-10.1248
만원을	-10.1248
▁분명히	-10.1251
▁주민들이	-10.1255
▁자격	-10.1255
식을	-10.1257
▁대변인	-10.1258
▁옷을	-10.1258
▁쉬운	-10.1259
▁필수	-10.1267
▁말씀을	-10.1275
▁부부	-10.1276
▁재료	-10.1276
▁돈이	-10.1277
하다고	-10.1277
▁대표팀	-10.1279
▁크리스마스	-10.1285
▁노출	-10.1289
▁가격에	-10.129
▁운영하고	-10.1292
▁재개	-10.1292
▁부분에	-10.1298
▁점이다	-10.1299
▁전북	-10.1303
▁도심	-10.1304
기구	-10.1305
존	-10.1305
▁선임	-10.1319
▁고기	-10.1319
▁문화를	-10.1321
▁행사는	-10.1322
▁정원	-10.1338
▁않아도	-10.1339
되도록	-10.1343
▁국립	-10.135
▁때도	-10.1355
이라도	-10.1356
▁질환	-10.1356
▁관해	-10.1358
주가	-10.1359
▁발주	-10.1362
하되	-10.1364
▁자신	-10.1364
E	-10.1364
▁금액을	-10.1375
▁발표했다	-10.1377
▁판결	-10.1383
▁아내	-10.1384
이었습니다	-10.1389
▁이것을	-10.139
▁국내에서	-10.139
▁재배	-10.1399
▁거기	-10.14
보고	-10.14
▁기사	-10.1403
▁도와	-10.1405
▁콘서트	-10.1405
▁사태	-10.1406
▁미국에서	-10.1414
▁절차를	-10.1416
▁비교	-10.1418
▁돌아가	-10.1419
▁1,000	-10.142
▁중간	-10.142
▁일반적으로	-10.1422
▁멋진	-10.1423
▁금액	-10.1425
▁활성화를	-10.1427
화를	-10.143
▁형태로	-10.1433
척	-10.1433
견	-10.1434
▁무대	-10.1437
▁규칙	-10.1437
▁태풍	-10.1439
▁운영을	-10.1439
합니까	-10.144
▁화장실	-10.1442
욱	-10.1449
▁전부터	-10.1449
▁의혹이	-10.1451
▁인쇄	-10.1457
▁밀	-10.1459
시키고	-10.1463
물을	-10.1466
연구원	-10.1466
▁소식이	-10.1469
▁궁금한	-10.1471
▁폭	-10.1478
▁라인	-10.148
▁50%	-10.1486
▁투표	-10.1492
▁정기	-10.1497
▁경기도와	-10.1502
▁노력하여야	-10.1502
▁유엔	-10.1504
▁해제	-10.1508
▁각자	-10.1515
▁보이	-10.1515
혈	-10.1517
▁장관은	-10.1517
공장	-10.1519
▁즐거운	-10.1519
▁바다	-10.1521
량이	-10.1522
▁열렸다	-10.1526
▁진행될	-10.1528
▁오른	-10.1528
경기도	-10.153
▁보냅니다	-10.1535
▁앉아	-10.1536
▁물류	-10.1539
▁안정	-10.1542
녀	-10.1543
▁측	-10.155
공무원	-10.156
▁시간은	-10.1562
▁느낌이	-10.1577
▁새벽	-10.1579
▁이번이	-10.158
통신	-10.1583
▁늘고	-10.1583
▁강원	-10.1585
감을	-10.1593
▁대량	-10.1598
▁나선다	-10.1598
▁행위	-10.1598
▁미만	-10.1603
▁당연히	-10.1603
소득	-10.1606
올	-10.1607
사와	-10.1608
▁나아가	-10.1608
▁입을	-10.1611
착	-10.1614
▁울산	-10.1626
▁근데	-10.163
▁이탈리아	-10.1632
▁배송이	-10.1635
▁장애	-10.1644
▁영양	-10.1648
▁받기	-10.1657
▁페	-10.166
6%	-10.1661
▁서비스가	-10.1661
▁2020	-10.1663
▁관람	-10.1663
▁이름이	-10.1665
▁침대	-10.1665
▁잠	-10.167
u	-10.1673
▁맛을	-10.1673
명은	-10.1673
▁비중이	-10.1678
이기도	-10.1683
▁구글	-10.1685
▁건축물	-10.1691
▁옵션	-10.1691
▁이용한	-10.1692
▁거주	-10.1695
▁정한다	-10.1696
폐	-10.1701
▁훌륭한	-10.1707
완	-10.1711
▁넓은	-10.1713
▁올해는	-10.1713
▁물질	-10.1713
▁본격적인	-10.1716
됨에	-10.1718
▁사유	-10.1719
했어	-10.1722
▁90	-10.1723
▁준비가	-10.1724
▁선수가	-10.1727
▁전공	-10.173
까지는	-10.1731
▁고양이	-10.1738
▁기자회견	-10.1742
▁기업들이	-10.1743
▁강사	-10.1745
▁개방	-10.1749
원은	-10.175
▁김문수	-10.175
▁내고	-10.175
카드	-10.1751
▁유튜브	-10.1755
▁남편	-10.1758
겠다고	-10.176
▁사람들에게	-10.1761
▁증시	-10.1768
▁정치적	-10.1768
▁뜻	-10.1769
▁별도의	-10.177
▁들었다	-10.177
겠지만	-10.1771
▁찾기	-10.1771
▁진행되는	-10.1774
▁목표로	-10.1777
▁기도	-10.1778
▁통하여	-10.1781
▁원하시는	-10.1786
이어서	-10.1786
▁해석	-10.1792
리그	-10.1794
▁감정	-10.18
▁드리고	-10.1801
예술	-10.1803
▁이걸	-10.1804
▁예약을	-10.1805
▁대폭	-10.1807
▁케이스	-10.1809
▁부상	-10.1813
▁엄청	-10.1814
▁시일	-10.1814
▁부분은	-10.1821
▁사람에게	-10.1821
▁순위	-10.1824
▁농가	-10.1826
▁메	-10.1826
▁의자	-10.1832
▁블랙	-10.1833
▁페이스북	-10.184
▁언제든	-10.184
2%	-10.1841
▁능력	-10.1844
주셔서	-10.1848
▁2009	-10.185
▁재산	-10.1852
▁커버	-10.1852
▁편의	-10.1856
관광	-10.1859
▁정당	-10.1861
▁언제나	-10.1862
▁사이트	-10.1862
▁진행하는	-10.187
▁잠깐만	-10.187
▁정착	-10.187
금을	-10.1873
▁사항에	-10.1874
▁장식	-10.1875
9%	-10.1881
▁드론	-10.1881
▁설명이	-10.1882
▁PC	-10.1884
시험	-10.1885
▁풍	-10.1887
▁첨단	-10.1889
등급	-10.189
▁‘2018	-10.1891
▁처	-10.1894
▁말레이시아	-10.1899
▁지역사회	-10.19
▁치료를	-10.1902
▁활용한	-10.1906
▁지식	-10.1907
▁김치	-10.1908
▁충돌	-10.1911
▁뿌리	-10.1912
▁끌고	-10.1913
▁질병	-10.1913
▁지출	-10.1916
상품	-10.1919
▁동료	-10.1921
▁커뮤니티	-10.1921
▁환	-10.1922
▁케이블	-10.1934
위원장	-10.1934
▁다음달	-10.1935
▁클라우드	-10.1938
▁근로자	-10.1941
▁준비를	-10.1943
▁행복한	-10.1948
▁분위기를	-10.1949
밥	-10.1949
▁한국은	-10.195
쿠	-10.1956
육	-10.1956
혁	-10.196
▁모아	-10.1963
3%	-10.1964
▁담겨	-10.1964
▁법안	-10.1965
▁신호	-10.1966
제가	-10.1967
수를	-10.1968
▁폼페이오	-10.1968
▁파견	-10.1971
▁추천해	-10.1973
▁재판부	-10.1974
방법	-10.1974
▁긴장	-10.1977
블	-10.1978
▁미치는	-10.1979
▁조기	-10.198
▁제기	-10.1981
▁자유롭게	-10.1982
▁투자자	-10.1983
▁심의를	-10.1984
▁국토교통부	-10.1985
▁생긴	-10.1986
▁계좌	-10.1987
▁시청	-10.1988
침	-10.1989
기금	-10.1994
▁깊이	-10.1997
▁짧은	-10.1997
▁보유	-10.2001
▁답	-10.2001
▁금요일	-10.2004
▁시리즈	-10.2004
▁얘기를	-10.2007
▁전개	-10.2008
▁인정하는	-10.201
분이	-10.2011
▁펀드	-10.2016
▁며칠	-10.203
▁다리	-10.203
▁불안	-10.2032
▁점도	-10.2036
▁접근	-10.2036
▁가족이	-10.2043
▁하려고	-10.2044
▁기간이	-10.2044
▁교육부	-10.2047
▁추세	-10.2055
나무	-10.2055
▁들어서	-10.2056
▁식물	-10.206
▁귀하께	-10.2062
▁어디에	-10.2064
▁차원에서	-10.2067
▁대북	-10.2071
▁연구팀	-10.2075
▁효율적으로	-10.2076
▁디스플레이	-10.208
▁과일	-10.2091
▁기분	-10.2091
▁사례가	-10.2093
▁계기로	-10.2094
했는지	-10.2097
입니까	-10.2099
▁되는데	-10.2101
17	-10.2102
▁흐름	-10.2103
▁꿈을	-10.211
▁입학	-10.2112
▁음성	-10.2112
▁상처	-10.2114
▁요구하는	-10.2116
▁실천	-10.2118
▁30%	-10.2119
지방	-10.212
▁진료	-10.2124
▁티	-10.2126
▁갖추고	-10.2127
▁떨어진	-10.2128
▁통계	-10.2132
▁최초	-10.2134
▁임원	-10.2142
▁불만	-10.2142
▁복귀	-10.2146
었고	-10.2147
▁주목된다	-10.2157
▁채택	-10.2164
▁걸릴	-10.2165
▁활용할	-10.2165
▁제게	-10.2166
▁있으나	-10.2169
▁학부모	-10.2171
▁추적	-10.2172
▁사업자	-10.2173
▁매체	-10.2176
▁없지만	-10.2177
섭	-10.218
▁모니터링	-10.2183
▁없도록	-10.2185
▁세계적인	-10.2188
하니	-10.2197
▁설명을	-10.22
▁배경	-10.2202
▁난민	-10.2203
▁승인을	-10.2205
▁세미나	-10.2205
▁기분이	-10.2205
▁이용하는	-10.2206
▁분야의	-10.2206
일에는	-10.2208
▁훼손	-10.221
▁출전	-10.221
께	-10.2212
▁시민들이	-10.2215
▁헤어	-10.2215
▁단속	-10.2216
▁아예	-10.2224
▁제외	-10.2226
▁지점	-10.2228
됐던	-10.2229
▁차별	-10.2231
▁공연이	-10.224
▁양식	-10.224
▁방금	-10.2241
▁즉	-10.2245
▁매각	-10.2249
▁것이라	-10.225
▁필	-10.225
▁믿고	-10.2252
▁가격으로	-10.2252
▁속도를	-10.2253
▁지나	-10.2258
▁가끔	-10.2262
▁말하는	-10.2265
▁맥주	-10.2269
▁주도	-10.2272
d	-10.2274
▁경고	-10.2278
▁충북	-10.2279
▁선수들	-10.2284
▁강조	-10.2287
▁귀사에	-10.2289
여개	-10.2293
읍	-10.2294
▁상태로	-10.2299
▁없었습니다	-10.2303
▁흡수	-10.2306
▁아빠	-10.2307
▁예비	-10.231
자료	-10.2313
▁수업을	-10.2313
몰	-10.2315
▁수익	-10.2319
▁조금만	-10.2319
▁임시	-10.232
비용	-10.2322
▁개봉	-10.2327
▁자는	-10.2331
보호	-10.2332
이라면	-10.2332
본부	-10.2332
▁초등학교	-10.2339
▁분야에	-10.2339
▁결	-10.2341
자원	-10.2341
▁후보자	-10.2348
측	-10.2348
▁화학	-10.2349
됐지만	-10.2353
▁그녀가	-10.2355
▁발전을	-10.2356
해주는	-10.2357
▁넘게	-10.2359
▁감독은	-10.236
▁올림픽	-10.2365
지지	-10.2365
▁자원	-10.2371
▁항목	-10.2377
▁좋겠다	-10.238
▁분명	-10.238
▁직원들이	-10.2382
킹	-10.2386
▁음식이	-10.2391
른	-10.2396
▁올랐다	-10.2396
▁건데	-10.2397
▁편성	-10.2398
▁입은	-10.2402
▁천연	-10.2402
▁경기를	-10.2405
페	-10.2406
는지	-10.2411
▁떨어져	-10.2411
헌	-10.2415
▁거에요	-10.2416
▁장점이	-10.242
▁감시	-10.2422
▁이사장	-10.2423
▁얻고	-10.2425
▁캐	-10.2425
▁점차	-10.2426
▁신체	-10.2433
▁법적	-10.2434
▁계기가	-10.2436
▁주소	-10.2437
▁일하는	-10.244
▁계	-10.2441
▁토대로	-10.2442
▁졸업	-10.2442
▁주문하신	-10.2444
▁분석했다	-10.2446
▁치즈	-10.2447
년에는	-10.2447
▁프로그램이	-10.2448
▁보여주는	-10.2451
▁당부했다	-10.2452
「	-10.2452
▁근처에	-10.2452
▁그래요	-10.2455
▁이어지고	-10.2458
▁어려워	-10.2459
하면서도	-10.2459
▁상영	-10.2463
▁항	-10.2463
상의	-10.2471
▁이래	-10.2473
▁음식점	-10.2474
▁올라	-10.2474
▁말해	-10.2475
었는데	-10.2475
▁하는지	-10.2481
▁개입	-10.2483
▁범행	-10.2486
▁프로젝트를	-10.2487
▁가방	-10.2492
▁않아서	-10.2493
▁처분	-10.2495
▁디자인을	-10.2499
▁고객에게	-10.25
▁하시는	-10.2502
▁비중	-10.2504
▁설치된	-10.2504
▁출산	-10.2505
▁모르는	-10.2509
▁차이	-10.2511
국제	-10.2514
▁형이	-10.2515
▁지내	-10.2524
춘	-10.2525
▁꿈	-10.2525
▁한식	-10.2527
▁금감원	-10.2527
▁아무래도	-10.2527
▁씨는	-10.253
▁학생들	-10.2537
▁하실	-10.2537
▁반려동물	-10.2539
▁400	-10.2539
▁동네	-10.254
▁가공	-10.2542
여성	-10.2542
▁패키지	-10.2543
▁날이	-10.2543
▁신청을	-10.2547
▁2008	-10.2556
▁나눠	-10.256
▁수학	-10.2561
▁사용한	-10.2565
▁드렸습니다	-10.257
▁정도의	-10.2571
▁부진	-10.2575
▁경비	-10.2578
장으로	-10.2578
딩	-10.2581
▁방향으로	-10.2583
▁투어	-10.2585
▁작품을	-10.2585
관계	-10.2585
▁당초	-10.2587
▁소식	-10.2588
전자	-10.2594
▁예산을	-10.2598
사업을	-10.2603
시민	-10.2608
체계	-10.2609
률	-10.2613
▁수능	-10.2613
k	-10.2613
▁올린	-10.2614
h	-10.2615
▁계속해서	-10.2616
하길	-10.2616
▁날씨	-10.2618
▁폭발	-10.2618
▁행사에	-10.2618
시켰다	-10.2619
▁모습	-10.2621
머	-10.2625
▁되기	-10.2631
쇼	-10.2633
▁크	-10.2636
▁창고	-10.2641
▁고객들	-10.2643
▁편집	-10.2645
회장	-10.2645
▁미팅을	-10.2646
▁잘못된	-10.2652
인데요	-10.2654
▁밝혀	-10.2655
▁다음에	-10.266
▁별도로	-10.266
▁아침에	-10.2663
▁경기가	-10.2664
▁아무리	-10.2665
진다	-10.267
▁부담을	-10.2672
▁아이돌	-10.2674
▁사용하지	-10.2677
▁많고	-10.2677
▁숙박	-10.2677
▁실시한	-10.2678
▁회의에	-10.2679
▁농	-10.2683
▁있으신가요	-10.2684
▁같	-10.2688
판매	-10.2691
▁자리에서	-10.2694
항제	-10.27
▁고객의	-10.2703
▁맞습니다	-10.2705
▁설비	-10.2706
▁기다리겠습니다	-10.2713
▁아이고	-10.2714
24	-10.2715
▁찍어	-10.2716
▁생각해요	-10.2718
▁포인트	-10.2722
▁과제	-10.2723
업계	-10.2726
치료	-10.2729
▁신발	-10.2736
함이	-10.2736
▁목록	-10.2737
세를	-10.2739
▁상태에서	-10.274
▁인테리어	-10.2742
▁코드	-10.2745
▁편안한	-10.275
▁선고	-10.2756
▁부정	-10.2756
▁역대	-10.2757
▁J	-10.2758
▁구민	-10.2758
▁증가하고	-10.2759
▁높아지고	-10.276
▁달라	-10.2763
공간	-10.2773
▁독	-10.2779
▁분류	-10.2783
누	-10.2789
▁불리는	-10.2789
졌습니다	-10.279
호선	-10.279
▁코스	-10.2792
▁초과	-10.2793
▁추석	-10.2798
▁낙	-10.2799
▁학교에	-10.2806
▁작	-10.2808
▁전기차	-10.281
▁단순	-10.2812
▁걸어	-10.2812
되어야	-10.2815
▁고객님께서	-10.2816
▁이끄는	-10.2819
▁벗어나	-10.2821
▁우주	-10.2823
▁손해	-10.2824
▁학생이	-10.2824
▁세탁	-10.2825
▁군사	-10.2828
▁찾은	-10.2829
▁사기	-10.283
▁소방	-10.283
▁주력	-10.283
▁지원에	-10.2835
▁박물관	-10.2842
▁비밀	-10.2843
케	-10.2844
었어	-10.2855
▁늦게	-10.2856
▁환영	-10.2857
▁섬유	-10.2859
▁물량	-10.2862
▁전문가들은	-10.2869
▁노선	-10.2872
▁이름은	-10.2873
스가	-10.2873
수사	-10.2875
▁찬	-10.2875
▁준수	-10.2877
▁짜	-10.2884
▁있었는데	-10.2885
잔	-10.2886
▁장점	-10.2886
인들이	-10.2888
우리	-10.2892
▁사람들을	-10.2893
▁무엇인지	-10.2896
18	-10.2901
▁V	-10.2906
▁들어간	-10.2908
먹	-10.2909
▁가자	-10.2913
▁플레이	-10.2916
▁여의도	-10.2916
▁복구	-10.2918
▁현재까지	-10.2919
다른	-10.2919
▁정신	-10.292
▁많아서	-10.2932
▁고려하여	-10.2934
▁탄	-10.2937
지에	-10.2938
행위	-10.2943
▁언니	-10.2944
▁취임	-10.2947
▁영수증	-10.295
▁옮겨	-10.295
▁테이블	-10.295
▁않기	-10.2952
▁운동을	-10.296
▁거지	-10.2965
사고	-10.297
▁쉬	-10.2971
▁인생	-10.2972
▁아이가	-10.2976
▁움직임	-10.2978
▁예능	-10.2986
▁경계	-10.2987
▁신용	-10.2992
으나	-10.2995
▁서버	-10.2999
여명의	-10.3001
▁생명	-10.3001
▁축소	-10.3002
감이	-10.3002
▁필터	-10.3002
룸	-10.3003
▁업체가	-10.3003
▁현상이	-10.3008
▁의식	-10.3009
▁바닥	-10.3009
례	-10.301
▁자연스럽게	-10.301
▁받	-10.3012
▁아시안게임	-10.3012
사항	-10.3014
▁속도	-10.3015
▁찬성	-10.3017
▁원합니다	-10.3017
율이	-10.3018
궁	-10.3019
▁사유가	-10.3023
▁필리핀	-10.3023
▁없기	-10.3026
▁없으면	-10.303
▁관리를	-10.3032
▁심지어	-10.3039
▁단가	-10.3041
경영	-10.3042
▁소화	-10.3042
▁있	-10.3044
▁등급	-10.3045
▁외교	-10.3049
▁구체적으로	-10.3054
▁의미를	-10.3057
▁선택할	-10.306
▁비행	-10.3067
▁내린	-10.3071
▁사용료	-10.3073
TV	-10.308
▁화물	-10.3082
시킨	-10.3083
▁봉	-10.3083
▁계획이	-10.3083
▁강하게	-10.3084
전에	-10.3084
▁관광객	-10.3087
▁U	-10.3087
▁체	-10.3089
▁야외	-10.3091
▁기존에	-10.3095
▁비율이	-10.3099
▁있었지만	-10.3102
▁대학생	-10.3106
▁무조건	-10.3113
▁종교	-10.3116
▁대화를	-10.3117
탕	-10.3121
60	-10.3121
▁심리	-10.3122
▁이때	-10.3126
▁운전자	-10.3134
▁하늘	-10.3134
▁콘텐츠를	-10.3139
▁새해	-10.3139
▁특	-10.3139
▁식사를	-10.3142
▁입증	-10.3143
하시기	-10.3144
▁능력을	-10.3147
자와	-10.3148
▁쇼	-10.3152
▁반응을	-10.3154
틀	-10.3156
▁해양	-10.3157
단이	-10.3157
▁붙	-10.3158
▁전망이	-10.316
▁방해	-10.3163
▁증명	-10.3165
▁거듭	-10.3168
▁세계적으로	-10.317
▁반발	-10.317
▁도민	-10.3171
▁거라고	-10.3174
▁기상청	-10.3175
▁시위	-10.3176
▁가능한가요	-10.3177
▁텐데	-10.3177
al	-10.3185
▁강아지	-10.3185
▁적지	-10.3186
▁생태계	-10.3186
▁트	-10.3189
▁에어	-10.3192
▁공개했다	-10.3197
코리아	-10.3198
▁만들었다	-10.32
▁이웃	-10.3202
▁만들어진	-10.3203
▁적응	-10.3204
▁회사와	-10.3205
원을	-10.3207
I	-10.3207
▁빛	-10.3207
국장	-10.321
▁틀	-10.3213
▁생성	-10.3216
▁성공적으로	-10.3217
▁둔화	-10.3218
▁어떠한	-10.3219
▁맞지	-10.322
▁벽	-10.3221
▁접촉	-10.3226
▁독특한	-10.323
스러운	-10.3232
▁대학교	-10.3233
▁복합	-10.3233
▁관계가	-10.3235
▁거절	-10.3235
씨를	-10.3238
▁일본의	-10.3243
▁음악을	-10.3243
▁향한	-10.3247
▁발달	-10.3249
층에	-10.3252
▁앞둔	-10.3253
▁담아	-10.3259
▁경우는	-10.3259
▁총장	-10.3264
▁테니	-10.3265
장과	-10.3265
▁간단한	-10.3267
어야	-10.3273
▁있죠	-10.3273
▁토요일	-10.3277
▁임기	-10.3278
▁안정적인	-10.3281
▁야당	-10.3283
▁올라가	-10.3283
▁했다고	-10.3285
칭	-10.3285
▁시내	-10.3285
▁폭력	-10.3293
▁위원회는	-10.3297
▁폐기	-10.3301
▁가능할	-10.3301
▁정부와	-10.3301
▁내내	-10.3302
▁쪽으로	-10.3304
▁목적	-10.3304
▁제공한다	-10.3307
▁사업의	-10.3317
청소년	-10.3327
▁강도	-10.3329
▁대상자	-10.3329
▁인사를	-10.3329
▁늘어난	-10.3331
▁소상공인	-10.3332
▁체제	-10.3333
점이	-10.3334
▁셋	-10.3334
전문	-10.3335
▁학원	-10.3339
자금	-10.3339
▁몽골	-10.334
▁주기	-10.3342
▁와인	-10.3342
▁마치고	-10.3344
▁너희	-10.3346
▁허리	-10.3347
▁않지만	-10.3348
▁하였다	-10.3352
혀	-10.3355
▁팬들이	-10.3357
▁소개합니다	-10.3359
▁드	-10.336
▁백악관	-10.3365
▁여성이	-10.3366
▁분위기가	-10.3367
주고	-10.3369
있다	-10.337
듯	-10.3373
▁실시간	-10.3375
▁불과	-10.3376
▁인물	-10.3376
▁메시지	-10.3382
▁O	-10.3383
귀	-10.3385
문제	-10.3391
▁전망된다	-10.3394
▁한국을	-10.3396
▁작업이	-10.3399
▁중요합니다	-10.3404
▁결과에	-10.3405
25	-10.3407
▁기여	-10.3415
▁이어졌다	-10.3419
봐	-10.3421
▁업종	-10.3422
▁수십	-10.3424
호서식에	-10.3425
낼	-10.3433
▁의무	-10.3433
▁그날	-10.3435
▁데뷔	-10.3436
줍니다	-10.3436
▁소스	-10.3443
▁상상	-10.3443
▁휴가	-10.3446
호서식의	-10.3447
(1	-10.3448
▁유해	-10.3448
려는	-10.3451
▁감사의	-10.3455
▁단위	-10.3456
▁인형	-10.3463
▁노래를	-10.3464
▁번에	-10.3464
▁충남	-10.3468
됐습니다	-10.3471
▁연휴	-10.3471
▁자본	-10.3472
▁놀이	-10.3474
▁달하는	-10.3474
▁노사	-10.348
됐으며	-10.3482
마저	-10.3485
▁구단	-10.349
▁오염	-10.3493
용품	-10.3494
팀이	-10.3499
▁가질	-10.3501
▁많	-10.3503
안을	-10.3504
▁특징	-10.3505
▁측면	-10.3505
▁돌려	-10.3511
▁승	-10.3513
▁사랑하는	-10.3516
▁같네요	-10.3517
▁수분	-10.3521
▁밖의	-10.3523
▁비전	-10.3529
대의	-10.3533
▁박스	-10.3535
▁접속	-10.3536
▁비교적	-10.3536
▁보조금	-10.3537
참	-10.354
▁할지	-10.3543
더라고요	-10.3545
해왔다	-10.3546
▁증가한	-10.3548
▁발언	-10.3549
▁정권	-10.3554
▁물이	-10.3559
람	-10.3563
▁제조업	-10.3564
▁관내	-10.3565
in	-10.3566
계약	-10.3566
하셨	-10.3569
80	-10.3569
▁넘	-10.357
▁프레젠테이션	-10.3572
▁드릴게요	-10.3579
▁수당	-10.3579
▁토론	-10.358
▁과목	-10.358
an	-10.3582
▁폭염	-10.3582
▁시민들	-10.3584
▁부회장	-10.3586
▁연구소	-10.3587
▁소개하려고	-10.3588
▁위원장의	-10.359
▁마친	-10.359
사건	-10.3591
▁원단	-10.3591
▁어디서	-10.3592
▁배려	-10.3593
▁제정	-10.3595
▁웹사이트	-10.3598
▁야구	-10.36
▁하되	-10.36
▁할머니	-10.3601
▁보니까	-10.3602
▁제어	-10.3604
▁택배	-10.3605
▁장르	-10.3606
▁때부터	-10.3609
▁좋고	-10.361
▁상태를	-10.3613
화가	-10.3615
▁강연	-10.3616
▁숨진	-10.3618
▁본격적으로	-10.3619
▁방식을	-10.3621
리스	-10.3623
드리도록	-10.3625
▁있으시다면	-10.363
▁전년	-10.3632
▁풀이된다	-10.3637
▁명절	-10.3641
▁이미지를	-10.3646
▁뭐가	-10.3646
▁눈을	-10.3649
▁잠깐	-10.3651
▁성폭력	-10.3652
▁인터뷰	-10.3654
▁좋겠어요	-10.3654
장에서	-10.3656
▁버전	-10.3656
▁적어	-10.3659
▁저거	-10.366
용으로	-10.3664
시로	-10.3664
▁쇼핑몰	-10.3666
▁학	-10.3668
▁제출한	-10.3669
▁원활한	-10.3673
하였고	-10.3673
▁후보가	-10.3675
▁삭제	-10.3681
▁영향으로	-10.3684
▁불량	-10.3685
▁먹어	-10.3685
공연	-10.3686
▁이른바	-10.3689
▁냉장고	-10.3692
▁끼	-10.3696
▁입원	-10.3699
▁소장	-10.3699
천만	-10.37
▁마약	-10.3701
▁구매할	-10.3703
▁대선	-10.3704
전략	-10.3704
▁종류	-10.3709
▁대거	-10.3711
▁국회에서	-10.3712
▁지역은	-10.3714
위가	-10.3719
▁들어가는	-10.372
▁번째로	-10.3722
하라고	-10.3724
▁알리	-10.3729
▁집회	-10.373
▁되도록	-10.3736
부가	-10.374
탑	-10.3742
▁반응이	-10.3743
▁출근	-10.3748
▁없는데	-10.375
▁응답	-10.3759
▁관객	-10.376
▁산하	-10.3766
힌	-10.3767
▁너무나	-10.3768
실적	-10.3771
님께서	-10.3772
라인	-10.3772
▁소셜	-10.3772
▁W	-10.3777
▁절감	-10.3778
하기를	-10.3778
▁검사를	-10.378
▁상품은	-10.3782
▁소형	-10.3782
▁대리	-10.3787
▁싸	-10.379
▁공동으로	-10.379
▁법정	-10.3801
▁명예	-10.3801
▁된다면	-10.3802
▁동기	-10.3802
▁진행되고	-10.3805
▁왼쪽	-10.3807
법인	-10.3808
▁45	-10.3809
▁레스토랑	-10.3809
▁나은	-10.3809
▁침해	-10.381
▁재활용	-10.381
▁제공됩니다	-10.3812
▁뒷	-10.3813
▁위험이	-10.3814
▁소설	-10.3817
벽	-10.3817
▁감지	-10.3817
▁봤다	-10.3817
▁중국에서	-10.3818
미국	-10.3819
쉬	-10.3821
▁계신	-10.3826
▁시점	-10.3827
▁학생들의	-10.3827
▁방법은	-10.3828
▁휴대전화	-10.3831
▁최적	-10.3832
▁하반기	-10.3834
▁쓰레기	-10.3836
▁정확하게	-10.3839
▁다르게	-10.3841
▁공정위	-10.3842
▁가량	-10.3843
▁부착	-10.3844
▁매니저	-10.3848
▁면제	-10.3848
▁법령	-10.3849
▁대단히	-10.3852
되거나	-10.3853
▁교수가	-10.3857
▁노원구	-10.3857
▁둘러싼	-10.3863
군이	-10.3864
▁여기는	-10.3868
▁둘째	-10.387
▁연극	-10.3874
▁그러	-10.3885
되자	-10.3885
▁대여	-10.3886
▁기준을	-10.3887
▁박람회	-10.3888
▁각국	-10.3892
▁강제	-10.3892
▁아기	-10.3894
값	-10.3894
▁경우에	-10.3895
▁의원의	-10.3896
▁기소	-10.3897
▁측이	-10.39
▁감염	-10.39
▁독서	-10.3902
▁목소리를	-10.3903
▁전해	-10.3903
▁당국	-10.3904
▁옆	-10.3906
되었으며	-10.3916
▁정지	-10.3919
▁진정	-10.3919
건의	-10.3921
▁유일한	-10.3922
▁맡은	-10.3922
▁많지	-10.3928
▁사용자가	-10.3929
▁기대를	-10.3929
▁주인	-10.3931
▁국토부	-10.3936
▁된다고	-10.3938
▁했고	-10.394
▁근	-10.3941
▁놀	-10.3942
잡	-10.3943
서울	-10.3944
▁시설물	-10.3944
▁묵	-10.3945
▁거기에	-10.3948
▁권력	-10.3951
▁점심	-10.3952
▁요청을	-10.3955
▁소유	-10.396
가격	-10.3964
▁강의	-10.3967
▁이익을	-10.3967
▁유행	-10.3969
▁영향	-10.397
▁제품과	-10.3972
▁완	-10.3975
여명	-10.3976
▁요청할	-10.3979
▁내역	-10.3983
사랑	-10.3986
▁측면에서	-10.3987
하셔야	-10.3988
▁출범	-10.399
▁지방자치단체	-10.3991
▁그에	-10.3991
상태	-10.3991
▁영어를	-10.3993
▁구성되어	-10.3995
▁바람이	-10.3995
▁거부	-10.3996
계획을	-10.3996
겨	-10.3996
활동을	-10.3998
500	-10.3999
▁가졌다	-10.4
조정	-10.4
리는	-10.4001
지로	-10.4001
▁넣고	-10.4002
▁않았지만	-10.4004
▁시범	-10.4004
▁칼	-10.4006
▁옥	-10.4012
▁테	-10.4016
▁형사	-10.4016
행사	-10.4017
▁선정된	-10.4024
▁가죽	-10.4025
▁운영할	-10.4025
대책	-10.4029
▁엄청난	-10.403
▁능력이	-10.4031
▁상당한	-10.4034
▁비타민	-10.4041
▁호응	-10.4043
▁운	-10.4043
국민	-10.4049
가족	-10.405
▁담배	-10.4051
▁연말	-10.4052
▁재생	-10.4053
▁된다는	-10.4054
감사	-10.4054
▁전송	-10.4054
▁과정이	-10.4056
▁현장에	-10.406
-1	-10.4063
▁정의	-10.4065
▁빠져	-10.4066
에요	-10.4068
▁매입	-10.4072
▁양측	-10.4074
▁당사자	-10.4076
▁매출이	-10.4076
▁이유다	-10.408
개혁	-10.408
▁세상	-10.4081
▁존	-10.4083
▁장착	-10.4091
▁조합	-10.4092
▁진실	-10.4093
▁이뤄질	-10.4097
▁지원이	-10.4099
▁남성이	-10.41
▁한층	-10.4105
다니	-10.4105
▁클	-10.4106
▁추진하고	-10.4106
▁실시한다	-10.4107
돼야	-10.4108
장비	-10.4109
객	-10.4109
▁평생	-10.4111
▁의도	-10.4113
습니까	-10.4117
이니	-10.4119
▁표면	-10.4119
▁과장	-10.4121
▁출입	-10.4121
▁고소	-10.4121
▁급여	-10.4124
▁회장은	-10.4125
▁관할	-10.4128
▁진행됐다	-10.4133
▁싶지	-10.4133
▁합격	-10.4134
드립니다	-10.4134
▁방문한	-10.4134
▁찾	-10.4138
▁과연	-10.4138
▁터	-10.4141
▁외교부	-10.4142
맨	-10.4142
▁경력	-10.4152
▁있었고	-10.4154
하셔서	-10.4156
▁상황입니다	-10.4157
b	-10.4169
▁주변에	-10.4171
▁세계에서	-10.4173
▁빠진	-10.4176
▁시청자들	-10.4177
▁곳을	-10.4184
주기	-10.4185
▁계약서	-10.4186
ing	-10.4186
▁편의점	-10.4187
관이	-10.4187
▁어쩔	-10.419
▁달라고	-10.4191
▁나한테	-10.4195
▁시책	-10.4199
▁폐기물	-10.4201
▁광주시	-10.4204
장에	-10.4206
▁방식	-10.4212
▁차관	-10.4212
▁세금	-10.4212
컬	-10.4214
▁이같이	-10.4215
심사	-10.4215
▁형식	-10.4218
▁어려움이	-10.422
▁청원	-10.4221
▁단순히	-10.4221
▁맡아	-10.4224
▁법무부	-10.4224
▁원칙	-10.4228
년도	-10.4232
▁누나	-10.4232
▁갔다	-10.4233
▁징역	-10.4233
▁들을	-10.4238
▁미래를	-10.4248
J	-10.425
▁크고	-10.4251
재단	-10.4251
▁화가	-10.4255
▁알려주시면	-10.4259
▁있는데요	-10.4261
▁한화	-10.4262
혼	-10.4264
▁지명	-10.4266
▁체크	-10.4266
▁합동	-10.427
▁몸을	-10.4277
▁지원한다	-10.4281
▁차지하는	-10.4282
▁자국	-10.4283
▁주인공	-10.4285
▁않을까	-10.4285
▁날씨가	-10.4286
▁다섯	-10.4293
▁명령	-10.43
▁옛	-10.43
▁축	-10.4303
▁고장	-10.4308
▁여론	-10.4317
▁대중	-10.4318
▁희	-10.4319
원의	-10.432
▁뉴	-10.432
▁권리	-10.4323
▁바에	-10.4325
▁정밀	-10.4326
▁말할	-10.4328
▁노후	-10.4328
할게요	-10.4331
▁도착할	-10.4332
▁임직원	-10.4336
5%	-10.4338
▁선호	-10.434
▁원을	-10.4344
▁고발	-10.4345
드는	-10.4347
▁준다	-10.4347
▁등장	-10.4352
▁기대가	-10.4354
▁둔다	-10.4355
죽	-10.4355
▁하나가	-10.436
▁전시회	-10.4363
▁제조업체	-10.4365
표를	-10.4367
엘	-10.4369
앤	-10.4369
▁간담회	-10.437
▁핸드폰	-10.4372
▁부처	-10.4375
▁거주하는	-10.4378
▁사진이	-10.4379
식품	-10.4382
▁일에	-10.4385
▁홀	-10.4387
홀	-10.4391
으니까	-10.4391
▁층	-10.4392
▁트렌드	-10.4392
상황	-10.4392
▁매주	-10.4393
▁배송을	-10.4395
▁지켜	-10.4396
c	-10.4399
▁열차	-10.44
▁나타나	-10.4403
▁데다	-10.4405
하라	-10.4407
▁추진할	-10.4409
▁무엇이	-10.441
▁방북	-10.4411
▁갈수록	-10.4411
▁경기에서	-10.4413
▁소중한	-10.4415
▁포함하여	-10.4417
▁본인이	-10.442
문을	-10.4421
▁안보	-10.4421
▁친구들과	-10.4422
▁일자리를	-10.4427
▁대처	-10.4429
▁괜찮습니다	-10.4432
▁시계	-10.4432
▁공동체	-10.4433
▁읽	-10.4434
▁살짝	-10.4437
과장	-10.4442
▁노하우	-10.4443
지원센터	-10.4446
▁고객을	-10.4446
▁숲	-10.4446
▁높이고	-10.445
▁봐야	-10.4454
만이	-10.4455
▁여성의	-10.4456
▁32	-10.4457
공단	-10.4458
▁나오지	-10.4464
주시면	-10.4466
▁수령	-10.4467
드릴	-10.4469
리가	-10.4473
▁무기	-10.4473
과학	-10.4473
원으로	-10.4475
▁높여	-10.4478
▁밴드	-10.4479
▁파트너	-10.4487
흥	-10.4488
▁조각	-10.4488
▁문화예술	-10.4494
▁걱정하지	-10.4495
여서	-10.4496
▁주행	-10.4497
받아	-10.4498
▁육	-10.4498
조직	-10.45
가지고	-10.4502
▁바라	-10.4503
ar	-10.4504
▁링크	-10.4507
▁성능	-10.451
▁법원	-10.4523
▁부채	-10.4528
▁꼽	-10.4531
들로	-10.4532
▁날짜를	-10.4534
▁보내주세요	-10.4534
▁수준으로	-10.4536
어서	-10.4537
해진	-10.4545
▁구상	-10.4546
호의	-10.4546
▁총괄	-10.4548
검	-10.455
▁체육	-10.4551
▁대사	-10.4553
▁기획재정부	-10.4555
교통	-10.4557
▁준비해	-10.4558
전을	-10.456
▁근로	-10.456
▁과정에	-10.456
▁확인한	-10.4563
으	-10.4563
▁널리	-10.4566
▁만들었습니다	-10.4566
▁문학	-10.4572
▁만족도	-10.4574
▁문제점	-10.4577
▁월요일	-10.4577
▁계절	-10.4578
▁오른쪽	-10.4578
▁보내드립니다	-10.4579
▁현대차	-10.4579
더니	-10.458
▁주소를	-10.4581
▁않다는	-10.4585
스포츠	-10.4587
▁하이	-10.459
▁현안	-10.459
▁올렸다	-10.4593
되었고	-10.4594
21	-10.4596
▁임신	-10.4598
혁신	-10.4603
▁무엇입니까	-10.4605
▁아마도	-10.4605
▁비싼	-10.4605
▁높이는	-10.4605
▁이내	-10.4607
▁2007	-10.4611
▁솔직히	-10.4612
▁있었	-10.4612
▁소재로	-10.4614
▁보고서	-10.4621
▁발생하지	-10.4621
▁방향	-10.4623
▁사실은	-10.4623
▁이야기가	-10.4625
▁땅	-10.4628
▁시공	-10.4631
▁결합	-10.4631
▁있었어요	-10.4632
▁대상이	-10.4634
보세요	-10.4636
▁내렸다	-10.4638
▁상품에	-10.4638
해질	-10.4645
▁항공기	-10.4646
게임	-10.465
▁어렵습니다	-10.4655
▁봐요	-10.4656
▁몇몇	-10.4661
징	-10.4663
▁심장	-10.4663
▁대표하는	-10.4663
신고	-10.4665
▁클래식	-10.4665
▁유입	-10.4666
▁산정	-10.4667
조건	-10.467
▁요청한	-10.4671
▁인재	-10.4673
개선	-10.4673
▁사용하면	-10.4674
▁검찰에	-10.4675
▁이목	-10.4678
▁피부에	-10.468
▁의류	-10.468
번째	-10.468
▁이곳에	-10.4681
▁관측	-10.4686
▁이어지는	-10.4686
▁드려	-10.4687
▁줄어들	-10.4689
▁대하여는	-10.469
▁공포	-10.469
빛	-10.4692
▁힘들어	-10.4697
▁압력	-10.4698
▁평가했다	-10.4701
빙	-10.4703
▁설명해	-10.4703
100	-10.4704
▁잊지	-10.4704
경찰서	-10.4704
▁역사를	-10.4708
▁농촌	-10.4711
▁받는다	-10.4715
▁KT	-10.472
▁이곳에서	-10.4721
▁않는다는	-10.4721
▁연락처	-10.4722
▁저희와	-10.4725
세가	-10.4725
▁비리	-10.4727
률이	-10.4731
▁전망했다	-10.4731
회를	-10.4738
▁막기	-10.4741
선을	-10.4741
▁일어나	-10.4742
▁메인	-10.4744
▁헤	-10.4748
▁출	-10.4748
▁김영	-10.4751
▁노트북	-10.4757
▁사용하기	-10.4757
▁오면	-10.4762
▁추정	-10.4762
▁좌석	-10.4766
장치	-10.477
▁궁금하신	-10.477
▁달려	-10.4771
▁실시할	-10.4772
경찰	-10.4777
▁성격	-10.478
▁기독교	-10.4781
▁이익	-10.4784
회가	-10.4789
▁진로	-10.4791
▁들여	-10.4791
▁풀어	-10.4792
웅	-10.4794
▁활약	-10.4794
▁차량을	-10.4797
▁경기도의	-10.4797
▁업그레이드	-10.4802
▁화면	-10.4802
시고	-10.4802
▁자율	-10.4803
▁상태다	-10.4805
세계	-10.4807
70	-10.4808
▁하니	-10.4809
▁주목	-10.4811
▁치킨	-10.4816
▁강릉	-10.4816
▁충족	-10.4818
셔야	-10.4818
겠어요	-10.4819
▁가능하며	-10.4821
부서	-10.4823
▁폐쇄	-10.4824
▁의사를	-10.4825
▁용기	-10.4831
▁권고	-10.4832
▁몸에	-10.4834
▁상위	-10.4834
▁떨어지는	-10.4836
영화	-10.484
▁끝내	-10.4841
중국	-10.4845
▁공부를	-10.4847
▁해외에서	-10.4849
▁차지했다	-10.485
▁일반적인	-10.4851
▁보시면	-10.4861
▁했어	-10.4863
▁하나는	-10.4863
규모	-10.4864
▁개인정보	-10.4864
▁금액이	-10.4865
▁단독	-10.4867
▁떠	-10.4873
▁것이란	-10.4873
▁여권	-10.4875
or	-10.4878
▁근처	-10.4879
▁증상	-10.4879
▁복원	-10.4879
▁사안	-10.4888
▁마리	-10.4888
▁지역을	-10.4889
▁세상을	-10.489
▁그것에	-10.4892
▁계획입니다	-10.4893
있	-10.4894
▁개발에	-10.4897
▁미군	-10.4898
▁마시고	-10.4898
▁민족	-10.4898
▁렌즈	-10.49
▁우유	-10.4901
▁머리를	-10.4907
▁댄스	-10.491
과정	-10.4912
▁종종	-10.4916
▁거래소	-10.4916
▁탓에	-10.4917
▁대책을	-10.492
▁술을	-10.4924
ᆞ	-10.4927
등록	-10.4928
스터	-10.4928
▁정식	-10.4929
▁녹	-10.493
▁질문이	-10.493
▁채권	-10.4931
▁느낌을	-10.4932
▁싫어	-10.4933
▁공동주택	-10.4934
1%	-10.4935
▁공무원이	-10.4936
▁생길	-10.4938
▁혼란	-10.4942
▁화웨이	-10.4943
▁아이디어를	-10.4944
▁다릅니다	-10.4944
▁포기	-10.4946
▁판사	-10.4946
▁국민연금	-10.4952
▁이끌어	-10.4953
▁호텔에서	-10.4953
▁남녀	-10.4954
▁말한	-10.4955
▁변동	-10.4955
」(	-10.4959
예산	-10.4961
▁요리를	-10.4964
▁다음주	-10.4966
됐다고	-10.4967
▁차지	-10.4967
꽃	-10.4967
▁노력이	-10.4969
▁이재명	-10.497
▁모드	-10.4972
부문	-10.4973
▁누군가	-10.4973
▁33	-10.4975
▁주문이	-10.4977
▁학교에서	-10.4978
▁봉사	-10.4986
▁최초의	-10.4986
▁한글	-10.499
▁할인을	-10.4991
▁성장을	-10.4992
▁인공	-10.5002
▁협의회	-10.5006
▁패널	-10.5008
▁간사	-10.501
▁조사됐다	-10.5011
▁기자	-10.5015
▁연구를	-10.5019
힐	-10.5022
▁백화점	-10.5025
▁곳이다	-10.5037
▁내리	-10.5044
▁작용	-10.5045
▁태양	-10.5048
▁범	-10.5048
▁상태가	-10.5048
▁급격	-10.5053
장의	-10.5054
법을	-10.5058
▁깜짝	-10.5058
▁일본에서	-10.506
▁사용합니다	-10.5061
▁형태의	-10.5065
▁너에게	-10.5065
▁전문성	-10.5066
▁천천히	-10.5067
▁한국이	-10.5073
▁가상	-10.5074
▁연락드립니다	-10.5077
▁역할	-10.5077
▁탑승	-10.5079
▁목소리	-10.508
▁대답	-10.5084
놓고	-10.5085
▁구역	-10.5091
▁늘었다	-10.5096
▁베이징	-10.5097
▁관찰	-10.5097
▁가슴	-10.51
▁보내는	-10.5101
▁수석	-10.5102
▁부지	-10.5104
▁형님	-10.5108
▁일하고	-10.5109
▁숙	-10.511
▁대부분이	-10.511
▁자꾸	-10.5113
▁열었다	-10.5114
▁디자이너	-10.5116
▁리그	-10.5118
▁연료	-10.5119
[	-10.5119
]	-10.5119
기와	-10.5123
▁선정됐다	-10.5123
▁농산물	-10.5127
▁강력	-10.5128
▁공개한	-10.5133
▁성폭행	-10.5134
▁걸로	-10.5137
▁맥	-10.514
▁소음	-10.5144
▁도매	-10.5144
▁뒤로	-10.5145
▁재단	-10.5151
조례	-10.5152
에너지	-10.5153
▁미칠	-10.5153
시설을	-10.5154
▁임기는	-10.5157
▁집으로	-10.5161
차량	-10.5161
▁국민의	-10.5162
▁크림	-10.5164
▁차가	-10.5165
▁진화	-10.5167
시간이	-10.5168
▁오신	-10.5171
f	-10.5175
▁필요로	-10.5175
▁이르는	-10.5175
▁보지	-10.5176
▁수행할	-10.5179
▁영향이	-10.5184
생산	-10.5188
▁들어갈	-10.5191
▁뛰어	-10.5192
▁만나는	-10.5193
▁미니	-10.5193
▁조만간	-10.5193
▁잇따라	-10.5193
▁고생	-10.5195
▁연락드리겠습니다	-10.5196
▁기한	-10.5196
하러	-10.5196
▁한계	-10.5197
▁유전자	-10.52
▁보내고	-10.52
▁몸이	-10.5203
▁생존	-10.5204
▁안전성	-10.5205
아이	-10.5205
▁약속을	-10.5206
▁녹색	-10.5207
▁판단했다	-10.5208
▁아무것도	-10.5208
▁다행히	-10.521
▁답장	-10.5217
▁서구	-10.5217
▁듯한	-10.5218
▁판매하고	-10.5219
분께	-10.5227
장애인	-10.5232
▁알려드립니다	-10.5232
정신	-10.5237
▁캠페인	-10.5241
▁사고로	-10.5242
치는	-10.5243
연맹	-10.5244
▁할게요	-10.5249
▁아이를	-10.5252
(3	-10.5253
▁방향을	-10.5254
▁입법	-10.5255
▁값	-10.5256
▁유도	-10.5257
▁취득	-10.5259
▁목숨	-10.5261
▁돼지	-10.5267
▁65	-10.527
▁탑재	-10.5271
▁도서	-10.5274
진이	-10.5276
▁센서	-10.5276
▁쾌적	-10.5278
▁아프리카	-10.5281
▁최소화	-10.5281
▁관리자	-10.5285
▁요인	-10.5286
▁융자	-10.5289
▁명시	-10.5291
▁코로나	-10.5291
▁화려한	-10.5292
▁파리	-10.5293
▁증가했다	-10.5297
▁좋	-10.5299
▁케이팝	-10.5306
▁고무	-10.5308
▁주문하고	-10.531
▁사업비	-10.5311
▁경우도	-10.5313
위로	-10.5314
▁슈퍼	-10.5314
▁요청하신	-10.5315
▁후에는	-10.5315
▁세포	-10.5321
▁높게	-10.5321
십시오	-10.5322
▁현행	-10.5323
▁회수	-10.5328
▁첫째	-10.5331
대는	-10.5332
좌	-10.5333
▁여당	-10.5335
▁목사	-10.5339
▁심화	-10.5342
▁조금씩	-10.5342
▁기대감	-10.5344
▁기록한	-10.5345
▁산업혁명	-10.5345
▁그에게	-10.535
쪽	-10.5351
▁도구	-10.5354
▁문자	-10.5355
▁발효	-10.5356
▁매월	-10.5356
▁출력	-10.5358
▁신고를	-10.5358
▁나설	-10.536
▁방침	-10.5361
▁대표이사	-10.5362
▁마찬가지로	-10.5367
▁부실	-10.5368
▁공약	-10.5371
▁됐어	-10.5371
▁수비	-10.5373
▁워낙	-10.5375
▁개최한다	-10.5376
었	-10.5377
▁감독의	-10.5381
▁직전	-10.5382
▁겪는	-10.5382
핑	-10.5383
▁제목	-10.5383
▁이내로	-10.5389
▁라면	-10.5389
▁진행한	-10.5391
▁시작할	-10.5395
▁시기에	-10.5397
짜리	-10.5398
▁이해해	-10.54
▁말에	-10.5405
▁염	-10.5406
▁재판에	-10.5407
▁개성	-10.5409
▁견적서	-10.541
엽	-10.5412
▁제공하기	-10.5413
풀	-10.5416
▁어깨	-10.5417
▁열릴	-10.5418
조치	-10.5426
▁자리가	-10.543
▁댓글	-10.5433
▁나쁜	-10.5437
죄	-10.5438
▁작성하여	-10.544
▁비판했다	-10.5441
▁예상되는	-10.5448
▁코치	-10.5449
▁주관	-10.5452
▁전담	-10.5452
▁수익을	-10.5456
▁주지	-10.5458
▁행사에는	-10.5458
에만	-10.5461
▁꾸	-10.5461
▁이상을	-10.5462
▁스트레스	-10.5464
권이	-10.5464
▁팩	-10.5466
▁활동이	-10.5468
▁주말에	-10.5469
▁적합합니다	-10.547
▁않	-10.5474
▁철거	-10.5475
음을	-10.5476
▁가벼운	-10.5482
해지고	-10.5483
노동	-10.5485
▁공을	-10.5488
▁보면서	-10.5489
▁산불	-10.5491
▁속도가	-10.5493
달러입니다	-10.5494
▁용역	-10.5495
▁덕	-10.5496
위는	-10.5496
▁문화재	-10.5497
▁도쿄	-10.5498
클	-10.5505
▁닭	-10.5506
▁빠르고	-10.5508
▁퇴	-10.5513
▁손흥민	-10.5518
▁알았어	-10.5518
▁품	-10.5521
Y	-10.5523
▁줄여	-10.5524
선수	-10.5525
▁하세요	-10.5526
▁냈다	-10.5528
▁사용을	-10.5529
▁경위	-10.553
▁오래된	-10.5533
▁어머	-10.5534
▁제시한	-10.5534
▁활동에	-10.5535
▁관측이	-10.5535
▁본격	-10.5536
▁리더	-10.5537
▁퍼	-10.5541
▁연수	-10.5542
▁카드를	-10.5542
▁원료	-10.5543
▁대행	-10.5543
▁구매하고	-10.5543
만한	-10.5544
▁땀	-10.5544
▁아니지만	-10.5545
▁합리적인	-10.555
▁승용차	-10.5552
었지만	-10.5556
▁소리가	-10.5556
▁특화	-10.5558
▁함께하는	-10.5559
▁소규모	-10.5561
▁중소	-10.5565
▁I	-10.5566
▁발휘	-10.5567
r	-10.5567
▁중국과	-10.5569
▁때가	-10.557
▁뮤지컬	-10.5571
▁기업에	-10.5572
▁홈페이지에	-10.5575
▁입찰	-10.5578
▁끝나고	-10.5579
▁용량	-10.5582
27	-10.5583
▁너를	-10.5584
▁보고서를	-10.5585
▁중심의	-10.5586
▁갑니다	-10.5586
▁로고	-10.559
▁소유자	-10.5591
호텔	-10.5592
▁동일	-10.5592
▁지닌	-10.5593
▁굴	-10.5594
▁최근에는	-10.5595
▁주시고	-10.5595
▁균형	-10.5595
▁정의당	-10.5597
시대	-10.5599
▁광고를	-10.5601
▁죄	-10.5602
▁하던	-10.5603
▁추진한다	-10.5605
▁개념	-10.5606
▁회의에서	-10.5606
▁수면	-10.5608
▁상환	-10.5611
▁정책이	-10.5613
자동차	-10.5614
▁모발	-10.5615
▁학생들은	-10.5616
▁업무에	-10.5619
룡	-10.5621
▁감동	-10.5621
▁북측	-10.5624
▁하겠다	-10.5624
▁지사는	-10.5624
▁왔	-10.5626
▁드는	-10.5633
▁매달	-10.5633
▁내구성	-10.5636
시가	-10.5636
▁쉽고	-10.5637
프로그램	-10.5638
팔	-10.5641
▁수준이	-10.5641
▁중학교	-10.5641
▁모으고	-10.5642
식이	-10.5649
장애	-10.5659
먼	-10.5661
▁존중	-10.5661
▁늘어날	-10.5662
▁근육	-10.5662
▁송장	-10.5663
▁퇴근	-10.5665
▁괜찮은	-10.5666
▁피의자	-10.5668
▁없었던	-10.5672
▁알지	-10.5673
▁120	-10.5674
▁잡지	-10.5678
주민	-10.5678
▁섭취	-10.568
제로	-10.5681
▁즐기는	-10.5681
▁종로구	-10.5682
▁질문을	-10.5684
▁오랜만에	-10.5686
▁방수	-10.569
▁지역경제	-10.5691
▁생활을	-10.57
』	-10.57
▁경기도지사가	-10.5703
드리겠습니다	-10.5703
▁수량	-10.5705
▁가능해	-10.5707
사항을	-10.5708
▁금속	-10.5709
▁애플	-10.571
▁최악	-10.5711
35	-10.5712
▁지난번	-10.5717
▁매력	-10.5718
▁갈등이	-10.5719
액이	-10.572
▁하거나	-10.5721
▁스튜디오	-10.5721
▁것들이	-10.5727
▁저녁에	-10.5729
▁되길	-10.5731
하시	-10.5732
▁채워	-10.5734
▁준비한	-10.5735
▁수사에	-10.5735
(5	-10.5736
▁주최	-10.5738
대에	-10.5738
▁조사하고	-10.5739
▁앱을	-10.5741
▁괜찮	-10.5742
전이	-10.5744
결과	-10.5746
중인	-10.5747
▁끝까지	-10.5747
▁듣는	-10.5748
▁모양	-10.5748
▁도움	-10.575
▁게재	-10.5751
▁배정	-10.5751
▁사정	-10.5751
▁조사한	-10.5753
▁교통사고	-10.5753
▁빅데이터	-10.5755
▁냄새	-10.5759
하다가	-10.576
▁고통	-10.5761
▁지침	-10.5762
▁바꾸	-10.5763
▁드리고자	-10.5764
▁개발을	-10.5764
▁생산하는	-10.5766
▁자재	-10.5766
▁조율	-10.5769
▁영화제	-10.577
▁대법원장	-10.577
하나요	-10.577
▁무역전쟁	-10.5771
▁올바른	-10.5771
▁네이버	-10.5772
▁노력하고	-10.5774
▁해주세요	-10.578
▁생기	-10.5781
▁책상	-10.5783
셔	-10.5787
▁구매를	-10.5788
▁메모리	-10.5788
▁확인을	-10.579
▁농도	-10.5791
▁뜨	-10.5791
▁얻어	-10.5792
도지사	-10.5794
찰	-10.5795
▁무리	-10.5796
▁모델을	-10.5797
사에서	-10.5797
▁티켓	-10.5798
호가	-10.58
▁되며	-10.5801
▁반품	-10.5801
▁인지	-10.5814
▁환자가	-10.5816
씨와	-10.5817
▁전략을	-10.5818
▁탄력	-10.5818
▁숫자	-10.5824
▁관객들	-10.5825
▁이용하여	-10.5826
▁아울러	-10.5827
가량	-10.5827
억달러	-10.5828
▁원인이	-10.5828
규제	-10.5829
라서	-10.583
▁2022	-10.5831
해주시기	-10.5832
on	-10.5834
▁연구개발	-10.5837
▁몰려	-10.5838
▁이번주	-10.5843
월에는	-10.5843
▁당분간	-10.5844
▁편리하게	-10.5846
▁내는	-10.5847
▁고양시	-10.5853
▁바이러스	-10.5856
▁점에	-10.5857
칸	-10.5858
▁즐겨	-10.5859
▁팀을	-10.5861
욕	-10.5861
레이	-10.5862
▁채소	-10.5865
▁논문	-10.5868
호서식	-10.5869
▁보내주시면	-10.587
▁해결할	-10.5873
▁주제	-10.5874
학생	-10.5875
선이	-10.5876
▁통상	-10.5876
▁식으로	-10.5877
▁가이드	-10.5878
▁미국에	-10.5878
▁협상을	-10.5879
▁환경부	-10.5881
▁확인했습니다	-10.5882
▁줘	-10.5882
▁이상으로	-10.5882
▁박근혜	-10.5886
▁최소한	-10.5887
▁경기도지사	-10.5893
▁시정	-10.5894
▁위생	-10.5897
규정	-10.5898
스는	-10.5899
▁편안하게	-10.5902
▁병원에	-10.5902
▁조례에	-10.5908
▁그를	-10.5908
폰	-10.5909
▁부스	-10.5909
▁야간	-10.591
▁가져	-10.5923
▁방문할	-10.5928
▁얻은	-10.5931
▁세척	-10.5933
▁늦어	-10.5934
리스트	-10.5935
▁파업	-10.5935
▁끝나면	-10.5945
세트	-10.5947
▁압수수색	-10.5947
▁스크린	-10.5949
▁일이다	-10.5949
▁모니터	-10.595
▁독점	-10.5954
▁목표를	-10.5954
▁고객님들	-10.5958
주시길	-10.5958
▁컨설팅	-10.5959
▁찍은	-10.596
▁응용	-10.596
▁그만	-10.5962
▁위임	-10.5962
렸	-10.5962
▁계열사	-10.5964
▁좋아합니다	-10.5972
▁지정된	-10.5972
▁바쁜	-10.5972
▁번도	-10.5973
진흥	-10.5973
▁개막	-10.5974
▁정도가	-10.5975
사무	-10.5976
▁시대에	-10.5977
▁류	-10.598
▁오지	-10.5984
▁실력	-10.5988
▁다음과	-10.5988
▁확충	-10.5988
▁거래처	-10.599
▁선출	-10.5992
▁판정	-10.5992
지수	-10.6001
▁생겨	-10.6003
▁출마	-10.6007
▁서울대	-10.6013
▁창립	-10.6014
박스	-10.6015
▁걸려	-10.6018
▁연락이	-10.6018
▁차로	-10.6021
▁사정이	-10.6022
▁생각보다	-10.6022
▁뷰티	-10.6023
▁정상회담을	-10.6024
re	-10.6027
▁평가가	-10.6028
셨어요	-10.6031
▁동생	-10.6031
▁오늘날	-10.6034
▁탄생	-10.6034
개사	-10.6035
▁5%	-10.6038
▁시선을	-10.604
자산	-10.6041
▁LED	-10.6045
▁발생해	-10.6045
▁마련됐다	-10.6048
▁출판	-10.6048
▁연예인	-10.6049
▁드린	-10.6051
▁부위	-10.6052
▁특유의	-10.6053
▁페이지	-10.6054
▁남부	-10.6055
▁배상	-10.6056
▁기준에	-10.6058
▁맡고	-10.6061
줘	-10.6064
▁주관하는	-10.6066
▁보았습니다	-10.6066
청장	-10.6068
소를	-10.6068
▁오일	-10.607
▁차세대	-10.6074
평화	-10.6075
▁완벽하게	-10.6077
▁읽어	-10.6078
▁막아	-10.6079
▁되는지	-10.6081
▁34	-10.6081
해주신	-10.6082
▁지분	-10.6084
▁희생	-10.6084
▁건의	-10.6086
▁빵	-10.6086
▁지진	-10.6086
▁기재	-10.6086
▁때문이에요	-10.6087
▁발령	-10.6089
▁대중교통	-10.6094
▁브	-10.6095
▁없나요	-10.6095
신청	-10.6101
능력	-10.6103
26	-10.6104
▁한데	-10.6105
▁안정성	-10.6106
▁위원으로	-10.6108
▁자가	-10.6108
▁무려	-10.6111
질환	-10.6114
▁팀장	-10.6115
▁이것	-10.6117
응	-10.612
▁면적	-10.6122
▁착	-10.6122
▁담당하는	-10.6123
▁가족과	-10.6125
▁흘러	-10.6127
▁부산시	-10.6127
▁페스티벌	-10.6132
▁수치	-10.6132
▁불가능	-10.6135
혹	-10.6138
▁색깔	-10.6138
▁재무	-10.6139
▁했다는	-10.6144
▁완벽	-10.6146
학원	-10.6146
▁동작	-10.6147
▁디자인으로	-10.6147
▁녹음	-10.6147
인력	-10.6147
▁타격	-10.6151
▁최저	-10.6151
▁600	-10.6157
시키기	-10.6157
전에서	-10.6162
▁천안	-10.6165
▁한정	-10.6166
금리	-10.6167
▁같아서	-10.6167
▁내다봤다	-10.6168
▁영역	-10.6168
▁진행해	-10.6169
▁배우고	-10.617
▁소비자들	-10.6172
▁피자	-10.6175
▁뚜껑	-10.6184
▁전문가들	-10.6184
▁사찰	-10.6187
▁38	-10.619
▁관리가	-10.6197
▁진행한다	-10.6198
▁상가	-10.6208
틴	-10.6209
▁일할	-10.6209
▁비치	-10.6211
▁여건	-10.6213
▁답했다	-10.6216
▁분석한	-10.622
▁거래가	-10.6221
▁설명회	-10.6223
▁전파	-10.6224
▁높이기	-10.6228
▁입지	-10.6231
▁논	-10.6232
▁유지할	-10.6232
▁누적	-10.6233
▁시에	-10.6234
▁프로젝트에	-10.6234
▁북미정상회담	-10.6234
▁성능을	-10.6236
▁휘	-10.6238
득	-10.6238
▁미션	-10.6242
▁픽업	-10.6243
▁게시	-10.6243
▁사용되는	-10.6243
▁코리아	-10.6245
기기	-10.6245
▁영화가	-10.6246
시쯤	-10.625
모델	-10.6252
▁담겼다	-10.6255
▁기온이	-10.6255
▁경쟁이	-10.6256
▁지휘	-10.6259
의료	-10.6261
▁소리를	-10.6261
▁양해	-10.6262
▁선물을	-10.6262
량을	-10.6264
▁익	-10.6265
▁정답	-10.6266
셔서	-10.6267
만으로	-10.6267
▁대법관	-10.6267
▁인터뷰에서	-10.6269
▁동참	-10.627
▁미중	-10.627
▁52	-10.6271
내용	-10.6272
x	-10.6272
▁지난주	-10.6273
▁교육청	-10.6277
▁대박	-10.6279
▁소속사	-10.6282
▁참가자	-10.6284
▁만료	-10.6286
허	-10.6289
▁콩	-10.6291
▁떡	-10.6295
▁들어갔다	-10.6295
▁공고	-10.6296
▁캠프	-10.6297
▁참조	-10.6298
비는	-10.63
▁먼	-10.6301
▁멀리	-10.6301
팩	-10.6302
▁발사	-10.6303
▁디자인이	-10.6306
▁음식은	-10.6307
▁장난감	-10.6308
▁단기	-10.6309
슈	-10.6309
▁칠	-10.6312
▁다들	-10.6312
▁허위	-10.6313
나라	-10.6313
▁늦	-10.6318
▁늘어	-10.6318
▁북부	-10.6326
▁끌	-10.6326
200	-10.6328
여행	-10.633
건이	-10.6334
▁찾아가	-10.6334
▁극대화	-10.6334
▁감사를	-10.6336
민이	-10.6342
고용	-10.6343
조선	-10.6343
▁출고	-10.6344
▁밤에	-10.6344
▁별도	-10.6347
▁수거	-10.6348
▁공인	-10.6349
▁그러므로	-10.6351
▁남겨	-10.6352
▁상의	-10.6353
▁이해할	-10.6353
최	-10.6357
▁수급	-10.6357
▁마주	-10.6359
▁대략	-10.636
▁가능할까요	-10.6361
300	-10.6361
▁가져가	-10.6366
▁차량이	-10.6367
▁손에	-10.6368
칼	-10.6371
▁지체	-10.6375
▁진보	-10.6376
▁현장을	-10.6377
▁귀국	-10.6377
▁준비하고	-10.6379
▁행위를	-10.6384
겠어	-10.6386
했으면	-10.6392
▁한계가	-10.6392
▁저한테	-10.6394
으면서	-10.6394
▁증상이	-10.6395
토록	-10.6396
▁고향	-10.6403
▁까	-10.6403
능	-10.6404
컵	-10.6404
▁에이	-10.6404
▁동아리	-10.6406
▁내용에	-10.6406
▁방식이	-10.641
▁창작	-10.6414
▁없음	-10.6416
▁KBS	-10.6417
▁크지	-10.6418
▁제기됐다	-10.6421
▁춤	-10.6423
▁단백질	-10.6423
▁수여	-10.643
▁고교	-10.643
▁검	-10.6431
▁한강	-10.6432
▁배가	-10.6432
▁기름	-10.6432
▁넘치는	-10.6434
▁끝나	-10.6437
▁신임	-10.6439
▁비판이	-10.644
소리	-10.6441
▁획득	-10.6442
번호	-10.6443
▁느끼는	-10.6443
▁바이어	-10.6444
▁곧바로	-10.6444
맛	-10.6444
▁말까지	-10.6447
기능	-10.6449
▁창조	-10.645
▁아마존	-10.6451
▁참여했다	-10.6456
▁맛있게	-10.6459
휴	-10.6463
년으로	-10.6463
▁웃	-10.6464
▁나가는	-10.6465
▁가사	-10.6466
▁보험료	-10.6467
▁주체	-10.6467
▁상담을	-10.6469
▁집이	-10.647
▁헤드	-10.6472
▁저번에	-10.6472
▁갖는	-10.6474
▁실적이	-10.6474
▁배울	-10.6475
▁총리가	-10.6475
▁한복	-10.6477
▁관리하는	-10.6484
▁프리	-10.6486
▁배제	-10.649
▁모터	-10.6493
▁초콜릿	-10.6495
▁분노	-10.6498
▁비교해	-10.6498
▁안으로	-10.6499
▁정체	-10.65
▁가능하도록	-10.6501
▁회전	-10.6503
▁승진	-10.6503
콘	-10.6506
증을	-10.6507
수당	-10.6511
테크	-10.6512
▁대외	-10.6512
▁이해가	-10.6513
▁방탄소년단	-10.6518
90	-10.6518
▁포럼	-10.6519
▁은퇴	-10.6521
▁초반	-10.6522
▁지금도	-10.6526
▁기업을	-10.6529
▁바꿀	-10.653
▁시행규칙	-10.653
▁득점	-10.653
▁대결	-10.653
▁개통	-10.6532
닝	-10.6535
▁조회	-10.6539
28	-10.6541
▁주목을	-10.6543
▁먹으면	-10.6545
▁긍정적	-10.6547
▁명칭	-10.6549
▁신속하게	-10.6549
▁가기	-10.6554
▁최창식	-10.6563
▁스피커	-10.6564
▁사고를	-10.6565
▁밝은	-10.6566
▁한인	-10.6566
하였으며	-10.6567
▁융합	-10.657
▁비난	-10.6574
▁마련했다	-10.6577
었을	-10.6577
되기도	-10.6579
데이	-10.6579
▁그렇군요	-10.6581
▁치매	-10.6581
▁동원	-10.6583
▁파괴	-10.6587
▁서울에서	-10.6588
해주시면	-10.6589
▁발견된	-10.659
▁도와드릴까요	-10.659
▁만나서	-10.6591
▁이주	-10.6592
▁공시	-10.6592
면서도	-10.6594
첩	-10.6595
▁문화가	-10.6597
신문	-10.6598
▁돕는	-10.6598
분석	-10.6599
▁설치할	-10.66
▁연락해	-10.6605
▁광역	-10.6606
▁프로모션	-10.6607
▁준비되어	-10.6613
▁얼	-10.6615
▁협상이	-10.6616
▁몰	-10.6617
솔	-10.6619
▁부르	-10.6624
하셨습니다	-10.6627
▁250	-10.6632
▁드리는	-10.6632
▁입국	-10.6635
곳이	-10.6637
▁고객사	-10.6638
해졌다	-10.6638
▁상자	-10.6638
콜	-10.6642
▁지원하고	-10.6643
▁제안서	-10.6643
▁미소	-10.6643
건강	-10.6648
▁관리에	-10.6648
▁보일	-10.6649
▁과태료	-10.6649
▁금액은	-10.6651
▁감면	-10.6652
화된	-10.6653
▁컵	-10.6654
▁고위	-10.6655
▁붙여	-10.666
▁편리한	-10.6662
▁중요성	-10.6662
▁생태	-10.6663
▁프로그램은	-10.6663
랜드	-10.6665
▁영장	-10.6665
▁발전에	-10.6669
▁공장을	-10.667
▁치아	-10.6671
▁구속영장	-10.6671
▁적발	-10.6672
▁상징	-10.6673
▁판매를	-10.6679
▁개최했다	-10.6679
▁수요일	-10.668
▁사건의	-10.6682
▁국무위원장이	-10.6684
▁기간에	-10.6684
▁증권	-10.6685
됐다는	-10.6686
▁침	-10.669
마리	-10.6692
▁구독	-10.6694
▁이뤄진	-10.6694
▁가로	-10.6694
개로	-10.6697
▁돌아	-10.6697
▁관계자들	-10.6698
▁설득	-10.6698
▁기업과	-10.6699
▁하나님	-10.67
▁조립	-10.6701
물이	-10.6702
▁이슈	-10.6703
▁인상을	-10.6705
▁적어도	-10.6706
▁선도	-10.6707
▁가요	-10.6709
▁내로	-10.6712
▁마음으로	-10.6713
▁투수	-10.6714
거든	-10.6715
▁보육	-10.6716
▁성별	-10.6717
▁봅니다	-10.6721
▁밖으로	-10.6722
▁실시하고	-10.6722
▁산림	-10.6722
▁좌우	-10.6722
▁극복	-10.6724
▁상생	-10.6724
▁맨	-10.6724
구요	-10.6725
공항	-10.6726
▁지난주에	-10.6731
▁머물	-10.6734
▁하였습니다	-10.6734
▁태양광	-10.6742
▁예산이	-10.6742
▁곳곳에	-10.6743
▁마련된	-10.6743
▁초점	-10.6744
▁원칙으로	-10.6746
▁끈	-10.6748
▁묘	-10.6748
▁간편하게	-10.6749
▁동반	-10.6751
▁왔어요	-10.6753
▁준용한다	-10.6756
턴	-10.6757
▁전세	-10.6758
▁진정한	-10.676
창업	-10.6765
▁이사회	-10.6766
▁매매	-10.6771
▁지원사업	-10.6771
▁늘어나고	-10.6772
▁갤럭시	-10.6774
라운드	-10.6775
▁전산	-10.678
▁아베	-10.6783
지면서	-10.6784
▁정규직	-10.6785
업자	-10.6786
▁버튼	-10.6786
▁취급	-10.6786
▁후속	-10.6793
군의	-10.6794
사로	-10.6794
▁선호하는	-10.6794
▁꺼	-10.6795
▁깨	-10.6795
▁36	-10.6796
▁서초구	-10.6799
▁영향력	-10.6801
▁유사한	-10.6801
▁내지	-10.6802
(20	-10.6804
▁갖게	-10.6811
▁제약	-10.6814
▁파이팅	-10.6816
▁『	-10.6816
▁수준을	-10.6817
▁개선을	-10.6818
▁확인했다	-10.6824
▁결혼식	-10.6827
▁물에	-10.6828
▁호에	-10.6828
▁국경	-10.6832
▁꺼내	-10.6833
▁보여준다	-10.6834
▁치열한	-10.6835
▁세월호	-10.6836
▁권장	-10.6838
▁안전관리	-10.6842
▁아시다시피	-10.6842
▁서식	-10.6843
▁호와	-10.6843
▁척	-10.6848
▁사이의	-10.6849
미가	-10.6851
▁건지	-10.6855
▁라디오	-10.6856
▁드디어	-10.686
▁화이트	-10.686
▁기본적으로	-10.6861
▁한국으로	-10.6863
▁이후에	-10.6864
▁먼지	-10.6866
▁제조사	-10.6866
섬	-10.6867
드린	-10.6868
▁보건	-10.687
▁거라	-10.6875
▁작품이	-10.6875
▁소지	-10.6876
▁정책에	-10.6877
▁날짜	-10.6878
▁위촉한다	-10.688
▁아웃	-10.688
▁내야	-10.6881
▁마사지	-10.6887
▁자신들	-10.6892
▁시작해	-10.6892
▁다르다	-10.6894
▁극장	-10.6894
물질	-10.6895
▁소관	-10.6896
▁걱정이	-10.6897
▁화상	-10.6899
▁게다가	-10.69
건으로	-10.6904
▁테스트를	-10.6906
▁런던	-10.6913
나는	-10.6914
▁양념	-10.6915
▁방어	-10.6917
하더라도	-10.6917
▁항의	-10.6918
▁열려	-10.6919
▁플	-10.6924
▁착수	-10.6926
▁스웨덴	-10.6927
훈련	-10.6929
▁심한	-10.6929
▁시스템이	-10.693
▁동장	-10.693
벨	-10.6931
▁뒷받침	-10.6931
▁70%	-10.6931
▁슬	-10.6934
▁모르	-10.6935
▁실질적인	-10.6935
▁내놓은	-10.6935
▁핏	-10.6937
▁인하여	-10.6939
▁나눔	-10.694
▁기다리	-10.694
이라서	-10.6941
▁성분이	-10.6941
(4	-10.6946
▁이벤트를	-10.6947
▁거친	-10.6948
▁이곳은	-10.6954
22	-10.696
▁서비스는	-10.6961
▁미국은	-10.6961
▁신선한	-10.6962
▁강서구	-10.6962
셨나요	-10.6963
▁맞은	-10.6963
▁부대	-10.6964
▁입장이다	-10.6968
▁없다면	-10.6969
항공	-10.6969
▁미사일	-10.6975
▁챙겨	-10.6975
▁코팅	-10.6977
▁높일	-10.6984
▁적정	-10.6985
▁어렵다는	-10.6988
관을	-10.6988
▁기구	-10.6989
▁나면	-10.6989
▁침체	-10.6991
▁같은데요	-10.6992
억원이	-10.6992
탁	-10.6994
원장	-10.6994
▁보시고	-10.6995
▁보증금	-10.6997
▁투자가	-10.6997
▁캠핑	-10.6999
▁컸다	-10.7002
도서관	-10.7004
본부장	-10.7005
▁추후	-10.7006
▁냄새가	-10.7007
▁냉동	-10.7007
▁만화	-10.7013
▁청주	-10.7015
관은	-10.7019
▁목요일	-10.7027
▁태권도	-10.7029
▁다이어트	-10.7029
▁영광	-10.703
▁두산	-10.7031
종합	-10.7032
▁아티스트	-10.7033
▁언제쯤	-10.7034
▁2021	-10.7035
▁거리가	-10.7036
▁신용카드	-10.7037
▁무대에	-10.7042
▁지인	-10.7043
▁체계	-10.7044
▁하루에	-10.7045
▁요건	-10.7049
▁면에서	-10.7049
수는	-10.705
▁룸	-10.7053
타운	-10.7054
▁에어컨	-10.7055
▁모자	-10.7063
젠	-10.7066
함과	-10.7072
▁합리적	-10.7074
▁자신감	-10.7078
▁회의는	-10.7078
▁타입	-10.7079
▁저번	-10.7079
▁시켜	-10.708
박물관	-10.7084
▁다수의	-10.7085
▁아직까지	-10.7086
▁비록	-10.7089
▁구청장의	-10.709
실에서	-10.709
▁버튼을	-10.709
롱	-10.709
셨	-10.7093
▁방안이	-10.7095
34	-10.7098
드리	-10.7098
▁포항	-10.7099
▁입시	-10.7101
요금	-10.7101
납	-10.7101
▁내구성이	-10.7103
보는	-10.7104
이지	-10.7107
▁젖	-10.7108
▁기간은	-10.711
▁일어난	-10.711
▁안경	-10.711
웨이	-10.7111
▁확	-10.7113
▁없게	-10.7115
▁손으로	-10.7116
▁가져다	-10.7116
▁마스크	-10.7117
▁기상	-10.7117
▁추모	-10.7117
▁요청했다	-10.7117
▁체포	-10.7117
▁조처	-10.7121
▁해결하기	-10.7121
▁났다	-10.7122
▁지수	-10.7124
▁격려	-10.7124
▁구청장	-10.7126
학습	-10.7128
▁공지	-10.7128
▁가능한지	-10.7129
▁고양	-10.7129
▁간사는	-10.713
▁일로	-10.7131
▁가시	-10.7132
▁단원	-10.7132
▁했을	-10.7134
▁안전을	-10.7134
▁중에는	-10.7134
▁되기를	-10.7136
▁블루	-10.7136
리아	-10.7137
▁생각하지	-10.7138
▁열기	-10.714
시티	-10.7141
le	-10.7141
▁논의를	-10.7142
▁휴식	-10.7144
째	-10.7148
▁즐겁게	-10.7148
▁경로	-10.7149
▁맞춤	-10.7151
시기	-10.7151
▁장소를	-10.7152
명에	-10.7155
짐	-10.7156
▁덮	-10.7157
▁드러나	-10.7159
▁실망	-10.7159
▁사람과	-10.7159
▁싶	-10.7161
▁조치가	-10.7162
▁순수	-10.7162
▁쪽에서	-10.7163
▁인증을	-10.7164
▁세제	-10.7164
▁공감	-10.7165
▁생각에	-10.7167
▁낮아	-10.7167
▁생겼	-10.7175
▁프로그램에	-10.7179
▁유지하고	-10.718
▁교부	-10.7183
▁높고	-10.7183
▁발언을	-10.7186
▁여유	-10.7187
▁판매가	-10.7191
▁기억이	-10.7192
▁털	-10.7192
▁물가	-10.7192
32	-10.7193
▁하더라도	-10.7198
▁언급한	-10.72
▁확신	-10.72
▁알아야	-10.7201
▁사유로	-10.7203
▁격차	-10.7204
▁고객님께	-10.7204
▁이민	-10.7206
▁위원이	-10.7209
▁구매한	-10.7212
▁금방	-10.7213
▁깨끗한	-10.7213
▁펼쳐	-10.7213
▁펴	-10.7214
십	-10.7215
▁음주운전	-10.7216
▁흰색	-10.7221
▁실시간으로	-10.7222
놓	-10.7222
▁하도록	-10.7223
▁분쟁	-10.7224
▁불가능한	-10.7224
▁대한항공	-10.7226
고등학교	-10.7226
▁반대로	-10.7229
▁“(	-10.7229
▁화성	-10.7229
공급	-10.7232
이므로	-10.7236
▁연금	-10.7237
▁소요	-10.724
▁필요해요	-10.724
▁함유	-10.724
▁있거나	-10.7242
▁작년에	-10.7242
▁경주	-10.7242
▁주민의	-10.7242
▁정말로	-10.7244
▁나왔	-10.7244
▁기관의	-10.7245
▁잠을	-10.7246
하시길	-10.7248
▁특징입니다	-10.7249
▁하노이	-10.7252
이상	-10.7255
▁처음에는	-10.7256
▁지상	-10.7257
둔	-10.7258
▁회사입니다	-10.7258
특	-10.7259
▁해안	-10.7259
▁철저한	-10.7261
▁여자친구	-10.7266
▁부탁드리겠습니다	-10.7267
이용	-10.7269
▁임대료	-10.727
▁그림을	-10.7272
▁어디로	-10.7273
▁특성상	-10.7275
▁하신	-10.7277
▁만남	-10.728
▁수영	-10.7283
▁중동	-10.7285
▁세워	-10.7287
▁자료에	-10.7288
▁용인	-10.7288
▁논리	-10.7292
▁이뤄졌다	-10.7293
▁알려주시기	-10.7295
▁80%	-10.7299
님이	-10.7302
▁기조	-10.7303
▁부장판사	-10.7303
▁주주	-10.7305
▁고품질	-10.7305
▁혜택이	-10.7308
▁푸	-10.7309
▁짐	-10.7312
▁조화	-10.7316
▁작성한	-10.7322
▁하시면	-10.7322
▁백신	-10.7324
▁얼굴을	-10.7325
▁자살	-10.7327
▁거리에	-10.7327
▁역사적	-10.7329
교육을	-10.733
▁국민이	-10.7332
하죠	-10.7334
▁창원	-10.7338
▁사건에	-10.7348
▁부디	-10.7351
▁상승세	-10.7352
▁팀은	-10.7353
▁호소	-10.7354
▁보러	-10.7355
▁장이	-10.7356
▁음주	-10.7357
▁제도를	-10.7357
▁만듭니다	-10.7359
▁대다수	-10.7359
▁그러니	-10.7362
▁취미	-10.7363
▁몰라	-10.7365
하나	-10.7365
▁들어오	-10.7366
▁규모로	-10.7367
▁참여하고	-10.7368
pop	-10.737
데다	-10.737
▁항공사	-10.7374
▁교실	-10.7376
들어	-10.7376
▁해상	-10.7376
사업자	-10.7377
▁그곳	-10.7379
▁X	-10.7379
받	-10.738
▁귀하께서는	-10.738
▁업	-10.7385
▁40%	-10.7385
▁점유율	-10.739
하자는	-10.7393
▁행보	-10.7394
법에	-10.7395
퍼센트	-10.7398
▁자회사	-10.7401
같이	-10.7402
리에	-10.7402
▁세종	-10.7404
▁워크숍	-10.7405
▁얘기다	-10.7406
▁분들	-10.7409
▁늘어나	-10.7414
▁복잡한	-10.7414
케이	-10.7415
▁든다	-10.7415
▁높았다	-10.7416
▁있을까	-10.7417
▁수탁자	-10.742
▁도매가	-10.7422
▁방문하는	-10.7424
▁자카르타	-10.7424
교사	-10.7427
▁지난번에	-10.7427
굴	-10.7428
▁문장	-10.7429
느냐	-10.7429
▁되면서	-10.743
▁환경에서	-10.7435
▁위촉직	-10.7436
▁워싱턴	-10.7438
▁알리는	-10.744
▁기각	-10.744
▁모두에게	-10.7443
▁저와	-10.7446
▁위축	-10.7446
▁시설이	-10.7447
▁메일에	-10.7447
▁관심과	-10.7448
▁연합	-10.7449
▁시사	-10.745
대출	-10.7451
천만원	-10.7452
셀	-10.7455
겠죠	-10.7457
▁물어보	-10.7458
▁일정에	-10.7461
▁붕괴	-10.7461
▁미뤄	-10.7462
▁책임이	-10.7462
▁놀라	-10.7464
▁진전	-10.7469
it	-10.7469
▁성공적인	-10.7471
▁스틸	-10.7471
디자인	-10.7476
▁방치	-10.7478
▁매운	-10.7479
▁교육과정	-10.7479
▁비싸	-10.748
▁선택한	-10.748
▁하나를	-10.748
▁어쨌든	-10.748
▁선진국	-10.7483
▁영어로	-10.7484
▁나이가	-10.7485
▁사양	-10.7487
▁그릇	-10.7489
자마자	-10.749
▁않는다면	-10.7493
선거	-10.7496
▁한해	-10.7498
▁고대	-10.7499
인권	-10.7499
▁시트	-10.75
▁사이버	-10.75
38	-10.7508
▁유사	-10.751
펀드	-10.7514
▁경제가	-10.7516
접	-10.7517
▁용품	-10.7519
▁기본적인	-10.752
▁진학	-10.752
▁아무도	-10.7521
듯이	-10.7521
랩	-10.7522
▁상업	-10.7523
▁스테인리스	-10.7527
▁전반에	-10.7531
상으로	-10.7531
▁기관이	-10.7532
▁기술로	-10.7533
동안	-10.7533
▁지역주민	-10.7535
▁쳐	-10.7536
결정	-10.7538
▁놀라운	-10.7538
▁점포	-10.7539
▁됐	-10.754
▁2,000	-10.7541
▁시간과	-10.7544
▁맛있	-10.7546
▁철저히	-10.7547
▁시작됐다	-10.7548
▁사원	-10.7548
▁해체	-10.7549
▁배송해	-10.755
▁처리할	-10.7551
사용	-10.7552
▁기대합니다	-10.7552
▁하하	-10.7555
릿	-10.7555
▁계약이	-10.7556
▁손쉽게	-10.7556
▁재능	-10.7558
▁고속	-10.756
칙	-10.7563
▁시민단체	-10.7566
년째	-10.7568
▁현지에서	-10.7569
▁안전하고	-10.757
▁보여주	-10.7574
▁예정된	-10.7578
▁건강에	-10.7579
일로	-10.7579
갔다	-10.758
▁둘이	-10.7583
▁연락주세요	-10.7583
▁제발	-10.7584
▁2006	-10.7584
▁느끼	-10.7584
▁당한	-10.7585
▁혜택	-10.7585
23	-10.7585
▁부모님	-10.7588
▁부정적	-10.7589
▁국민들	-10.7591
▁e	-10.7593
▁일요일	-10.7594
▁전액	-10.7595
▁행동을	-10.7597
기획	-10.7599
▁죽음	-10.7603
안이	-10.7604
▁이후로	-10.7604
절차	-10.7606
▁자격증	-10.7607
유통	-10.7608
▁것이고	-10.761
방향	-10.7611
▁과도한	-10.7612
▁다운로드	-10.7613
에게도	-10.7616
▁농장	-10.7616
회에	-10.7618
▁통보하여야	-10.7618
▁잡은	-10.7622
▁MBC	-10.7622
텍	-10.7623
▁출시한	-10.7624
억원으로	-10.7627
▁LA	-10.7629
▁전통시장	-10.763
▁워	-10.763
리지	-10.7631
▁관련해서	-10.7638
▁그려	-10.7639
▁장기간	-10.7641
부서의	-10.7642
▁영화는	-10.7644
▁증	-10.7644
▁위에서	-10.7648
▁제작되었습니다	-10.7648
▁성향	-10.7649
▁성공을	-10.7651
▁상점	-10.7652
둥	-10.7653
사에	-10.7654
▁양쪽	-10.7655
리를	-10.7656
▁대피	-10.7657
교류	-10.766
(2	-10.7661
▁봤	-10.7661
▁수영장	-10.7662
▁받으실	-10.7662
▁동력	-10.7665
▁애초	-10.7666
▁측에서	-10.7666
▁호텔에	-10.7667
증권	-10.7667
▁좋게	-10.767
▁마련한	-10.7674
▁지도자	-10.7675
▁유학	-10.7675
▁수렴	-10.7677
▁증가하는	-10.7682
체육	-10.7685
▁장면이	-10.7685
▁소송을	-10.7686
▁계시	-10.7687
▁휴대	-10.7688
▁환율	-10.7689
▁싶어서	-10.7689
▁났	-10.769
▁유아	-10.7691
▁끌어	-10.7692
치를	-10.7693
▁지위	-10.7697
▁구성원	-10.7699
▁여러분이	-10.7699
▁사례를	-10.77
▁다해	-10.77
▁않았던	-10.7702
시행	-10.7703
▁포착	-10.7703
▁청약	-10.7704
▁아니라고	-10.7704
▁수행하는	-10.7706
▁빅	-10.7713
▁당연직	-10.7719
▁이들을	-10.7721
▁오후에	-10.7721
▁사업으로	-10.7722
▁보인	-10.7722
▁담고	-10.7723
▁애플리케이션	-10.7724
기관의	-10.7725
▁가맹점	-10.7725
▁보전	-10.7726
▁요구를	-10.7727
▁봐도	-10.7728
▁하나님의	-10.7728
▁종일	-10.7728
점검	-10.7729
현이	-10.7731
▁부정적인	-10.7732
예방	-10.7733
▁인정되는	-10.7734
▁한쪽	-10.7735
▁뼈	-10.7736
▁반려견	-10.7738
▁소방당국	-10.7739
▁연설	-10.7741
▁알림	-10.7742
▁벌이고	-10.7743
▁오프라인	-10.7746
쳤다	-10.775
▁조언	-10.7751
▁살인	-10.7752
▁막을	-10.7753
▁명품	-10.7755
▁내게	-10.7756
▁물건이	-10.7757
▁뭐라고	-10.7757
▁단순한	-10.776
놀이	-10.7761
▁소비자가	-10.7763
▁주류	-10.7765
▁장사	-10.7765
▁이수	-10.7766
단은	-10.7767
▁사과드립니다	-10.7767
▁파손	-10.7769
▁결정했다	-10.7771
400	-10.7774
▁단일	-10.7776
▁돌파	-10.7779
▁한미	-10.7779
통합	-10.778
오는	-10.7781
▁진짜로	-10.7782
음악	-10.7786
▁고객들이	-10.7788
받을	-10.7792
▁스토리	-10.7795
닉	-10.7796
▁공연장	-10.7796
▁꺾	-10.7798
▁명단	-10.7798
▁휴	-10.7798
▁촉구했다	-10.7801
▁지방선거	-10.7801
▁제외하고는	-10.7801
▁재직	-10.7803
▁진행했다	-10.7805
의원	-10.7806
▁개정안	-10.7813
,000	-10.7813
▁개인적으로	-10.7813
▁왔는데	-10.7817
▁괜찮아요	-10.782
▁소집	-10.782
▁교재	-10.7823
▁그렇습니다	-10.7825
▁37	-10.7829
▁급한	-10.7829
▁살려	-10.7829
▁불편한	-10.783
▁상대방	-10.7832
▁그들에게	-10.7833
▁위원회에	-10.7833
▁시는	-10.7835
▁통지	-10.7836
▁조례에서	-10.7837
▁발견됐다	-10.7837
▁자세	-10.7837
내는	-10.7841
▁편지	-10.7843
▁전주	-10.7843
기지	-10.7844
▁증언	-10.7845
▁표창	-10.7846
방식	-10.7846
▁출시된	-10.7847
▁48	-10.7847
▁현재는	-10.7849
▁발목	-10.785
▁조달	-10.785
ic	-10.7853
▁쥐	-10.7854
▁인건비	-10.7854
▁다양하게	-10.7859
▁차장	-10.7859
된다면	-10.786
▁얘	-10.786
▁쏠리고	-10.7862
▁정황	-10.7864
차전	-10.7864
▁흥	-10.7864
▁모르겠습니다	-10.7865
▁시술	-10.7866
인증	-10.7866
보건	-10.7868
스크	-10.7873
▁멤버들	-10.7873
▁일환으로	-10.7874
▁실시하는	-10.7874
따	-10.7876
▁양산	-10.7878
▁보여줄	-10.7879
▁총선	-10.788
▁공급업체	-10.788
▁라이브	-10.7882
▁카메라를	-10.7882
▁메이크업	-10.7883
▁든	-10.7884
▁임상	-10.7885
체제	-10.7887
29	-10.7888
심의위원회	-10.789
▁참가한	-10.7892
▁적용해	-10.7894
▁국가가	-10.7894
▁손해배상	-10.7894
▁위주로	-10.7895
자인	-10.7897
800	-10.7898
▁절약	-10.7899
▁트위터	-10.7899
액을	-10.7899
▁당선	-10.79
현장	-10.7902
▁인정할	-10.7902
▁상용화	-10.7903
해지는	-10.7903
▁경기도내	-10.7905
▁프레임	-10.7908
▁소년	-10.7909
▁인류	-10.791
▁매력을	-10.7911
▁계약에	-10.7913
해드리겠습니다	-10.7914
▁적자	-10.7914
▁진주	-10.7914
▁대표님	-10.7915
▁친구와	-10.7916
▁소매	-10.7918
▁직원을	-10.7921
부를	-10.7922
▁똑같은	-10.7923
▁급등	-10.7927
쓰	-10.7927
끼	-10.7933
▁연락드렸습니다	-10.7933
▁연동	-10.7934
▁지사가	-10.7935
인당	-10.7935
▁한다면	-10.7937
▁있었다고	-10.7938
▁얼음	-10.794
▁이해하고	-10.7941
▁확인이	-10.7941
▁이끌	-10.7942
▁기쁨	-10.7943
▁주민이	-10.7943
▁내릴	-10.7943
▁효과적으로	-10.7946
▁대체로	-10.7946
w	-10.7948
▁철학	-10.7953
▁엄	-10.7953
▁예전	-10.7953
▁끌었다	-10.7954
▁내외	-10.7955
▁놓	-10.7956
▁넣	-10.796
▁그나마	-10.796
▁좋아해요	-10.796
▁믿을	-10.7961
▁돌봄	-10.7963
사무소	-10.7963
분에	-10.7966
▁남쪽	-10.7967
▁학술	-10.7969
▁프로세스	-10.7969
개월간	-10.797
▁종사자	-10.7971
▁미래에	-10.7972
▁국가의	-10.7976
▁김태	-10.7977
▁나오면	-10.7978
▁신인	-10.7978
▁확실한	-10.7979
▁제작한	-10.798
▁일자	-10.7982
▁넘어서	-10.7982
▁벌금	-10.7982
▁저항	-10.7982
▁원전	-10.7985
▁추구	-10.7986
▁인천시	-10.7988
▁성경	-10.7992
▁당해	-10.7993
▁어울리는	-10.7997
▁엘	-10.7998
▁흥행	-10.7999
▁묻는	-10.7999
하라는	-10.8
▁활력	-10.8001
▁토론회	-10.8003
▁때문	-10.8003
▁상관없이	-10.8005
▁첨부해	-10.8005
▁무대를	-10.8005
▁탁월한	-10.801
▁사운드	-10.8012
겠네요	-10.8016
▁넌	-10.8021
▁시작하는	-10.8022
▁취재	-10.8024
▁콜	-10.8025
▁하나인	-10.8028
청년	-10.8028
▁지내고	-10.8028
▁가려	-10.8032
▁전세계	-10.8034
▁학생들에게	-10.8041
▁남자친구	-10.8042
▁줄일	-10.8042
▁위기에	-10.8044
▁제고	-10.8045
▁통행	-10.8046
▁급하게	-10.8047
▁방영	-10.8047
▁살펴보면	-10.805
▁가능하다면	-10.8051
▁단어	-10.8051
▁싱글	-10.8051
▁2005	-10.8053
▁갔	-10.8054
▁함은	-10.8054
▁파주	-10.8055
▁전직	-10.8059
▁모색	-10.8059
▁요구할	-10.806
GB	-10.806
▁이뤄지지	-10.806
▁피아노	-10.8061
▁환경에	-10.8067
심을	-10.8067
얼	-10.807
▁SBS	-10.8071
▁리모델링	-10.8071
▁기온	-10.8072
▁검토하고	-10.8077
▁사료	-10.808
▁지배	-10.8082
▁곳곳에서	-10.8083
▁있다며	-10.8083
▁머	-10.8085
제는	-10.8085
졌고	-10.809
▁그렇기	-10.8091
▁부당	-10.8092
랄	-10.8095
▁미얀마	-10.8097
▁효율적	-10.81
노조	-10.8101
원에	-10.8102
▁결코	-10.8103
▁재료를	-10.8104
▁개척	-10.8105
▁집안	-10.8106
▁고르	-10.8107
▁않았어요	-10.8107
▁리스크	-10.8113
▁단장	-10.8114
▁EU	-10.8115
▁예산안	-10.8115
▁파는	-10.8115
▁예전에	-10.8117
▁예정인	-10.8121
▁주문에	-10.8123
et	-10.8125
▁좌	-10.8132
▁다채로	-10.8134
45	-10.8136
▁주최하고	-10.8136
▁보겠습니다	-10.8137
▁준비하는	-10.8138
▁지표	-10.8141
▁보건복지부	-10.8142
▁한국에서는	-10.8142
▁경향이	-10.8147
▁분실	-10.8152
▁씨의	-10.8153
방지	-10.8153
▁과학기술	-10.8155
▁사업이다	-10.8155
▁업계에서	-10.8158
서비스를	-10.8158
▁정치권	-10.816
▁혈	-10.8161
▁테러	-10.8161
▁시너지	-10.8162
▁하죠	-10.8163
▁공익	-10.8164
▁건너	-10.8164
▁향상을	-10.8164
▁용어	-10.8167
en	-10.8171
법이	-10.8174
허가	-10.8174
▁교수님	-10.8176
▁커질	-10.8178
▁나누고	-10.8178
큐	-10.8182
▁무죄	-10.8184
▁오고	-10.8187
▁책정	-10.819
하우스	-10.8193
▁돼서	-10.8193
▁이처럼	-10.8194
▁먹기	-10.8194
▁감축	-10.8195
▁어우	-10.8196
주신	-10.8198
▁종전선언	-10.8199
▁쌓	-10.8199
▁기업은	-10.82
▁참가자들	-10.82
▁국방	-10.8201
▁오직	-10.8202
님께	-10.8203
▁들려	-10.8205
AI	-10.8211
▁성남	-10.8213
▁오디오	-10.8214
▁무릎	-10.8216
▁관광지	-10.8218
▁방법에	-10.8223
▁근로시간	-10.8224
▁정상화	-10.8227
▁강좌	-10.8227
램	-10.8229
▁걸리는	-10.8229
범죄	-10.8231
▁보여주고	-10.8232
▁대출을	-10.8232
▁합니까	-10.8233
▁예고	-10.8233
▁김정	-10.8235
▁강화를	-10.8237
연합	-10.8238
31	-10.8239
▁보자	-10.8239
▁모인	-10.8244
▁모았다	-10.8245
▁운영한다	-10.8248
▁금융기관	-10.8253
▁습관	-10.8253
▁골라	-10.8255
▁모습으로	-10.8257
▁끈다	-10.8259
▁경기북부	-10.826
▁가해자	-10.8261
▁무게	-10.8262
▁손잡이	-10.8264
▁먹거리	-10.8268
▁분산	-10.8268
▁많은데	-10.8268
▁고속도로	-10.8268
▁경과	-10.8269
린다	-10.8269
▁수소	-10.827
▁인지도	-10.8271
▁떠난	-10.8273
▁널	-10.8274
▁분들은	-10.8274
▁드리려고	-10.8277
▁유지하는	-10.828
▁지갑	-10.8281
▁생기는	-10.8282
▁아이들을	-10.8283
▁세상에	-10.8283
▁줄이고	-10.8283
중앙	-10.8285
▁고가	-10.8285
▁위치해	-10.8288
▁기차	-10.8291
▁지나치	-10.8292
▁통장	-10.8294
▁그래픽	-10.8294
딜	-10.8295
랜	-10.8296
▁서울의	-10.8298
▁태도	-10.8299
▁지원하기	-10.8301
▁해킹	-10.8305
▁상태입니다	-10.8307
제한	-10.8307
협약	-10.8309
▁저하	-10.831
당한	-10.8313
▁포상	-10.8314
▁아이폰	-10.8315
지게	-10.8316
예정	-10.8317
▁거기서	-10.8317
▁저소득층	-10.8317
▁기준이	-10.8318
▁내려가	-10.8319
▁보실	-10.8321
홀에서	-10.8321
지면	-10.8322
▁연봉	-10.8323
▁부드럽게	-10.8325
▁재발	-10.8325
▁읽고	-10.8327
▁하나도	-10.8333
시간을	-10.8333
▁기여할	-10.8334
동의	-10.8334
▁팀의	-10.8335
▁힘들다	-10.8336
▁요구했다	-10.834
▁관련이	-10.8345
▁칭찬	-10.8345
▁친구를	-10.8345
▁폭로	-10.835
▁의문	-10.8352
▁짓	-10.8357
▁고문	-10.836
신속한	-10.8361
▁찍	-10.8362
자들의	-10.8362
▁생기면	-10.8365
주간	-10.8366
▁될지	-10.8366
▁풍경	-10.8367
▁맞나요	-10.8368
▁한때	-10.8369
달라고	-10.8369
▁본격화	-10.837
연대	-10.837
▁과거에	-10.8375
인치	-10.8375
▁말은	-10.8376
▁꼬	-10.8378
▁특검	-10.8378
▁이어진	-10.8378
석이	-10.8382
▁효	-10.8383
▁최선	-10.8385
▁통증	-10.8387
▁위탁할	-10.8388
프로	-10.8389
▁행사로	-10.839
▁지역으로	-10.8392
▁보냈다	-10.8392
▁오해	-10.8393
▁온라인으로	-10.8394
▁의지가	-10.8394
▁손가락	-10.8396
▁액션	-10.8396
▁샤워	-10.8397
▁국가대표	-10.8404
▁드리도록	-10.8404
▁엄마가	-10.8405
▁그곳에	-10.8405
▁북쪽	-10.8406
▁제기한	-10.8406
▁출국	-10.8407
▁수량을	-10.8408
▁말씀하신	-10.8409
설비	-10.8412
▁그것도	-10.8414
▁맞고	-10.8415
▁안심	-10.8418
▁바지	-10.8418
▁준공	-10.8418
▁그중	-10.8418
▁않았다는	-10.842
▁순환	-10.8421
▁대통령을	-10.8423
▁55	-10.8428
헤	-10.8428
사업에	-10.8429
▁친구들이	-10.843
36	-10.8432
▁관리할	-10.8434
▁불어	-10.8436
el	-10.8437
▁이집트	-10.8438
▁도민들	-10.8438
여건	-10.844
▁유물	-10.844
▁배당	-10.8441
▁중국에	-10.8441
▁멀티	-10.8442
▁안심하고	-10.8445
▁역할이	-10.8445
인들의	-10.8449
▁독자	-10.8451
▁자라	-10.8452
▁모델이	-10.8454
▁살펴보	-10.8456
▁밥을	-10.8458
▁‘2019	-10.8458
▁블로그	-10.8458
▁예쁜	-10.8459
▁사퇴	-10.8461
기간이	-10.8465
▁나노	-10.8466
주시고	-10.8468
▁계단	-10.8472
▁방학	-10.8472
▁배포	-10.8472
▁지원해	-10.8475
▁김성	-10.8475
▁업체들	-10.8478
▁상금	-10.8481
▁손님이	-10.8483
간의	-10.8484
구를	-10.8484
▁자랑	-10.8484
▁단위로	-10.8485
▁사립유치원	-10.8487
철도	-10.8489
▁있으므로	-10.849
▁끊임없이	-10.8491
▁성과가	-10.8492
렬	-10.8492
▁시청자	-10.8495
환자	-10.8495
▁연령	-10.8497
북한	-10.8499
으로써	-10.85
빌	-10.8501
▁차지하고	-10.8504
▁떼	-10.8505
▁것들을	-10.8506
CC	-10.8506
▁가능성은	-10.8508
▁내년부터	-10.8508
▁119	-10.8509
▁원내대표가	-10.851
▁눌러	-10.851
▁규칙은	-10.8511
▁나라에서	-10.8512
포럼	-10.8514
▁펜	-10.8515
▁증대	-10.8517
▁오류	-10.8519
▁결정이	-10.8521
▁액세서리	-10.8521
▁재원	-10.8521
▁홈페이지에서	-10.8526
▁수납	-10.8526
▁사용하실	-10.8529
▁클릭	-10.8531
▁환자의	-10.8532
▁브렉시트	-10.8535
▁나누어	-10.8538
▁테마	-10.8539
▁이기	-10.854
▁그저	-10.854
▁본회의	-10.8542
트리	-10.8543
▁쌓아	-10.8543
공동	-10.8544
다리	-10.8544
▁합성	-10.8544
▁성장할	-10.8544
▁드릴까요	-10.8546
▁떨	-10.8546
▁살해	-10.8548
▁대장	-10.855
▁그들을	-10.8551
교육청	-10.8552
▁많을	-10.8553
▁동향	-10.8556
▁타이어	-10.8558
머리	-10.8558
▁모범	-10.8559
▁병원에서	-10.8564
▁다음날	-10.8567
활	-10.8569
▁잡을	-10.8571
▁연임	-10.8573
였	-10.8573
▁홈런	-10.8573
▁국장	-10.8574
▁연인	-10.8575
▁줄이	-10.8578
받고	-10.8578
▁쓰지	-10.8579
▁많아요	-10.8579
키로	-10.8579
한국시간	-10.858
▁효과적인	-10.8582
▁막대	-10.8583
▁고민이	-10.8583
▁나지	-10.8583
▁주시겠습니까	-10.8584
▁카카오톡	-10.8584
시킨다	-10.8585
▁결론	-10.8585
샤	-10.8587
▁마련해	-10.859
▁전문가들이	-10.859
▁국어	-10.8593
▁맛있어	-10.8595
룩	-10.8597
▁부드럽고	-10.8598
▁매진	-10.8601
▁솔	-10.8603
되었던	-10.8604
▁바람에	-10.8605
답	-10.8606
▁냉	-10.8606
일본	-10.8606
▁하는데요	-10.8607
▁화장	-10.8608
▁재미있는	-10.8609
▁그러한	-10.8612
▁요구가	-10.8614
▁조심	-10.8614
이든	-10.8618
▁임무	-10.8618
▁만났	-10.8619
▁아니라는	-10.8621
보증	-10.8621
▁발의	-10.8623
▁채팅	-10.8627
겸	-10.8629
▁파워	-10.863
▁다니는	-10.8634
▁협회	-10.8636
베이	-10.8636
금액	-10.8637
▁고려하면	-10.8637
▁또다시	-10.8637
▁소금	-10.8637
▁커플	-10.8637
시죠	-10.8638
▁대해선	-10.864
▁타임	-10.8641
▁구청	-10.8642
▁이른	-10.8642
지기	-10.8644
▁5,000	-10.8646
▁인보이스	-10.8647
▁CEO	-10.8648
▁도중	-10.8648
▁원의	-10.8649
였어요	-10.8651
▁여러분들	-10.8653
▁기업인	-10.8653
▁조항	-10.8653
▁주재	-10.8655
▁검토해	-10.866
▁파악하고	-10.866
▁안팎	-10.866
▁서면	-10.8663
▁공장에서	-10.8663
▁$	-10.8668
▁모듈	-10.8668
▁뽑아	-10.8673
▁앤	-10.8675
▁맞서	-10.8675
▁유발	-10.8676
▁안산	-10.8676
▁결정할	-10.8677
▁스트리밍	-10.8679
▁늘어나는	-10.868
▁제외하고	-10.8685
위원회의	-10.8686
대응	-10.8687
▁승리를	-10.8687
▁듣기	-10.8688
영상	-10.8688
▁안녕	-10.8688
▁사건은	-10.8691
▁참석할	-10.8694
▁개를	-10.8695
장관	-10.8696
▁동행	-10.8696
▁일시	-10.8698
▁경기장	-10.8701
▁바르	-10.8703
▁유일하게	-10.8704
▁해군	-10.8705
▁입점	-10.8705
▁마포구	-10.8708
▁모른다	-10.8708
짓	-10.8708
▁기술과	-10.871
▁의약품	-10.8711
▁정산	-10.8712
at	-10.8714
▁차원의	-10.8714
▁폭이	-10.8717
▁금고	-10.8718
▁친구들	-10.872
▁보며	-10.8724
▁돕기	-10.8728
▁점수를	-10.8729
료를	-10.8732
▁억제	-10.8732
33	-10.8732
▁걸그룹	-10.8733
엄	-10.8733
▁세운	-10.8733
▁불가	-10.8733
대와	-10.8733
▁주시겠어요	-10.8733
▁체류	-10.8734
▁정해진	-10.8735
▁빌	-10.8738
▁구경	-10.874
▁알려드리겠습니다	-10.8744
▁코너	-10.8747
미터	-10.8748
▁내년에	-10.8753
▁이내의	-10.8753
▁도와드리겠습니다	-10.8754
▁중지	-10.8755
▁기사를	-10.8757
▁향이	-10.8758
▁이외에	-10.8759
스를	-10.876
v	-10.8763
▁됐습니다	-10.8765
▁의사가	-10.8766
▁송파구	-10.8768
하네요	-10.8771
기만	-10.8772
▁이상인	-10.8775
▁급식	-10.8778
▁확인하는	-10.8779
산업의	-10.8784
▁차트	-10.8785
▁발매	-10.8786
묘	-10.8786
과정에서	-10.8786
37	-10.8786
▁정상이	-10.8787
▁제작된	-10.8787
▁좋다고	-10.8788
해줄	-10.8791
연합회	-10.8795
▁적합	-10.8797
▁대가	-10.8798
▁못하게	-10.8799
▁방송을	-10.8804
삭	-10.8804
▁신청서를	-10.8807
▁입사	-10.8813
▁만약에	-10.8813
▁정성	-10.8817
▁창문	-10.882
▁소녀	-10.882
▁아픈	-10.882
▁중순	-10.8821
▁있으니까	-10.8821
보수	-10.8822
▁걸리	-10.8824
▁비건	-10.8824
▁있었어	-10.8825
▁처리를	-10.8825
▁않았	-10.8828
▁뒤늦게	-10.8828
등을	-10.8831
▁열람	-10.8831
▁궁금증	-10.8833
▁카카오	-10.8836
▁예약이	-10.8837
▁행사장	-10.8839
▁바라는	-10.884
▁면세점	-10.8848
▁트럭	-10.8849
▁꼽힌다	-10.885
▁맡기	-10.885
▁철회	-10.885
▁최상의	-10.8852
▁회의가	-10.8854
▁문의를	-10.8854
39	-10.8855
▁변신	-10.8857
▁긍정적으로	-10.8859
▁이름으로	-10.8859
▁것만	-10.8869
투어	-10.8869
▁굳이	-10.887
▁아닐	-10.8873
주일	-10.8874
5,000	-10.8877
부지사	-10.8878
▁기본계획	-10.8879
▁개인의	-10.8881
▁개발하고	-10.8881
▁얻는	-10.8882
세포	-10.8884
▁거대한	-10.8885
준다	-10.8888
▁의상	-10.8888
담당	-10.8893
▁비정규직	-10.8894
▁우즈베키스탄	-10.8897
▁만든다	-10.8899
뜨	-10.8899
▁확신합니다	-10.8899
심이	-10.8902
▁아닌데	-10.8903
▁꽉	-10.8906
▁고수	-10.8907
▁법원이	-10.8907
▁경우에도	-10.8908
▁서울시가	-10.8909
▁못해서	-10.8912
심의	-10.8915
▁39	-10.8915
▁원유	-10.8917
▁불가능하다	-10.8917
▁헌법	-10.8917
▁맞이	-10.8918
▁싫	-10.8919
▁이송	-10.8919
사들이	-10.8924
▁알려주	-10.8925
▁컨테이너	-10.8926
▁믿음	-10.8926
▁회의록	-10.8929
▁아들이	-10.893
상이	-10.8931
▁시험을	-10.8933
▁허가를	-10.8934
▁제휴	-10.8934
▁기증	-10.8936
▁대량으로	-10.8938
▁신도시	-10.8939
▁사실이다	-10.894
▁다르	-10.8941
된다는	-10.8941
▁드실	-10.8942
▁절차가	-10.8944
▁말로	-10.8944
▁철강	-10.8947
팀장	-10.8947
▁매장에서	-10.8949
▁믿습니다	-10.8949
▁길게	-10.8953
▁그렇지만	-10.8953
▁것이며	-10.8955
▁사람들과	-10.8956
분들	-10.896
보고서	-10.896
▁사망자	-10.896
▁끝날	-10.896
이닝	-10.8965
▁산업단지	-10.8966
▁패드	-10.8967
▁패스	-10.8968
특별	-10.8971
페이	-10.8973
센	-10.8974
▁원활	-10.8975
▁정도는	-10.8975
소가	-10.8979
▁하천	-10.8979
뉴	-10.898
▁유력	-10.8983
▁측의	-10.8987
▁브랜드를	-10.8989
▁선사	-10.8991
▁뽑	-10.8992
▁얘기해	-10.8993
낭	-10.8994
▁시스템에	-10.8994
▁날부터	-10.8995
▁유망	-10.8997
▁위상	-10.9
▁견인	-10.9
연금	-10.9001
푸	-10.9003
▁들은	-10.9004
▁조사에	-10.9006
▁넘기	-10.9007
▁상시	-10.901
▁얼굴이	-10.9014
▁원이	-10.9015
▁원하시면	-10.9015
▁승부	-10.9015
▁어떨까요	-10.9016
▁작업에	-10.9016
하기에	-10.9017
정지	-10.9018
▁성사	-10.9019
▁지금부터	-10.902
▁왔어	-10.9022
▁병행	-10.9027
▁개시	-10.9028
▁다녀	-10.9029
갔	-10.9029
▁리스트	-10.9029
▁김씨가	-10.9038
▁탑	-10.904
안에	-10.9041
▁욕실	-10.9042
▁주석	-10.9042
▁국비	-10.9044
직원	-10.9044
▁공단	-10.9048
▁권리를	-10.9049
정도	-10.9053
▁가능하고	-10.9053
이죠	-10.9057
▁도출	-10.9057
▁드러냈다	-10.9057
▁컬럼	-10.9057
▁마침	-10.9058
▁해결을	-10.9058
▁첨부된	-10.906
▁이해를	-10.906
▁신라	-10.9061
▁좋겠어	-10.9065
센터에서	-10.9067
▁톤	-10.9068
▁도착한	-10.9068
▁전통적인	-10.9068
▁포스코	-10.9068
▁끝나는	-10.9069
답니다	-10.9069
맞	-10.907
▁아르헨티나	-10.9072
천여	-10.9073
▁시스템은	-10.9073
▁부총리	-10.9074
▁시인	-10.9075
▁자치	-10.9075
▁감상	-10.9076
맥	-10.9078
에겐	-10.9079
▁수백	-10.9082
▁석유	-10.9085
짜	-10.9088
▁장소에	-10.9089
▁전투	-10.9094
▁선택을	-10.9095
▁오르	-10.9095
▁해명	-10.9096
▁콘	-10.9096
▁서울에	-10.9097
▁십	-10.9098
▁때보다	-10.9098
▁바퀴	-10.9098
▁빌려	-10.9099
▁신축	-10.9101
꾼	-10.9103
▁학기	-10.9104
▁책은	-10.9105
▁업체에	-10.9105
▁얼마인가요	-10.9105
▁도달	-10.9106
분을	-10.9109
퇴	-10.911
▁활	-10.9111
▁저감	-10.9113
임에도	-10.9114
▁인식이	-10.9116
▁사장이	-10.9116
▁여기에서	-10.9118
▁북한과	-10.9121
▁월요일에	-10.9126
▁국물	-10.9126
▁않다고	-10.9129
▁터치	-10.9131
▁올해부터	-10.9132
▁간부	-10.9134
단의	-10.9136
▁프	-10.9143
▁합류	-10.9143
▁구조를	-10.9143
점으로	-10.9144
▁걸린	-10.9144
정보를	-10.9146
념	-10.9152
근무	-10.9154
▁느끼고	-10.9155
단을	-10.9156
재판	-10.9157
▁배우는	-10.9157
▁내부에	-10.9158
▁거는	-10.916
▁데는	-10.9161
▁지장	-10.9161
▁조건이	-10.9164
▁더해	-10.9164
심에서	-10.9164
▁영화의	-10.9165
결제	-10.9167
▁주시는	-10.9167
▁촉구	-10.9168
▁원격	-10.9168
인에게	-10.9169
▁탈락	-10.917
▁면담	-10.917
▁유포	-10.9172
▁실적을	-10.9173
▁되어서	-10.9175
립니다	-10.9177
▁이재	-10.9177
▁키워	-10.9178
▁들어와	-10.9178
▁사진과	-10.9179
▁의존	-10.9179
▁확대를	-10.9179
▁무척	-10.9183
▁유족	-10.9192
센터가	-10.9193
▁일각에서	-10.9193
▁할아버지	-10.9195
▁교정	-10.9195
▁약물	-10.92
▁평소에	-10.9201
▁하니까	-10.9201
▁표기	-10.9205
▁감안하면	-10.9205
시즌	-10.9206
▁봤을	-10.9208
▁아이스크림	-10.9213
할지	-10.9213
▁신앙	-10.9215
▁성명	-10.9217
▁하시	-10.9219
▁제안한	-10.922
▁공급이	-10.922
▁강요	-10.9223
▁높습니다	-10.9224
▁성추행	-10.9224
▁솔로	-10.9225
▁편안함을	-10.9226
▁포함한다	-10.9226
▁선두	-10.9227
▁보냈습니다	-10.9227
▁행정안전부	-10.9235
▁차기	-10.9235
▁민주노총	-10.9235
▁라벨	-10.9236
▁규명	-10.9236
▁잡았다	-10.9237
▁묻	-10.9238
49	-10.9239
▁평택	-10.9243
▁일고	-10.9244
▁광진구	-10.9247
▁이러	-10.9248
▁한창	-10.925
▁찾지	-10.9251
기반	-10.9254
▁매수	-10.9254
▁앞으로는	-10.9256
▁계약서에	-10.9256
위원회는	-10.9256
영이	-10.9257
▁90%	-10.9262
▁상무	-10.9264
▁많다는	-10.9264
▁말도	-10.9265
▁크기가	-10.9267
롭	-10.9268
렛	-10.9269
▁붙어	-10.927
방안	-10.927
▁방이	-10.9271
▁공유하고	-10.9272
▁수확	-10.9273
▁하셨	-10.9277
▁무상	-10.9277
▁펼쳐진다	-10.9278
주시기	-10.9278
부에	-10.9279
▁지역이	-10.9282
▁안정적으로	-10.9283
▁장난	-10.9284
▁참사	-10.9284
▁병원으로	-10.9284
▁주장을	-10.9285
▁어렵게	-10.9285
▁결과는	-10.9286
▁이쪽	-10.9286
▁사로잡	-10.9287
▁중요하다고	-10.9287
▁바쁘	-10.9288
▁분기	-10.9289
▁당황	-10.9289
▁도약	-10.929
▁맛있다	-10.9291
▁못했던	-10.9291
▁취약계층	-10.9291
변경	-10.9294
▁부득이	-10.9295
▁규정이	-10.9295
▁굽	-10.9297
▁대구시	-10.9299
▁환영합니다	-10.9301
▁석탄	-10.9305
▁기반을	-10.9307
▁위해선	-10.9308
▁귀하와	-10.9309
▁이탈	-10.9309
▁42	-10.9313
Q	-10.9313
▁에너지를	-10.9314
▁흉기	-10.9315
판을	-10.9315
▁보아	-10.9317
▁수원시	-10.9318
▁범위를	-10.9319
∼20	-10.9319
▁한달	-10.9321
▁대비해	-10.9325
▁싶은데요	-10.9325
▁해결해	-10.9326
▁미세	-10.9327
▁밀려	-10.9328
하였을	-10.9329
▁우리를	-10.9331
▁위성	-10.9332
하므로	-10.9333
▁후기	-10.9335
▁반갑습니다	-10.9336
▁거로	-10.9337
▁정부에	-10.934
▁할까요	-10.9341
▁간다	-10.9342
IT	-10.9342
▁모르겠어요	-10.9342
▁켜	-10.9342
상에	-10.9342
▁남긴	-10.9346
▁올랐	-10.9346
▁사회의	-10.9349
▁무시	-10.935
▁담보	-10.9351
▁생겼다	-10.9353
는데요	-10.9353
차로	-10.9354
▁상세	-10.9355
▁시신	-10.9357
줘야	-10.9357
▁조사에서	-10.936
▁예외	-10.9362
▁편지를	-10.9364
▁관계자들이	-10.9364
▁스트레스를	-10.9366
▁상세한	-10.9366
순위	-10.937
운용	-10.937
▁빗	-10.9374
▁않나요	-10.9374
▁악기	-10.9377
직을	-10.9379
▁순서	-10.9379
▁예배	-10.9379
▁성공한	-10.9381
▁체크인	-10.9381
였고	-10.9382
▁운항	-10.939
▁그곳에서	-10.939
군수	-10.9392
확인	-10.9394
▁도울	-10.9394
▁배경으로	-10.9395
▁주간	-10.9396
▁휴식을	-10.9397
대장	-10.9397
▁휴가를	-10.9399
▁종국이	-10.9401
핀	-10.9402
▁진동	-10.9402
▁칸	-10.9406
▁어때	-10.9406
▁전문적인	-10.9411
▁결론을	-10.9417
▁취약	-10.9417
▁자랑하는	-10.942
▁영화관	-10.9421
▁올리	-10.9423
시장에서	-10.9424
▁골목	-10.9427
▁줄어든	-10.9427
▁국무부	-10.9427
안정	-10.9428
▁전문가가	-10.9429
▁가능하게	-10.9431
▁품질이	-10.9433
▁영상이	-10.9433
▁기원	-10.9434
▁밖에서	-10.9435
▁서부	-10.9437
ha	-10.9441
▁감성	-10.9446
작업	-10.9449
▁탄핵	-10.9451
▁기술력	-10.9451
▁졸	-10.9452
전쟁	-10.9454
회는	-10.9456
▁세력	-10.9457
▁아니한다	-10.9459
▁비자	-10.9461
되기를	-10.9466
부담	-10.9468
▁밑	-10.9472
▁판문점	-10.9474
▁권한을	-10.9474
▁않았다고	-10.9476
▁피로	-10.9476
전문가	-10.9478
▁시상식	-10.9479
▁산업의	-10.9479
▁계시는	-10.948
▁추정된다	-10.9481
▁다니	-10.9481
46	-10.9483
▁떡볶이	-10.9483
줬다	-10.9484
정비	-10.9487
▁내리는	-10.9487
주실	-10.9487
▁연대	-10.9492
48	-10.9492
▁애니메이션	-10.9493
▁진흥	-10.9493
▁흡연	-10.9493
밤	-10.9496
에서부터	-10.9496
▁자원봉사	-10.9499
릉	-10.9499
▁건수	-10.9502
▁감기	-10.9502
▁케이	-10.9503
5000	-10.9504
주를	-10.9506
▁본인의	-10.9509
▁벌인	-10.9509
▁중으로	-10.951
▁본선	-10.9513
▁호텔은	-10.9514
▁그럼요	-10.9514
로서의	-10.9514
▁빚	-10.9515
▁경찰과	-10.9516
▁집권	-10.9518
건을	-10.9519
▁누리	-10.9519
▁간식	-10.952
▁공간으로	-10.952
팬	-10.952
▁움직임이	-10.9521
▁차량에	-10.9521
▁이론	-10.9521
▁실태	-10.9523
▁중복	-10.9524
▁이스라엘	-10.9524
▁점수	-10.9526
▁자영업자	-10.9528
▁자료가	-10.953
하시나요	-10.953
▁금융감독원	-10.9531
치가	-10.9531
▁무인	-10.9535
▁흑	-10.9537
▁추진을	-10.9537
▁완공	-10.9538
▁줄이기	-10.9539
이던	-10.954
▁나랑	-10.954
▁잡는	-10.9542
▁텔레비전	-10.9542
▁수주	-10.9544
▁사법	-10.9547
▁환경이	-10.9548
자본	-10.9549
났다	-10.9551
▁책이	-10.9553
▁예정이며	-10.9554
▁기숙사	-10.9554
▁대립	-10.9555
씨에게	-10.9556
▁돌아오	-10.9556
▁고령	-10.9557
▁흐	-10.9557
▁동시	-10.9557
▁팀장님	-10.9558
▁고시	-10.956
교육감	-10.956
▁앞선	-10.9561
▁개관	-10.9561
▁밟	-10.9563
▁추억	-10.9565
▁세련된	-10.9566
빵	-10.9566
▁건전	-10.9567
▁나타나는	-10.9568
했었다	-10.9569
▁베이스	-10.957
▁방문을	-10.957
정치	-10.957
▁오전에	-10.9571
▁유선	-10.9571
▁경찰청	-10.9574
▁적절	-10.9574
▁일본인	-10.9576
▁정상회담이	-10.9577
▁시상	-10.9579
하네	-10.9581
무역	-10.9581
▁알아보	-10.9581
▁보습	-10.9583
▁광장	-10.9584
군은	-10.9588
▁안녕하십니까	-10.9589
▁좋아서	-10.9589
▁커피를	-10.9591
▁추출	-10.9592
▁5000	-10.9592
▁화요일	-10.9594
▁줄이는	-10.9594
만여	-10.9595
▁메이	-10.9598
▁보냈	-10.9598
급여	-10.96
▁탄소	-10.9601
서요	-10.9602
▁변화에	-10.9603
▁금융권	-10.9603
▁집계됐다	-10.9603
래요	-10.9605
▁총회	-10.9605
▁계층	-10.9605
▁방을	-10.9605
▁정해	-10.9608
내역	-10.961
▁아트	-10.961
▁고유	-10.961
▁퇴직	-10.961
▁디테일	-10.9612
부는	-10.9613
▁금요일에	-10.9617
스의	-10.9618
▁수락	-10.962
자들은	-10.9622
잉	-10.9622
▁기념식	-10.9623
▁얻었다	-10.9623
조합	-10.9624
▁해주	-10.9625
▁실수로	-10.9627
▁케어	-10.9628
▁생계	-10.9629
▁참가해	-10.9629
▁외모	-10.963
▁손실	-10.9633
▁녹화	-10.9634
▁생산성	-10.9635
▁입구	-10.9635
▁사내	-10.9635
▁인근에	-10.9635
▁저렇게	-10.9635
▁최우선	-10.9635
닌	-10.9637
▁역전	-10.9638
▁가볍게	-10.9639
봐야	-10.9639
▁닦	-10.9642
▁여가	-10.9642
▁기대감이	-10.9643
▁평생교육	-10.9646
▁계획에	-10.9647
▁전국에서	-10.9648
중소기업	-10.9648
천명	-10.965
받았다	-10.9652
사람	-10.9653
▁800	-10.9654
▁구매해	-10.9654
▁남편이	-10.9654
55	-10.9656
▁북한에	-10.9657
스와	-10.9658
▁사회복지	-10.9658
▁세계의	-10.9659
▁공략	-10.9659
촉	-10.9662
▁관행	-10.9663
▁들었어요	-10.9668
▁가르쳐	-10.9669
▁이명박	-10.9671
▁탓	-10.9672
▁중국인	-10.9677
▁현실화	-10.9677
▁시대를	-10.9677
추진	-10.9678
▁처음부터	-10.9679
44	-10.9679
▁시작했습니다	-10.9679
▁단점	-10.9683
포인트	-10.9683
▁무엇인가요	-10.9686
만달러	-10.9687
▁180	-10.969
지부	-10.969
밍	-10.9693
▁휴일	-10.9694
▁즉각	-10.9695
▁전체적으로	-10.9696
▁수질	-10.9696
▁인원이	-10.9698
▁국적	-10.9699
700	-10.97
▁소비자들이	-10.97
하니까	-10.97
▁계기	-10.97
▁감정을	-10.9704
▁관여	-10.9706
▁변경할	-10.9707
▁고용노동부	-10.9709
▁소개했다	-10.9711
별지	-10.9712
셔도	-10.9713
▁벌어진	-10.9716
▁예정이	-10.9717
▁쟁점	-10.9718
▁하고자	-10.9719
▁요새	-10.9719
원에서	-10.9721
규칙	-10.9727
▁전체가	-10.973
▁윤리	-10.973
▁명성	-10.9731
▁출제	-10.9732
▁학대	-10.9732
▁후에도	-10.9732
▁높였다	-10.9734
▁찾았다	-10.9734
▁실력을	-10.9734
▁성적이	-10.9735
▁어때요	-10.9737
▁발표를	-10.9738
계약을	-10.9739
카페	-10.974
▁가져오	-10.9741
▁집은	-10.9744
졌지만	-10.9745
▁옛날	-10.9751
▁간판	-10.9752
▁챙기	-10.9753
▁투기	-10.9754
▁말했습니다	-10.9757
▁하나만	-10.9757
▁호평	-10.9757
참여	-10.9758
▁들었	-10.9759
▁일반인	-10.9761
있습니다	-10.9765
▁장시간	-10.9765
900	-10.9767
▁반영된	-10.977
▁유기농	-10.9771
▁갑	-10.9772
▁바닥에	-10.9772
▁보고하여야	-10.9774
▁늦은	-10.9774
▁지어	-10.9774
기록	-10.9774
▁뻔	-10.9775
▁부천	-10.9775
넷	-10.9775
▁주셔야	-10.9778
명에게	-10.9778
▁대통령에게	-10.9781
▁발생하고	-10.9786
▁난다	-10.9787
처분	-10.9787
▁궁금해	-10.9788
▁적용한다	-10.9788
▁포함돼	-10.9788
▁대표의	-10.979
클럽	-10.979
▁문화적	-10.979
▁신청할	-10.9791
▁마시	-10.9792
▁43	-10.9794
▁수탁자는	-10.9797
▁아버지가	-10.9797
▁쪽에	-10.98
▁제안에	-10.98
▁취재진	-10.98
▁관악구	-10.9802
▁임용	-10.9802
▁시원한	-10.9803
AR	-10.9805
▁지적도	-10.9805
▁받으면	-10.9806
▁봉사활동	-10.9806
▁발을	-10.981
져서	-10.9811
▁육아	-10.9811
▁유럽연합	-10.9813
▁성장세	-10.9814
재산	-10.9814
▁강화하고	-10.9815
▁처음에	-10.9816
▁계란	-10.9817
▁승객	-10.9817
▁곤	-10.9817
▁운명	-10.9819
▁도가	-10.982
정이	-10.982
▁비율	-10.9821
▁오세요	-10.9825
▁안전사고	-10.9829
▁딸기	-10.9832
시다	-10.9833
▁바뀐	-10.9834
▁입장에서	-10.9834
▁이뤄	-10.9838
▁정보화	-10.9838
부장	-10.9839
▁응답자	-10.9839
▁아니한	-10.9839
▁지방세	-10.9839
▁정기적으로	-10.9842
▁경영진	-10.9844
▁알루미늄	-10.9844
센터를	-10.9847
▁받아들여	-10.9847
is	-10.9849
▁적립	-10.9849
▁도모	-10.9855
▁내부에서	-10.9856
▁택	-10.9858
▁안내해	-10.9859
▁기후	-10.9859
▁국면	-10.986
▁추천합니다	-10.986
▁경비를	-10.9862
▁거두	-10.9865
▁외출	-10.9866
▁만두	-10.9866
▁불만이	-10.9866
▁춤을	-10.9867
▁빨라	-10.9869
▁않았고	-10.987
학회	-10.9872
▁하나입니다	-10.9873
▁의혹에	-10.9878
▁거점	-10.9879
인사	-10.9882
보니	-10.9884
▁경찰의	-10.9885
▁포스터	-10.9885
▁명을	-10.9885
수익	-10.9885
▁없으며	-10.9886
▁다음으로	-10.989
▁사람으로	-10.9891
집행	-10.9894
▁원인으로	-10.9895
협상	-10.9895
▁나옵니다	-10.9898
▁필요성이	-10.99
▁책임자	-10.9902
▁올리는	-10.9903
▁복용	-10.9904
▁지급한다	-10.9904
▁주장하는	-10.9906
▁딸이	-10.9906
▁해줄	-10.9907
▁태블릿	-10.9908
없는	-10.9908
▁드라이브	-10.9908
▁반납	-10.991
▁줄었다	-10.9911
▁교육이	-10.9911
▁긴밀	-10.9914
▁불을	-10.9915
펜	-10.9918
▁걷	-10.9921
▁양의	-10.9921
▁인적	-10.9924
▁여성들이	-10.9924
▁의장이	-10.9926
▁틈	-10.9927
▁지문	-10.9928
▁전후	-10.9929
67	-10.9929
▁자동화	-10.9932
▁위주	-10.9933
▁쿠	-10.9934
▁허락	-10.9936
ch	-10.9937
▁서양	-10.9939
▁측에	-10.994
▁주문할	-10.994
▁주시	-10.9942
▁동남아	-10.9944
▁매번	-10.9944
▁수색	-10.9946
▁예정이라고	-10.9947
▁간에	-10.9949
유지	-10.995
▁공모전	-10.995
▁조사가	-10.9953
성장	-10.9953
▁농구	-10.9956
▁성범죄	-10.9958
▁생선	-10.9958
▁케이크	-10.996
국이	-10.9963
▁않는다고	-10.9964
▁장에게	-10.9964
▁높다는	-10.9965
▁출연해	-10.9967
▁수습	-10.9968
재정	-10.9968
▁언급했다	-10.9968
▁이혼	-10.9968
▁스케줄	-10.9971
▁영세	-10.9975
사실	-10.9976
▁거론	-10.9978
구가	-10.9978
촉진	-10.998
▁내신	-10.9981
▁투명	-10.9981
면적	-10.9983
▁만나고	-10.9983
이드	-10.9984
▁성공했다	-10.9987
놓은	-10.9989
▁없던	-10.9992
▁벨기에	-10.9993
▁구비	-10.9995
위험	-10.9997
▁부작용	-10.9997
▁생물	-10.9998
▁행사에서	-11
▁사인	-11.0001
▁제품들이	-11.0001
▁3·1	-11.0002
보장	-11.0006
▁중국어	-11.0007
제작	-11.001
▁광수	-11.0012
▁주식을	-11.0015
▁전반적인	-11.0015
▁일어날	-11.0016
▁의료기기	-11.0018
▁CJ	-11.0018
▁상해	-11.0018
▁좋았	-11.0019
▁퍼포먼스	-11.0022
▁주된	-11.0022
▁뛰	-11.0023
▁반찬	-11.0023
▁자율주행	-11.0024
▁부각	-11.0025
▁아우	-11.0028
▁시진핑	-11.0028
중심	-11.0032
▁운영위원회	-11.0034
▁사무실에	-11.0037
▁장벽	-11.0038
▁횟수	-11.004
▁사우디	-11.004
▁양질	-11.0041
▁용도	-11.0042
▁벤처	-11.0043
▁통지하여야	-11.0043
▁건물이	-11.0045
▁매물	-11.0046
▁추정되는	-11.0047
▁전역	-11.0048
▁재질	-11.0048
▁60%	-11.0048
▁민주주의	-11.0049
59	-11.005
▁글이	-11.005
▁이루	-11.0051
▁소독	-11.0051
▁기여한	-11.0053
지역에	-11.0055
▁빛을	-11.0056
▁메뉴를	-11.006
▁셀	-11.0063
었으면	-11.0064
▁대표와	-11.0065
대비	-11.0066
▁검은색	-11.0066
▁초래	-11.0068
▁과세	-11.0069
▁중독	-11.007
▁금융위	-11.0074
▁선보인	-11.0075
체계를	-11.0075
▁체력	-11.0078
▁석진이	-11.0078
▁매트	-11.0081
▁하락세	-11.0082
▁기능성	-11.0082
66	-11.0083
▁잇	-11.0084
▁병역	-11.0084
▁슈	-11.0086
▁국민들이	-11.0087
▁거짓말	-11.0088
▁속도로	-11.0089
-2	-11.0089
▁판단이	-11.009
아동	-11.0091
▁기재부	-11.0092
▁청정	-11.0093
▁관광객이	-11.0094
▁활발한	-11.0095
▁편이	-11.0095
▁보험사	-11.0099
▁사진은	-11.0099
▁소환	-11.0099
600	-11.01
▁연기를	-11.01
하셔도	-11.01
건축	-11.0101
▁염색	-11.0102
▁알려주십시오	-11.0102
율을	-11.0104
▁3,000	-11.0105
▁혐의가	-11.0109
▁있었기	-11.0109
▁노력하겠다	-11.011
정원	-11.011
▁취할	-11.0111
▁가득한	-11.0117
▁경기도에	-11.0119
▁가리	-11.0122
77	-11.0123
▁훈련을	-11.0127
▁선보인다	-11.0129
▁학업	-11.0131
▁영입	-11.0132
편의	-11.0137
비율	-11.0139
▁데이트	-11.014
▁시세	-11.0142
박람회	-11.0142
실을	-11.0142
▁언제까지	-11.0144
▁신분	-11.0145
사례	-11.0146
∼2	-11.0146
▁정수	-11.0146
▁적용할	-11.0149
▁브랜드가	-11.0149
▁힘입어	-11.0151
▁나누는	-11.0151
▁확보한	-11.0151
▁식재료	-11.0152
▁활동하고	-11.0154
전기	-11.0154
▁빨	-11.0155
▁보게	-11.0157
역사	-11.0158
대상자	-11.0158
▁넘어가	-11.0159
▁신청한	-11.016
▁3000	-11.0161
▁부부가	-11.0163
▁표정	-11.0164
▁흔히	-11.0165
▁오리	-11.0169
장님	-11.0169
▁25%	-11.0169
부의	-11.0173
▁혼합	-11.0176
▁차질이	-11.0181
▁계약서를	-11.0182
▁반등	-11.0186
▁여론이	-11.0187
POP	-11.0187
▁따르	-11.0188
▁꼼꼼	-11.0188
느라	-11.0193
▁주문해	-11.0194
▁총재	-11.0194
▁접목	-11.0198
▁확인하기	-11.0201
▁여지가	-11.0206
명령	-11.0207
ol	-11.0207
▁필요하지	-11.0208
▁내수	-11.021
이었어요	-11.0213
▁분석된다	-11.0214
폐기물	-11.0216
▁복잡	-11.022
▁심판	-11.0222
▁공항에서	-11.0225
▁보도가	-11.0227
▁유기	-11.0229
▁요인이	-11.0229
▁여름철	-11.0229
▁증정	-11.023
겠	-11.0231
▁할인이	-11.0232
▁바라며	-11.0232
▁되어야	-11.0234
보면	-11.0235
▁설치하는	-11.0237
렁	-11.0237
▁엔터테인먼트	-11.0237
지역의	-11.0238
▁그러하지	-11.0238
▁김종	-11.0238
▁공시가격	-11.024
▁간호사	-11.0243
튼	-11.0244
▁철수	-11.0244
52	-11.0245
▁대한민국의	-11.0245
▁결재	-11.0245
당이	-11.0245
▁거실	-11.0247
▁군대	-11.025
▁변형	-11.025
▁소주	-11.0251
▁논의할	-11.0252
였지만	-11.0253
▁부사장	-11.0254
▁능	-11.0255
바이오	-11.0257
▁어르신	-11.0259
피해	-11.0261
▁군인	-11.0261
▁제안했다	-11.0261
▁목포	-11.0262
▁유관기관	-11.0263
▁지붕	-11.0263
▁소요되는	-11.0265
▁월드	-11.0265
장소	-11.0266
▁음원	-11.0266
▁발부	-11.0267
▁고마워	-11.0267
▁명동	-11.0268
▁삶	-11.0271
▁심의회	-11.0272
수입	-11.0273
▁옮기	-11.0273
▁해지	-11.0274
▁5·18	-11.0274
▁민감한	-11.0274
실이	-11.0276
▁지효	-11.0277
▁수술을	-11.0278
▁번만	-11.0279
▁시청률	-11.0281
일자리	-11.0282
▁나왔습니다	-11.0282
았습니다	-11.0282
▁우편	-11.0283
▁기자가	-11.0284
56	-11.0285
▁인용해	-11.0287
▁낳	-11.0287
▁하나씩	-11.0287
▁프린터	-11.0288
하셨나요	-11.0289
▁무용	-11.0289
현재	-11.0289
문학	-11.029
▁잠시만	-11.0291
▁요청에	-11.0292
했	-11.0294
▁해주는	-11.0296
▁동부	-11.0297
▁권한	-11.0297
▁두께	-11.0302
붙	-11.0303
▁치고	-11.0305
▁선배님	-11.0308
▁국제사회	-11.0308
65	-11.031
▁다하겠다	-11.0311
▁시나리오	-11.0312
▁남북정상회담	-11.0312
식으로	-11.0316
롤	-11.0318
▁위원장과	-11.032
▁중에서도	-11.0322
▁선보이는	-11.0325
▁올리고	-11.0327
▁있었으면	-11.0329
▁눈치	-11.0331
▁연애	-11.0332
▁추측	-11.0332
▁서로를	-11.0333
▁적게	-11.0333
역에서	-11.0333
캠프	-11.0334
▁벌였다	-11.0336
▁중재	-11.0337
한데	-11.0339
▁면허	-11.0341
받는	-11.0341
▁노력하겠습니다	-11.0342
▁너도	-11.0343
▁동해	-11.0344
▁하셨습니다	-11.0345
▁남기	-11.0346
더라	-11.0348
▁여유가	-11.0348
▁구호	-11.0349
▁말이다	-11.0353
▁소진	-11.0353
▁아이들에게	-11.0357
▁가전	-11.0358
▁자리매김	-11.0362
▁바이	-11.0363
▁개발이	-11.0364
하느라	-11.0364
▁탁	-11.0365
▁들어온	-11.0365
성은	-11.0367
▁현직	-11.0368
▁없었	-11.0368
▁정규	-11.037
▁맛과	-11.0372
▁나서는	-11.0374
▁청사	-11.0375
▁레이저	-11.0375
▁봉투	-11.0378
▁선배	-11.0378
▁프랜차이즈	-11.0379
▁혈액	-11.038
▁어른	-11.038
▁44	-11.0381
▁민주	-11.0385
▁맺고	-11.0387
되는데	-11.039
하듯	-11.039
▁모습은	-11.0391
▁2004	-11.0392
엠	-11.0394
동이	-11.0395
▁있었다는	-11.04
▁남지	-11.0401
▁혼자서	-11.0403
▁전체를	-11.0403
▁연관	-11.0403
▁협력사	-11.0404
▁보석	-11.0404
농가	-11.0406
▁종합적	-11.0409
▁관절	-11.0409
▁친절	-11.0411
▁리더십	-11.0412
▁리조트	-11.0412
▁탈퇴	-11.0413
▁부활	-11.0413
▁넘겨	-11.0414
▁설치하고	-11.0416
▁마이	-11.0417
▁복무	-11.0417
▁민감	-11.0419
▁아프	-11.0419
▁우승을	-11.042
▁보내주실	-11.042
▁다문화	-11.042
▁활성화에	-11.0421
▁야채	-11.0425
▁생각했습니다	-11.0426
▁있어도	-11.0429
▁보여준	-11.0431
▁난방	-11.0431
▁기능은	-11.0437
▁스티커	-11.0437
▁재건축	-11.044
▁가입자	-11.044
▁빼고	-11.0445
▁700	-11.0446
▁근거로	-11.0449
▁협력해	-11.0451
▁구조조정	-11.0452
68	-11.0453
▁법관	-11.0456
▁랩	-11.0457
▁일치	-11.0457
▁선별	-11.0458
설계	-11.0458
▁뇌물	-11.0458
자치	-11.0459
▁증진	-11.046
▁2002	-11.0461
▁필요성을	-11.0462
▁디저트	-11.0463
▁헬기	-11.0465
▁맹	-11.0466
▁반전	-11.0466
▁대접	-11.0466
▁의료기관	-11.0467
야지	-11.0468
▁송부	-11.0473
▁면역	-11.0474
가능	-11.0476
▁제시했다	-11.0477
▁탈출	-11.0478
종의	-11.0478
▁민선	-11.0482
▁지나면	-11.0483
▁봤는데	-11.0483
▁수량이	-11.0485
▁수상했다	-11.0485
▁집계	-11.0485
▁여름에	-11.0486
▁종류가	-11.0489
▁치료제	-11.049
▁정보는	-11.049
유치원	-11.0495
▁아래와	-11.0499
▁생각할	-11.0502
(19	-11.0503
▁자랑합니다	-11.0507
▁불리	-11.0508
▁낚시	-11.0508
▁본부장	-11.0508
연이	-11.051
▁외관	-11.051
▁근대	-11.0511
▁모습이다	-11.0512
▁합쳐	-11.0512
▁열리고	-11.0513
▁가이드라인	-11.0514
되나요	-11.0514
▁결승	-11.0516
품을	-11.0517
▁관장	-11.0518
▁경매	-11.0519
▁호환	-11.0519
건에	-11.0523
회담	-11.0524
▁감각	-11.0525
▁당국이	-11.0527
▁배운	-11.0528
▁결함	-11.053
던데	-11.0531
수준	-11.0533
▁장악	-11.0534
▁불편함	-11.0536
▁평일	-11.0537
▁패턴	-11.0537
▁추산	-11.054
광고	-11.0542
▁중간에	-11.0543
금이	-11.0544
▁감자	-11.0544
사업의	-11.0548
▁의원들이	-11.055
▁수출이	-11.0551
▁맡았다	-11.0555
공개	-11.0556
▁지원합니다	-11.0558
▁행운	-11.056
▁확정된	-11.056
▁멀	-11.0562
▁기무사	-11.0562
▁웃음을	-11.0562
민의	-11.0567
▁똑같이	-11.0573
64	-11.0574
▁종전	-11.0574
럴	-11.0576
▁자칫	-11.0579
▁마트	-11.0579
▁의원들	-11.058
▁합의가	-11.058
▁과실	-11.0584
왔습니다	-11.0585
▁인력을	-11.0585
▁뭐예요	-11.0587
▁상주	-11.0588
경쟁	-11.0588
▁설립한	-11.0588
▁체계적인	-11.0589
▁호흡	-11.0589
▁태어나	-11.059
▁블루투스	-11.059
대행	-11.0591
징수	-11.0592
▁청취	-11.0592
으신	-11.0593
▁설문조사	-11.0597
치고	-11.0597
▁국정	-11.0598
▁전략적	-11.0598
▁등록된	-11.0602
▁서비스로	-11.0604
▁BMW	-11.0604
담당관	-11.0605
▁말하고	-11.0612
▁결성	-11.0613
▁먹어야	-11.0614
▁대회에서	-11.0616
▁나란히	-11.0616
▁선보일	-11.0616
▁우리나라의	-11.0617
기간을	-11.0618
▁수상자	-11.062
▁사법부	-11.0622
▁중반	-11.0622
근로자	-11.0625
▁1∼2	-11.0625
▁신분증	-11.0629
▁들어갔	-11.063
▁아이의	-11.0631
▁국외	-11.0632
▁내면	-11.0633
▁운반	-11.0634
▁세계적	-11.0635
▁쌍	-11.0637
▁스위스	-11.0642
▁일부가	-11.0642
▁전형	-11.0642
▁엔	-11.0642
▁예수님	-11.0642
▁산책	-11.0643
▁합의한	-11.0643
대교	-11.0644
▁집값	-11.0644
발생	-11.0645
▁느	-11.0646
릭	-11.0647
▁커졌다	-11.0647
▁재현	-11.065
▁보관할	-11.0652
시간에	-11.0653
▁저작권	-11.0655
▁상권	-11.0655
▁마늘	-11.0656
▁강경	-11.0656
거야	-11.0657
만명이	-11.0658
▁원가	-11.0658
▁투쟁	-11.0659
▁환전	-11.0661
▁위험한	-11.0661
▁정하여	-11.0662
▁국악	-11.0662
▁유지하기	-11.0665
▁밀어	-11.0667
▁모릅니다	-11.0669
▁업계의	-11.0669
▁제보	-11.0673
▁약화	-11.0674
▁지목	-11.0675
해드립니다	-11.0677
▁수강	-11.0677
▁성격이	-11.0677
▁2∼3	-11.0679
▁고스란히	-11.0681
▁고려할	-11.0681
▁공중	-11.0683
▁선생	-11.0684
▁세금을	-11.0685
▁조용	-11.0688
▁분당	-11.0688
▁연일	-11.0688
▁써야	-11.069
▁일본이	-11.0693
되지만	-11.0694
▁낭비	-11.0694
▁호기심	-11.0694
▁의사소통	-11.0694
▁회사로	-11.0695
▁사회에	-11.0697
▁목적이	-11.0697
▁구체적	-11.0701
▁포함됩니다	-11.0702
▁구두	-11.0704
우스	-11.0705
00	-11.0707
코드	-11.0707
▁요즘은	-11.0707
▁정작	-11.0708
▁의논	-11.0708
▁문화의	-11.0708
▁해보	-11.071
▁참석자들	-11.0713
▁정도면	-11.0713
▁보조금을	-11.0713
47	-11.0715
였는데	-11.0716
▁예상됩니다	-11.0716
▁완료되면	-11.0717
▁구정	-11.0717
시킵니다	-11.0719
▁일종의	-11.072
▁여수	-11.0721
▁인상이	-11.0721
▁추구하는	-11.0723
▁입장이	-11.0724
▁공정한	-11.0728
▁말하기	-11.0729
▁위험을	-11.0729
▁의향이	-11.0731
▁짐을	-11.0732
▁나와서	-11.0733
▁개선이	-11.0735
시설의	-11.0735
▁이르면	-11.0736
▁곽	-11.0737
▁양이	-11.0739
▁부장님	-11.0739
▁추락	-11.074
▁보호자	-11.0741
▁신기술	-11.0742
컨	-11.0742
▁납입	-11.0745
▁뜻이다	-11.0752
▁반대하는	-11.0753
▁주민등록	-11.0754
시아	-11.0755
장에게	-11.0756
▁위법	-11.0758
▁흘리	-11.0759
▁선보였다	-11.0759
▁희망을	-11.076
▁구민의	-11.076
▁정서	-11.076
▁오르는	-11.076
농업	-11.0761
▁장을	-11.0763
았던	-11.0765
▁문제의	-11.0765
▁주소로	-11.0767
▁이후에도	-11.0768
▁예매	-11.077
▁늘려	-11.0771
▁염두에	-11.0772
▁김진	-11.0773
보드	-11.0773
인구	-11.0774
▁덜어	-11.0775
아파트	-11.0776
회관	-11.0776
▁대상은	-11.0779
▁정황이	-11.078
▁출판사	-11.0781
▁조성을	-11.0783
▁일원	-11.0783
▁실리콘	-11.0785
▁무역협상	-11.0785
▁고객은	-11.0787
▁너와	-11.0788
▁소민이	-11.0788
▁중심이	-11.0788
▁소개하는	-11.0789
IC	-11.0791
▁민생	-11.0792
▁상하이	-11.0793
▁경우를	-11.0793
확	-11.0793
▁책임감	-11.0794
▁겉	-11.0794
▁의제	-11.0795
am	-11.0797
▁분은	-11.08
국의	-11.0801
▁위원장을	-11.0803
▁드라마를	-11.0806
▁최다	-11.0806
▁박사	-11.0806
▁연결하는	-11.0808
살이	-11.0808
▁피해자가	-11.081
되던	-11.0811
핵	-11.0811
▁효율	-11.0813
▁견제	-11.0814
▁근무하는	-11.0815
▁키우는	-11.0815
▁외식	-11.0817
▁원고	-11.0818
라이트	-11.0819
▁이상한	-11.0819
▁주고받	-11.0823
▁노력할	-11.0823
▁들면	-11.0825
▁인터뷰를	-11.0825
▁세종시	-11.0829
춤	-11.083
▁귀가	-11.0832
▁엔지니어	-11.0833
▁쓰기	-11.0834
▁선전	-11.0834
▁나오기	-11.0834
▁가격도	-11.0835
▁기다리는	-11.0836
▁없애	-11.0836
내가	-11.0837
▁준비할	-11.0837
▁진심	-11.0838
진단	-11.0839
▁여부에	-11.0841
▁수업이	-11.0842
▁수익률	-11.0842
자료를	-11.0843
▁절차에	-11.0844
▁뒤집	-11.0845
학자	-11.0849
▁포함됐다	-11.085
▁반영한	-11.085
▁어릴	-11.085
▁아래에	-11.0851
운영할	-11.0855
▁이정	-11.0856
▁코인	-11.0858
이거나	-11.0858
▁수차례	-11.0858
▁공백	-11.0859
▁기후변화	-11.086
▁소감을	-11.0861
기업의	-11.0861
▁괴	-11.0862
실장	-11.0863
어가	-11.0863
▁확인된	-11.0863
▁신선	-11.0864
PS	-11.0865
▁메모	-11.0867
(7	-11.0868
▁재해	-11.0869
페이지	-11.087
▁전화번호	-11.0874
젤	-11.0874
▁재판을	-11.0874
▁요구에	-11.0876
▁후회	-11.0877
▁부근	-11.0877
▁벌칙	-11.0878
▁악취	-11.0878
▁서식에	-11.0878
▁업무협약	-11.0879
▁일본에	-11.0879
▁비서실장	-11.0879
▁직장인	-11.088
▁이어져	-11.0881
▁바꾸는	-11.0882
▁구매자	-11.0884
▁방문하여	-11.0884
▁넣은	-11.0886
▁말아	-11.0888
▁활용하여	-11.0888
▁이자	-11.0889
▁가족을	-11.0889
▁국민청원	-11.089
▁공화당	-11.089
▁업체들이	-11.089
▁실감	-11.0891
▁가족들이	-11.0891
렉	-11.0892
▁품종	-11.0893
끈	-11.0894
▁부상을	-11.0894
소송	-11.0896
▁아이들은	-11.0897
▁김용	-11.0897
▁교과서	-11.0897
▁치유	-11.0898
▁출동	-11.0898
▁봐봐	-11.0899
▁올릴	-11.0899
▁부모가	-11.09
▁구로구	-11.0902
▁어렸을	-11.0903
▁일어났	-11.0904
▁열쇠	-11.0905
▁유효	-11.0906
곳을	-11.0906
▁주목받고	-11.0907
▁애정	-11.0908
▁설계되었습니다	-11.0911
▁문의가	-11.0911
▁씻	-11.0912
▁구미	-11.0913
파크	-11.0913
▁올해도	-11.0914
▁용산구	-11.0915
효과	-11.0917
였어	-11.0919
▁눈물을	-11.0919
▁방역	-11.0919
봤	-11.092
▁처리가	-11.0925
축구	-11.0926
수요	-11.0926
▁폼	-11.0927
▁그다음에	-11.0928
지급	-11.093
▁받아들일	-11.093
▁가축	-11.093
됐을	-11.093
골을	-11.0931
▁이루고	-11.0932
▁생산하고	-11.0932
▁공학	-11.0933
▁숙제	-11.0933
▁그래야	-11.0933
▁전국적으로	-11.0934
▁부르는	-11.0934
▁답을	-11.0934
업무를	-11.0934
▁잡기	-11.0934
▁업체와	-11.0938
원과	-11.0941
▁모델로	-11.0942
▁어차피	-11.0943
▁얼마입니까	-11.0946
▁이익이	-11.0947
▁먹이	-11.0947
다운	-11.0953
▁대상을	-11.0954
▁비트코인	-11.0957
▁마르	-11.0957
▁가짜	-11.0961
▁방에	-11.0961
고객	-11.0961
▁어디에서	-11.0965
▁받았	-11.0966
▁경보	-11.0967
▁통일부	-11.0967
▁들어오는	-11.0968
▁위치하고	-11.0968
▁입장에서는	-11.0969
▁수준에	-11.0971
▁찰	-11.0973
▁쭉	-11.0974
▁해변	-11.0974
해보세요	-11.0975
의결	-11.0978
▁오시면	-11.0978
▁재미	-11.0978
▁부탁합니다	-11.0978
▁흔들	-11.0981
▁골키퍼	-11.0983
▁활용하는	-11.0983
▁보고서는	-11.0984
▁불이익	-11.0986
▁가족의	-11.0986
▁공감대	-11.0987
▁가방을	-11.0993
▁빌딩	-11.0994
▁패스트트랙	-11.0994
▁출자	-11.0995
▁첨부하여	-11.0996
트로	-11.0996
만원이	-11.0996
▁고려한	-11.0996
▁전달해	-11.0996
▁듭니다	-11.1
논	-11.1001
▁디자인과	-11.1002
▁주면	-11.1003
▁전반적으로	-11.1003
▁사람도	-11.1005
▁못하면	-11.1005
▁됐다고	-11.1005
로운	-11.1007
목적	-11.1009
▁팝	-11.101
▁칫솔	-11.101
▁결정한다	-11.1011
▁주름	-11.1012
▁강동구	-11.1014
▁쏘	-11.1015
▁첫날	-11.1015
억원에	-11.1015
▁체결했다	-11.1017
▁적용된	-11.1017
▁작전	-11.102
▁오기	-11.1021
▁걸고	-11.1023
경비	-11.1023
▁참여한다	-11.1023
▁샴푸	-11.1023
▁한옥	-11.1023
부산	-11.1024
▁정체성	-11.1025
▁설탕	-11.1025
▁여기까지	-11.1026
▁시민이	-11.1026
코스	-11.1027
▁포상금	-11.103
▁아닌가	-11.1032
▁정당한	-11.1033
미술	-11.1033
화학	-11.1033
▁언젠가	-11.1037
▁무역분쟁	-11.1037
▁올라오	-11.1037
▁고맙습니다	-11.1038
▁월급	-11.1041
▁고객님이	-11.1042
▁제외한다	-11.1043
▁선택이	-11.105
엔터테인먼트	-11.105
▁궁	-11.1053
▁나라에	-11.1054
▁원하지	-11.1054
▁하다가	-11.1056
▁신장	-11.1056
▁시간대	-11.1056
▁조사결과	-11.1057
▁삶이	-11.1058
▁펼치고	-11.106
▁대안	-11.1061
홍보	-11.1062
▁상사	-11.1063
▁안타깝게도	-11.1063
▁무장	-11.1063
▁육군	-11.1064
▁취하고	-11.1067
▁상황은	-11.1067
십니다	-11.1068
▁결정한	-11.1069
가정	-11.107
▁이미지가	-11.107
▁취업자	-11.1072
▁발라	-11.1073
▁됐어요	-11.1074
탐	-11.1075
올해	-11.1075
▁홀로	-11.1076
치기	-11.1077
▁먹지	-11.1077
▁땐	-11.1077
▁급속	-11.1077
▁중계	-11.1079
회의를	-11.1082
▁중국은	-11.1086
▁문화에	-11.1087
▁양승태	-11.1087
▁검출	-11.1088
▁제공한	-11.1089
▁공항에	-11.109
▁추첨	-11.1091
▁노동당	-11.1092
43	-11.1094
▁이용이	-11.1095
▁내년도	-11.1096
함께	-11.1096
▁앞장서	-11.1097
▁희망하는	-11.11
스러워	-11.11
▁치열	-11.11
▁정할	-11.11
▁이들에게	-11.1101
앙	-11.1104
▁간단하게	-11.1108
▁적당한	-11.1108
ra	-11.111
▁결제가	-11.111
▁입어	-11.1112
▁흙	-11.1113
▁멋	-11.1116
▁토트넘	-11.1118
▁선생님이	-11.112
▁상당수	-11.1121
MS	-11.1121
▁문화체육관광부	-11.1122
▁일정은	-11.1125
▁이슬람	-11.1126
▁주셨으면	-11.1128
▁막판	-11.1128
멸	-11.1128
▁연방	-11.1129
▁여비	-11.113
▁증가할	-11.1131
▁서둘러	-11.1131
69	-11.1132
업체가	-11.1132
▁가능하다는	-11.1132
▁처분을	-11.1132
▁김포	-11.1134
▁용도로	-11.1134
▁휴대용	-11.1135
▁예수	-11.1135
▁남북관계	-11.1135
▁갤러리	-11.1136
▁공적	-11.1138
▁않으셔	-11.1138
▁매뉴얼	-11.1138
로우	-11.114
▁요금제	-11.114
▁기업으로	-11.1141
FC	-11.1142
▁합병	-11.1143
▁세균	-11.1143
▁미친	-11.1143
▁확실	-11.1144
▁훈	-11.1144
▁사서	-11.1145
▁명확히	-11.1147
▁공간에	-11.1147
▁믿어	-11.1149
▁겨울철	-11.1149
▁주사	-11.115
▁언	-11.115
▁주위	-11.1152
▁단골	-11.1152
망을	-11.1152
▁묘사	-11.1158
▁실종	-11.1158
▁맞춘	-11.116
▁국무총리	-11.1163
럭	-11.1166
▁등산	-11.1169
▁영유아	-11.1172
▁잃은	-11.1172
▁감사드리며	-11.1172
▁혁신성장	-11.1173
조사를	-11.1173
▁에스	-11.1174
▁기준금리	-11.1174
만원으로	-11.1174
▁일어나는	-11.1177
텔	-11.1179
▁팁	-11.1179
정책을	-11.1179
▁박씨	-11.1181
▁미치지	-11.1182
▁규정한	-11.1183
▁있길	-11.1183
▁전체의	-11.1183
▁시대의	-11.1184
▁티셔츠	-11.1186
▁공개됐다	-11.1186
▁떨어질	-11.1186
▁더블	-11.1191
▁규제가	-11.1192
당국	-11.1192
▁분석해	-11.1193
▁공군	-11.1196
▁끊이지	-11.1199
▁오피스텔	-11.1199
▁가능하십니다	-11.12
센터는	-11.1201
▁사회적기업	-11.1202
▁관계기관	-11.1204
▁모르겠다	-11.1204
▁높아질	-11.1205
▁상실	-11.1207
▁장갑	-11.1207
▁그것들	-11.1207
등이	-11.121
이었지만	-11.121
ay	-11.1211
▁일도	-11.1211
법원	-11.1211
▁김동	-11.1213
▁경북도	-11.1213
▁벤투	-11.1214
▁협박	-11.1214
▁거짓	-11.1218
▁매력적인	-11.1221
▁갖추	-11.1222
▁결심	-11.1223
소재	-11.1223
요청	-11.1224
▁반입	-11.1224
냉	-11.1228
▁민간인	-11.1231
므로	-11.1234
▁프로그램으로	-11.1234
육성	-11.1234
버리	-11.1235
동에	-11.1237
▁개장	-11.1238
▁전무	-11.1238
▁처방	-11.124
▁횡령	-11.1241
개씩	-11.1244
▁시행에	-11.1247
▁봤어요	-11.1248
▁요금이	-11.125
▁업소	-11.1251
▁것이었다	-11.1253
▁군수	-11.1253
더군요	-11.1255
▁금융당국	-11.1257
▁알리고	-11.1257
▁때문으로	-11.1258
▁출간	-11.1258
▁쉴	-11.1258
▁구성한다	-11.1258
▁예상했다	-11.1259
▁추운	-11.1262
▁패배	-11.1263
하셨던	-11.1264
▁웃음	-11.1265
▁말이야	-11.1265
▁산업통상자원부	-11.1268
▁이르기까지	-11.1268
▁도시재생	-11.1269
▁맞다	-11.1269
▁들어보	-11.127
기업이	-11.127
▁테이프	-11.127
▁오디션	-11.1271
▁소개하고	-11.1273
쳤	-11.1274
▁거둔	-11.1274
▁전원이	-11.1277
▁김민	-11.1278
▁설치한	-11.1281
▁남경필	-11.1282
▁맺은	-11.1282
▁흥미로운	-11.1282
▁조정할	-11.1284
▁모델은	-11.1284
▁왜곡	-11.1285
▁행정부	-11.1285
▁사망한	-11.1287
▁나라가	-11.129
으세요	-11.129
▁제기된다	-11.1291
▁빠	-11.1295
▁공급하는	-11.1296
▁모양새	-11.1296
▁나서고	-11.1297
▁찾아보	-11.1297
▁경기도의회	-11.1298
▁예선	-11.1298
드릴게요	-11.1299
▁소수	-11.1299
▁성장률	-11.13
▁염려	-11.13
▁일부는	-11.1301
▁사과를	-11.1303
▁연기가	-11.1304
▁했으나	-11.1304
▁동양	-11.1304
▁커뮤니케이션	-11.1305
▁정치인	-11.1305
▁큽니다	-11.1309
▁응시	-11.1311
실에	-11.1312
▁강행	-11.1312
▁이뤄지는	-11.1314
공공	-11.1317
▁직접적인	-11.1317
▁사태가	-11.1318
▁선포	-11.1319
▁고백	-11.1321
▁색상이	-11.1321
총장	-11.1323
▁타는	-11.1323
몬	-11.1324
▁부문에서	-11.1327
▁견해	-11.1328
▁흰	-11.1329
▁의정부	-11.1329
이었고	-11.1331
IS	-11.1332
상은	-11.1332
학적	-11.1332
▁기소된	-11.1336
콩	-11.1337
▁신속히	-11.1339
▁1990	-11.134
▁주문서	-11.1342
▁파스타	-11.1342
▁개인적인	-11.1342
교실	-11.1343
킨	-11.1345
▁학과	-11.1345
범위	-11.1346
▁대대적	-11.1346
▁예약해	-11.1347
국장은	-11.1347
책임	-11.1348
▁날인	-11.1349
▁제공되는	-11.1349
▁확대하고	-11.135
▁글자	-11.1352
▁요구한	-11.1353
▁시연	-11.1355
요원	-11.1356
▁수신	-11.1359
▁판결이	-11.136
▁신고가	-11.1362
끼리	-11.1362
▁삼아	-11.1362
▁핫	-11.1363
▁이해관계	-11.1363
▁알기	-11.1363
스럽게	-11.1367
%	-11.1367
▁연다	-11.1368
▁있니	-11.1369
니아	-11.137
▁시작한다	-11.137
▁이어가고	-11.1371
주면	-11.1376
▁초등학생	-11.1378
▁한꺼번에	-11.1378
▁개막식	-11.138
▁신흥국	-11.138
▁자원봉사자	-11.1383
비와	-11.1388
▁지루	-11.1389
▁못한다	-11.1391
곳에	-11.1392
금지	-11.1392
▁벗	-11.1393
▁마우스	-11.1394
▁밝혔습니다	-11.1394
▁여기가	-11.1396
▁전달했다	-11.1396
됐기	-11.1397
신청을	-11.1397
▁작가가	-11.1397
하기가	-11.1398
▁감소한	-11.1401
▁유감	-11.1402
▁본사는	-11.1403
졌	-11.1403
▁위치에	-11.1405
+	-11.1406
▁매트리스	-11.1407
▁사회가	-11.1407
▁캔	-11.1408
▁보내드릴	-11.141
▁노동계	-11.1414
▁상태에	-11.1415
▁드렸	-11.1416
▁적용되는	-11.1419
▁조별리그	-11.142
있어	-11.1421
▁환승	-11.1423
인천광역시	-11.1423
숲	-11.1423
▁고전	-11.1423
▁실수를	-11.1427
▁설립된	-11.1428
▁싶다는	-11.1428
스티	-11.1433
책을	-11.1433
▁김현	-11.1434
▁꾸준한	-11.1434
▁목적을	-11.1434
▁첨가	-11.1435
▁착공	-11.1441
▁만들었	-11.1443
▁모르고	-11.1444
자리	-11.1445
▁마이크로	-11.1446
진흥원	-11.1447
▁마당	-11.1447
▁발간	-11.1447
▁얻기	-11.1448
》	-11.1448
▁대사관	-11.1449
▁설명서	-11.1452
▁사이즈가	-11.1454
▁착오	-11.1456
▁누락	-11.1456
▁아유	-11.1456
▁뛰어나	-11.1458
▁형제	-11.146
▁사회적경제	-11.1461
▁엄격한	-11.1464
▁중앙정부	-11.1467
▁유리한	-11.1474
▁소문	-11.1475
▁개최되는	-11.1475
▁대표적	-11.1476
점에서	-11.1478
▁누릴	-11.1478
▁급락	-11.1478
▁다운	-11.1479
최근	-11.1481
▁바라보는	-11.1481
전형	-11.1481
▁검거	-11.1482
▁조건으로	-11.1484
▁75	-11.1485
▁자신에게	-11.1486
▁오류가	-11.1486
전화	-11.1489
▁부패	-11.149
▁냉각	-11.1491
▁집중적으로	-11.1495
마켓	-11.1496
스코	-11.1496
경이	-11.1497
달러를	-11.1497
▁걸음	-11.1499
▁체중	-11.1499
▁달린	-11.15
▁선수단	-11.1501
▁연내	-11.1501
학기	-11.1502
▁각호의	-11.1503
▁형식으로	-11.1503
▁경찰관	-11.1504
▁불거진	-11.1504
▁그리스도	-11.1505
▁펜션	-11.1505
▁셰프	-11.1506
냐고	-11.1506
현대	-11.1506
▁걸립니다	-11.1507
▁연령대	-11.1511
▁지낸	-11.1512
▁성남시	-11.1514
(6	-11.1515
▁끝으로	-11.1517
▁메르스	-11.1518
▁경유	-11.1519
▁성매매	-11.1519
▁끝이	-11.152
▁일입니다	-11.152
▁근절	-11.152
▁적힌	-11.1521
▁미술관	-11.1522
셨다	-11.1522
▁많기	-11.1527
왔던	-11.1528
층이	-11.1531
덴	-11.1532
▁승무원	-11.1532
로써	-11.1533
▁이하로	-11.1534
54	-11.1534
▁물리적	-11.1536
종이	-11.1537
▁단계에서	-11.1539
▁편이다	-11.154
▁고민을	-11.154
첨	-11.1541
▁필름	-11.1543
▁맡았	-11.1543
▁말합니다	-11.1545
군에	-11.1547
▁자립	-11.1548
오늘	-11.1548
▁골프장	-11.1549
융합	-11.1551
▁혹	-11.1551
▁나타난	-11.1552
▁달아	-11.1552
▁갓	-11.1553
▁고성	-11.1553
간다	-11.1554
됐	-11.1556
▁국가에서	-11.1556
▁포도	-11.1556
▁장소는	-11.1556
▁경관	-11.1557
▁챔피언	-11.156
▁콘셉트	-11.1561
▁아닌가요	-11.1561
▁신뢰할	-11.1561
▁맛집	-11.1561
▁현대자동차	-11.1562
▁몫	-11.1563
▁업체의	-11.1566
▁세탁기	-11.1567
▁브랜드의	-11.1569
▁산소	-11.157
▁우정	-11.1571
▁움직이는	-11.1571
▁편의성	-11.1574
▁편입	-11.1574
가스	-11.1575
▁온실가스	-11.1575
▁모래	-11.1577
트가	-11.1578
▁분들께	-11.1579
▁해주시면	-11.1579
▁용이	-11.158
▁결산	-11.1581
▁도망	-11.1583
▁의미한다	-11.1585
여부를	-11.1585
▁전수	-11.1591
초등학교	-11.1593
된다고	-11.1593
▁재벌	-11.1595
▁이후에는	-11.1595
▁오셔서	-11.1596
▁출신의	-11.1597
▁재미있	-11.1598
둘	-11.16
▁법을	-11.1603
▁첨부파일	-11.1604
계의	-11.1605
▁판매합니다	-11.1607
▁원하신다면	-11.1607
▁김경수	-11.1608
▁모양의	-11.161
▁자격이	-11.1614
▁수사관	-11.1617
▁특혜	-11.1618
▁시작되는	-11.1619
▁눈빛	-11.1619
▁궁금	-11.162
▁느껴	-11.162
▁레드	-11.1625
▁음반	-11.1625
▁여부가	-11.1626
▁용산	-11.1626
했으니	-11.1631
▁내장	-11.1632
▁매도	-11.1634
▁들지	-11.1634
▁헌신	-11.1634
적이다	-11.1635
▁떨어졌다	-11.1635
▁규격	-11.1638
▁제안이	-11.1639
▁정상적으로	-11.1645
▁성희롱	-11.1646
▁넥센	-11.1646
▁붙잡	-11.1648
▁자연스러운	-11.1648
▁마십시오	-11.1649
흐	-11.165
▁130	-11.165
▁세계에	-11.165
▁달러를	-11.1651
▁받으며	-11.1651
▁붐	-11.1652
▁시기를	-11.1652
▁재석이	-11.1655
동물	-11.1655
▁DMZ	-11.1656
▁시가	-11.1656
▁경찰서	-11.166
▁커다란	-11.166
▁남자가	-11.1661
▁압축	-11.1661
▁강점	-11.1662
▁이불	-11.1662
자격	-11.1663
▁사이트에서	-11.1665
▁게스트	-11.1665
▁기술력을	-11.1667
▁만기	-11.1675
▁불교	-11.1677
▁알아보고	-11.1679
▁단단	-11.168
▁김상	-11.1682
▁아닌지	-11.1682
▁볼거리	-11.1682
▁진영	-11.1683
▁김기	-11.1684
▁유독	-11.1685
▁버닝썬	-11.1686
더라고	-11.1687
▁타결	-11.1687
▁배송비	-11.1687
99	-11.1688
▁공사가	-11.1688
▁취향	-11.1688
▁칩	-11.1689
▁대전시	-11.1694
냈습니다	-11.17
▁결정에	-11.17
▁지급하는	-11.1702
▁고객과	-11.1703
▁자외선	-11.1703
사업이	-11.1704
▁우리도	-11.1704
▁장기화	-11.1706
▁순으로	-11.1707
▁영감을	-11.1707
▁어머님	-11.1707
▁개인이	-11.1707
▁유죄	-11.1708
▁이외에도	-11.171
▁의거	-11.171
▁경쟁력이	-11.171
론이	-11.1711
기념	-11.1712
▁내용과	-11.1713
▁뚜렷	-11.1716
▁USB	-11.1718
되었을	-11.1718
▁연결해	-11.1721
▁대화가	-11.1722
▁깨끗하게	-11.1722
▁놓은	-11.1722
▁원두	-11.1723
EU	-11.1723
어도	-11.1724
역량	-11.1724
▁자금이	-11.1725
▁개최된다	-11.1725
▁신곡	-11.1726
▁개발자	-11.1726
▁뜻이	-11.1727
▁농민	-11.1728
▁부분에서	-11.1729
▁손실을	-11.173
▁뮤직비디오	-11.1732
▁갱신	-11.1732
▁하네요	-11.1732
▁보상을	-11.1732
▁판단을	-11.1738
▁옥상	-11.1739
▁기사가	-11.174
▁조건에	-11.174
▁줄을	-11.174
▁열악한	-11.1741
셨습니다	-11.1742
▁방식이다	-11.1742
수로	-11.1743
▁일상생활	-11.1744
▁물량이	-11.1745
▁류현진	-11.1746
렸습니다	-11.1749
▁나눌	-11.175
▁생각하면	-11.1756
행하여야	-11.1756
▁부자	-11.1759
▁허브	-11.176
▁코스닥	-11.1761
▁자기가	-11.1761
▁개성공단	-11.1761
놀	-11.1764
잠	-11.1765
▁1.5	-11.1765
▁받아서	-11.1765
▁좋은데	-11.1766
생명	-11.1767
▁있네요	-11.177
▁급증	-11.1771
▁공유하는	-11.1772
▁날을	-11.1773
▁국내에	-11.1774
▁무거운	-11.1775
▁컬렉션	-11.1775
▁돼지고기	-11.1776
▁요청이	-11.1777
우가	-11.1777
▁개최한	-11.1777
▁있었는지	-11.1777
▁외국어	-11.1778
▁등재	-11.1778
▁해석된다	-11.178
▁이슈가	-11.178
▁액체	-11.178
▁이뤄진다	-11.1781
▁너한테	-11.1783
▁조식	-11.1783
▁폴	-11.1785
▁정책의	-11.1785
▁등도	-11.1786
일로부터	-11.1786
▁없지	-11.1787
▁우리와	-11.1787
눈	-11.1788
▁오를	-11.1791
▁조합원	-11.1791
▁거뒀다	-11.1792
▁더욱더	-11.1794
▁민주당이	-11.1794
▁맞추	-11.1798
▁해석이	-11.1798
▁영업이익	-11.1798
업소	-11.1799
▁어렵	-11.1799
▁교원	-11.18
▁장려	-11.1802
▁사용하세요	-11.1804
▁판매량	-11.1805
복을	-11.1807
▁미안해	-11.1811
▁예상보다	-11.1812
▁후보는	-11.1814
사인	-11.1814
▁서해	-11.1816
▁싶다고	-11.1817
▁뭔지	-11.1818
▁고지	-11.1818
▁펼쳤다	-11.1821
▁아닐까	-11.1821
▁결과물	-11.1822
해주실	-11.1822
▁탄탄한	-11.1825
남북	-11.1825
▁엠	-11.1825
▁낫	-11.1828
▁같지	-11.1832
▁좋아하지	-11.1833
▁알레르기	-11.1833
▁기꺼이	-11.1833
▁영업사원	-11.1833
58	-11.1837
▁소득이	-11.1839
▁경제의	-11.1839
캠퍼스	-11.184
▁키트	-11.184
▁상정	-11.1842
▁드리	-11.1843
공유	-11.1844
졌어요	-11.1845
으려	-11.1846
▁터지	-11.1846
▁지속될	-11.1847
▁뵙겠습니다	-11.1848
펠	-11.1848
▁국세청	-11.1851
▁그쪽	-11.1851
▁컨	-11.1851
▁건강보험	-11.1851
▁연구에	-11.1853
▁영등포구	-11.1854
회사의	-11.1855
수단	-11.1856
▁오늘도	-11.186
41	-11.1862
▁지역구	-11.1864
▁가정용	-11.1864
▁《	-11.1866
▁날짜가	-11.1866
▁판매할	-11.1867
▁다양성	-11.1867
▁건물을	-11.1872
▁의학	-11.1873
▁와중에	-11.1873
▁일괄	-11.1878
▁주어	-11.1879
▁평창	-11.1879
▁초안	-11.188
▁충	-11.188
▁베네수엘라	-11.1881
괴	-11.1881
원인	-11.1881
해주시고	-11.1882
▁본질	-11.1882
▁해고	-11.1884
▁몰아	-11.1886
▁썼다	-11.1888
▁알았	-11.1888
▁확보를	-11.1889
▁많다고	-11.189
▁상품으로	-11.1891
▁지정한	-11.1892
▁나타날	-11.1892
▁경기에	-11.1893
ST	-11.1893
대한	-11.1893
▁고객들에게	-11.1896
▁태극기	-11.1898
▁만찬	-11.1898
망이	-11.1899
▁물론입니다	-11.19
▁불신	-11.19
▁좋아할	-11.1906
▁무서워	-11.1906
생활을	-11.1908
▁강화하는	-11.1909
깨	-11.191
▁센	-11.1913
▁선택해	-11.1914
▁고개를	-11.1915
▁관점에서	-11.1917
운전	-11.1917
▁읽는	-11.1919
BBB	-11.192
▁요구하고	-11.1921
▁오사카	-11.1921
▁핀	-11.1922
재난	-11.1925
해줍니다	-11.1925
▁불가피	-11.1929
▁한국영화	-11.1929
▁것이기	-11.193
▁남용	-11.1932
▁겨울에	-11.1935
▁태어난	-11.1936
▁출퇴근	-11.1936
▁통관	-11.1936
▁싶었습니다	-11.1938
▁깔끔한	-11.1941
▁나누	-11.1942
▁구매하신	-11.1942
▁바디	-11.1948
륜	-11.1949
▁여는	-11.1949
▁수량은	-11.1949
▁충분	-11.1949
▁여론조사	-11.1955
또	-11.1957
57	-11.196
▁VR	-11.196
▁쿠션	-11.196
▁설치해	-11.1961
▁노무현	-11.1961
▁서민	-11.1961
▁타이	-11.1965
▁감동을	-11.1965
▁이루어져	-11.1965
▁처리하기	-11.1965
▁2003	-11.1965
▁음식물	-11.1966
▁양보	-11.1967
닥	-11.1971
몽	-11.1971
관리를	-11.1973
▁지향	-11.1974
▁벨	-11.1974
▁게시물	-11.1976
75	-11.1976
▁쿠폰	-11.198
시스템을	-11.1982
팀을	-11.1982
콘텐츠	-11.1985
▁보행	-11.1989
▁살기	-11.199
▁정상적인	-11.1991
▁거세	-11.1993
▁원리	-11.1993
▁와이파이	-11.1995
▁꼽히는	-11.1995
▁과자	-11.1995
자에	-11.1998
아가	-11.1998
력과	-11.1998
▁찾아가는	-11.1999
시설이	-11.1999
공정	-11.2001
▁요청합니다	-11.2003
▁상향	-11.2003
▁결과로	-11.2006
▁고통을	-11.2007
▁접수된	-11.2009
▁자녀가	-11.201
▁이용료	-11.201
▁양육	-11.2011
▁이밖에	-11.2011
▁살아가는	-11.2011
▁눈물	-11.2013
▁마련되어	-11.2015
▁만나기	-11.2017
준비	-11.2018
▁넣을	-11.202
▁달한다	-11.2022
▁의료진	-11.2023
▁잘하는	-11.2024
▁드레스	-11.2024
▁선물로	-11.2026
▁썼	-11.2026
▁목사는	-11.2027
▁배웠	-11.2029
▁실정이다	-11.203
텐	-11.2031
띠	-11.2033
▁사회를	-11.2033
▁시행하는	-11.2034
▁이성	-11.2034
▁복사	-11.2035
▁최씨	-11.2035
▁사후	-11.2038
▁구매하는	-11.2039
▁것인가	-11.2039
▁출구	-11.204
▁경험과	-11.2043
▁도와주	-11.2043
▁띠	-11.2046
낙	-11.2046
민원	-11.2047
▁국회가	-11.2047
▁응급	-11.2048
88	-11.205
▁공기청정기	-11.2052
▁차별화된	-11.2052
▁메신저	-11.2054
▁드림	-11.2054
▁추진해	-11.2055
▁길어	-11.2057
▁분할	-11.2058
▁보건소	-11.2061
왔	-11.2064
▁때문이라고	-11.2066
▁발생하면	-11.2066
▁개최된	-11.2067
월말	-11.2068
▁염증	-11.2068
▁아시아나항공	-11.2069
마크	-11.2069
▁보험금	-11.207
▁제기된	-11.2072
▁개가	-11.2073
▁이씨	-11.2073
▁공간에서	-11.2077
▁기뻐	-11.2077
▁국무장관	-11.2078
▁괜찮을	-11.208
수술	-11.2082
제안	-11.2083
딘	-11.2084
▁서대문구	-11.2084
▁서면으로	-11.2085
▁밖	-11.2085
▁자제	-11.2087
▁결과적으로	-11.2088
▁공유할	-11.209
▁식당에서	-11.209
▁건강하게	-11.2091
▁관심사	-11.2091
▁확립	-11.2091
▁귀사께서	-11.2091
▁벨트	-11.2092
▁주최하는	-11.2092
▁장소로	-11.2093
버린	-11.2097
▁참여가	-11.2099
▁1980	-11.2102
▁기기를	-11.2104
▁조세	-11.2105
▁포즈	-11.2106
픽	-11.2107
▁가볍고	-11.2107
▁느껴지는	-11.2108
▁보복	-11.2109
▁산출	-11.211
과정을	-11.2113
▁돕고	-11.2113
▁블록	-11.2116
▁맞을	-11.2116
▁전신	-11.2117
▁청렴	-11.2117
의무	-11.2118
▁경기도에서	-11.2119
▁재미있게	-11.2121
▁대리점	-11.2122
▁굳	-11.2124
▁직면	-11.2125
임대	-11.2125
▁세월	-11.2127
▁문제와	-11.2129
현황	-11.2129
▁리뷰	-11.213
▁대회에	-11.2131
▁견학	-11.2133
▁구입할	-11.2134
▁되겠습니다	-11.2135
명씩	-11.2135
▁농업인	-11.2136
▁거치	-11.2136
▁있잖아	-11.2138
▁저런	-11.2139
▁물어	-11.2139
▁속한	-11.214
▁특별법	-11.214
▁날아	-11.214
▁언론에	-11.2141
▁노력해	-11.2142
▁맞추어	-11.2142
▁사무총장	-11.2144
▁무렵	-11.2145
▁강조한	-11.2145
▁해결하는	-11.2146
▁따뜻하게	-11.2147
▁규칙으로	-11.2148
▁대부	-11.2149
신도시	-11.2149
▁운동이	-11.215
▁권위	-11.2151
▁익숙	-11.2152
▁그다음	-11.2152
산업단지	-11.2153
▁평범한	-11.2153
▁막걸리	-11.2154
▁장소에서	-11.2154
▁답변이	-11.2157
▁밑에	-11.2157
▁사라지	-11.2158
▁논란에	-11.2161
▁가족들	-11.2164
▁중이에요	-11.2165
▁힘들었	-11.2165
▁이루어	-11.2166
이네요	-11.2166
잎	-11.2167
▁그러면서	-11.2168
▁신청이	-11.2168
원입니다	-11.2169
▁예상치	-11.217
▁반송	-11.217
78	-11.2173
▁귀여운	-11.2174
▁대단	-11.2175
▁관람객들	-11.2175
▁대륙	-11.2176
▁이외의	-11.2177
▁향기	-11.2178
▁남한	-11.2178
▁약한	-11.2178
▁활기	-11.218
▁카드로	-11.218
▁피곤	-11.2181
▁감안해	-11.2181
▁프로젝트가	-11.2182
볼게요	-11.2182
지역에서	-11.2183
▁자신만	-11.2184
▁얘기가	-11.2185
▁이뤄지고	-11.2185
▁체계적으로	-11.2186
시나요	-11.2188
▁트리	-11.2188
▁당직	-11.2189
▁오렌지	-11.2189
▁하드웨어	-11.2189
▁대북제재	-11.2189
▁변수	-11.219
▁침실	-11.2192
▁혜	-11.2192
▁행위가	-11.2193
대리	-11.2194
▁입양	-11.2195
▁산업이	-11.2195
▁충실	-11.2196
▁처리하는	-11.2198
ed	-11.2199
▁고령화	-11.22
▁의하면	-11.2203
▁업로드	-11.2204
▁주문했습니다	-11.2204
▁담당하고	-11.2204
▁박수	-11.2205
MA	-11.2208
▁확보할	-11.2208
▁공연은	-11.2209
▁나타나고	-11.2209
▁유의	-11.2209
▁홍보를	-11.2211
▁집중되고	-11.2211
별로는	-11.2212
▁증가세	-11.2212
활성화	-11.2213
▁일본은	-11.2216
▁이해하기	-11.2216
▁저출산	-11.2218
▁내기	-11.2219
▁보호하기	-11.222
▁회의실	-11.222
▁간단히	-11.2221
▁실력이	-11.2223
▁이른다	-11.2224
▁배수	-11.2226
▁전화로	-11.2227
▁마실	-11.2227
▁태도를	-11.2228
해왔습니다	-11.2228
무늬	-11.2229
▁땅을	-11.2231
▁적발됐다	-11.2232
▁검은	-11.2232
▁실효성	-11.2232
택시	-11.2232
어로	-11.2233
▁데리고	-11.2235
▁대책이	-11.2235
▁빨간색	-11.2236
전환	-11.2238
민족	-11.2239
▁인체	-11.2241
됐으나	-11.2242
▁소식통	-11.2243
▁만들어야	-11.2243
▁어머니가	-11.2244
았	-11.2244
수의	-11.2244
렸고	-11.2244
▁머리가	-11.2245
▁문화와	-11.2245
▁내놨다	-11.2246
▁인식을	-11.2246
▁네덜란드	-11.2249
음에도	-11.225
▁미루	-11.2252
▁처리해	-11.2252
▁높아졌다	-11.2256
분간	-11.2256
▁참석하는	-11.2257
▁41	-11.2258
▁개선에	-11.2259
▁과제를	-11.2259
▁운영되고	-11.2259
▁화합	-11.226
▁유료	-11.2263
▁균형을	-11.2265
▁계신가요	-11.2266
▁번씩	-11.2266
▁몰래	-11.2267
▁반성	-11.2267
▁묶	-11.2267
중에	-11.2268
▁폭염이	-11.2268
교수	-11.2268
들로부터	-11.2272
꼬	-11.2273
시장은	-11.2274
상에서	-11.2276
발전소	-11.2281
▁들어간다	-11.2281
▁최적화	-11.2282
▁겨우	-11.2282
마당	-11.2283
▁우리나라에서	-11.2283
▁체감	-11.2283
▁연도	-11.2286
▁사건과	-11.2287
▁없네요	-11.2287
▁어렵고	-11.2287
▁치약	-11.229
▁얼굴에	-11.2291
▁보충	-11.2292
▁청도	-11.2292
선언	-11.2293
▁요청하는	-11.2294
▁환호	-11.2295
▁정신을	-11.2295
▁교복	-11.2296
▁납기	-11.2298
▁국회에	-11.2299
▁공부하는	-11.2299
▁사랑의	-11.2299
▁토마토	-11.2304
▁그녀에게	-11.2305
미래	-11.2307
▁이용하고	-11.2307
기술을	-11.2309
▁유감입니다	-11.231
▁신원	-11.2311
▁싸이	-11.2312
▁놀러	-11.2315
▁필수적	-11.2316
▁46	-11.2318
▁의무를	-11.2318
사장	-11.2318
▁터져	-11.2318
▁팔아	-11.2318
▁축제가	-11.2319
캐	-11.232
▁소포	-11.2323
▁남아있	-11.2323
▁국산	-11.2323
▁기록하며	-11.2324
▁월세	-11.2325
▁깨닫	-11.2325
▁크로스	-11.2326
▁구워	-11.2328
▁친구는	-11.2328
▁사무실을	-11.2329
▁드시	-11.2334
▁과학기술정보통신부	-11.2341
▁일으킨	-11.2341
▁키보드	-11.2341
▁내리고	-11.2342
▁한국교회	-11.2342
▁매장에	-11.2343
▁안양	-11.2344
▁발생한다	-11.2345
▁입소문	-11.2347
▁투약	-11.2347
만으로도	-11.2347
▁시에는	-11.2348
시장이	-11.2351
▁중심에	-11.2351
▁내어	-11.2353
▁매출액	-11.2354
▁받아볼	-11.2355
랭	-11.2355
▁변호인	-11.2356
▁잇는	-11.2356
▁치과	-11.2357
▁사이트를	-11.2357
▁품절	-11.2358
es	-11.2358
▁깔끔하게	-11.236
▁채우	-11.2362
▁의무화	-11.2363
▁밀집	-11.2364
▁스마트폰을	-11.2364
ro	-11.2364
수수료	-11.2366
▁그러고	-11.2368
▁15%	-11.2368
▁우린	-11.2368
▁숨겨	-11.237
성분	-11.237
▁빅뱅	-11.2371
▁반영해	-11.2372
▁있으세요	-11.2372
▁미용	-11.2373
▁좁은	-11.2375
▁이루어지	-11.2376
▁구할	-11.2377
▁마크	-11.2379
▁접할	-11.2379
▁무단	-11.2381
▁확보하고	-11.2381
▁들었는데	-11.2385
▁완료된	-11.2387
▁실시했다	-11.2387
▁주어진다	-11.2387
▁진행을	-11.2389
되길	-11.239
▁다닐	-11.2392
▁시대가	-11.2395
떡	-11.2397
▁편한	-11.2399
▁무관	-11.2399
▁봤어	-11.2399
▁법원행정처	-11.24
▁축적	-11.2401
▁변호사가	-11.2401
▁담당자님	-11.2402
겠네	-11.2406
▁인삼	-11.2406
▁관계없이	-11.2406
▁부족해	-11.2408
▁내용으로	-11.2409
▁호텔을	-11.241
▁유래	-11.241
▁혁명	-11.241
▁물론이고	-11.2411
효과가	-11.2412
▁학생의	-11.2412
▁가족들과	-11.2412
▁이럴	-11.2412
▁찍고	-11.2413
번호를	-11.2413
▁실형	-11.2414
▁띄	-11.2414
▁만일	-11.2416
▁펼칠	-11.2417
▁많았고	-11.2418
▁뚜렷한	-11.2419
▁잠실	-11.242
▁늘리는	-11.2421
▁결의	-11.2423
▁무늬	-11.2423
▁미래의	-11.2423
▁그녀를	-11.2425
▁본사에서	-11.2427
▁폭우	-11.2428
▁연구가	-11.243
▁하우스	-11.243
▁해산물	-11.243
▁위의	-11.2432
▁끊어	-11.2433
▁드루킹	-11.2433
▁신청자	-11.2434
▁원형	-11.2434
▁자치구	-11.2435
▁알아요	-11.2436
지사	-11.2441
▁지은	-11.2441
▁무대에서	-11.2442
▁비공개	-11.2443
▁받았고	-11.2445
▁시야	-11.2445
▁잘라	-11.2445
이니까	-11.2446
대금	-11.2447
▁맡겨	-11.2448
▁파트너십	-11.2449
▁가까워	-11.2449
▁걸렸다	-11.245
▁확률이	-11.245
자들에게	-11.2451
▁대변	-11.2451
협회가	-11.2453
▁센터장	-11.2453
양이	-11.2455
▁청구서	-11.2456
▁사이트에	-11.2457
▁FA	-11.2459
밭	-11.246
▁있으시	-11.2462
▁어렵다고	-11.2463
▁선호도	-11.2463
▁고성능	-11.2465
▁됩니까	-11.2465
▁선교	-11.2466
▁꿈이	-11.2468
겠지	-11.247
자로서	-11.247
▁타사	-11.2472
▁새우	-11.2474
▁신용장	-11.2475
▁들어올	-11.2476
청이	-11.2477
▁돼야	-11.2477
▁다름이	-11.2479
▁결혼을	-11.248
▁물고기	-11.2483
위원회를	-11.2484
▁도매로	-11.2484
지금	-11.2489
▁드시면	-11.2493
▁객관적	-11.2494
▁공로	-11.2494
▁놓치지	-11.2495
▁핀테크	-11.2495
▁치르	-11.2496
▁손이	-11.2497
▁보았	-11.2497
▁부장	-11.2498
▁이루어진	-11.2498
▁가정에서	-11.2499
▁자체적으로	-11.25
▁지혜	-11.2502
▁질의	-11.2502
▁투입해	-11.2504
▁시리아	-11.2504
▁지도부	-11.2505
▁그것들을	-11.2505
▁중요하게	-11.2505
▁짝	-11.2506
체가	-11.2507
▁추억을	-11.2507
▁전에는	-11.2507
▁미안	-11.2508
지침	-11.2509
▁어두운	-11.251
▁폭넓	-11.251
▁시드니	-11.251
▁농사	-11.2511
▁셋째	-11.2511
▁지불해야	-11.2512
▁당부	-11.2515
▁비준	-11.2516
피스	-11.2516
▁저자	-11.2516
▁방식의	-11.2517
▁유인	-11.2518
▁있잖아요	-11.2519
기계	-11.2519
으셨	-11.252
▁않았어	-11.2522
▁치솟	-11.2526
▁레벨	-11.2527
▁세무	-11.2527
느	-11.2527
▁타자	-11.2528
건물	-11.2529
▁말씀이	-11.2529
▁정전	-11.253
받았습니다	-11.2531
▁입는	-11.2532
▁관람객	-11.2534
훈이	-11.2536
투표	-11.2536
▁장관과	-11.2537
▁신청서	-11.2538
▁접근할	-11.254
광주	-11.254
▁확인해야	-11.254
▁미팅이	-11.2541
▁과정은	-11.2542
▁한동안	-11.2543
▁행복하게	-11.2543
책임자	-11.2544
대사	-11.2544
세로	-11.2545
▁시점에	-11.2546
▁이번에도	-11.2547
▁최우수	-11.255
▁대부분은	-11.2552
▁방송된	-11.2552
89	-11.2553
셋	-11.2554
▁제기했다	-11.2555
▁먹은	-11.2556
▁47	-11.2556
▁샤	-11.2559
▁인천공항	-11.2559
▁사회에서	-11.2561
▁보내주시기	-11.2561
우는	-11.2562
▁신세계	-11.2564
▁KB	-11.2564
▁저지	-11.2565
▁자고	-11.2565
▁아래로	-11.2569
▁입주자	-11.257
▁살균	-11.2572
▁핸들	-11.2573
▁공격수	-11.2574
▁금연	-11.2574
▁구매하실	-11.2574
▁색상은	-11.2575
▁떨어졌	-11.2576
▁게임이	-11.2577
▁영하	-11.2579
행동	-11.2579
▁식기	-11.258
▁드러난	-11.2581
했다면	-11.2581
▁작품은	-11.2581
▁보강	-11.2582
▁움직이	-11.2583
▁세계를	-11.2584
▁결정하는	-11.2584
▁짓고	-11.2584
85	-11.2584
▁가중	-11.2586
▁과도	-11.2587
튜	-11.2588
▁거대	-11.2589
▁도대체	-11.2589
▁멍	-11.2591
DC	-11.2591
▁일부러	-11.2593
▁침수	-11.2594
▁슛	-11.2596
놨	-11.2596
▁불필요한	-11.2597
▁부리	-11.2597
08	-11.2598
▁민주평화당	-11.26
▁읽을	-11.26
▁소모	-11.26
▁팀에	-11.2602
▁이어진다	-11.2602
▁복음	-11.2602
문서	-11.2603
▁사용됩니다	-11.2603
▁설치되어	-11.2604
▁힐링	-11.2604
▁업체는	-11.2606
▁김성태	-11.2606
▁마련하고	-11.2607
▁향수	-11.261
▁말씀하시는	-11.2614
▁예상하고	-11.2616
▁서울과	-11.2616
▁로비	-11.2616
▁문재인정부	-11.2619
▁피고인	-11.2619
▁공급자	-11.262
▁머리카락	-11.262
▁세입	-11.2621
▁떨어지	-11.2621
▁보답	-11.2622
▁장소가	-11.2623
분들이	-11.2623
▁도정	-11.2626
나가는	-11.2626
복합	-11.2627
▁대학에	-11.263
▁이동통신	-11.2631
앱	-11.2632
수도	-11.2632
▁쉬는	-11.2636
▁넓어	-11.2636
▁사무실에서	-11.2637
▁지원금	-11.2639
▁카자흐스탄	-11.264
▁내부적으로	-11.2641
하긴	-11.2643
▁고등학생	-11.2645
▁심의위원회	-11.2645
▁붉은	-11.2647
▁선정한	-11.2648
▁일산	-11.2649
▁보장합니다	-11.265
▁오더	-11.2652
▁착용감	-11.2652
▁대면	-11.2653
▁느낀	-11.2653
▁하기로	-11.2653
▁넣는	-11.2654
기준을	-11.2655
▁편리합니다	-11.2655
부대	-11.2656
▁용인시	-11.2657
▁공제	-11.2657
▁엘리베이터	-11.2657
내고	-11.2657
▁중대한	-11.2658
▁특강	-11.2658
▁정신적	-11.2659
▁무게를	-11.266
차원	-11.266
▁사람입니다	-11.2661
▁곳도	-11.2662
▁필요하신	-11.2663
▁길에	-11.2663
▁젊은이들	-11.2664
▁것들	-11.2666
▁자유로운	-11.2668
▁기쁘게	-11.2669
▁싼	-11.2672
▁여사	-11.2673
▁발명	-11.2675
구매	-11.2677
▁원정	-11.2677
봤다	-11.2677
▁잘해	-11.2677
▁제공된다	-11.2679
▁좁	-11.2679
▁소득주도성장	-11.268
▁내륙	-11.268
▁되었고	-11.268
▁스파	-11.2681
로서는	-11.2682
▁핸드	-11.2683
▁깊게	-11.2683
▁확대될	-11.2683
▁환수	-11.2684
▁감싸	-11.2684
▁환급	-11.2689
▁마련할	-11.269
▁손목	-11.2693
드라마	-11.2694
▁마스터	-11.2696
▁겪은	-11.2699
▁시원	-11.2699
▁파란색	-11.27
액은	-11.27
▁발표할	-11.2701
▁서점	-11.2702
▁원천	-11.2703
▁양천구	-11.2704
▁연결된	-11.2705
▁구성해	-11.2705
부터는	-11.2706
됐는지	-11.2709
▁극단	-11.2709
아웃	-11.2712
▁주연	-11.2713
겁니다	-11.2713
▁공무원의	-11.2713
▁엄청나게	-11.2715
▁오토바이	-11.2715
▁도착하지	-11.2715
▁토양	-11.2715
▁동화	-11.2715
▁돋보이는	-11.2715
▁협력업체	-11.2717
주시겠어요	-11.2722
▁금융위기	-11.2722
▁관광객들이	-11.2723
▁같고	-11.2723
▁욕	-11.2726
렸던	-11.2727
되었다는	-11.2727
▁전략이	-11.2729
때문에	-11.273
▁투명성	-11.2733
운반	-11.2734
▁참고로	-11.2736
▁샐러드	-11.2738
▁참여하여	-11.2743
▁알려주실	-11.2744
▁타당성	-11.2745
팝	-11.2745
▁되찾	-11.2746
▁기법	-11.2747
▁황금	-11.2747
▁토론토	-11.275
▁의미로	-11.275
▁조언을	-11.2752
승인	-11.2752
합의	-11.2752
▁눈으로	-11.2752
▁확인하실	-11.2753
▁군산	-11.2753
▁활동하는	-11.2753
▁견	-11.2754
▁확실하게	-11.2755
▁광화문	-11.2756
▁생겨서	-11.2757
▁장미	-11.2757
▁지원대상	-11.2758
▁진행되며	-11.2762
▁올해로	-11.2763
▁보도에	-11.2764
▁등장하는	-11.2765
▁맑은	-11.2766
▁보고서에	-11.2767
▁벌어졌다	-11.2767
▁다루는	-11.2768
혔	-11.2768
지난	-11.2768
▁받았던	-11.2769
▁청소년들이	-11.2771
▁어디서나	-11.2772
▁불가능합니다	-11.2773
▁두피	-11.2774
매체	-11.2774
▁원본	-11.2776
▁주머니	-11.2776
▁알리기	-11.2777
▁멈춰	-11.2778
▁축구대표팀	-11.2779
▁서울시는	-11.2779
ri	-11.278
개월이	-11.2781
▁추진하기	-11.2783
▁국정원	-11.2786
▁국무위원장의	-11.2786
▁버섯	-11.2786
보기	-11.2789
만대	-11.2791
▁모르겠어	-11.2791
▁빌리	-11.2792
통일	-11.2792
▁바가	-11.2793
▁강의를	-11.2795
▁입건	-11.2796
▁단서	-11.2797
▁양상	-11.2797
▁감소했다	-11.2798
▁시티	-11.2799
▁독도	-11.28
▁분량	-11.2802
▁가격과	-11.2803
▁아니었다	-11.2803
▁방지하기	-11.2808
나눔	-11.281
▁기다릴	-11.281
▁갖는다	-11.2813
▁납니다	-11.2813
▁숨졌다	-11.2814
▁일주일에	-11.2815
▁오케이	-11.2818
▁혈관	-11.2819
노동자	-11.2819
▁판단해	-11.2822
▁맵	-11.2822
▁개발하는	-11.2824
▁어린이들이	-11.2825
▁액세스	-11.2827
▁차라리	-11.2827
▁무너지	-11.2827
▁저지른	-11.2827
▁괜찮을까요	-11.2827
▁잘한다	-11.2828
▁지정할	-11.2832
▁방침을	-11.2832
티브	-11.2835
아시아	-11.2836
▁s	-11.2837
▁김희	-11.2839
▁조사할	-11.284
▁출생	-11.2841
FFF	-11.2842
▁그와	-11.2843
▁퀴즈	-11.2843
▁사람들도	-11.2845
▁드러내	-11.2847
▁살아남	-11.2848
▁학계	-11.2851
▁않았을	-11.2853
봉사	-11.2854
▁PD	-11.2854
▁읽기	-11.2854
▁성장하고	-11.2858
나갈	-11.2859
▁돌아올	-11.2859
▁방문객	-11.286
▁토요일에	-11.2861
▁추천드립니다	-11.2861
▁무엇	-11.2862
▁통신사	-11.2863
▁가계	-11.2866
▁지분을	-11.2867
▁사육	-11.2868
▁출하	-11.2868
▁중점	-11.287
▁죽은	-11.2871
▁경제에	-11.2871
▁주문은	-11.2871
▁문화원	-11.2873
▁경력이	-11.2874
▁유지합니다	-11.2876
▁플레이어	-11.2877
▁일정한	-11.2877
득점	-11.2878
▁잎	-11.2881
회원	-11.2883
▁되죠	-11.2884
지원을	-11.2885
▁반박	-11.2886
▁지나가	-11.2887
법은	-11.289
▁멋있	-11.289
▁포트	-11.289
▁바라요	-11.2891
화와	-11.2892
▁충전기	-11.2893
▁내용이다	-11.2893
▁코트	-11.2894
-3	-11.2894
▁성공할	-11.2895
▁치러	-11.2896
▁형은	-11.2896
▁도시의	-11.2897
▁친절한	-11.2897
▁갖	-11.2898
▁변경이	-11.29
▁결정된	-11.29
▁이루는	-11.29
▁질서	-11.2901
▁수행하기	-11.2903
률을	-11.2903
음이	-11.2906
▁맛볼	-11.2907
▁이벤트가	-11.2909
공동체	-11.2909
비로	-11.2913
▁지키	-11.2917
▁업무가	-11.2918
▁매장을	-11.292
▁쏟아	-11.292
▁혁신을	-11.2921
▁모은다	-11.2925
▁식량	-11.2926
▁할인된	-11.2928
▁이어폰	-11.2929
채용	-11.293
▁개당	-11.2931
▁침입	-11.2931
▁하러	-11.2932
▁살펴보고	-11.2932
▁농협	-11.2932
▁않았기	-11.2933
▁수익성	-11.2935
▁계획하고	-11.2937
▁있네	-11.2939
▁여섯	-11.294
인들에게	-11.294
▁비닐	-11.2942
▁지사의	-11.2944
민주	-11.2945
▁우선적으로	-11.2945
▁나라를	-11.295
▁시간도	-11.2951
▁목적지	-11.2953
th	-11.2953
▁취해	-11.2954
▁온다	-11.2955
▁소비자의	-11.2956
▁무더위	-11.2956
故	-11.2956
▁할인해	-11.2957
▁막히	-11.2957
회계	-11.2961
플레이	-11.2962
조를	-11.2962
▁시기가	-11.2962
▁직원에게	-11.2963
▁생각했다	-11.2969
▁플라	-11.2969
▁마켓	-11.297
▁존재하는	-11.297
▁명확한	-11.2972
▁끝났	-11.2973
▁아이디어가	-11.2973
▁명문	-11.2974
▁리콜	-11.2974
▁49	-11.2974
투자증권	-11.2974
일정	-11.2975
레이션	-11.2975
브랜드	-11.2976
▁다큐멘터리	-11.2976
▁위안부	-11.2976
▁좋아해	-11.2978
▁합의했다	-11.298
▁저게	-11.2982
▁하위	-11.2982
▁고도	-11.2986
0.0	-11.2987
패를	-11.2987
▁쉽습니다	-11.2991
▁재개발	-11.2991
▁네티즌	-11.2992
▁메뉴가	-11.2992
▁질을	-11.2992
▁비롯하여	-11.2994
▁소망	-11.2994
▁춘천	-11.2995
▁도와드릴	-11.2995
시길	-11.2997
▁파악할	-11.2997
▁정도다	-11.2997
▁열풍	-11.2997
외교	-11.2998
▁고인	-11.2999
▁키가	-11.3
▁쓰여	-11.3001
▁심해	-11.3002
▁전인	-11.3003
▁소개를	-11.3004
▁체크아웃	-11.3005
▁여자가	-11.3006
▁빨간	-11.3007
▁적혀	-11.3007
▁목표는	-11.3007
▁있나	-11.3009
▁드라마가	-11.3009
▁기록하고	-11.3009
▁빠졌	-11.301
▁도자기	-11.3011
단위	-11.3011
협정	-11.3014
▁외면	-11.3015
부와	-11.3016
▁공조	-11.3018
84	-11.3019
▁넘지	-11.302
안보	-11.3021
▁폴란드	-11.3021
소비	-11.3021
▁원산지	-11.3022
▁페이스북에	-11.3023
▁쉬워	-11.3024
▁이루어질	-11.3024
▁벤	-11.3024
▁오븐	-11.3024
▁불참	-11.3025
▁삶에	-11.3026
계좌	-11.3027
▁공용	-11.3031
▁연준	-11.3031
▁있었을	-11.3032
▁연계해	-11.3033
▁매출을	-11.3033
▁바꾸고	-11.3033
▁분들도	-11.3033
▁관리하고	-11.3036
▁혁신적	-11.3037
▁두려움	-11.3038
▁도와줄	-11.3038
▁현역	-11.3039
케어	-11.304
▁일행	-11.304
▁실습	-11.3042
▁흐름이	-11.3042
▁인력이	-11.3045
뉴스	-11.3047
▁손님들	-11.3048
▁유산	-11.3048
지출	-11.3049
▁물러	-11.305
▁신약	-11.3051
과목	-11.3052
▁한눈에	-11.3054
▁다를	-11.3056
▁신생아	-11.3057
율은	-11.306
▁재계약	-11.3062
▁의혹과	-11.3064
▁티켓을	-11.3064
▁국회의장	-11.3065
자문	-11.3065
▁협의체	-11.3066
▁장기적으로	-11.3066
▁취약한	-11.3068
털	-11.3069
▁코스피	-11.3069
십니까	-11.3069
▁방식은	-11.3069
▁씁니다	-11.307
▁밝혀졌다	-11.3073
▁양사	-11.3073
밴드	-11.3074
▁설문	-11.3077
▁받습니다	-11.3077
▁차별화	-11.3078
혔다	-11.3078
▁경쟁사	-11.3078
▁제기되고	-11.3079
▁도시락	-11.308
특구	-11.3083
▁하원	-11.3083
▁고기를	-11.3084
▁식약처	-11.3087
▁줄어드는	-11.3087
▁내일까지	-11.3088
▁것임을	-11.3088
76	-11.3088
▁전문기관	-11.3089
이익	-11.3089
▁브리핑	-11.3091
▁정교	-11.3092
▁축사	-11.3094
공학	-11.3096
▁체결한	-11.3096
▁레이스	-11.3096
▁배우자	-11.3098
▁세팅	-11.3098
뒀	-11.3098
▁회동	-11.3099
▁골을	-11.3099
▁자택	-11.31
▁개발해	-11.3101
▁공휴일	-11.3101
체를	-11.3102
▁공통	-11.3103
▁식탁	-11.3104
▁많지만	-11.3105
▁씨를	-11.3106
보관	-11.3109
▁그릴	-11.3111
▁없는지	-11.3112
▁소중	-11.3112
▁지원자	-11.3116
팀의	-11.3117
졌던	-11.3119
텔레콤	-11.312
▁혐오	-11.3121
요리	-11.3122
▁적용한	-11.3126
▁믿	-11.3127
▁아파	-11.3128
▁깔	-11.3128
▁세부사항	-11.3129
▁예금	-11.3131
▁유연	-11.3132
▁푹	-11.3133
▁존경	-11.3134
프레	-11.3134
▁스캔	-11.3136
▁정신이	-11.3137
▁흐르는	-11.3137
스럽다	-11.3137
▁예뻐	-11.3137
▁신부	-11.3137
▁원하십니까	-11.3139
▁2001	-11.314
ec	-11.3143
▁어색	-11.3144
▁하나하나	-11.3149
▁우대	-11.3151
▁회피	-11.3151
▁기억에	-11.3152
▁실물	-11.3153
▁최첨단	-11.3154
음식	-11.3154
▁즐기	-11.3158
협의체	-11.3159
▁이메일에	-11.316
대전	-11.3161
▁장치가	-11.3163
▁있으신	-11.3163
▁한국은행	-11.3165
▁생명을	-11.3167
▁주셨습니다	-11.3168
레스	-11.3168
▁아내가	-11.3169
▁투자유치	-11.3171
▁비트	-11.3172
▁편견	-11.3173
▁의미합니다	-11.3174
인원	-11.3174
▁보내주	-11.3174
▁일선	-11.3174
니스	-11.3175
▁만들어서	-11.3175
드리고	-11.3178
▁속속	-11.3179
▁갑질	-11.318
▁속에서도	-11.3181
▁이것도	-11.3182
▁받았다고	-11.3183
석을	-11.3186
▁세우고	-11.3186
▁푸틴	-11.3187
▁속초	-11.3188
▁즐기고	-11.3192
▁본래	-11.3193
▁먹어도	-11.3194
▁사랑이	-11.3195
▁들었어	-11.3198
이네	-11.3199
광장	-11.3201
▁돌리	-11.3201
▁추천하는	-11.3201
▁역사가	-11.3203
▁스위치	-11.3204
▁채무	-11.3204
▁한참	-11.3204
현상	-11.3204
▁“20	-11.3205
▁뿐이다	-11.3205
▁새끼	-11.3207
▁금융위원회	-11.3209
니깐	-11.3209
▁공주	-11.3209
지방자치법	-11.321
▁중이며	-11.3211
▁계열	-11.3211
▁비누	-11.3211
▁컨퍼런스	-11.3211
▁금융회사	-11.3214
베리	-11.3214
▁공세	-11.3217
하신다면	-11.3219
멘	-11.322
▁공론화	-11.322
▁명소	-11.3221
▁부산광역시	-11.3222
▁소고기	-11.3223
이즈	-11.3225
▁활발하게	-11.3225
▁지불할	-11.3226
▁기량	-11.3226
▁소파	-11.3227
▁갔어요	-11.3228
보전	-11.3229
▁온도를	-11.323
▁모금	-11.3234
▁남측	-11.3234
▁기관에	-11.3236
뷰	-11.3236
▁배분	-11.3239
▁닿	-11.3239
▁저소득	-11.3241
▁협정	-11.3241
▁우울	-11.3242
▁싸움	-11.3242
▁우위	-11.3242
▁변환	-11.3244
▁정면	-11.3244
크로	-11.3245
▁약세	-11.3248
여부	-11.3248
▁늘리	-11.3248
▁통역	-11.3249
▁행진	-11.325
희망	-11.3252
▁자신들이	-11.3253
▁뉴질랜드	-11.3253
▁달걀	-11.3253
▁절단	-11.3255
▁차에	-11.3256
▁피드백	-11.3256
부분	-11.3257
▁입자	-11.3258
▁만들어졌습니다	-11.3259
▁확대할	-11.326
▁악재	-11.326
▁송치	-11.3262
▁경기도청	-11.3263
▁방송국	-11.3263
▁돌아온	-11.3263
▁개최할	-11.3264
▁공표	-11.3265
▁생산이	-11.3266
▁매력이	-11.3267
▁방문이	-11.3268
▁도매상	-11.3269
▁간편	-11.327
▁삼성바이오로직스	-11.327
▁아직은	-11.327
▁증권사	-11.3272
▁축산	-11.3273
▁방법입니다	-11.3273
95	-11.3274
▁받아들이	-11.3274
▁포털	-11.3277
담당자	-11.3278
▁통계청	-11.3279
이었는데	-11.3279
▁지키는	-11.3279
대요	-11.328
성에	-11.3281
▁건조한	-11.3282
▁발언이	-11.3284
▁그리스	-11.3286
▁급격한	-11.3286
▁문의해	-11.3287
▁재차	-11.3287
▁일일	-11.3288
▁구제역	-11.3288
▁셔츠	-11.3288
▁수사권	-11.3289
노인	-11.3289
▁건에	-11.329
비서관	-11.3291
▁생체	-11.3291
▁없으니	-11.3291
▁화성시	-11.3291
파이	-11.3291
▁창업자	-11.3292
▁주장하고	-11.3292
▁열정	-11.3292
▁되세요	-11.3293
▁못했어요	-11.3293
▁훌륭	-11.3293
▁싶다면	-11.3295
▁안쪽	-11.3295
▁간주	-11.3297
▁발표된	-11.3297
▁기적	-11.3299
두고	-11.3299
▁여성을	-11.3299
▁공정성	-11.3302
▁다치	-11.3303
▁컨디션	-11.3304
벤	-11.3304
하였는데	-11.3304
▁도주	-11.3308
▁그렇다	-11.3308
▁시작하기	-11.3308
속도	-11.331
▁인스타그램	-11.3311
▁없었어요	-11.3311
▁집중할	-11.3312
▁조절이	-11.3313
▁대회는	-11.3315
푸드	-11.3315
▁취지로	-11.3316
▁주최한	-11.3318
▁환기	-11.3319
▁정류장	-11.3321
▁둘러	-11.3321
▁택시를	-11.3321
▁MC	-11.3323
▁기대할	-11.3326
켓	-11.3326
▁영구	-11.3326
▁확대해	-11.3327
▁세관	-11.3329
▁친절하게	-11.333
▁51	-11.333
▁효율성을	-11.3331
영업	-11.3331
▁음식에	-11.3334
▁문구	-11.3335
▁양자	-11.3336
▁콘텐츠가	-11.3336
▁다가오는	-11.3336
모임	-11.3336
▁환자들	-11.3337
쌀	-11.3338
▁톱	-11.3339
▁단체가	-11.3339
▁Y	-11.334
▁고위급	-11.3341
▁베스트	-11.3341
▁공식적으로	-11.3341
▁녹아	-11.3342
▁이모	-11.3343
▁SUV	-11.3343
됐는데	-11.3345
▁사이즈는	-11.3345
리와	-11.3346
심사를	-11.3346
BC	-11.3348
▁영역을	-11.335
98	-11.335
▁웹툰	-11.3354
▁공판	-11.3355
▁공장이	-11.3355
▁시민의	-11.3357
▁전격	-11.3357
▁가려고	-11.3358
▁등에게	-11.3358
▁같다고	-11.3358
기한	-11.336
▁대목이다	-11.336
▁학생과	-11.3361
▁재학	-11.3361
▁특징이	-11.3362
▁분해	-11.3362
배우	-11.3362
▁김병	-11.3362
▁기술자	-11.3363
▁진열	-11.3363
ation	-11.3364
5%)	-11.3364
▁방한	-11.3367
▁노트	-11.3367
▁않았는데	-11.3368
▁세션	-11.3368
▁우려도	-11.3369
▁수업에	-11.337
▁레시피	-11.3371
▁이용하실	-11.3371
▁목재	-11.3372
▁대용량	-11.3373
▁선고받	-11.3373
▁발병	-11.3373
▁남북이	-11.3376
호를	-11.3377
▁싸우	-11.3378
▁있고요	-11.3379
▁라이트	-11.3381
▁교과	-11.3382
▁제천	-11.3383
▁성장이	-11.3383
겐	-11.3385
▁본부	-11.3385
▁시점에서	-11.3386
집을	-11.3386
▁거울	-11.3386
▁사장님이	-11.3387
▁약속한	-11.3388
▁제임스	-11.3388
▁스캔들	-11.3389
▁모르겠지만	-11.339
▁꿀	-11.339
▁않으며	-11.3391
드리는	-11.3392
Z	-11.3392
▁보내드린	-11.3394
▁인간이	-11.3397
▁마쳤다	-11.3398
▁다양	-11.3399
▁흔적	-11.34
▁인정한	-11.3401
▁약속했다	-11.3401
▁후배	-11.3401
▁전시장	-11.3401
났	-11.3402
월드	-11.3403
▁한국문화	-11.3404
▁분들에게	-11.3404
팔렘방	-11.3405
un	-11.3406
▁옷이	-11.3406
▁부재	-11.3407
▁척추	-11.3407
당시	-11.3408
▁가능하면	-11.3408
▁한잔	-11.341
▁방송사	-11.341
▁총수	-11.3413
▁보이며	-11.3414
해달라고	-11.3415
▁고마워요	-11.3415
▁페이스	-11.3417
▁주스	-11.3417
▁파주시	-11.3418
▁확보하기	-11.342
▁출연한	-11.3421
해진다	-11.3421
셨는데	-11.3422
▁환경오염	-11.3423
▁자발적으로	-11.3424
▁빠지	-11.3425
▁야기	-11.3426
▁팬들에게	-11.3426
▁생겼습니다	-11.3427
해양	-11.3427
▁우울증	-11.3428
▁턱	-11.3431
사령부	-11.3433
▁알코올	-11.3435
식물	-11.3436
▁중개	-11.3438
▁멋지	-11.3439
내기	-11.3439
▁좋겠네요	-11.3441
▁그쳤다	-11.3442
▁본청	-11.3444
▁성황리	-11.3447
▁수강료	-11.3448
▁욕심	-11.345
▁필요해	-11.345
▁마시는	-11.3451
▁오늘부터	-11.3452
▁검진	-11.3453
듬	-11.3454
권자	-11.3456
▁니트	-11.3458
▁김동연	-11.3459
▁날짜에	-11.346
연수	-11.3461
▁욕구	-11.3461
▁누르	-11.3462
▁서비스의	-11.3464
▁상품들	-11.3464
▁라이	-11.3465
▁청년들이	-11.3465
▁한우	-11.3466
▁사진으로	-11.3466
▁시스템으로	-11.3467
▁상인	-11.3468
▁다리를	-11.3468
▁맛보	-11.3469
▁치료가	-11.3471
▁선정해	-11.3471
▁중점을	-11.3473
▁햄버거	-11.3474
▁소셜미디어	-11.3474
▁남았	-11.3475
▁전달할	-11.3475
▁우연히	-11.3475
형으로	-11.3477
▁물리	-11.3477
▁직원들에게	-11.3477
▁자유한국당이	-11.3478
▁학교가	-11.3478
▁이윤	-11.3479
▁넷플릭스	-11.348
▁데에	-11.3481
▁사야	-11.3482
▁추세다	-11.3483
▁색상으로	-11.3483
▁라인업	-11.3484
근로	-11.3484
▁님	-11.3485
▁제작진	-11.3489
셜	-11.3489
▁무게가	-11.349
▁동일하게	-11.349
▁잦은	-11.3491
▁겁니까	-11.3492
▁고급스러운	-11.3492
▁비만	-11.3492
▁치른	-11.3493
▁중이던	-11.3494
▁입술	-11.3495
▁감사하다	-11.3495
▁이해하는	-11.3496
▁차지한	-11.3497
▁중국산	-11.3497
겼다	-11.3497
되었음을	-11.3499
▁찾아야	-11.35
▁짓는	-11.3502
▁주자	-11.3503
▁했으면	-11.3504
▁이끌고	-11.3504
▁비율은	-11.3505
출납	-11.3505
▁하시고	-11.3505
▁부당한	-11.351
▁김밥	-11.351
▁알려지면서	-11.351
▁잠재	-11.351
층에서	-11.3511
▁차이점	-11.3513
잘	-11.3513
il	-11.3516
▁초에	-11.3518
▁우산	-11.3518
▁표를	-11.3518
자연	-11.3518
보상	-11.3519
시장에	-11.352
▁녹지	-11.352
▁당했다	-11.352
▁던지	-11.3521
▁다루	-11.3522
▁피드백을	-11.3522
▁거쳐야	-11.3523
71	-11.3523
42	-11.3524
▁파산	-11.3524
▁동구	-11.3529
▁공직자	-11.3529
핏	-11.353
▁전달하는	-11.3532
▁선택하는	-11.3532
▁즉석	-11.3532
▁투자하는	-11.3533
▁으	-11.3535
▁아이디	-11.3537
▁어렵지	-11.3537
▁소원	-11.3538
▁지켜보	-11.3539
▁모은	-11.354
▁줘야	-11.354
▁있겠다	-11.3541
▁중국을	-11.3541
▁계좌로	-11.3541
▁대법원장이	-11.3541
▁필리핀에서	-11.3544
▁방송에서	-11.3544
▁넣었	-11.3547
▁남자는	-11.3553
▁총액	-11.3553
▁국가들	-11.3554
▁안에는	-11.3555
▁부산에서	-11.3555
졌으며	-11.3556
▁스타일을	-11.3557
▁게시판에	-11.3559
▁주택을	-11.3561
▁구조로	-11.3562
▁흥미를	-11.3562
▁조국	-11.3562
▁판교	-11.3563
▁결승전	-11.3564
▁블	-11.3565
▁흐르	-11.3565
▁참가하는	-11.3567
▁날개	-11.3567
▁말씀해주세요	-11.3567
▁참가자들이	-11.3567
▁캠퍼스	-11.3569
▁교통안전	-11.357
▁분포	-11.3571
▁뿐입니다	-11.3572
▁기회에	-11.3572
▁노동자들	-11.3574
▁동결	-11.3574
▁대목	-11.3575
▁당내	-11.3575
▁남는	-11.3575
▁신화	-11.3576
▁소개하게	-11.3576
▁듯하다	-11.3576
롬	-11.3577
▁인명피해	-11.3577
▁올라온	-11.3582
▁추워	-11.3582
글로벌	-11.3582
▁공격을	-11.3584
정부가	-11.3586
렵	-11.3589
▁판매량이	-11.359
▁경향	-11.3592
▁생산량	-11.3593
▁확인되지	-11.3593
▁여주	-11.3593
▁얻으	-11.3594
▁곳곳	-11.3595
▁기능으로	-11.3598
설이	-11.3599
▁스케줄을	-11.3599
▁싶을	-11.36
▁짧게	-11.36
청사	-11.3601
▁소요될	-11.3601
▁자체를	-11.3602
▁민관	-11.3602
▁체계를	-11.3604
▁고쳐	-11.3607
작업을	-11.3607
▁했는지	-11.3608
▁팩스	-11.3608
▁가능성에	-11.3609
▁구동	-11.3609
▁쪽은	-11.361
▁찾아볼	-11.361
▁아쉬움	-11.3611
▁청탁	-11.3611
▁타이틀	-11.3611
▁몰입	-11.3612
▁공정거래위원회	-11.3613
▁푸른	-11.3613
▁알고리즘	-11.3614
▁54	-11.3616
▁나타냈다	-11.3618
▁방송인	-11.3618
▁아카데미	-11.3619
▁금메달	-11.362
▁모집한다	-11.3621
▁도입한	-11.3621
수와	-11.3623
수원	-11.3623
렀	-11.3626
▁경제정책	-11.3628
▁조절할	-11.3629
▁처한	-11.3629
▁증폭	-11.3629
▁생각됩니다	-11.3629
▁가져올	-11.363
▁기자회견에서	-11.3631
▁수송	-11.3631
▁스키	-11.3632
윈	-11.3632
단장	-11.3633
▁폭으로	-11.3633
▁FTA	-11.3634
▁실정	-11.3636
▁떨어지고	-11.3636
▁비롯	-11.3637
▁줬다	-11.3637
해져	-11.3639
▁캘리포니아	-11.364
▁항공편	-11.364
▁해외로	-11.364
▁복수	-11.3641
▁폭탄	-11.3642
줬	-11.3643
▁웨이	-11.3644
▁로맨스	-11.3645
▁버려	-11.3645
▁가게에서	-11.3645
과학기술	-11.3646
▁그렇고	-11.3646
▁여동생	-11.3646
▁가급적	-11.3646
▁핑크	-11.3648
원들이	-11.3648
▁있느냐	-11.3648
▁사부님	-11.3649
▁조용히	-11.3651
▁속이	-11.3651
잇	-11.3652
▁화해	-11.3652
▁세정	-11.3653
▁:	-11.3653
노선	-11.3653
▁프로그램이다	-11.3655
▁표명	-11.3656
▁높아진	-11.3656
▁증인	-11.3656
비용을	-11.3657
타이	-11.3657
▁수탁	-11.3657
▁온전	-11.3657
방문	-11.3658
▁말씀드린	-11.3662
운영에	-11.3662
▁공장에	-11.3663
(8	-11.3665
▁자식	-11.3666
▁청산	-11.3666
▁순천	-11.367
▁저렴하게	-11.3671
럼	-11.3671
▁협상에	-11.3672
▁프로젝트는	-11.3674
▁신기	-11.3675
▁독립운동	-11.3675
▁빼앗	-11.3675
0%)	-11.3676
팀은	-11.3679
성적	-11.368
▁헝가리	-11.3681
▁페인트	-11.3681
▁베를린	-11.3681
▁중부	-11.3682
▁있으실	-11.3682
▁낯선	-11.3683
▁수비수	-11.3686
▁나아	-11.3688
▁작품들	-11.3688
▁날씨에	-11.3689
▁시선	-11.369
▁호남	-11.3692
▁주인이	-11.3693
에게서	-11.3694
프라	-11.3695
층으로	-11.3696
▁시골	-11.3697
▁촬영한	-11.3699
▁스티븐	-11.3699
▁가시면	-11.3701
▁개최하는	-11.3704
하시겠습니까	-11.3705
▁갔습니다	-11.3706
▁회식	-11.3706
주로	-11.3708
러스	-11.3708
▁경제를	-11.3711
▁방사선	-11.3713
▁지방정부	-11.3713
청구	-11.3714
▁최고경영자	-11.3716
▁스트랩	-11.3716
▁취한	-11.3717
▁효능	-11.3717
▁정준영	-11.3717
▁의사결정	-11.3718
▁접종	-11.3719
수행	-11.372
▁로드	-11.372
▁대학이	-11.3721
▁이동할	-11.3723
▁교육에	-11.3723
샵	-11.3723
▁맞춰서	-11.3724
▁걷기	-11.3725
▁결실	-11.3725
▁영광입니다	-11.3726
▁상품권	-11.3727
▁곤란	-11.3727
▁개발된	-11.3729
▁접수한	-11.3729
▁천장	-11.3732
▁아니하다	-11.3732
▁키우	-11.3733
▁들어가면	-11.3734
▁재활	-11.3737
▁우리은행	-11.3737
▁여기에는	-11.3737
묵	-11.3737
▁곱	-11.3739
▁350	-11.374
검사를	-11.3741
▁과장님	-11.3741
▁해가	-11.3742
▁용의자	-11.3742
채널	-11.3745
▁통로	-11.3746
그룹이	-11.3746
심리	-11.3746
▁연체	-11.3749
▁기록물	-11.3749
▁인사들이	-11.3749
▁지자체가	-11.3749
▁인물이	-11.375
▁피할	-11.3751
컴퍼니	-11.3752
▁계십니다	-11.3752
▁설치가	-11.3752
▁꼽았다	-11.3753
▁곳입니다	-11.3754
▁됐고	-11.3755
▁장학금	-11.3759
년마다	-11.3759
▁인생을	-11.3759
▁안정적	-11.3761
▁기다려야	-11.3761
▁가능하다고	-11.3762
▁예정이에요	-11.3762
PC	-11.3765
▁향상에	-11.3766
▁성능이	-11.3767
▁믿는다	-11.3767
▁보류	-11.3769
에스	-11.3769
▁전당대회	-11.3769
▁번째는	-11.377
▁불고기	-11.377
▁판매자	-11.377
▁부상으로	-11.3771
분부터	-11.3773
▁이유에	-11.3773
▁김종국	-11.3775
▁소폭	-11.3777
▁바뀌어	-11.3777
▁이뤄졌	-11.3777
증이	-11.3778
▁주제를	-11.3778
권의	-11.3778
기본법	-11.3779
▁결단	-11.3779
폴	-11.378
74	-11.378
하느냐	-11.3783
▁기술개발	-11.3784
▁분야를	-11.3786
▁경기도농업기술원	-11.3787
▁접시	-11.3788
▁행복을	-11.3788
▁해수욕장	-11.3789
▁자에게	-11.3789
▁스카이	-11.3789
해지면서	-11.3792
▁보드	-11.3794
▁선반	-11.3795
소에서	-11.3795
▁잉글랜드	-11.3795
▁않을까요	-11.3796
z	-11.3797
▁공방	-11.3797
▁울산시	-11.3798
▁김수	-11.3798
실로	-11.3798
▁잠정	-11.3799
▁둘러보	-11.3801
특위	-11.3801
▁카드사	-11.3802
▁포트폴리오	-11.3805
▁브레이크	-11.3805
▁입었다	-11.3805
▁수상한	-11.3806
▁재료로	-11.3806
▁캐릭터를	-11.3806
사업은	-11.3806
▁오시는	-11.3807
▁계곡	-11.3807
▁물론이죠	-11.3808
▁길거리	-11.3811
▁KBO	-11.3811
▁환불해	-11.3813
▁느끼게	-11.3814
▁확대되고	-11.3815
▁높아지는	-11.3816
▁발길	-11.3817
계를	-11.3817
극장	-11.3818
▁몰라요	-11.3818
▁해경	-11.3818
▁감사원	-11.3818
▁가지는	-11.3818
▁고용부	-11.382
▁책자	-11.3825
▁취소할	-11.3825
▁사건으로	-11.3825
▁신뢰성	-11.3826
▁주도하는	-11.3826
▁현금으로	-11.3826
타워	-11.3826
▁그렇다고	-11.3827
▁제한적	-11.3828
▁바위	-11.3828
힘	-11.383
▁역사와	-11.3831
▁계실	-11.3832
▁경연	-11.3834
▁당첨	-11.3834
▁벼	-11.3834
▁석방	-11.3834
▁남아있는	-11.3836
▁생각은	-11.384
▁관해서	-11.384
▁결렬	-11.3841
머니	-11.3842
▁사법농단	-11.3843
찌	-11.3844
▁산다	-11.3845
▁재미를	-11.3845
▁모레	-11.3846
▁이적	-11.3849
이어야	-11.3851
▁크다고	-11.3851
▁관점	-11.3852
▁산지	-11.3852
▁상한	-11.3853
▁다녀오	-11.3854
▁증가로	-11.3854
▁보좌관	-11.3855
▁내놓	-11.3856
▁이영	-11.3856
▁도민의	-11.3857
▁렌터카	-11.3858
띤	-11.3858
▁생각입니다	-11.3858
▁데이터베이스	-11.3858
▁색다른	-11.3859
▁뜻으로	-11.3859
벤처	-11.386
∼6	-11.386
싸	-11.3862
▁모양이	-11.3862
▁시범사업	-11.3864
▁단체에	-11.3865
▁화폐	-11.3865
작가	-11.3866
▁해산	-11.3867
리어	-11.3868
기관이	-11.387
수출	-11.3872
▁맛있어요	-11.3873
▁물놀이	-11.3874
▁교육은	-11.3875
▁듣	-11.3875
▁IP	-11.3875
▁스페셜	-11.3876
▁만남을	-11.3877
▁때문이	-11.3878
▁늘면서	-11.3879
▁마침내	-11.3879
▁간장	-11.3879
ul	-11.3879
▁지키고	-11.3881
▁효과적	-11.3881
▁목사가	-11.3882
▁밀착	-11.3882
▁로마	-11.3883
▁김재	-11.3886
▁1%	-11.389
▁발전소	-11.3891
▁편입니다	-11.3893
▁거주하고	-11.3893
▁타인	-11.3894
▁사업계획	-11.3895
바다	-11.3898
시의회	-11.3899
▁하려면	-11.39
▁협의가	-11.3901
톡	-11.3901
▁노조가	-11.3905
▁도의회	-11.3906
▁일들이	-11.3906
사유	-11.3906
▁부동산을	-11.3907
▁가족은	-11.3907
▁발판	-11.3907
▁시작된다	-11.3907
▁전임	-11.3908
▁느껴지	-11.3908
▁과감	-11.3909
▁일단은	-11.3909
요구	-11.3911
ir	-11.3911
▁스테이크	-11.3911
▁시달리	-11.3911
▁110	-11.3912
▁이유입니다	-11.3912
▁저쪽	-11.3912
▁농어촌	-11.3914
상황을	-11.3915
▁수용할	-11.3916
▁체육시설	-11.3918
▁불확실성이	-11.3919
▁논의하고	-11.392
▁원인은	-11.3922
▁승소	-11.3925
▁안무	-11.3925
▁체험할	-11.3927
▁내년에는	-11.3927
▁컨트롤	-11.3927
▁확산되고	-11.3927
ur	-11.3927
▁비서	-11.3928
▁발생합니다	-11.3928
▁후보로	-11.3928
▁고리	-11.393
▁데일리	-11.393
▁성장하는	-11.3931
▁착각	-11.3931
보안	-11.3932
▁깊어	-11.3932
누리	-11.3934
▁어선	-11.3935
▁운전자가	-11.3936
▁일본어	-11.3936
▁인민	-11.3937
▁웹사이트에서	-11.3938
빅	-11.3938
▁고온	-11.3938
인터넷	-11.3938
▁신뢰도	-11.3938
해보고	-11.394
▁보상금	-11.3941
▁건조기	-11.3942
▁일일이	-11.3942
금은	-11.3944
▁글씨	-11.3944
▁갖춰	-11.3944
▁가게를	-11.3947
▁서산	-11.3948
▁빛나는	-11.3948
편이	-11.3949
▁중대	-11.3949
▁영혼	-11.395
▁문의드립니다	-11.3951
▁이해찬	-11.3952
▁흔적이	-11.3952
▁서비스와	-11.3952
▁이번엔	-11.3953
▁탐	-11.3954
▁들어가서	-11.3956
틱	-11.3958
▁고등	-11.3964
궤	-11.3965
▁서울중앙지법	-11.3965
▁아쉬운	-11.3965
▁낮춰	-11.3966
▁삽입	-11.3966
리라	-11.3967
▁불꽃	-11.3969
▁경기도민	-11.397
▁민속	-11.397
▁하나님이	-11.397
권에	-11.3973
2)	-11.3974
회에서	-11.3975
▁작동하지	-11.3975
▁필요는	-11.3979
▁직위	-11.398
▁찾았	-11.3982
▁불평등	-11.3982
▁박원순	-11.3983
▁회계연도	-11.3983
▁무상으로	-11.3984
사이트	-11.3985
▁협동조합	-11.3986
▁받았어요	-11.3989
▁해임	-11.3989
▁부터	-11.399
▁불량품	-11.3991
▁왜요	-11.3991
▁대학에서	-11.3994
▁의원을	-11.3998
▁상위권	-11.3999
▁오시	-11.4
▁마이너스	-11.4001
▁브라운	-11.4003
프리	-11.4003
▁영국의	-11.4004
부로	-11.4006
▁충주	-11.4007
▁손흥민이	-11.4008
▁경험할	-11.4008
▁듣게	-11.4009
▁재산을	-11.4011
되었다고	-11.4011
▁그런지	-11.4012
▁체인	-11.4015
▁표지	-11.4015
▁누워	-11.4017
졌어	-11.4018
‧	-11.4019
▁정통	-11.402
점은	-11.402
뱅크	-11.402
▁김장	-11.4021
▁방문했다	-11.4021
단에	-11.4021
▁백제	-11.4022
언론	-11.4024
▁부회장이	-11.4024
▁날로	-11.4025
백만	-11.4027
▁연락처를	-11.403
▁프로필	-11.403
▁배워	-11.4031
▁사면	-11.4034
▁학부모들	-11.4036
▁삼성바이오	-11.4037
▁맡게	-11.4038
▁스타벅스	-11.4038
▁햇빛	-11.4038
거리는	-11.4038
▁폰	-11.4039
▁품격	-11.4039
▁차질	-11.4039
▁심하게	-11.4041
▁앉아서	-11.4041
대학원	-11.4042
▁호수	-11.4043
▁범인	-11.4043
국수	-11.4044
▁나고	-11.4045
▁정화	-11.4045
▁해줍니다	-11.4046
설명회	-11.4047
▁개원	-11.4048
고속도로	-11.4048
빨리	-11.405
▁항만	-11.405
▁붓	-11.4053
배가	-11.4053
▁씨와	-11.4055
▁압니다	-11.4056
▁유일	-11.4057
▁돌아갈	-11.4057
바이	-11.4057
96	-11.4058
▁은혜	-11.4058
▁중고	-11.4058
▁진압	-11.406
▁귀추	-11.406
2000	-11.406
▁관계자가	-11.4061
▁통신원	-11.4061
▁못합니다	-11.4062
▁일본과	-11.4064
▁요청하고	-11.4064
▁드리게	-11.4065
▁금메달을	-11.4065
▁가속화	-11.4068
▁김해	-11.4068
▁알아서	-11.4068
▁바깥	-11.4069
▁학문	-11.4071
▁교장	-11.4071
▁벌여	-11.4071
▁신조	-11.4075
▁정보와	-11.4075
▁직물	-11.4077
▁권익	-11.4077
▁긴장감	-11.4077
▁초등	-11.408
▁도청	-11.4084
▁재선	-11.4084
▁내려오	-11.4087
세력	-11.4088
▁양말	-11.4088
▁비영리	-11.409
▁년간	-11.409
▁무리가	-11.4092
▁육수	-11.4094
▁평택항	-11.4094
▁국채	-11.4096
▁영화에	-11.4098
▁버티	-11.4098
▁그치	-11.41
▁준비해야	-11.41
▁안산시	-11.4101
▁규정하고	-11.4101
전용	-11.4102
▁펼치는	-11.4102
청은	-11.4104
▁운영자	-11.4106
▁말라	-11.4106
▁59	-11.4106
▁유가	-11.4107
▁말씀드렸	-11.4107
▁과다	-11.4109
보도록	-11.4109
▁샌드위치	-11.411
▁번호로	-11.411
▁동남아시아	-11.4111
▁대상에	-11.4111
▁보여줍니다	-11.4113
물량	-11.4113
▁완성도	-11.4113
▁시행계획	-11.4114
오니	-11.4114
관에서	-11.4114
▁커지는	-11.4115
▁일요일에	-11.4116
▁Q	-11.4116
▁설정할	-11.4116
▁키워드	-11.4116
업을	-11.4116
▁드물	-11.4117
▁달라질	-11.4117
▁정상회담에서	-11.4118
▁알렸다	-11.412
▁후보를	-11.4121
해주시길	-11.4122
휘	-11.4123
▁미쳤다	-11.4124
st	-11.4125
요소	-11.4125
▁감독과	-11.4128
▁비주얼	-11.4129
▁두려워	-11.4129
▁불어넣	-11.4129
▁되겠다	-11.4129
▁주변에서	-11.4129
93	-11.413
▁갈아	-11.413
▁160	-11.413
▁무사히	-11.4131
앞으로	-11.4133
▁커서	-11.4133
(18	-11.4134
업종	-11.4136
▁극심한	-11.4137
▁유착	-11.4137
▁수혜	-11.4139
작품	-11.4141
▁풀이	-11.4141
주셨으면	-11.4142
▁낮아지	-11.4143
▁한국문화원	-11.4143
▁비율을	-11.4143
▁춘	-11.4143
재가	-11.4146
했나요	-11.4146
▁일본군	-11.4147
▁마드리드	-11.4147
63	-11.4147
▁붙잡혔다	-11.4147
▁이룰	-11.4148
▁상품입니다	-11.4151
▁선행	-11.4154
▁꾸려	-11.4154
▁원해요	-11.4156
▁등장했다	-11.4157
▁달했다	-11.4157
▁해방	-11.416
안타	-11.4163
▁성관계	-11.4163
▁사흘	-11.4163
▁그러지	-11.4164
▁연세대	-11.4165
▁시중은행	-11.4166
▁죽어	-11.4167
▁시작합니다	-11.4167
▁전동	-11.4168
▁사라진	-11.417
호는	-11.417
▁발전할	-11.417
▁전문점	-11.4173
▁대응을	-11.4174
▁디자인에	-11.4174
화물	-11.4175
내용을	-11.4175
난다	-11.4175
▁서서	-11.4178
▁벌어지는	-11.4178
▁사항과	-11.4179
▁연구결과	-11.418
▁지시했다	-11.4182
▁남녀노소	-11.4184
▁톡톡	-11.4184
▁평화를	-11.4184
▁이념	-11.4185
▁가정의	-11.4187
▁부합	-11.4187
▁사이즈로	-11.4189
줄게	-11.4189
갑니다	-11.419
▁기술에	-11.419
▁접근이	-11.4192
▁판단한	-11.4193
PA	-11.4194
▁참고해	-11.4194
▁전술	-11.4194
▁잠금	-11.4195
87	-11.4196
의견	-11.4198
▁이젠	-11.4198
▁일회용	-11.42
▁현저	-11.42
▁묻어	-11.42
▁펌프	-11.4201
▁인명	-11.4201
▁행정처	-11.4202
▁슬픔	-11.4202
▁주파수	-11.4202
▁85	-11.4202
▁노력하는	-11.4203
▁의원과	-11.4203
기간은	-11.4203
▁모험	-11.4203
국으로	-11.4204
대에서	-11.4204
▁저축	-11.4204
▁예쁘다	-11.4206
▁측면이	-11.4209
▁서울시장	-11.4209
▁가구를	-11.4209
▁틀어	-11.4211
▁관계에	-11.4213
▁포인트를	-11.4214
▁해외에	-11.4214
위의	-11.4215
▁대표를	-11.4215
▁한국산	-11.4216
사업장	-11.4217
▁전화기	-11.4217
▁주목할	-11.4217
▁이룬	-11.4218
▁연결이	-11.4218
▁돌입	-11.4219
▁수천	-11.4219
▁단행	-11.4219
▁않으셨	-11.422
통제	-11.422
▁세웠다	-11.4221
▁퀄리티	-11.4221
▁유예	-11.4221
▁인턴	-11.4223
▁3%	-11.4223
▁회원들이	-11.4225
▁나쁘지	-11.4226
▁희망합니다	-11.4228
법상	-11.4229
▁관리하여야	-11.423
▁인가	-11.4231
일수록	-11.4231
▁기금을	-11.4233
▁지지율	-11.4233
▁금천구	-11.4233
▁일련	-11.4234
▁족	-11.4235
▁나빠	-11.4236
론을	-11.4236
▁죄송합니다만	-11.4236
▁건물은	-11.4237
▁여러가지	-11.4237
▁대도시	-11.4237
계열	-11.4241
▁재심	-11.4241
▁작곡	-11.4243
▁어쩌면	-11.4245
시장의	-11.4246
스키	-11.4247
▁옆에서	-11.4249
올림픽	-11.425
▁오피스	-11.425
▁잔디	-11.4252
행복	-11.4256
▁추위	-11.4256
▁카메라가	-11.4257
▁할리우드	-11.4258
스톤	-11.4259
▁달콤한	-11.426
정상	-11.4261
▁다할	-11.4261
▁구는	-11.4262
뇌	-11.4262
하이닉스	-11.4262
▁띄는	-11.4264
▁큰일	-11.4264
▁임시정부	-11.4264
물류	-11.4264
▁화면을	-11.4264
▁하셔야	-11.4266
▁활약을	-11.4268
▁공급을	-11.4268
▁사용해야	-11.4268
대통령	-11.4269
조성	-11.4272
▁고조	-11.4272
▁장부	-11.4273
▁대입	-11.4274
7%)	-11.4274
▁멀어	-11.4275
▁황교안	-11.4276
▁중학생	-11.4276
정당	-11.4277
하였으나	-11.4277
▁투자할	-11.4278
▁너랑	-11.4279
▁상기	-11.4281
돼서	-11.4281
▁그림이	-11.4282
▁주한미군	-11.4284
경보	-11.4285
▁표현을	-11.4287
▁꼬리	-11.4289
▁스탠드	-11.4291
▁개최하고	-11.4292
▁CD	-11.4293
▁요인으로	-11.4293
▁청결	-11.4293
▁녹차	-11.4295
▁앙	-11.4295
▁김경	-11.4295
▁불과하다	-11.4296
▁전국에	-11.4297
사회적	-11.4297
▁지난해보다	-11.4297
▁선을	-11.4298
프트	-11.4298
▁개정안이	-11.4298
▁추격	-11.4298
▁품질과	-11.4301
▁실질적	-11.4302
▁서쪽	-11.4302
▁전국의	-11.4303
▁데이터가	-11.4304
▁양파	-11.4307
네트워크	-11.4307
▁라이프	-11.4307
▁추진한	-11.4307
데이터	-11.4309
희가	-11.4312
▁접대	-11.4312
▁닦아	-11.4312
▁지속되는	-11.4313
었으며	-11.4313
▁아이콘	-11.4316
주지	-11.4316
드려요	-11.4316
▁많았	-11.4316
▁포토	-11.4316
제주	-11.4318
▁구축하고	-11.4319
▁방식에	-11.432
▁찢어	-11.432
▁도마	-11.432
사단	-11.4321
▁벌이	-11.4321
▁사용될	-11.4323
▁여파로	-11.4324
▁그때는	-11.4324
▁사회공헌	-11.4325
▁노래가	-11.4325
▁말하면	-11.4325
▁존재한다	-11.4327
▁폐업	-11.4328
▁간접	-11.4328
▁드리지	-11.4329
▁법원은	-11.4331
▁어울려	-11.4332
▁프로그래밍	-11.4332
▁마음껏	-11.4332
▁소민아	-11.4333
▁토큰	-11.4333
문이	-11.4333
▁조선시대	-11.4334
79	-11.4334
▁중소기업이	-11.4335
▁부탁드려요	-11.4336
▁해보고	-11.4336
▁걸어서	-11.4337
조치를	-11.4339
▁굿	-11.4341
▁해촉	-11.4342
▁높다고	-11.4342
▁우호	-11.4345
▁개수	-11.4346
보조	-11.4347
▁자원을	-11.4347
▁은행에	-11.4347
▁b	-11.4348
▁감사해요	-11.4349
▁찍는	-11.4351
적이지	-11.4351
▁기피	-11.4351
▁단말기	-11.4351
됨	-11.4352
▁탐색	-11.4352
▁분단	-11.4353
토론	-11.4355
▁보이기	-11.4356
▁심사위원	-11.4356
▁세무조사	-11.4356
▁JTBC	-11.4358
▁빠졌다	-11.4358
▁정하고	-11.436
▁주어진	-11.4361
▁정무	-11.4361
▁56	-11.4362
▁서비스도	-11.4363
▁주전	-11.4365
▁합의안	-11.4366
▁멋있다	-11.4367
▁53	-11.4368
▁두번째	-11.4368
▁기술적	-11.4369
▁얼룩	-11.437
▁꿈꾸는	-11.4371
▁알았어요	-11.4372
▁겁	-11.4373
▁최고위원	-11.4373
▁전화해	-11.4375
▁1970	-11.4375
▁기록이	-11.4377
▁가열	-11.4379
▁뜯	-11.438
▁둘러싸고	-11.4381
▁갈라	-11.4381
가치	-11.4383
▁전설	-11.4385
개인	-11.4387
▁탔	-11.4387
제품을	-11.4387
브리	-11.4388
▁것인데	-11.4388
▁이낙연	-11.4388
▁협	-11.4388
해준다	-11.4389
▁대단한	-11.439
층의	-11.4391
▁있거든요	-11.4392
▁시행할	-11.4392
▁속에는	-11.4392
▁페이	-11.4394
▁2030	-11.4395
▁놓인	-11.4396
▁협력하여	-11.4396
▁베개	-11.4396
▁적고	-11.4398
▁룰	-11.4398
▁식당을	-11.4398
▁확보해	-11.4399
구간	-11.4399
사항이	-11.44
▁검수	-11.4403
▁고객님들께	-11.4405
▁남산	-11.4405
▁음악이	-11.4406
▁생산할	-11.4406
▁감안	-11.4406
▁어우러진	-11.4407
▁여정	-11.4407
▁활용도	-11.4408
▁바뀌었	-11.4408
▁필요에	-11.441
▁통과한	-11.4413
▁받았는데	-11.4413
▁되었어요	-11.4415
▁쪽이	-11.4416
▁번호는	-11.4416
▁메시지가	-11.4418
▁신상품	-11.4418
▁구강	-11.4418
증진	-11.4418
▁중형	-11.4419
▁하향	-11.4419
▁자료는	-11.442
▁로그인	-11.442
▁적다	-11.4422
▁마라	-11.4422
▁중이라고	-11.4422
▁열매	-11.4423
▁채취	-11.4423
▁파티에	-11.4424
해주시는	-11.4426
▁이해합니다	-11.4426
▁플랜	-11.4428
지정	-11.4428
▁생애	-11.4429
시장을	-11.443
위기	-11.443
종을	-11.443
▁72	-11.4431
▁누르면	-11.4431
▁흥미	-11.4431
▁자를	-11.4432
▁김광	-11.4433
▁여쭤봐	-11.4434
▁증거가	-11.4434
▁동쪽	-11.4435
▁최강	-11.4436
드라	-11.4438
▁계약금	-11.4438
▁지키지	-11.4438
샘	-11.4438
▁예정되어	-11.4439
▁우회	-11.4439
▁레이	-11.444
▁편의시설	-11.4441
86	-11.4442
깃	-11.4443
▁악용	-11.4443
▁외곽	-11.4445
▁중간선거	-11.4445
▁선고받았다	-11.4446
▁KTX	-11.4446
▁최장	-11.4446
▁수립하여	-11.4446
▁업체에서	-11.4448
▁그러던	-11.4448
인천	-11.4451
매장	-11.4451
▁교사가	-11.4453
▁정시	-11.4453
▁분야별	-11.4454
▁구축을	-11.4455
▁연장할	-11.4456
▁공무원은	-11.4456
▁식당이	-11.4457
▁아끼지	-11.4459
▁세일	-11.446
▁한자리에	-11.446
방안을	-11.446
▁여행사	-11.4462
▁찾아온	-11.4463
▁먹으러	-11.4464
닐	-11.4467
▁좋아하고	-11.4467
▁고려해야	-11.4468
▁참여자	-11.4468
▁독려	-11.4468
▁좋았다	-11.447
▁출동한	-11.4471
에다가	-11.4471
▁아이스	-11.4473
▁꼼꼼하게	-11.4475
집단	-11.4475
▁탐방	-11.4475
보자	-11.4476
▁돌아보	-11.4477
▁트랙	-11.4479
▁설명하고	-11.448
▁땅에	-11.4481
▁문법	-11.4481
▁챔피언스리그	-11.4482
▁무겁	-11.4483
▁사물	-11.4484
▁제한이	-11.4485
▁미생물	-11.4485
▁찌	-11.4487
▁쓰이는	-11.4487
기자	-11.4488
▁맞았다	-11.4488
▁통증이	-11.4489
해주고	-11.4489
▁특성에	-11.4491
▁신중	-11.4492
판이	-11.4493
(15	-11.4494
▁접근성이	-11.4495
기관에	-11.4495
▁정세	-11.4495
▁다리가	-11.4498
8%)	-11.4498
▁진공	-11.4498
▁풍성한	-11.4499
▁정부에서	-11.4499
°	-11.4499
틸	-11.45
▁분식회계	-11.4501
▁뜯어	-11.4502
▁예보	-11.4502
▁불가피한	-11.4504
▁1998	-11.4504
▁원자재	-11.4504
▁친한	-11.4506
임금	-11.4506
▁평화의	-11.4506
▁이거를	-11.4506
▁가격대	-11.4508
▁강세	-11.4509
▁케	-11.4509
▁기아차	-11.451
▁정책과	-11.4512
▁재임	-11.4513
▁결론이	-11.4515
▁제시하는	-11.4515
▁안타	-11.4515
인재	-11.4517
▁차가운	-11.4517
차전에서	-11.4518
▁전합니다	-11.452
▁사각지대	-11.452
▁여건이	-11.4521
▁세찬이	-11.4521
▁연습을	-11.4522
▁농담	-11.4523
▁무산	-11.4523
▁조속히	-11.4524
건축물	-11.4524
▁음향	-11.4526
▁구성하고	-11.4527
▁있겠지만	-11.4527
▁늘어나면서	-11.4528
▁위반한	-11.4531
▁아니라면	-11.4534
문재인	-11.4535
AC	-11.4535
▁달이	-11.4536
▁멤버들이	-11.4537
신청서를	-11.4538
▁세로	-11.4539
▁삼겹살	-11.454
▁어우러져	-11.454
▁때려	-11.454
▁근접	-11.454
▁한국인들	-11.4541
▁밝혔	-11.4541
▁세우	-11.4542
▁북핵	-11.4542
▁봤습니다	-11.4548
▁인용	-11.4548
▁받으시	-11.455
▁잠재적	-11.455
▁지각	-11.4551
트럼프	-11.4554
▁벌이는	-11.4554
▁젊은이들이	-11.4555
사법	-11.4555
▁크기는	-11.4555
▁미안하지만	-11.456
▁최적화된	-11.456
공모	-11.456
▁입수	-11.456
▁쉽다	-11.456
▁소문이	-11.4561
▁드세요	-11.4562
▁불가피하다	-11.4563
▁장점은	-11.4564
▁수록	-11.4564
되어서	-11.4566
▁사용된	-11.4566
▁떠나는	-11.4567
채권	-11.4567
▁학생은	-11.4567
▁기원합니다	-11.4568
▁견고한	-11.4568
행위를	-11.4568
▁외에는	-11.4568
▁공유재산	-11.457
▁뒤에는	-11.4572
▁박차	-11.4573
▁만들어져	-11.4574
▁외신	-11.4575
▁하나님께서	-11.4577
▁하도급	-11.4578
▁취소하고	-11.4578
님의	-11.4579
▁팬츠	-11.458
▁음식과	-11.4581
▁분석하고	-11.4581
▁교회가	-11.4581
▁소식에	-11.4582
▁사무관	-11.4582
▁계속되고	-11.4584
겼	-11.4584
▁마련돼	-11.4585
▁추천한	-11.4586
▁때로는	-11.459
▁말아야	-11.4591
▁샷	-11.4592
▁달라진	-11.4592
▁주장한	-11.4595
AN	-11.4595
▁말입니다	-11.4597
▁우체국	-11.4597
점에	-11.4597
▁선교사	-11.4597
▁용기를	-11.4597
▁정보통신	-11.4597
▁지속가능한	-11.4597
▁얼른	-11.4598
▁이천	-11.4598
▁좋아지	-11.4598
경남	-11.4599
▁대관	-11.46
▁지능	-11.46
▁바꾼	-11.4601
▁온도가	-11.4603
▁이종	-11.4604
▁서해안	-11.4604
해주십시오	-11.4607
▁악수	-11.4607
▁가구가	-11.4609
▁변동이	-11.4609
▁약국	-11.4609
▁결정했습니다	-11.4609
▁고창	-11.461
▁사업주	-11.4611
▁안동	-11.4613
▁국토	-11.4615
▁점검하고	-11.4615
배송	-11.4616
▁유럽의	-11.4616
▁집주인	-11.4617
▁되니까	-11.4617
▁문제없	-11.4618
▁인상에	-11.4618
▁쿠키	-11.4621
▁나눈	-11.4622
▁58	-11.4623
(9	-11.4624
▁단계에	-11.4629
렸지만	-11.4631
▁곰	-11.4632
▁즐거움을	-11.4632
그래	-11.4633
버려	-11.4635
▁힙합	-11.4635
▁감정이	-11.4637
▁부총리는	-11.464
▁풍미	-11.4641
▁가능해요	-11.4642
▁창구	-11.4642
▁없을까요	-11.4644
▁항구	-11.4644
▁담았다	-11.4646
▁미국으로	-11.4647
▁걸친	-11.4648
▁걸린다	-11.4649
▁대표로	-11.4652
킷	-11.4653
▁예약하고	-11.4653
▁비슷	-11.4654
▁잃고	-11.4655
▁엉덩이	-11.4655
▁괜찮으시다면	-11.4655
▁경고했다	-11.4655
▁노란색	-11.4656
▁사이드	-11.4657
▁영웅	-11.4658
▁푸드	-11.4658
호와	-11.4659
▁정유	-11.4661
봐요	-11.4661
▁구도	-11.4662
▁식별	-11.4663
▁빙	-11.4663
▁가겠습니다	-11.4664
▁커진	-11.4666
▁타협	-11.4667
▁대박이다	-11.4669
▁반해	-11.467
▁벚꽃	-11.4674
▁어떻습니까	-11.4674
군과	-11.4674
▁블랙박스	-11.4675
▁볼륨	-11.4675
▁부분도	-11.4677
▁입맛	-11.4678
▁놓치	-11.4678
▁줄어	-11.4679
▁감염병	-11.4679
09	-11.468
▁가마	-11.4682
겨울	-11.4685
▁넘겨진	-11.4687
▁상관없	-11.4687
▁계획은	-11.4692
▁도착하는	-11.4693
▁띈다	-11.4693
▁이산화탄소	-11.4693
▁방안에	-11.4693
▁숙련	-11.4694
국회	-11.4694
▁돈가스	-11.4695
▁위대한	-11.4695
▁골드	-11.4695
취업	-11.4696
▁쉐	-11.4696
▁커지면서	-11.4697
▁관계공무원	-11.4697
▁넣어서	-11.4699
▁부산의	-11.4699
▁시중	-11.4699
▁몰라서	-11.47
블리	-11.4701
▁하루를	-11.4701
든지	-11.4703
▁급감	-11.4704
▁승계	-11.4704
▁거니까	-11.4706
▁방지합니다	-11.4706
진영	-11.4707
▁깨끗하고	-11.4707
us	-11.4707
▁이용해서	-11.4708
▁처지	-11.4709
▁먹었	-11.471
▁비춰	-11.4714
▁동작구	-11.4714
▁그럼에도	-11.4714
▁받고자	-11.4715
▁주었다	-11.4717
▁드러낸	-11.4718
▁선거에서	-11.4719
▁고집	-11.4719
▁보일러	-11.472
▁사정으로	-11.472
납니다	-11.4721
▁필요하면	-11.4723
싶	-11.4724
▁좋아한다	-11.4724
▁행정기관	-11.4725
▁선수를	-11.4726
효율	-11.4727
▁제출받	-11.4728
▁산업에	-11.4728
▁놔	-11.4728
▁다량	-11.4728
주식	-11.4732
▁공청회	-11.4732
▁지난해부터	-11.4732
▁쏠린다	-11.4732
중학교	-11.4734
▁공부하고	-11.4735
끔	-11.4736
▁소아	-11.4737
▁이밖에도	-11.4737
▁강철	-11.4738
▁맘	-11.4739
부모	-11.4741
▁상단	-11.4741
▁발음	-11.4743
▁코미디	-11.4743
▁교역	-11.4743
▁부작용이	-11.4743
▁노동시간	-11.4744
▁구매가	-11.4745
▁등판	-11.4745
▁우리나라는	-11.4746
▁일정으로	-11.4747
럽	-11.4748
▁초기에	-11.4749
▁어서	-11.4751
▁머무르	-11.4751
▁법원의	-11.4752
▁않으면서	-11.4753
▁테니까	-11.4754
▁국수	-11.4754
▁비교하면	-11.4755
▁분석도	-11.4756
합시다	-11.4757
▁넣으면	-11.4757
▁용서	-11.4757
▁진행이	-11.4758
▁ICT	-11.476
▁64	-11.476
감시	-11.4761
▁출품	-11.4761
켜	-11.4761
▁주문했다	-11.4763
다보니	-11.4765
▁금융시장	-11.4765
▁논쟁	-11.4767
컷	-11.4767
▁제출할	-11.4767
▁이용객	-11.4768
섬유	-11.4769
▁짜증	-11.477
확대	-11.477
▁임산부	-11.4771
61	-11.4772
자들을	-11.4773
▁참가할	-11.4773
▁코딩	-11.4774
▁송도	-11.4775
해달라	-11.4775
▁가지가	-11.4778
▁바른	-11.4779
▁분위기다	-11.4779
▁정리해	-11.478
▁게임은	-11.478
배출	-11.4782
▁자율적	-11.4783
▁이승	-11.4786
▁급히	-11.4786
▁국가에	-11.4787
▁일시적으로	-11.4787
협동조합	-11.4788
▁안성	-11.4789
▁알릴	-11.4789
▁남겼다	-11.4789
▁사업체	-11.479
▁경상남도	-11.479
▁흥분	-11.4791
▁정도를	-11.4792
▁시내버스	-11.4792
▁뜨겁게	-11.4793
▁롤	-11.4794
▁키우고	-11.4795
▁식감	-11.4795
데도	-11.4795
▁감리	-11.48
시켜야	-11.48
▁검사가	-11.4801
▁승기	-11.4801
물로	-11.4801
▁모습에	-11.4804
▁안정화	-11.4806
▁상업용	-11.4807
▁신형	-11.4807
길이	-11.4807
▁리스트를	-11.4809
▁쉽	-11.481
▁침묵	-11.481
▁건강관리	-11.4811
▁작아	-11.4811
톱	-11.4812
▁숨지고	-11.4812
▁2%	-11.4817
▁GS	-11.4817
▁누구도	-11.4819
▁사본을	-11.4819
▁미국인	-11.4819
▁빚어	-11.4819
▁명분	-11.482
and	-11.482
▁갖다	-11.4821
여자	-11.4822
▁비위	-11.4823
▁분야는	-11.4824
▁강풍	-11.4824
▁공기가	-11.4826
▁마련된다	-11.4829
▁피해자들	-11.4829
▁강조하는	-11.4829
톨	-11.483
현지시각	-11.483
▁대가로	-11.483
▁보내세요	-11.4832
▁누구보다	-11.4833
함으로	-11.4833
▁있긴	-11.4833
▁마찰	-11.4834
렸어요	-11.4836
▁에이스	-11.4837
민간	-11.4837
▁고난	-11.4837
▁지형	-11.4838
▁어떠	-11.484
▁본체	-11.4841
▁최정	-11.4843
비행	-11.4844
▁맞는지	-11.4845
▁해주셔서	-11.4845
▁곁	-11.4847
▁효율성	-11.4848
▁팔고	-11.4848
▁리드	-11.4849
▁강제징용	-11.4849
▁얇은	-11.4849
▁이렇다	-11.4849
▁관계로	-11.4849
ml	-11.485
었기	-11.485
▁말씀드리겠습니다	-11.4853
▁도봉구	-11.4853
▁어려	-11.4853
▁지퍼	-11.4854
▁선명한	-11.4854
▁않았으면	-11.4854
▁심리적	-11.4855
▁좋네요	-11.4857
가루	-11.4858
72	-11.4858
▁사립	-11.4858
▁살이	-11.486
▁정문	-11.4861
▁개조	-11.4861
▁겪었다	-11.4864
▁딜	-11.4864
쇠	-11.4865
해야만	-11.4865
▁가루	-11.4866
▁보이지만	-11.4867
▁소방관	-11.4867
▁변상	-11.4868
팽	-11.4869
▁맛은	-11.487
▁대세	-11.487
▁p	-11.4871
▁검토할	-11.4872
▁날은	-11.4872
▁68	-11.4872
▁수단	-11.4874
▁묻고	-11.4875
▁청년들	-11.4876
▁제시해	-11.488
▁시설에	-11.4881
문화를	-11.4884
▁드시는	-11.4885
▁의문이	-11.4886
▁57	-11.4888
매치	-11.4888
▁실시하여야	-11.4889
▁불공정	-11.489
▁가도	-11.4891
화로	-11.4894
▁사생활	-11.4894
▁언론이	-11.4896
회째	-11.4897
▁취하	-11.4898
▁행동이	-11.49
▁바입니다	-11.49
▁피우	-11.4902
▁진행하기	-11.4902
▁반사	-11.4903
▁공무	-11.4903
활동에	-11.4904
▁일어나지	-11.4904
콤	-11.4904
▁알아봐	-11.4904
▁막고	-11.4905
▁부서에서	-11.4905
▁견고	-11.4906
▁현장의	-11.4907
비전	-11.4908
▁가성비	-11.4909
▁1:1	-11.4909
▁포켓	-11.4909
심의회	-11.491
▁증세	-11.491
▁인센티브	-11.491
▁생활폐기물	-11.4911
▁가습기	-11.4911
▁인터넷에	-11.4911
51	-11.4912
북부	-11.4914
준이	-11.4914
▁저가	-11.4915
▁직업을	-11.4916
▁확보했다	-11.4917
94	-11.4917
▁계속되는	-11.4918
▁심의하기	-11.4918
▁대우	-11.492
계획서	-11.4921
▁분들을	-11.4921
▁협의하여	-11.4922
▁교육과	-11.4923
▁설계된	-11.4924
후보	-11.4925
▁전액을	-11.4926
▁콘서트를	-11.4927
▁추가할	-11.4928
즘	-11.4928
늘	-11.4928
아야	-11.4928
▁다짐	-11.4928
되었는데	-11.4929
▁스킨	-11.4929
▁곤충	-11.493
▁보내주십시오	-11.4931
▁그거는	-11.4933
분만	-11.4935
▁마찬가지	-11.4935
줘요	-11.4935
▁말씀드리	-11.4937
▁싹	-11.4939
▁기능과	-11.4939
▁140	-11.4939
학년도	-11.4939
천원	-11.4942
임이	-11.4943
73	-11.4944
▁등장한	-11.4944
▁영업팀	-11.4946
▁고유의	-11.4946
▁도박	-11.4948
▁하나다	-11.4948
▁크레	-11.4949
▁나름	-11.4949
▁성실히	-11.4951
▁본사가	-11.4952
▁비용으로	-11.4954
부품	-11.4955
▁유용한	-11.4957
꾸	-11.4957
▁앓고	-11.4957
▁하드	-11.4957
▁드리기	-11.496
▁분배	-11.496
▁작고	-11.496
▁일과	-11.4961
폭력	-11.4962
비치	-11.4963
▁하반기에	-11.4963
▁용지	-11.4963
▁올라와	-11.4965
천억원	-11.4965
▁정상회의	-11.4965
▁과반수의	-11.4966
떨	-11.4967
▁만나게	-11.4967
CEO	-11.4967
▁양성평등	-11.4967
하에	-11.4967
▁소재의	-11.4968
▁않은데	-11.4969
▁방송에	-11.4969
▁터널	-11.4969
▁낫다	-11.497
봄	-11.4971
▁대신해	-11.4971
▁해설	-11.4972
▁유지해	-11.4972
DS	-11.4973
▁어떤가요	-11.4973
▁보람	-11.4973
▁기장	-11.4974
▁특이	-11.4975
▁표정이	-11.4977
▁군데	-11.4977
▁이동이	-11.4977
모씨	-11.4978
▁요약	-11.4978
되어있습니다	-11.4978
▁수료	-11.4979
▁기지	-11.498
해서는	-11.498
▁제작을	-11.498
▁싶었다	-11.4981
▁배를	-11.4982
스카	-11.4983
▁적용됩니다	-11.4983
▁발견했다	-11.4986
▁액수	-11.4987
▁경영권	-11.4987
53	-11.4988
▁부엌	-11.4988
▁컨셉	-11.4988
▁초미세먼지	-11.4989
▁투자자들이	-11.4991
▁활발히	-11.4991
▁멘토	-11.4992
▁소요됩니다	-11.4992
▁말하지	-11.4992
소방	-11.4994
▁차려	-11.4994
▁심어	-11.4995
았어요	-11.4996
졌기	-11.4996
▁찍을	-11.4997
단속	-11.4997
▁강화할	-11.4998
▁주문했는데	-11.4998
▁자르	-11.4998
▁라인을	-11.5001
▁약정	-11.5003
▁오브	-11.5004
▁색이	-11.5004
▁남성용	-11.5005
▁수요일에	-11.5005
▁되었으면	-11.5006
지방자치단체	-11.5007
▁멈추	-11.5007
▁원한다	-11.5007
▁고혈압	-11.5008
의약품	-11.5008
▁쿠폰을	-11.5009
▁희귀	-11.5009
자들	-11.5009
▁침투	-11.5009
▁선보이고	-11.5011
▁도착하면	-11.5012
▁수단으로	-11.5012
▁감수	-11.5013
▁자매	-11.5013
▁않거나	-11.5013
▁청소년들	-11.5014
▁윤씨	-11.5014
▁진짜요	-11.5016
▁무효	-11.5016
▁깨지	-11.5019
▁안전점검	-11.502
▁청문회	-11.5024
▁실질적으로	-11.5025
▁막는	-11.5025
▁높아지	-11.5026
▁배우들	-11.5026
생물	-11.5026
마케팅	-11.5027
▁탄력근로제	-11.5028
▁요청해	-11.5028
파운드	-11.5028
▁높지	-11.503
▁습도	-11.503
▁분담	-11.5031
▁걸어가	-11.5031
▁계세요	-11.5031
(10	-11.5032
▁AS	-11.5033
▁놀랍	-11.5033
▁부유	-11.5036
▁덕에	-11.5037
뢰	-11.5037
▁했기	-11.5038
▁피부가	-11.5041
▁산재	-11.5042
▁보호합니다	-11.5044
▁공직	-11.5045
▁밝	-11.5045
▁전자레인지	-11.5048
▁악영향	-11.5048
색이	-11.505
▁위원에게	-11.5051
문화재단	-11.5052
▁내달	-11.5052
그린	-11.5054
▁폭발적	-11.5058
▁경사	-11.5059
▁색깔이	-11.506
부지	-11.5061
▁강화하기	-11.5062
▁법원에	-11.5063
▁실장	-11.5063
▁이용하면	-11.5064
▁기대해	-11.5064
강사	-11.5066
▁택지	-11.5066
▁의병	-11.5066
▁대응이	-11.5067
▁민간위탁	-11.5069
▁확대에	-11.5071
▁나가고	-11.5071
▁과열	-11.5072
베르	-11.5075
▁가져주셔	-11.5076
▁완성차	-11.5076
▁방출	-11.5078
▁먹방	-11.5079
총회	-11.508
▁진한	-11.508
▁조카	-11.5081
질서	-11.5082
▁생긴다	-11.5084
▁한두	-11.5085
▁해운대	-11.5087
▁개념을	-11.5088
▁장인	-11.5088
▁84	-11.509
▁전문인력	-11.5093
통화	-11.5093
▁헌	-11.5093
▁명확하게	-11.5093
▁뉴욕에서	-11.5093
▁언제부터	-11.5094
▁몽	-11.5096
▁답방	-11.5096
▁걷는	-11.5098
경쟁력	-11.5098
▁금강산	-11.5101
▁옛날에	-11.5102
인식	-11.5103
▁취소해야	-11.5105
▁실명	-11.5105
▁선수는	-11.5106
▁청소기	-11.5106
호텔에서	-11.5106
뼈	-11.5108
건가요	-11.5108
▁신뢰가	-11.5108
▁씨앗	-11.5109
▁생산한	-11.5109
▁업적	-11.511
▁좌절	-11.511
▁정보공개	-11.511
유럽	-11.5111
▁언론사	-11.5113
▁선거제도	-11.5113
▁기업체	-11.5113
▁안다	-11.5115
▁행태	-11.5115
▁교수의	-11.5115
▁토론을	-11.5115
▁공개적으로	-11.5115
92	-11.5116
▁주저	-11.5117
▁돌아오는	-11.5117
▁공기를	-11.5118
com	-11.5121
▁외국인이	-11.5123
PM	-11.5123
▁양도	-11.5125
▁범위가	-11.5125
▁천안시	-11.5125
▁확대하는	-11.5125
었다고	-11.5126
▁지불을	-11.5126
되므로	-11.5126
님과	-11.5128
▁움직일	-11.5128
뜰	-11.5128
집이	-11.5129
▁들리	-11.5129
태평양	-11.5129
▁슈팅	-11.5129
▁축하드립니다	-11.513
▁튀김	-11.513
▁수산물	-11.513
▁빠질	-11.5132
▁제공하여	-11.5133
곳에서	-11.5133
▁종결	-11.5134
▁왕복	-11.5135
▁전년도	-11.5135
답게	-11.5136
▁지원과	-11.5136
▁복제	-11.5137
▁대응할	-11.5137
사업으로	-11.514
ad	-11.5141
▁효력	-11.5141
▁추가적으로	-11.5142
▁진행되었다	-11.5144
▁부추	-11.5144
▁만들겠다	-11.5145
▁높을	-11.5148
▁스펙	-11.5149
▁잡힌	-11.515
이었어	-11.5151
했음을	-11.5151
▁발표하고	-11.5152
▁검토한	-11.5153
▁밭	-11.5154
▁우려된다	-11.5154
▁자정	-11.5154
▁라운드	-11.5155
▁돌아왔다	-11.5156
되었지만	-11.5156
▁맞죠	-11.5157
TO	-11.5159
회복	-11.5164
▁63	-11.5164
▁보행자	-11.5168
▁부족으로	-11.5168
▁소량	-11.5169
▁들러	-11.5169
▁살피	-11.5169
▁상징하는	-11.517
▁성동구	-11.517
▁연구위원	-11.517
▁교착	-11.5171
▁고추장	-11.5171
▁잡혀	-11.5172
▁오빠가	-11.5173
▁소개할	-11.5173
▁잘하고	-11.5173
▁관객들이	-11.5174
▁세입자	-11.5175
▁박성	-11.5176
▁진단했다	-11.5177
▁판로	-11.5177
▁문제들	-11.518
▁청구서를	-11.518
▁원룸	-11.5181
▁창고에	-11.5183
▁평가하는	-11.5183
▁접근성	-11.5183
인분	-11.5184
▁전문으로	-11.5186
▁원자력	-11.5186
웨어	-11.5186
▁보내준	-11.5188
AT	-11.5188
▁배부	-11.5188
▁오리지널	-11.5189
▁플러그	-11.5189
▁헌법재판소	-11.5189
▁창원시	-11.5191
▁크리스	-11.5192
▁수험생	-11.5192
▁횡	-11.5193
▁잘했어	-11.5193
▁특례	-11.5193
▁조기에	-11.5194
▁해외여행	-11.5195
호로	-11.5196
▁지원한	-11.52
▁화면에	-11.52
▁생각한	-11.5201
▁정직	-11.5202
▁끄	-11.5202
▁상속	-11.5204
▁선진	-11.5204
▁당근	-11.5207
▁당연한	-11.5207
제도를	-11.5207
▁손님들이	-11.5208
▁공무원들이	-11.5209
▁만만치	-11.521
▁진지하게	-11.521
▁잇몸	-11.521
딸	-11.521
▁경협	-11.521
▁뿌려	-11.521
▁거고	-11.5212
달라	-11.5212
▁목표다	-11.5213
▁행정적	-11.5213
▁메달	-11.5213
▁티저	-11.5213
▁서서히	-11.5214
제와	-11.5214
▁발전과	-11.5214
▁벽에	-11.5215
▁호텔이	-11.5215
▁역사상	-11.5217
▁투명한	-11.5218
▁가속	-11.5219
▁갖추어	-11.5221
▁이끈	-11.5222
▁글쎄	-11.5223
▁그러다	-11.5225
▁적극적	-11.5225
▁논의했다	-11.5227
▁이어서	-11.5229
막을	-11.5229
▁어린이들	-11.5229
능력을	-11.5229
▁360	-11.523
미디어	-11.523
▁사우디아라비아	-11.523
▁아나운서	-11.523
▁프린트	-11.523
▁가만히	-11.523
▁무덤	-11.5231
▁다양하고	-11.5232
▁1999	-11.5233
▁막혀	-11.5234
량은	-11.5234
▁신속	-11.5234
▁계승	-11.5236
▁이마트	-11.5236
▁성북구	-11.5237
▁볼턴	-11.5237
상과	-11.5237
▁연초	-11.5238
겠습니까	-11.5238
으므로	-11.5238
97	-11.5239
▁자진	-11.524
▁거품	-11.5241
▁이길	-11.5243
▁지원받	-11.5245
▁영남	-11.5245
▁짠	-11.5245
▁재정적	-11.5246
▁응모	-11.5246
▁카테고리	-11.5251
▁빛이	-11.5253
▁바탕	-11.5255
▁남다른	-11.5256
▁표본	-11.5256
▁시간당	-11.5258
▁두바이	-11.526
▁나갔	-11.5261
▁회원국	-11.5263
대책을	-11.5264
운송	-11.5265
▁구입한	-11.5265
▁뷰	-11.5266
▁개발과	-11.5267
▁제안해	-11.5269
▁다룬	-11.527
▁함유되어	-11.5271
▁미치	-11.5275
▁주었습니다	-11.5275
▁시급	-11.5276
▁다니고	-11.5276
위생	-11.5277
포장	-11.5277
▁기대되는	-11.5277
▁추경	-11.5278
▁학생을	-11.5278
▁조성사업	-11.5278
▁채로	-11.5278
▁저랑	-11.5279
▁기록해	-11.528
▁탈모	-11.528
서류	-11.5282
▁최종적으로	-11.5283
▁협력이	-11.5283
▁대표자	-11.5284
▁상원	-11.5285
▁인사가	-11.5285
▁알았는데	-11.5287
순환	-11.5287
▁꼴	-11.5287
▁희생자	-11.5287
▁주먹	-11.5288
▁민간단체	-11.5288
▁마련을	-11.5288
▁나가야	-11.529
냅니다	-11.5291
▁일어났다	-11.5291
▁로버트	-11.5292
▁개그맨	-11.5292
▁체험을	-11.5293
▁고추	-11.5294
아트	-11.5295
▁할까	-11.5298
받았	-11.5299
▁못하도록	-11.5299
▁부서장	-11.5299
▁갔어	-11.53
위권	-11.5304
▁연이어	-11.5304
▁난이도	-11.5305
▁유로	-11.5306
▁않기로	-11.5306
▁더운	-11.5306
▁파트	-11.5306
▁창단	-11.5307
▁보다는	-11.5308
▁유연한	-11.5309
리즘	-11.5309
회의에서	-11.531
자금을	-11.531
수리	-11.5311
▁극우	-11.5311
▁일당	-11.5313
▁무엇이든	-11.5313
▁창의적인	-11.5314
▁많았습니다	-11.5315
▁소위	-11.5316
▁맞출	-11.5317
▁잡았	-11.5317
▁필리핀에	-11.532
▁노동조합	-11.5321
▁차분	-11.5322
▁샘플은	-11.5324
업체에	-11.5325
▁키즈	-11.5326
▁즐기기	-11.5327
▁대두	-11.533
▁구리	-11.5331
▁서예	-11.5332
▁신사	-11.5332
▁사형	-11.5332
▁인근에서	-11.5332
▁현지인들	-11.5332
▁브러시	-11.5333
▁유재석	-11.5333
▁다가가	-11.5333
▁잇달	-11.5334
▁전적으로	-11.5335
▁늘리고	-11.5337
▁낮게	-11.5337
▁하셔서	-11.5337
▁성취	-11.5338
▁사용했습니다	-11.5338
▁속하는	-11.5338
▁보이는데	-11.5342
▁유명하다	-11.5343
만으로는	-11.5343
▁런닝맨	-11.5344
▁임대주택	-11.5345
▁더해져	-11.5348
▁안타까운	-11.5353
리터	-11.5356
▁구의	-11.5359
독립	-11.5359
∼10	-11.536
자유	-11.536
▁돌아가는	-11.536
▁기대했다	-11.5361
▁풀리	-11.5364
▁최우수상	-11.5364
▁보여요	-11.5365
▁설레	-11.5367
권은	-11.5367
▁경제협력	-11.5367
▁프레	-11.5367
▁배후	-11.5369
▁영향력이	-11.5369
▁문제다	-11.537
▁기록할	-11.537
수산	-11.537
▁가세요	-11.537
▁작성해	-11.5371
급식	-11.5372
▁분석됐다	-11.5374
▁순조롭게	-11.5374
▁바뀔	-11.5374
▁성형	-11.5374
▁다툼	-11.5375
▁뭐냐	-11.5377
▁있어서요	-11.5377
▁거다	-11.5377
근본적인	-11.5377
▁도의	-11.5378
▁주관부서의	-11.5384
하진	-11.5385
▁치안	-11.5387
▁유용	-11.5388
▁룩	-11.5389
▁한국전쟁	-11.5389
▁헤이	-11.5391
▁느꼈	-11.5392
▁이어갈	-11.5392
▁얻게	-11.5395
▁양을	-11.5396
▁않습니까	-11.5396
▁추진에	-11.5396
▁견본	-11.5396
▁컨트롤러	-11.5397
▁떠날	-11.5397
바람	-11.5398
▁끄는	-11.5398
▁욕설	-11.5398
▁나가서	-11.5398
시책	-11.5399
▁좋았어	-11.5399
▁메뉴는	-11.54
▁베이비	-11.54
▁기둥	-11.54
4%)	-11.5401
▁상세히	-11.5402
지역으로	-11.5402
▁보시는	-11.5403
▁익숙한	-11.5404
▁풀려	-11.5406
로봇	-11.541
기사	-11.5412
퀴	-11.5412
▁늘어났다	-11.5413
▁열정을	-11.5413
82	-11.5414
▁나경원	-11.5416
어린이	-11.5416
▁단독주택	-11.5417
▁로션	-11.5418
▁이득	-11.5418
▁방문하고	-11.5419
▁모이는	-11.5419
복구	-11.542
▁골든	-11.542
▁돋	-11.5421
▁답답	-11.5423
팀에	-11.5424
액의	-11.5427
하이	-11.5428
▁고치	-11.5429
되는지	-11.5432
빈이	-11.5433
▁경남도	-11.5434
▁공사장	-11.5434
▁경상북도	-11.5437
▁어떠신가요	-11.5437
▁가뭄	-11.5437
▁해명했다	-11.5437
길에	-11.5438
▁부서에	-11.5439
▁동아시아	-11.5439
▁늘릴	-11.5442
ter	-11.5443
공사가	-11.5444
▁판단하고	-11.5444
▁만났다	-11.5446
▁그레이	-11.5448
▁나타난다	-11.5449
▁고사	-11.5452
▁두되	-11.5453
▁안된다	-11.5453
▁기르	-11.5454
수급	-11.5456
▁달라지	-11.5458
▁주입	-11.5458
했음에도	-11.546
▁시각이	-11.546
▁않자	-11.5461
▁토크	-11.5461
크림	-11.5461
▁만하다	-11.5461
▁몸매	-11.5463
▁닿지	-11.5464
안은	-11.5464
부동산	-11.5466
내에	-11.5466
▁생각하기	-11.5467
전력	-11.5467
▁1,500	-11.5469
▁다행입니다	-11.5471
▁동맹	-11.5471
▁오징어	-11.5472
▁사이즈를	-11.5472
력으로	-11.5472
▁결함이	-11.5473
▁항소심	-11.5474
▁나오면서	-11.5474
▁구조적	-11.5475
겠고	-11.5475
▁놓여	-11.5476
물품	-11.5476
▁경제부총리	-11.5478
▁텍스트	-11.5478
▁와이프	-11.5479
▁꾀	-11.5479
▁원작	-11.5481
▁예멘	-11.5481
컴	-11.5481
▁써서	-11.5482
▁매칭	-11.5482
▁뒤쪽	-11.5484
용역	-11.5484
▁잔여	-11.5485
▁투자에	-11.5485
▁전력이	-11.5486
▁스타일이	-11.5486
하겠지만	-11.5487
▁되자	-11.5487
▁구조가	-11.5488
▁공천	-11.5489
▁메시	-11.549
쇄	-11.549
▁내일은	-11.5494
▁회담이	-11.5495
▁벤처기업	-11.5495
▁일으키	-11.5496
▁간편한	-11.5497
▁사임	-11.5498
▁말라고	-11.5499
보육	-11.55
▁액	-11.55
되었	-11.5501
큰	-11.5501
▁곡선	-11.5501
6%)	-11.5502
▁영동	-11.5502
▁지역에서는	-11.5502
▁유적	-11.5503
▁가해	-11.5503
▁자치단체	-11.5504
▁사용량	-11.5505
▁핸드폰을	-11.5506
밸리	-11.5506
▁선정했다	-11.5507
▁불확실성	-11.5507
▁내부의	-11.5509
▁비빔밥	-11.5511
▁수직	-11.5513
▁달간	-11.5513
실태	-11.5514
▁인재를	-11.5514
▁건강하고	-11.5515
▁행정부가	-11.5516
▁마셔	-11.5516
▁이야기하고	-11.5517
▁학년	-11.5518
▁부를	-11.5519
▁항공권	-11.5519
▁백업	-11.552
▁아시안컵	-11.552
▁대형마트	-11.5521
▁불안감	-11.5522
▁있었으나	-11.5522
▁공부할	-11.5522
▁동점	-11.5522
▁잉크	-11.5522
▁사안이	-11.5522
▁거라는	-11.5523
제약	-11.5523
▁우선순위	-11.5524
▁상승률	-11.5524
▁매치	-11.5524
▁날에	-11.5524
▁평생학습	-11.5526
▁마케팅을	-11.5529
▁익히	-11.553
▁대안을	-11.553
▁후보자가	-11.5531
▁문자를	-11.5533
졌는데	-11.5533
국내	-11.5533
지표	-11.5534
▁영문	-11.5534
▁다행	-11.5537
▁북구	-11.5538
▁지도를	-11.5538
감과	-11.5539
▁고품질의	-11.5539
▁한류가	-11.5539
▁간이	-11.554
▁발걸음	-11.5541
▁공기업	-11.5542
▁디젤	-11.5542
재료	-11.5542
▁관련해서는	-11.5543
▁발견했습니다	-11.5545
▁동굴	-11.5546
더라구요	-11.5546
▁한국식	-11.5546
▁상상력	-11.5546
▁변경된	-11.5547
▁캡	-11.5548
▁오르고	-11.5549
▁노화	-11.5549
▁뚫	-11.555
▁유학생	-11.5551
▁선사합니다	-11.5552
▁때문이라는	-11.5552
▁것입니까	-11.5553
▁확인하시고	-11.5553
으실	-11.5555
▁인식하고	-11.5555
▁일대에서	-11.5556
ow	-11.5556
년여	-11.5557
▁설명할	-11.5558
▁사격	-11.5559
▁걸리지	-11.5559
▁붙이	-11.556
잡이	-11.5561
▁유가족	-11.5562
▁집행유예	-11.5563
▁판촉	-11.5563
▁교육부가	-11.5564
▁피하기	-11.5567
오리	-11.5567
달러에	-11.5567
▁운임	-11.5568
외국인	-11.5568
▁무대가	-11.5568
주체	-11.5569
▁불평	-11.5569
▁신상	-11.5569
▁이어지면서	-11.5569
▁규정된	-11.557
▁융자금	-11.5572
▁살았	-11.5574
▁만성	-11.5574
▁게시판	-11.5575
▁연말까지	-11.5576
대구	-11.5577
▁캠페인을	-11.5577
▁쌓이	-11.5579
▁출신인	-11.558
▁강화해	-11.5581
▁소방서	-11.5581
▁이었다	-11.5582
▁롱	-11.5582
▁이듬해	-11.5584
▁감사드린다	-11.5584
문화원	-11.5585
▁전문의	-11.5585
▁학교폭력	-11.5586
▁동원해	-11.5586
▁저녁을	-11.5587
▁김영철	-11.5588
▁낙태	-11.5588
드림	-11.5589
▁나간	-11.559
▁금품	-11.5591
▁시작될	-11.5594
▁선점	-11.5597
▁애들	-11.5597
막이	-11.5598
되었는지	-11.5599
▁조성하는	-11.5599
취소	-11.5599
▁세상이	-11.56
▁보내기	-11.5604
▁고구마	-11.5605
▁실시해	-11.5607
▁NC	-11.5608
▁건물에	-11.5608
▁여보세요	-11.5609
▁3∼4	-11.5611
▁돈으로	-11.5612
▁도시로	-11.5612
▁반발이	-11.5613
해드릴	-11.5613
▁번영	-11.5613
▁190	-11.5615
▁주무	-11.5615
▁미안해요	-11.5617
▁탱크	-11.5617
표시	-11.5618
해볼	-11.5618
▁세상에서	-11.5618
▁제작되어	-11.5623
▁FC	-11.5623
▁진행됩니다	-11.5626
▁초음파	-11.5626
▁바람직하다	-11.5626
▁파기	-11.5627
▁선발된	-11.5627
3%)	-11.5627
▁부모님이	-11.5627
측정	-11.5628
▁합의에	-11.5629
▁바뀌는	-11.5629
않	-11.5629
겹	-11.563
▁만세	-11.563
62	-11.5631
지연	-11.5631
헬	-11.5632
▁케이티	-11.5633
▁생산된	-11.5634
▁적도	-11.5634
▁국무위원장	-11.5638
▁대표적이다	-11.5638
▁사용허가	-11.5639
▁운영된다	-11.5639
▁확정되면	-11.564
▁흠	-11.5645
▁약관	-11.5645
소장	-11.5645
▁들어왔	-11.5647
▁현대중공업	-11.5648
▁아침입니다	-11.5648
▁도와줍니다	-11.5649
▁목욕	-11.5649
▁시급하다	-11.5649
▁광범위한	-11.5649
▁분사	-11.5649
▁상황이라	-11.5651
▁분명한	-11.5651
▁인터넷에서	-11.5654
▁고맙	-11.5655
9%)	-11.5656
▁되었	-11.5657
▁당대표	-11.5658
흡	-11.5659
▁홍역	-11.5659
▁오가는	-11.566
▁하셨는데	-11.5662
▁방으로	-11.5662
NA	-11.5662
▁예술가	-11.5662
▁장관을	-11.5662
▁답변은	-11.5664
▁모양을	-11.5665
▁기념품	-11.5665
▁시급한	-11.5665
▁살던	-11.5667
▁주인공이	-11.567
▁어묵	-11.5672
▁도로를	-11.5673
그리	-11.5675
▁위해서다	-11.5676
▁귀를	-11.5676
▁구름	-11.5677
▁공립	-11.5677
▁바뀌었다	-11.5677
▁특색	-11.5678
▁데서	-11.5679
▁지정하는	-11.5679
▁따지	-11.568
▁의도가	-11.568
▁회원들	-11.568
▁수익이	-11.5681
▁한국당이	-11.5681
▁국기	-11.5681
▁교육기관	-11.5682
▁잠재력	-11.5683
▁심각	-11.5684
▁활발	-11.5686
▁통영	-11.5686
▁이견이	-11.5686
▁펼친다	-11.5688
식당	-11.569
▁여행지	-11.569
▁서울중앙지검	-11.569
▁하이브리드	-11.569
▁냄비	-11.569
DA	-11.569
▁혈압	-11.5691
▁어업	-11.5692
▁소외	-11.5697
▁회화	-11.5697
▁애로사항	-11.5697
▁우수성	-11.5698
영역	-11.5699
▁권한이	-11.5699
▁특징은	-11.5702
▁겨냥한	-11.5704
▁법안이	-11.5705
▁여러분께	-11.5705
▁모시고	-11.5705
▁포함되지	-11.5705
▁대치	-11.5707
▁뛰어들	-11.5708
▁옥수수	-11.5708
▁보여줬다	-11.5711
▁체납	-11.5711
▁모스크바	-11.5711
▁계속될	-11.5712
▁진단을	-11.5712
▁지키기	-11.5713
▁기울이	-11.5715
군을	-11.5716
▁쉬고	-11.5716
▁만이다	-11.5717
▁반죽	-11.5717
받지	-11.5717
설치	-11.5718
▁현실적으로	-11.572
▁돈은	-11.572
▁만들어졌다	-11.5722
▁카페에서	-11.5722
▁포항시	-11.5723
▁짧	-11.5726
as	-11.5728
▁건강과	-11.5731
▁교차	-11.5732
▁패러다임	-11.5733
▁호날두	-11.5733
▁실증	-11.5733
하잖아	-11.5734
▁기울	-11.5734
▁각기	-11.5734
경험	-11.5734
▁서기	-11.5735
▁죄송하다	-11.5736
▁해결해야	-11.5736
▁평화와	-11.5737
▁지친	-11.5738
▁주님	-11.5739
▁일어나고	-11.574
▁유연성	-11.5741
▁갈게요	-11.5741
▁배송은	-11.5742
▁탐사	-11.5744
▁강구	-11.5748
▁가게에	-11.5748
▁공급할	-11.5749
▁상관	-11.5751
▁덕분	-11.5752
▁해야지	-11.5754
▁갑작스러운	-11.5754
▁넥슨	-11.5755
▁드시고	-11.5755
∼9	-11.5755
▁배우들이	-11.5756
▁아무튼	-11.5756
ot	-11.5758
▁신념	-11.5759
▁좋았습니다	-11.5759
▁지우	-11.5759
컨설팅	-11.5759
가공	-11.576
▁집중력	-11.5761
▁도면	-11.5761
▁신발을	-11.5761
▁숫자가	-11.5763
▁복장	-11.5763
▁이리	-11.5764
▁표현한	-11.5764
▁진출한	-11.5765
▁주민센터	-11.5766
관리에	-11.5766
▁한파	-11.5766
았지만	-11.5766
▁소유권	-11.5766
▁그립	-11.5767
▁특정한	-11.5768
Ch	-11.5768
▁협력할	-11.5768
▁전화가	-11.5769
▁분과	-11.577
▁절대로	-11.577
▁자리잡	-11.577
븐	-11.5772
▁나가겠다	-11.5773
▁들어요	-11.5774
▁전체에	-11.5775
▁노회찬	-11.5776
▁각급	-11.5777
상자	-11.5779
유로	-11.5779
▁구원	-11.5779
▁등록을	-11.5779
▁모를	-11.5779
친화	-11.578
▁건네	-11.578
▁보컬	-11.5781
▁수탁기관	-11.5784
상환	-11.5785
▁확보가	-11.5785
▁파악됐다	-11.5786
▁알려주는	-11.5786
SA	-11.5787
▁구축할	-11.5788
▁무한	-11.5789
▁촉구하	-11.5789
▁전제	-11.579
▁1500	-11.5791
▁구사	-11.5791
▁도착했다	-11.5792
스럽습니다	-11.5794
▁제동	-11.5796
▁합작	-11.5796
▁장군	-11.5796
단과	-11.5797
▁겪어	-11.5797
▁콘크리트	-11.5797
▁삭감	-11.5798
▁그룹이	-11.5798
▁유익한	-11.5798
통계	-11.5798
▁Mr	-11.58
▁납치	-11.58
▁민원이	-11.5801
▁인종	-11.5802
▁지역별	-11.5803
▁맡는다	-11.5803
공간을	-11.5803
▁전남도	-11.5804
거리가	-11.5804
▁압도적	-11.5805
▁사업과	-11.5805
경찰서에	-11.5806
▁거주자	-11.5806
▁중증	-11.5806
▁않기를	-11.5807
▁요구사항	-11.5807
▁문이	-11.5808
버그	-11.5811
▁고려대	-11.5813
농장	-11.5813
▁포천	-11.5814
▁목적은	-11.5816
▁열광	-11.5816
▁작성하고	-11.5817
▁읍	-11.5817
▁일으킬	-11.5819
▁쓰면	-11.5822
먹는	-11.5823
▁차종	-11.5823
촬영	-11.5823
▁던져	-11.5825
빌딩	-11.5826
주차	-11.5826
▁이뤄지	-11.5827
▁누군가가	-11.5828
▁소화기	-11.5829
기준에	-11.5829
▁파도	-11.5831
팀과	-11.5832
▁생생한	-11.5834
▁환자를	-11.5834
킬	-11.5834
못	-11.5836
▁산업용	-11.5837
▁해결책을	-11.5838
되었기	-11.5838
▁귀여워	-11.5841
▁쌍둥이	-11.5841
▁과잉	-11.5842
▁팬클럽	-11.5842
▁밝히고	-11.5843
▁줄어들고	-11.5846
샷	-11.5846
▁물의	-11.5847
▁비서관	-11.585
▁딴	-11.585
▁구하기	-11.585
▁동해안	-11.585
▁오버	-11.5851
▁두루	-11.5851
▁전복	-11.5852
▁세수	-11.5853
▁축제는	-11.5853
스마트	-11.5854
▁총무	-11.5855
▁성립	-11.5855
텐데	-11.5857
▁오실	-11.586
짝	-11.5861
▁카메라는	-11.5862
▁과징금	-11.5863
▁가져왔	-11.5863
▁자신과	-11.5863
▁받으신	-11.5863
▁리듬	-11.5864
▁검색어	-11.5865
▁불고	-11.5865
▁슬림	-11.5865
봤는데	-11.5866
▁동북아	-11.5866
▁해상도	-11.5867
▁그만두	-11.5867
▁정하지	-11.5868
▁홍수	-11.587
▁일가	-11.5872
주문	-11.5872
▁해결책	-11.5873
▁무드	-11.5875
▁원주	-11.5876
▁똑같	-11.5877
껏	-11.588
김치	-11.5881
지회	-11.5881
▁없었고	-11.5883
▁유네스코	-11.5884
▁촉발	-11.5884
▁뛰어납니다	-11.5885
▁교육생	-11.5885
▁광주광역시	-11.5885
▁신입생	-11.5886
▁남미	-11.5889
▁반려	-11.5889
▁고립	-11.589
▁넘은	-11.589
▁조정이	-11.589
▁연루	-11.5891
▁생활에	-11.5891
니까요	-11.5891
▁순찰	-11.5892
표준	-11.5892
▁위원을	-11.5892
관리법	-11.5892
▁금액으로	-11.5894
▁재판이	-11.5894
▁던진	-11.5894
▁서식의	-11.5895
통을	-11.5896
▁울리	-11.5897
▁테니스	-11.5899
▁윈	-11.5899
▁몰리	-11.5902
▁관심도	-11.5902
▁가지를	-11.5902
하십니다	-11.5903
▁각오	-11.5905
수영	-11.5906
▁혐의에	-11.5906
▁자유를	-11.5906
▁안고	-11.5907
▁제기돼	-11.5907
▁청소를	-11.5908
▁이바지	-11.5908
▁레알	-11.5909
▁치우	-11.591
▁마지막에	-11.591
▁습기	-11.5911
목표	-11.5914
▁표현이	-11.5914
▁펼치	-11.5915
▁시작하고	-11.5917
▁지하철역	-11.5918
▁밀리	-11.5918
▁서브	-11.5919
전망	-11.5919
▁동서	-11.592
▁좋지만	-11.592
▁청주시	-11.592
▁명함	-11.592
거에요	-11.5922
▁소명	-11.5924
▁군사적	-11.5924
▁공공성	-11.5924
▁베트남에서	-11.5924
▁은은	-11.5925
▁분열	-11.5926
여년	-11.5926
▁적용하는	-11.5927
▁곰팡이	-11.5928
▁볼게요	-11.5929
▁죄송해요	-11.593
▁인사들	-11.593
▁그랜드	-11.593
▁행복해	-11.5931
▁지났습니다	-11.5932
▁높아지면서	-11.5933
▁예정돼	-11.5933
▁출시할	-11.5933
▁보온	-11.5935
쇼핑	-11.5935
▁조금이라도	-11.5937
▁듣지	-11.5938
▁의무가	-11.594
▁논의하기	-11.594
▁카라	-11.5941
▁폴리	-11.5942
▁낮다	-11.5942
▁번호가	-11.5943
일보	-11.5944
▁위탁기간	-11.5944
▁입안	-11.5945
▁합산	-11.5945
강화	-11.5946
쟁이	-11.5947
▁기어	-11.5947
▁예로	-11.5947
▁구매하시면	-11.5948
▁시행한다	-11.5948
▁&	-11.5948
▁연결할	-11.5948
▁얻었	-11.5949
▁같아서요	-11.595
▁에피소드	-11.595
▁로드맵	-11.595
▁대중문화	-11.595
▁다행이네요	-11.5951
▁베이	-11.5951
▁배출량	-11.5952
▁텐트	-11.5953
▁66	-11.5954
으려고	-11.5955
▁증명서	-11.5955
페스티벌	-11.5957
볼까	-11.5957
▁묶어	-11.5958
셨습니까	-11.5961
▁없음을	-11.5962
▁벌어지	-11.5963
▁사장님께서	-11.5963
▁가보	-11.5964
▁소위원회	-11.5965
▁산림청	-11.5965
▁놀이터	-11.5965
향상	-11.5965
▁격리	-11.5965
▁죄송	-11.5967
▁팬이	-11.5968
▁기념행사	-11.597
▁간직	-11.597
▁한류의	-11.5971
▁평판	-11.5971
▁쌓여	-11.5972
피해자	-11.5973
▁지방보조금	-11.5973
▁클러스터	-11.5973
▁인연이	-11.5974
▁했	-11.5976
▁일체	-11.5976
▁당연	-11.5977
▁체육관	-11.5977
▁이뤄져야	-11.5978
▁누구에게	-11.5979
▁갈색	-11.5979
▁최고급	-11.598
줘서	-11.598
▁했었	-11.5981
▁신청하여야	-11.5981
포트	-11.5981
협의	-11.5983
▁제때	-11.5983
▁다하고	-11.5984
▁대체할	-11.5984
▁웹사이트에	-11.5984
▁있기에	-11.5985
▁인정받	-11.5985
▁흉	-11.5988
▁부의장	-11.5988
▁제작해	-11.5988
▁수립하고	-11.5988
매매	-11.5989
▁참관	-11.599
▁반박했다	-11.599
▁이야기는	-11.599
▁보호하는	-11.599
▁구직	-11.599
주시는	-11.5991
▁보호하고	-11.5991
▁클래스	-11.5992
▁여신	-11.5992
대상은	-11.5994
▁컴백	-11.5995
▁연락할	-11.5995
▁요가	-11.5996
▁올라갈	-11.5997
줬으면	-11.6001
콘서트	-11.6001
2%)	-11.6002
▁운영해	-11.6003
▁사귀	-11.6004
▁중요하다는	-11.6005
05	-11.6006
▁셀프	-11.6007
▁다하겠습니다	-11.6009
▁실태조사	-11.6011
▁작용할	-11.6011
▁아니기	-11.6011
결과를	-11.6014
▁끓여	-11.6016
▁조종	-11.6016
▁사용자는	-11.6016
▁소극적	-11.6017
▁방화	-11.6017
▁압류	-11.6017
▁메가	-11.6018
▁않으려	-11.6018
▁그림은	-11.6019
차관	-11.6019
▁마산	-11.6019
▁이동하는	-11.6019
없	-11.6021
▁가르	-11.6021
▁셈	-11.6022
▁당신도	-11.6022
▁부피	-11.6023
년생	-11.6024
▁원화	-11.6024
▁관중	-11.6026
▁상임	-11.603
▁소송에서	-11.6031
▁스타일의	-11.6033
스퀘어	-11.6034
▁네티즌들	-11.6034
The	-11.6035
▁구조물	-11.6036
▁껍질	-11.6036
▁금융당국이	-11.6036
07	-11.6037
▁조경	-11.6037
▁중소벤처기업부	-11.6038
▁갑작스럽	-11.6038
▁사은품	-11.6039
▁운영과	-11.6039
▁박수를	-11.6039
▁인해서	-11.6039
▁어떠세요	-11.6039
▁기간으로	-11.6041
▁튼튼	-11.6043
▁제품도	-11.6044
▁증설	-11.6044
끝	-11.6044
▁of	-11.6045
▁공이	-11.6048
▁기념해	-11.6049
문화재	-11.6049
▁61	-11.605
지점	-11.6051
▁도시에서	-11.6053
눌	-11.6056
▁버터	-11.6058
▁국민적	-11.6058
▁작곡가	-11.6058
▁근로자의	-11.6059
▁위험도	-11.606
어져	-11.606
▁보훈	-11.6061
▁개선될	-11.6061
▁플러스	-11.6064
▁오케스트라	-11.6068
▁가격표	-11.6072
오픈	-11.6072
▁양주	-11.6072
뇨	-11.6073
제조	-11.6074
▁바라고	-11.6074
▁정정	-11.6075
▁도발	-11.6076
▁제작하는	-11.6077
▁휠	-11.6078
▁좁아	-11.6079
버드	-11.608
비용이	-11.608
▁큐	-11.6082
▁시비	-11.6082
▁아름다움을	-11.6082
▁양세찬	-11.6083
▁인천국제공항	-11.6083
일방적으로	-11.6083
▁1997	-11.6085
▁자율주행차	-11.6085
▁제작에	-11.6087
▁물체	-11.6089
▁오찬	-11.609
싸움	-11.6091
▁필자	-11.6091
▁화산	-11.6094
▁비핵화와	-11.6095
▁동물을	-11.6096
▁대신에	-11.6096
▁개발했습니다	-11.6096
▁원장이	-11.6099
보고서를	-11.6099
▁곡물	-11.6099
관계자	-11.6101
발표	-11.6101
▁발표회	-11.6101
▁이제부터	-11.6103
▁김제	-11.6104
▁추진된다	-11.6104
▁베테랑	-11.6105
▁나서야	-11.6105
▁다이얼	-11.6105
▁삐	-11.6108
▁구인	-11.6109
▁공문	-11.611
▁진전이	-11.6111
▁기부금	-11.6112
▁수평	-11.6112
▁해커	-11.6112
▁축복	-11.6113
대한민국	-11.6113
▁방송되는	-11.6116
▁내용물	-11.6117
기에는	-11.6117
▁헬	-11.6119
▁구직자	-11.6119
널	-11.6119
▁마련하기	-11.612
▁마스크를	-11.612
▁따라야	-11.6121
▁치는	-11.6121
▁도와주는	-11.6124
▁겨	-11.6125
겠군요	-11.6125
sh	-11.6128
▁상식	-11.6133
▁이어갔다	-11.6134
EC	-11.6134
▁시속	-11.6135
▁튼튼한	-11.6137
할까요	-11.6139
▁얘가	-11.614
사고가	-11.6141
▁신고한	-11.6141
▁스파이	-11.6142
▁박정	-11.6144
▁잡히	-11.6144
▁장비가	-11.6144
반도체	-11.6146
▁당신께	-11.6146
te	-11.6147
양식	-11.6147
▁숨을	-11.6148
▁신분으로	-11.6149
▁방송이	-11.6151
▁모형	-11.6152
▁웃기	-11.6153
▁될까	-11.6155
▁내놓고	-11.6155
옷	-11.6156
기관으로	-11.6156
▁찾아와	-11.6158
▁친구에게	-11.6158
▁호조	-11.616
▁부족하다는	-11.6161
이기에	-11.6162
▁어울리	-11.6163
▁경호	-11.6164
업체의	-11.6164
▁장수	-11.6165
▁김치를	-11.6165
▁게이트	-11.6167
▁시선이	-11.6167
▁컴	-11.6168
함은	-11.6168
▁엄마는	-11.6169
▁팬들과	-11.6169
▁도시계획	-11.617
▁팀원	-11.617
기까지	-11.6171
▁김모	-11.6172
▁미네랄	-11.6172
▁듀얼	-11.6172
▁아저씨	-11.6172
▁오염물질	-11.6173
좋은	-11.6175
▁실어	-11.6177
▁찬반	-11.6179
이신가요	-11.6179
▁떠났다	-11.618
▁대중화	-11.618
▁심정	-11.6182
▁대응하기	-11.6182
▁링	-11.6183
▁조직이	-11.6184
▁막내	-11.6184
▁백종원	-11.6185
전선	-11.6187
▁코어	-11.6188
지검	-11.619
GM	-11.619
▁조속	-11.6191
▁개선하기	-11.6191
▁원으로	-11.6194
▁게임에	-11.6194
벅	-11.6194
텀	-11.6194
▁넓혀	-11.6194
▁농림축산식품부	-11.6194
젓	-11.6194
▁들어서는	-11.6194
▁킹	-11.6194
조절	-11.6198
회로	-11.6198
▁카풀	-11.6198
▁표출	-11.6199
▁위험에	-11.62
▁체온	-11.6201
센트	-11.6202
▁전환을	-11.6202
▁초청해	-11.6203
▁않았다면	-11.6203
▁남을	-11.6206
강렬한	-11.6211
▁정품	-11.6211
▁소유하고	-11.6213
▁당국의	-11.6214
▁물질이	-11.6214
숍	-11.6216
j	-11.6217
▁하신다면	-11.6217
▁메이저리그	-11.6217
▁연평균	-11.6218
▁원재료	-11.6221
▁배제할	-11.6221
▁구별	-11.6221
▁진행합니다	-11.6222
델	-11.6222
▁소비자에게	-11.6223
▁통화를	-11.6224
▁112	-11.6225
칩니다	-11.6225
됐으면	-11.6225
▁말하며	-11.6226
지난해	-11.6227
▁바보	-11.6229
▁나만의	-11.623
▁연구기관	-11.623
▁종사	-11.6231
▁않겠다는	-11.6231
본다	-11.6231
▁대출이	-11.6234
▁HD	-11.6235
▁노래방	-11.6235
▁수년간	-11.6235
▁예약할	-11.6236
▁사랑해	-11.6237
▁여성들의	-11.6237
▁비밀을	-11.6237
안내	-11.6238
▁문의사항이	-11.6239
▁한진그룹	-11.624
▁전소민	-11.624
▁로이터통신	-11.624
▁아세안	-11.624
▁무엇보다도	-11.6242
▁철저하게	-11.6242
▁싶네요	-11.6243
▁신고자	-11.6243
▁텐데요	-11.6243
▁그라운드	-11.6245
▁적었다	-11.6245
▁키울	-11.6245
▁보리	-11.6247
오르	-11.625
야겠다	-11.6253
▁대지	-11.6254
▁사드	-11.6255
▁식당에	-11.6256
▁모습과	-11.6257
▁알려줘	-11.6259
▁좋다는	-11.6263
▁신한은행	-11.6263
드리기	-11.6263
▁지속되고	-11.6264
▁추출물	-11.6265
▁펼쳐졌다	-11.6265
▁부위에	-11.6265
▁발표하는	-11.6266
▁편리	-11.6267
▁인정하고	-11.6269
운행	-11.627
월드컵	-11.6271
▁먹어요	-11.6272
▁깎아	-11.6273
▁지원센터	-11.6274
▁알선	-11.6274
▁현실이	-11.6276
▁사용되고	-11.6276
제도가	-11.6276
▁법령에	-11.6279
▁부족하다	-11.6281
▁착한	-11.6283
▁목격	-11.6284
▁지원대상자	-11.6285
▁캐주얼	-11.6285
▁균열	-11.6285
▁코레일	-11.6285
▁공연에	-11.6285
▁센터를	-11.6286
▁2.5	-11.6287
▁맛있겠다	-11.6287
▁팀과	-11.6288
▁대법원이	-11.6288
▁음식물류	-11.6288
▁피어	-11.6288
▁사항들	-11.6289
▁됐는데	-11.6289
▁그리워	-11.6289
▁이해하지	-11.629
▁알려지지	-11.629
▁도난	-11.6291
▁알려야	-11.6292
▁브라	-11.6295
▁위탁하여	-11.6296
▁충분하지	-11.6298
▁국가와	-11.6298
▁면모	-11.6299
창호	-11.6299
변화	-11.63
▁생각해보	-11.6302
▁성함	-11.6303
▁꽃이	-11.6303
보라	-11.6304
▁반기	-11.6306
▁찾아내	-11.6306
갱	-11.6307
▁촛불	-11.6308
▁라오스	-11.6308
▁지석진	-11.6308
▁대주주	-11.6308
▁설명하는	-11.6308
▁열흘	-11.6308
▁필요한데	-11.6309
▁살해한	-11.6309
▁이름과	-11.631
▁집값이	-11.631
▁운이	-11.6311
▁취향에	-11.6312
용지	-11.6313
▁1·2	-11.6313
라이프	-11.6313
기부	-11.6315
▁상황과	-11.6315
했다며	-11.6316
멜	-11.6317
▁참석한다	-11.6317
심판	-11.6318
드리려고	-11.6318
▁신학	-11.6321
스로	-11.6321
▁줄고	-11.6321
▁작물	-11.6322
전국	-11.6324
▁권유	-11.6324
▁편안하고	-11.6325
▁부진한	-11.6325
▁도입된	-11.6328
▁반발하고	-11.6328
▁지고	-11.633
뱃	-11.633
▁6·13	-11.633
▁섹시	-11.633
▁대기오염	-11.6331
동향	-11.6331
▁당뇨병	-11.6332
▁독보적	-11.6332
관계를	-11.6333
▁프레스	-11.6333
▁전기요금	-11.6333
▁공급하고	-11.6333
져야	-11.6334
옵니다	-11.6337
▁회장을	-11.6337
▁혼잡	-11.6338
몸	-11.6338
터미널	-11.6338
▁기능에	-11.6338
▁가까	-11.6339
▁답이	-11.6339
▁죽을	-11.6339
쌍	-11.6339
▁기밀	-11.6339
▁유동성	-11.634
▁증액	-11.634
▁약속이	-11.6341
▁시원하게	-11.6341
열차	-11.6342
▁뮤직	-11.6342
▁개최되었다	-11.6343
▁활성	-11.6344
러시아	-11.6344
▁아르바이트	-11.6346
▁개발사업	-11.6347
▁구멍이	-11.6347
▁적용하여	-11.635
▁압	-11.6353
▁킨텍스	-11.6353
▁골고루	-11.6353
▁트레일러	-11.6353
▁하얀	-11.6353
▁록	-11.6354
추천	-11.6354
▁동전	-11.6354
▁문제도	-11.6355
친다	-11.6356
▁모르겠네요	-11.6357
▁고소한	-11.6357
▁돌아다니	-11.6357
▁보내야	-11.6357
▁사람에	-11.6357
▁연구진	-11.6357
▁합시다	-11.6358
▁화재로	-11.636
화하는	-11.6361
▁지워	-11.6365
▁죽음을	-11.6365
▁떠올랐다	-11.6366
▁환불이	-11.6366
▁잠시만요	-11.6366
문화예술	-11.6367
▁이루어지는	-11.6368
▁흥미롭	-11.6369
AP	-11.6372
▁가는데	-11.6372
▁여성은	-11.6372
자재	-11.6373
▁윤곽	-11.6376
▁대조	-11.6376
▁쇠	-11.6378
▁언론인	-11.638
▁확률	-11.6381
▁가져온	-11.6381
▁당사에서	-11.6382
▁달력	-11.6382
▁친근	-11.6383
▁점수가	-11.6386
▁임시회	-11.6387
▁착수했다	-11.6388
▁직원들과	-11.6388
▁학생들과	-11.639
▁후보의	-11.639
[...]
