<unk>	0
<s>	0
</s>	0
<pad>	0
<bos>	0
<eos>	0
.	-2.57771
▁	-3.49376
,	-3.91001
을	-4.14773
이	-4.47355
의	-4.53302
에	-4.56339
를	-4.56851
?	-4.64486
는	-4.71404
▁수	-4.76193
가	-4.77241
▁있습니다	-4.95027
은	-5.09736
도	-5.09891
로	-5.38296
입니다	-5.54481
▁이	-5.55517
지	-5.60796
▁저희	-5.61143
과	-5.64691
한	-5.67812
으로	-5.67972
할	-5.76694
고	-5.83152
해	-5.8873
에서	-5.90422
하고	-5.92241
와	-5.96104
▁있는	-6.01459
▁네	-6.03629
하는	-6.07386
▁것	-6.1236
기	-6.12682
▁더	-6.14997
▁아	-6.20469
▁BBB	-6.21043
만	-6.23476
▁그	-6.24604
▁합니다	-6.26465
요	-6.27787
▁안	-6.30979
인	-6.31065
▁한	-6.31971
서	-6.32029
합니다	-6.34005
▁FFF	-6.42752
!	-6.42766
▁AAA	-6.43645
어	-6.43864
▁잘	-6.48395
▁그리고	-6.54605
게	-6.57702
다	-6.59464
면	-6.61115
▁바랍니다	-6.61186
1	-6.63407
▁저는	-6.64067
리	-6.64244
▁대해	-6.64266
야	-6.6506
▁제가	-6.67821
일	-6.69183
▁해	-6.69653
▁제품	-6.70607
▁다	-6.71166
▁위해	-6.71347
▁대한	-6.7153
▁1	-6.73561
시	-6.73789
▁것입니다	-6.73899
▁할	-6.74361
자	-6.75476
▁거	-6.75745
된	-6.75774
▁지금	-6.76304
▁우리	-6.76613
▁다른	-6.78451
▁저희는	-6.79156
▁나는	-6.8035
▁3	-6.80567
▁때	-6.81441
▁2	-6.83396
▁및	-6.84051
▁또한	-6.84891
▁모든	-6.85187
나	-6.85524
▁우리는	-6.8689
하게	-6.88299
▁나	-6.88816
▁좋은	-6.89474
▁너무	-6.89682
▁저희가	-6.90731
▁많은	-6.90814
까지	-6.92479
하여	-6.93094
2	-6.93616
▁제품을	-6.95201
▁내	-6.95427
▁오	-6.95712
▁많이	-6.95972
▁진짜	-6.9604
▁그래서	-6.96124
▁좀	-6.96484
▁아니	-6.97722
▁감사합니다	-6.99095
라	-6.99463
▁이거	-6.99538
▁중	-7.00528
했습니다	-7.00961
▁이렇게	-7.01236
▁함께	-7.02889
▁것을	-7.03168
~	-7.03412
사	-7.03657
하기	-7.04041
▁그런데	-7.05042
스	-7.06265
▁됩니다	-7.06645
수	-7.07135
▁제	-7.07842
▁전	-7.07851
▁다시	-7.0798
▁어떻게	-7.08403
▁싶습니다	-7.08961
▁때문에	-7.10026
▁안녕하세요	-7.1082
주	-7.10873
개	-7.1168
▁매우	-7.12209
▁같습니다	-7.12901
아	-7.13209
▁주	-7.13505
년	-7.14079
▁제품은	-7.14726
▁정말	-7.14954
습니다	-7.16318
▁귀하의	-7.16442
▁보내	-7.16646
▁그럼	-7.1709
▁주문	-7.17281
▁어	-7.17595
▁가능합니다	-7.18049
▁연락	-7.18758
하지	-7.20553
장	-7.20956
▁이번	-7.21234
용	-7.21466
▁어떤	-7.21509
▁하지만	-7.21752
▁시	-7.22665
▁후	-7.23316
▁두	-7.23841
▁이제	-7.24221
에는	-7.25184
▁사용	-7.2585
대	-7.27218
치	-7.27356
▁내가	-7.27947
적인	-7.28571
▁것이	-7.29079
▁될	-7.29625
▁가	-7.30517
▁5	-7.30539
▁야	-7.31381
트	-7.31595
▁확인	-7.32182
▁형	-7.32928
▁몇	-7.33511
▁다음	-7.3358
▁있어	-7.35116
▁자	-7.35452
▁일	-7.3552
▁저	-7.35523
▁하는	-7.35635
▁뭐	-7.35706
상	-7.36359
▁통해	-7.365
▁귀사의	-7.36724
▁게	-7.36739
해야	-7.37262
월	-7.37379
▁원	-7.37669
▁다양한	-7.37713
▁배송	-7.37854
▁왜	-7.383
화	-7.38603
▁오늘	-7.39746
신	-7.3978
진	-7.399
실	-7.39946
▁바로	-7.39956
해서	-7.40116
▁10	-7.40533
▁경우	-7.42218
▁현재	-7.42374
▁또	-7.42817
▁혹시	-7.42877
▁데	-7.44156
▁가장	-7.45191
부터	-7.45413
니	-7.45753
▁지	-7.45945
▁드립니다	-7.46107
▁위한	-7.46323
▁마	-7.47442
드	-7.47969
▁4	-7.48358
부	-7.48377
분	-7.49151
됩니다	-7.49375
▁한국	-7.4945
보	-7.49465
▁보	-7.49473
▁없습니다	-7.49551
들	-7.49554
▁구매	-7.4995
▁번	-7.49995
식	-7.50157
▁당신의	-7.50162
▁사	-7.50206
▁회사	-7.50369
▁그러면	-7.50799
▁알고	-7.50853
▁못	-7.51862
▁문의	-7.51877
성	-7.52279
▁이런	-7.52298
▁여기	-7.52411
하면	-7.52426
네	-7.52554
▁새로운	-7.52776
러	-7.52806
원	-7.53197
▁있을	-7.53668
▁같은	-7.54219
▁하고	-7.54562
제	-7.55393
되어	-7.55543
에게	-7.56228
들이	-7.56501
▁이게	-7.56541
▁큰	-7.56564
▁가지	-7.56714
히	-7.56722
전	-7.57669
▁한번	-7.57962
구	-7.58304
정	-7.58567
▁하겠습니다	-7.58851
소	-7.59579
▁등	-7.59849
▁하나	-7.6044
이나	-7.61101
▁그런	-7.61329
▁모두	-7.61479
▁말	-7.62051
▁건	-7.62106
▁생산	-7.62798
▁좋아	-7.64107
죠	-7.64538
▁제공합니다	-7.6472
▁비	-7.64735
▁동안	-7.64901
▁정도	-7.65052
▁이상	-7.65405
▁되어	-7.65613
▁계약	-7.65745
▁알	-7.65904
▁있어요	-7.66127
▁전에	-7.66272
▁세	-7.66613
▁부	-7.66839
▁부탁드립니다	-7.67183
▁주세요	-7.67662
는데	-7.6867
▁않습니다	-7.68771
라고	-7.68784
▁진행	-7.6889
▁정	-7.68959
▁먼저	-7.69604
네요	-7.69655
▁따라	-7.70061
▁유	-7.70077
▁그냥	-7.70244
▁예	-7.70957
▁고객님	-7.71257
하	-7.7143
▁추가	-7.72088
▁당사	-7.72366
질	-7.72934
형	-7.72969
비	-7.72983
▁줄	-7.73073
물	-7.73486
▁빨리	-7.73723
▁있도록	-7.73806
▁고	-7.73842
▁주셔서	-7.74101
▁와	-7.74218
▁아니라	-7.75132
▁디자인	-7.75317
▁있다	-7.75664
▁그렇게	-7.75867
▁빠른	-7.76087
▁회신	-7.76874
되는	-7.77223
▁생각	-7.7738
적	-7.78101
▁요청	-7.78539
적으로	-7.78542
▁그러나	-7.78637
▁거예요	-7.79122
▁판매	-7.79398
▁우리가	-7.79475
▁문제가	-7.79595
▁가능한	-7.79631
▁가지고	-7.8004
보다	-7.80067
▁대	-7.80924
들을	-7.80987
▁것은	-7.81684
▁분	-7.8262
▁알려	-7.82799
▁사용할	-7.82909
▁차	-7.83067
데	-7.83291
▁거야	-7.83588
다고	-7.83953
▁직접	-7.84746
▁기능	-7.84977
▁필요한	-7.85661
산	-7.86037
려	-7.86065
명	-7.86279
▁있나요	-7.86403
차	-7.8662
▁약	-7.86922
하실	-7.87257
▁서비스	-7.87424
▁바	-7.87503
▁기술	-7.8767
▁하	-7.88642
될	-7.88831
▁예정입니다	-7.89061
▁이번에	-7.89393
▁배	-7.89559
▁상품	-7.89728
선	-7.90104
▁돼	-7.90202
▁제작	-7.91044
▁시작	-7.91058
▁아직	-7.91107
▁방	-7.91305
마	-7.91653
▁스	-7.91682
▁개	-7.92606
▁회사의	-7.93292
에도	-7.93295
▁너	-7.93714
세	-7.93739
▁같아요	-7.94102
▁미	-7.94357
▁도움이	-7.94445
▁메일	-7.94495
던	-7.94554
동	-7.9457
기를	-7.94858
▁물	-7.95096
▁모	-7.95193
▁열	-7.95614
우	-7.95645
▁되었습니다	-7.9568
▁회사는	-7.95754
▁걸	-7.95878
▁20	-7.9595
▁같이	-7.96049
되었습니다	-7.96106
하겠습니다	-7.96137
▁씨	-7.96704
▁6	-7.96757
▁개발	-7.96895
어요	-7.97059
▁볼	-7.97258
▁기	-7.97464
▁생각합니다	-7.97552
▁방문	-7.97757
▁그러니까	-7.97903
▁선택	-7.97989
▁무	-7.98151
님	-7.98319
▁사업	-7.98378
▁말씀	-7.98446
▁당신이	-7.98465
▁이미	-7.98493
▁달	-7.98871
내	-7.98901
▁시간	-7.98975
하였습니다	-7.99049
▁따라서	-7.99665
▁해외	-7.99671
▁준비	-7.99824
▁들어	-8.00092
▁서비스를	-8.0017
3	-8.00241
회	-8.0054
운	-8.00547
▁보고	-8.00638
▁봐	-8.0065
▁조금	-8.00794
하세요	-8.00839
방	-8.01024
▁드리겠습니다	-8.01211
▁사실	-8.0132
▁예약	-8.01428
▁상	-8.01468
▁그것은	-8.01659
▁없는	-8.0195
▁죄송합니다	-8.0233
▁관리	-8.02371
들은	-8.02589
▁쉽게	-8.02594
▁총	-8.02914
▁것으로	-8.03073
크	-8.03157
▁주시기	-8.03272
▁불	-8.03567
▁알겠습니다	-8.03919
▁입	-8.0415
미	-8.04701
▁여러	-8.04779
▁제품에	-8.048
으면	-8.04874
▁되	-8.05247
▁점	-8.05272
▁샘플	-8.05306
▁발	-8.0542
체	-8.05608
니까	-8.05668
▁그래	-8.05695
▁지난	-8.05815
당	-8.05995
▁아니야	-8.06093
중	-8.06492
▁있을까요	-8.0652
▁답변	-8.06784
▁귀사	-8.06828
▁호텔	-8.0687
▁좋습니다	-8.06962
▁없이	-8.07
▁지불	-8.07811
▁계속	-8.07944
프	-8.08922
조	-8.08963
▁일정	-8.08965
겠습니다	-8.09009
▁우리의	-8.0939
)	-8.09635
▁하면	-8.10217
▁연구	-8.1032
▁제품입니다	-8.10502
오	-8.10564
▁막	-8.11361
▁주시면	-8.11444
▁소	-8.11563
하시면	-8.11845
▁그렇지	-8.12085
▁구	-8.12285
▁처리	-8.12431
하도록	-8.12639
▁동	-8.1306
시간	-8.13106
▁이용	-8.13149
▁연	-8.1325
▁변경	-8.13259
▁해당	-8.13324
금	-8.13439
▁감사	-8.13647
▁공급	-8.1376
▁제품이	-8.14037
이에요	-8.14221
▁양	-8.14799
▁신	-8.14841
▁관련	-8.14912
재	-8.15081
▁일단	-8.15246
세요	-8.15267
▁시간이	-8.15457
▁7	-8.1547
▁뭐야	-8.15486
▁되는	-8.15555
▁약간	-8.15584
▁피부	-8.15587
▁가격	-8.1567
인데	-8.157
▁품질	-8.16314
▁공	-8.16356
▁집	-8.16371
▁인	-8.16759
▁항상	-8.16794
▁감사드립니다	-8.17147
▁우와	-8.1723
터	-8.17825
▁새	-8.17879
▁있어서	-8.17995
▁전화	-8.18806
▁반	-8.18823
지만	-8.18837
▁주문을	-8.18903
▁최대	-8.18942
랑	-8.19063
▁얼마나	-8.19071
▁꼭	-8.19073
▁아이	-8.19082
▁기업	-8.19151
이야	-8.19264
▁관심	-8.1932
▁필요	-8.1936
씨	-8.19362
래	-8.19519
5	-8.1962
▁겁니다	-8.1981
▁고객	-8.19813
하고자	-8.19845
▁날	-8.1995
점	-8.20049
▁당신은	-8.20877
▁OK	-8.20882
▁일이	-8.20944
▁수도	-8.20996
위	-8.2107
하시는	-8.21245
▁제공	-8.21438
으	-8.21621
▁협력	-8.21912
▁있습니까	-8.22153
등	-8.22808
간	-8.23424
번	-8.23784
▁또는	-8.24233
▁해야	-8.24309
▁회사에서	-8.24354
거	-8.24559
▁본	-8.25001
▁간	-8.25091
▁물론	-8.25209
-	-8.25406
단	-8.25639
▁각	-8.25746
▁8	-8.25799
▁여러분	-8.25974
▁특히	-8.26033
▁연결	-8.26081
워	-8.26135
여	-8.26172
▁작업	-8.27042
▁게임	-8.27354
e	-8.27882
▁12	-8.28109
▁정보를	-8.28271
집	-8.28472
▁명	-8.2866
▁아주	-8.28742
▁선생님	-8.28754
▁귀하께서	-8.28916
▁더욱	-8.28952
▁시간을	-8.29133
거나	-8.29162
▁업무	-8.29285
▁하루	-8.2957
나요	-8.29664
었습니다	-8.29737
▁얘기	-8.29857
▁결정	-8.29967
건	-8.30054
▁최대한	-8.30498
계	-8.30674
▁딱	-8.30949
▁파	-8.31037
▁높은	-8.3122
며	-8.31238
▁30	-8.31578
하며	-8.3269
▁있는지	-8.32805
(	-8.32917
▁있고	-8.32979
▁우선	-8.33165
▁타	-8.33203
▁재	-8.33293
그	-8.33381
▁만들어	-8.3354
▁이러한	-8.33545
▁미리	-8.3363
▁확인해	-8.33655
이라고	-8.33696
모	-8.33703
▁계획	-8.33805
▁기존	-8.3387
▁온	-8.34344
▁문제	-8.34431
▁있으면	-8.34484
▁신제품	-8.34563
▁맞아	-8.34812
▁온라인	-8.35026
▁살	-8.35104
무	-8.35229
개의	-8.35323
▁오빠	-8.35372
▁무슨	-8.35518
▁그게	-8.35901
이다	-8.36116
▁설명	-8.36206
▁투자	-8.3626
르	-8.36315
하신	-8.36564
▁연락을	-8.3709
력	-8.37136
관	-8.37142
▁저희에게	-8.37217
▁메일을	-8.37271
되지	-8.37382
판	-8.38025
져	-8.38103
▁해서	-8.3826
문	-8.38335
업	-8.38339
공	-8.3894
▁친애하는	-8.38958
▁있었습니다	-8.39
▁초	-8.39019
▁장비	-8.39135
다는	-8.3945
류	-8.39595
학	-8.3986
▁설치	-8.40241
▁받았습니다	-8.40298
▁강	-8.403
▁제조	-8.40494
▁것이다	-8.40536
▁결과	-8.40594
▁언제	-8.40669
감	-8.40959
티	-8.41191
▁했습니다	-8.41312
▁회의	-8.41372
▁추천	-8.4148
이고	-8.4159
▁지원	-8.41623
린	-8.41738
o	-8.41873
료	-8.42128
처럼	-8.42338
▁조	-8.42499
잖아	-8.42586
▁비용	-8.42718
▁이것은	-8.42763
▁미국	-8.42948
증	-8.42979
▁사람	-8.43026
지는	-8.43241
▁도착	-8.43303
▁손	-8.43969
급	-8.44
▁있다면	-8.44158
▁소프트웨어	-8.44171
▁소개	-8.44195
▁인해	-8.44281
▁경험	-8.44386
▁그들은	-8.44541
석	-8.44562
▁거래	-8.44596
량	-8.44636
▁결제	-8.44673
▁받을	-8.44826
▁필요합니다	-8.4493
▁주신	-8.44954
▁적용	-8.45296
도록	-8.45736
▁100	-8.45804
구나	-8.45869
▁주십시오	-8.45993
유	-8.46105
▁앞으로	-8.4615
▁세계	-8.46151
대로	-8.46364
▁주시길	-8.46388
▁카메라	-8.46423
▁처음	-8.46592
▁찾아	-8.46619
▁만약	-8.46653
▁중에	-8.46681
국	-8.46831
층	-8.4696
▁원하는	-8.47051
에서는	-8.47083
▁기계	-8.47084
▁불편	-8.47169
▁상품을	-8.47302
▁장	-8.47343
▁관심이	-8.4738
▁그때	-8.47452
▁않은	-8.47517
길	-8.47661
면서	-8.48086
한테	-8.48104
연	-8.48126
▁쓰	-8.48208
▁유지	-8.48396
▁있다고	-8.48493
되고	-8.48544
행	-8.48768
종	-8.48855
▁해결	-8.49047
▁여	-8.4923
▁보호	-8.49266
▁업체	-8.49268
▁환불	-8.49316
출	-8.49889
▁9	-8.49907
▁비즈니스	-8.49917
▁첫	-8.49952
▁드릴	-8.50009
▁그렇죠	-8.50164
▁저도	-8.50223
▁그거	-8.50226
▁눈	-8.50515
▁편	-8.50569
▁완료	-8.50656
▁음식	-8.50708
▁된	-8.50718
하다	-8.50748
라는	-8.50801
▁출시	-8.50849
▁있으시면	-8.50862
▁있다는	-8.50951
▁갈	-8.51096
▁있게	-8.51121
거든요	-8.51129
▁할인	-8.5116
색	-8.51342
까	-8.51362
▁들었습니다	-8.51377
▁팔	-8.51431
▁작동	-8.51539
▁거의	-8.51594
C	-8.51686
▁선	-8.51749
▁잡	-8.51754
▁사고	-8.51981
▁일부	-8.52031
▁장치	-8.52308
파	-8.52726
이며	-8.52957
▁단	-8.53146
▁중요한	-8.53178
▁최근	-8.53351
천	-8.53372
▁인터넷	-8.53392
인지	-8.53442
D	-8.53466
▁오래	-8.5356
▁미팅	-8.5358
▁첨부	-8.53734
▁있는데	-8.53851
▁내일	-8.53876
달러	-8.53892
▁제안	-8.53908
잖아요	-8.53924
▁둘	-8.54123
/	-8.54234
▁카탈로그	-8.54418
▁좋을	-8.54446
▁부동산	-8.54602
▁최고의	-8.54769
음	-8.54847
4	-8.54948
▁받아	-8.54972
▁어디	-8.55327
루	-8.55336
▁돼요	-8.55367
바	-8.55368
▁팀	-8.55379
팀	-8.55403
안	-8.55657
▁않고	-8.55678
두	-8.55694
▁만족	-8.55977
주세요	-8.56032
▁귀사와	-8.56627
▁포장	-8.56718
▁서	-8.57179
▁하지	-8.57322
▁되게	-8.57491
▁같아	-8.57581
일에	-8.57623
▁이야	-8.57625
품	-8.58007
호	-8.58238
▁취소	-8.58253
▁건강	-8.58258
▁가능	-8.58286
▁포	-8.58326
▁소개해	-8.58348
▁한국에서	-8.58478
▁전달	-8.58533
인가요	-8.58574
타	-8.58587
매	-8.58776
P	-8.58791
▁번째	-8.58958
▁보험	-8.59276
하려고	-8.59383
▁오후	-8.59478
었	-8.59565
▁보관	-8.59729
▁이야기	-8.59729
▁없어	-8.59766
▁요즘	-8.59828
▁산	-8.59848
▁재고	-8.59857
▁저에게	-8.60014
▁사항이	-8.601
▁본사	-8.60172
▁환경	-8.60424
피	-8.60692
▁걱정	-8.60858
▁전기	-8.6094
양	-8.61236
약	-8.61305
시면	-8.61412
▁전체	-8.61424
▁피	-8.61915
▁컴퓨터	-8.61989
레	-8.62197
▁노	-8.62327
▁대해서	-8.62369
배	-8.62442
릴	-8.62464
했다	-8.62572
▁원래	-8.62608
▁우	-8.62728
▁좋겠습니다	-8.62776
▁찾고	-8.62906
▁대부분	-8.63033
▁않는	-8.63289
영	-8.633
온	-8.63362
▁충전	-8.63412
▁들	-8.63627
▁어제	-8.6363
▁지역	-8.63667
▁감사하겠습니다	-8.63728
▁수출	-8.63801
다면	-8.63826
▁모델	-8.63832
직	-8.64007
개월	-8.64224
▁적	-8.64247
▁회사에	-8.64341
울	-8.64345
▁시스템	-8.64751
▁안에	-8.6484
s	-8.64879
▁들어가	-8.64981
▁않을	-8.65102
디	-8.65108
▁그래도	-8.65137
▁때문입니다	-8.65278
▁정보	-8.65403
입	-8.65424
▁진심으로	-8.65463
▁올	-8.65467
▁프로그램	-8.65482
▁시장	-8.65505
생	-8.65614
▁없	-8.65631
▁어느	-8.65879
니다	-8.65883
▁15	-8.65944
더	-8.6598
▁리	-8.66056
가지	-8.66153
▁제일	-8.66203
▁요리	-8.66517
플	-8.66576
본	-8.66788
▁상태	-8.66798
▁배터리	-8.66831
▁심	-8.66972
▁직원	-8.66995
▁발전	-8.66997
'	-8.67089
권	-8.67102
▁남	-8.6716
▁경	-8.6727
▁안전	-8.67301
▁맛	-8.67303
▁여행	-8.67394
▁전문	-8.67422
초	-8.67439
▁공장	-8.67486
든	-8.67561
▁개인	-8.67569
m	-8.67605
▁입니다	-8.67662
▁줍니다	-8.6773
▁만나	-8.67741
▁참석	-8.67979
예요	-8.68029
▁자동차	-8.6803
i	-8.68089
들의	-8.68107
려고	-8.68138
▁납품	-8.68344
▁위	-8.68495
▁얼마	-8.68553
M	-8.68602
▁귀사에서	-8.68615
▁운영	-8.68718
▁데이터	-8.68748
▁후에	-8.68774
▁아래	-8.68813
▁그것을	-8.68852
▁영업	-8.68926
▁이해	-8.69028
A	-8.69047
▁구입	-8.69063
▁되지	-8.69079
▁운동	-8.69153
기가	-8.69154
▁요구	-8.69247
▁저희도	-8.69272
▁크기	-8.69354
O	-8.69399
긴	-8.69825
▁치	-8.70109
▁속	-8.70218
경	-8.70268
▁사진	-8.70395
법	-8.7052
▁발생	-8.70561
▁될까요	-8.70584
▁이동	-8.70597
▁빠르게	-8.7094
냐	-8.70999
▁광고	-8.71019
▁주실	-8.71099
▁50	-8.71169
▁맞는	-8.71177
포	-8.71346
▁기다리고	-8.71529
▁아닙니다	-8.71657
a	-8.71748
박	-8.7179
▁내부	-8.71812
▁기쁩니다	-8.71832
이라	-8.71853
열	-8.71973
▁화	-8.71981
설	-8.72009
▁사람이	-8.72378
"	-8.72382
▁그러	-8.7252
심	-8.72556
▁조건	-8.72565
발	-8.72631
▁음	-8.7265
▁출장	-8.728
▁색상	-8.72804
▁파일	-8.73161
▁기억	-8.73209
▁과정	-8.73274
즈	-8.73615
코	-8.73914
▁자세한	-8.73974
▁실	-8.74134
▁사용하여	-8.74298
▁차량	-8.74475
▁영상	-8.74498
고요	-8.74678
▁있겠습니다	-8.74704
S	-8.74859
기는	-8.74985
▁아닌	-8.75141
▁부탁	-8.75173
▁문제를	-8.75242
▁있으며	-8.75265
▁앱	-8.75384
저	-8.75405
▁자신	-8.75438
통	-8.75522
▁제거	-8.75531
▁진	-8.75549
격	-8.75613
▁운송	-8.7572
▁언제든지	-8.75767
해주셔서	-8.75971
▁마케팅	-8.75994
지요	-8.76013
▁소재	-8.76041
했	-8.76223
속	-8.76304
▁방지	-8.76317
▁사람들이	-8.76457
▁신청	-8.76562
▁기술을	-8.76608
▁보세요	-8.76621
p	-8.76635
했던	-8.76649
▁외	-8.76713
▁것도	-8.76779
T	-8.76798
▁곧	-8.76807
▁나와	-8.76822
▁A	-8.7683
▁저기	-8.7709
▁좋아요	-8.77164
▁귀하	-8.7718
▁성	-8.77264
▁세트	-8.77325
▁물건	-8.77369
▁기간	-8.77449
▁11	-8.77685
▁귀	-8.77711
▁싶은	-8.77926
▁브랜드	-8.77952
▁스타일	-8.78001
시는	-8.78044
하십시오	-8.7809
▁난	-8.78182
군요	-8.78199
▁관한	-8.78526
▁일을	-8.78831
▁참	-8.78918
에서도	-8.7893
▁종류의	-8.79172
▁설정	-8.79282
▁역시	-8.79382
▁위치	-8.7949
▁만든	-8.79501
▁만들	-8.79559
사의	-8.7961
▁부담	-8.79682
▁선적	-8.80056
별	-8.80275
란	-8.80321
▁해요	-8.80324
카	-8.80415
주셔서	-8.8066
▁맞아요	-8.80678
자가	-8.80701
▁코	-8.80762
▁받고	-8.8078
토	-8.80789
▁도움을	-8.80811
버	-8.8101
▁뒤	-8.81214
▁생	-8.81342
▁안내	-8.81343
▁보증	-8.81354
▁작은	-8.81399
▁새로	-8.81559
▁교육	-8.81638
함	-8.81803
▁검토	-8.81878
날	-8.81891
링	-8.81994
▁스마트	-8.82065
브	-8.82077
▁교체	-8.8209
▁것이라고	-8.82092
민	-8.82206
것	-8.82207
▁청소	-8.82215
▁프로젝트	-8.82272
▁설계	-8.8229
▁가족	-8.82482
▁따로	-8.82552
▁감	-8.82702
▁아니요	-8.82715
▁발송	-8.82769
▁식당	-8.82927
▁분석	-8.83007
▁변	-8.83082
▁작성	-8.83185
▁노력	-8.83423
▁일반	-8.83493
쳐	-8.83623
집니다	-8.83797
▁날짜	-8.83799
반	-8.83821
▁성공	-8.83951
▁있지	-8.83982
셨	-8.84056
▁개선	-8.84079
▁성장	-8.84184
▁한국의	-8.84265
▁일주일	-8.84295
개를	-8.84462
t	-8.84495
▁"	-8.8455
▁보내드리겠습니다	-8.84871
▁대신	-8.84956
어서	-8.85087
▁주문한	-8.8525
▁사용자	-8.85421
제품	-8.85452
▁회사가	-8.85504
▁보안	-8.85552
▁같은데	-8.85591
▁있기	-8.85594
각	-8.85597
께서	-8.85636
복	-8.85698
액	-8.85709
▁방식	-8.8573
해요	-8.85761
▁보여	-8.85809
▁이거는	-8.85933
▁곳	-8.86032
▁있기를	-8.86115
▁시설	-8.8613
달	-8.86259
▁보내주신	-8.86323
▁사랑	-8.86456
로부터	-8.86724
▁활용	-8.86773
▁공간	-8.87027
▁나오	-8.87048
까요	-8.87099
▁가격이	-8.87113
▁받은	-8.87114
▁포함	-8.87126
▁당사는	-8.87158
8	-8.87328
▁마지막	-8.8737
하면서	-8.87487
▁대로	-8.87621
백	-8.87722
▁않았습니다	-8.8773
▁위해서	-8.87825
▁국제	-8.87953
▁구조	-8.88099
▁'	-8.88166
▁당	-8.88229
성을	-8.88486
▁아니면	-8.88492
임	-8.88819
▁누구	-8.88898
▁여기서	-8.89104
하시고	-8.89109
▁김	-8.89175
▁사업을	-8.89443
▁거죠	-8.89479
▁먹어	-8.89489
스트	-8.89622
▁보통	-8.89696
갈	-8.89707
▁내에	-8.89746
,000	-8.89912
▁산업	-8.90025
▁부품	-8.90114
▁예상	-8.90399
g	-8.90461
▁되면	-8.90478
▁커피	-8.90754
▁지연	-8.90756
▁메일로	-8.90826
▁무선	-8.90833
▁식사	-8.90888
립	-8.90988
▁오늘은	-8.91067
들에게	-8.91086
▁매	-8.91197
▁아니에요	-8.91281
이라는	-8.9131
▁하는데	-8.91396
▁않아	-8.91408
▁통	-8.91439
▁인상	-8.91522
▁말씀해	-8.91691
▁효과	-8.91703
▁예정	-8.91771
▁건가요	-8.91792
살	-8.91817
▁정확한	-8.91962
▁사용하는	-8.92029
기에	-8.92155
▁은행	-8.92366
7	-8.92367
볼	-8.92494
너	-8.92519
▁지속	-8.9255
▁사장님	-8.92957
▁참고	-8.93204
▁제공하는	-8.9326
강	-8.93324
▁올해	-8.93365
가요	-8.93636
▁사무실	-8.93658
▁전자	-8.93721
하시	-8.93808
▁입금	-8.93844
▁왔습니다	-8.93856
절	-8.94069
6	-8.94119
▁창고	-8.94243
목	-8.94257
가지고	-8.94313
창	-8.94403
▁가게	-8.9445
▁기능이	-8.94591
▁훨씬	-8.94624
▁굉장히	-8.94679
▁가격은	-8.94758
씩	-8.94882
▁귀하께	-8.95007
줄	-8.95155
▁위험	-8.95231
▁알아	-8.95248
▁메뉴	-8.95311
▁원하시는	-8.95399
▁회의를	-8.95468
▁부분	-8.955
▁조정	-8.95535
▁잡아	-8.95549
▁객실	-8.95565
▁중국	-8.95713
▁건물	-8.95862
▁이메일	-8.95929
▁호	-8.95947
▁보다	-8.95958
▁확장	-8.96132
▁서로	-8.96298
▁그것이	-8.9642
▁참여	-8.96476
▁건조	-8.96481
▁그대로	-8.96613
▁잠깐만	-8.96871
▁조절	-8.96916
▁공유	-8.96916
▁영화	-8.97066
▁국내	-8.97102
▁행사	-8.97219
드립니다	-8.97319
I	-8.97395
▁대표	-8.97404
▁갑자기	-8.97472
▁선물	-8.97593
▁때는	-8.97648
▁제품들	-8.97663
▁포함되어	-8.97757
▁플랫폼	-8.97926
▁없을	-8.98034
▁필터	-8.98107
▁측정	-8.98133
▁이메일을	-8.98172
▁갖고	-8.98245
▁나도	-8.98279
역	-8.98323
▁괜찮	-8.98327
되	-8.98329
름	-8.98434
▁당신에게	-8.98531
▁커	-8.98654
▁한국에	-8.98675
병	-8.98964
▁백	-8.9919
후	-8.992
▁상담	-8.99265
▁있으니	-8.99272
▁옵션	-8.99301
▁방송	-8.99325
▁있었	-8.9935
▁보면	-8.99409
염	-8.99418
▁가격을	-8.99424
림	-8.99461
▁최신	-8.99496
▁수입	-8.99508
▁교환	-8.99828
▁않았	-8.99846
▁나가	-8.9987
▁최고	-8.99988
시에	-9.00038
▁궁금합니다	-9.00166
▁초대	-9.00237
▁것에	-9.00447
▁구성	-9.0047
▁왜냐하면	-9.0052
▁이메일로	-9.00533
▁좋다	-9.00595
▁200	-9.00612
션	-9.00676
▁잘못	-9.00683
▁같	-9.00826
▁S	-9.00827
▁주에	-9.00874
▁아이고	-9.01139
▁사용해	-9.01322
▁전혀	-9.01344
▁토	-9.01366
향	-9.01525
▁C	-9.01548
▁아까	-9.0156
▁응	-9.01584
▁파트너	-9.01629
▁키	-9.019
추	-9.01998
▁그들	-9.02059
▁즉시	-9.02098
지를	-9.02128
▁논의	-9.02429
어야	-9.02459
▁기다려	-9.02525
▁자료	-9.02564
▁주요	-9.02723
▁성분	-9.02934
▁복	-9.03026
▁주방	-9.03111
▁친구	-9.03177
▁등을	-9.03196
이면	-9.03244
▁귀사에	-9.03293
▁이건	-9.03329
▁배달	-9.03347
▁무엇을	-9.03369
▁단계	-9.03413
▁식	-9.0345
▁송금	-9.03481
현	-9.03495
▁사이즈	-9.03596
했을	-9.03615
▁식품	-9.03843
▁그건	-9.0401
탄	-9.04016
▁아파트	-9.04077
E	-9.04078
0	-9.04099
▁제안을	-9.04119
▁인증	-9.04146
▁고객님들	-9.0428
▁얼굴	-9.0439
▁기타	-9.04391
책	-9.04671
R	-9.04975
▁취	-9.0499
L	-9.05007
▁고민	-9.05065
▁공기	-9.05116
한다	-9.05141
했어요	-9.05238
▁확인할	-9.05267
▁괜찮아	-9.05343
망	-9.05531
▁넣어	-9.05549
▁로봇	-9.05613
였습니다	-9.05654
되면	-9.05715
▁회사를	-9.05761
▁달라	-9.05776
▁디지털	-9.05795
G	-9.05838
▁편하게	-9.05853
▁크게	-9.05995
다가	-9.06025
▁제공해	-9.06036
▁학습	-9.06048
▁카	-9.06064
작	-9.06126
▁맛이	-9.06131
퍼	-9.06173
▁사과	-9.06226
▁장소	-9.06287
성이	-9.06301
▁재고가	-9.0634
▁만	-9.06392
게요	-9.06441
▁홍보	-9.06495
▁부서	-9.06525
▁옷	-9.06593
▁기본	-9.06672
▁담당자	-9.06703
▁밥	-9.06804
▁드렸습니다	-9.06851
▁컬러	-9.0691
▁기다리겠습니다	-9.0693
9	-9.0697
때	-9.07043
▁버	-9.07149
▁알려주세요	-9.07235
하는데	-9.07255
시켜	-9.07374
불	-9.07412
c	-9.07472
▁높이	-9.07596
▁애	-9.07634
▁기대	-9.07645
▁자체	-9.07818
▁점이	-9.07869
▁고객님께서	-9.07906
▁P	-9.08191
▁등록	-9.08212
▁받지	-9.08472
커	-9.08476
▁시스템을	-9.08531
▁확실히	-9.08551
▁만큼	-9.08576
▁인기가	-9.08596
▁마음에	-9.08705
▁출	-9.08708
하기로	-9.08856
▁번호	-9.08925
마다	-9.08955
▁책임	-9.0899
▁아마	-9.09034
▁카드	-9.0907
데요	-9.09204
▁만드는	-9.09329
▁없어요	-9.09344
▁되나요	-9.09394
팅	-9.09476
▁먹는	-9.09495
▁관	-9.095
▁알게	-9.09566
받	-9.09662
록	-9.09667
▁금	-9.10013
들과	-9.10036
▁직	-9.10049
▁자동	-9.10072
▁임대	-9.1023
▁서비스에	-9.10491
▁보장	-9.10537
▁적이	-9.10651
▁세부	-9.10652
▁충분히	-9.10665
드릴	-9.10829
▁착용	-9.10843
하거나	-9.11008
▁특정	-9.1102
▁접	-9.11026
▁저거	-9.11116
▁음식을	-9.11137
▁기기	-9.11205
▁하기	-9.11258
▁머리	-9.11408
압	-9.11481
▁저장	-9.11548
▁치료	-9.11737
▁재료	-9.11794
▁라인	-9.11903
▁가입	-9.11966
▁이전	-9.12385
▁주문하신	-9.12478
▁뛰어난	-9.12482
▁누	-9.12498
습니까	-9.12614
▁제품으로	-9.12685
봐	-9.12846
▁수정	-9.13014
▁소개합니다	-9.13024
▁제대로	-9.13041
라도	-9.13046
▁수량	-9.13089
▁소개하려고	-9.13108
▁부드러운	-9.13204
▁추가로	-9.13296
▁국가	-9.13304
▁했는데	-9.13355
블	-9.13386
▁드리고	-9.13566
▁소식을	-9.13597
▁있으시다면	-9.13609
▁증가	-9.13652
▁유통	-9.13668
▁풀	-9.13844
cm	-9.13954
▁책	-9.13971
▁뭔가	-9.14076
▁완전	-9.14119
▁향	-9.14155
▁음료	-9.14171
▁면	-9.14247
▁매장	-9.1426
▁엄마	-9.14271
▁생활	-9.14355
▁집에	-9.14555
▁따르면	-9.14568
▁자연	-9.14593
하셔야	-9.14659
▁오전	-9.14678
▁따	-9.14686
▁온도	-9.1474
▁얘	-9.1477
▁구축	-9.14831
이었습니다	-9.14914
졌습니다	-9.14918
결	-9.15104
였	-9.15135
▁힘	-9.15176
▁넘	-9.1519
풍	-9.15193
▁누가	-9.15197
▁레	-9.15388
▁분이	-9.15421
▁서류	-9.15467
하셨습니다	-9.155
더라고요	-9.15505
▁표시	-9.15521
▁상세	-9.15619
▁되고	-9.15672
▁보냅니다	-9.15687
시고	-9.15776
력을	-9.1586
▁생각해	-9.15905
▁인기	-9.16056
▁평	-9.1613
▁시일	-9.16133
▁상황이	-9.16183
▁고려	-9.16268
리는	-9.16301
▁담	-9.16344
지고	-9.16347
▁검사	-9.16378
▁그렇다면	-9.16437
▁앞	-9.16458
표	-9.16467
▁속도	-9.16468
▁미팅을	-9.16643
▁배송이	-9.16722
▁최선을	-9.16758
▁금액	-9.16791
난	-9.16822
▁완전히	-9.16971
▁변화	-9.17008
▁그래요	-9.17012
줍니다	-9.17062
▁이에	-9.17085
▁궁금한	-9.17156
▁정리	-9.1719
▁최근에	-9.17275
▁못했습니다	-9.17319
▁전원	-9.17481
▁잔	-9.17517
합	-9.17675
▁방법을	-9.17714
▁수준	-9.17736
▁테스트	-9.17823
▁뒤에	-9.17925
▁않도록	-9.18094
▁돈을	-9.18181
▁죽	-9.18185
▁영향을	-9.18192
평	-9.1821
는데요	-9.18272
▁비디오	-9.18303
▁성능	-9.18358
▁제시	-9.18379
▁견적	-9.18406
▁광	-9.18487
시죠	-9.18489
엔	-9.18581
▁주로	-9.18588
▁청	-9.18758
▁뭘	-9.18796
합니까	-9.18954
▁오랜	-9.19046
▁농	-9.19203
▁크	-9.19256
겨	-9.19276
▁제공됩니다	-9.19292
▁세척	-9.19302
▁거래를	-9.19436
▁이걸	-9.19543
기로	-9.19594
▁싶어요	-9.19807
▁많습니다	-9.19921
인데요	-9.19954
▁매일	-9.19968
른	-9.20018
하셔서	-9.20032
▁에너지	-9.20035
태	-9.20037
싱	-9.20275
▁있지만	-9.20416
근	-9.20475
▁대금	-9.20484
▁저녁	-9.20491
친	-9.20568
▁신뢰	-9.20601
▁가져	-9.20722
▁아무	-9.20796
▁신경	-9.20823
▁기록	-9.21178
▁꽤	-9.21206
▁뿐만	-9.2126
▁사항을	-9.21353
▁무료	-9.21688
▁필요가	-9.21817
l	-9.21835
▁일본	-9.21898
▁관계	-9.21973
▁좋아하는	-9.22081
▁확	-9.22116
패	-9.22128
▁저희와	-9.2215
▁이는	-9.22177
▁써	-9.22211
하시기	-9.22228
▁맞춰	-9.22253
▁지금까지	-9.22379
▁노래	-9.22493
▁발표	-9.22528
▁제공할	-9.22613
▁물품	-9.22639
▁B	-9.22649
▁케이스	-9.22653
▁문	-9.22685
께	-9.22777
▁표	-9.23001
y	-9.23017
▁영	-9.2303
▁마세요	-9.2304
B	-9.23048
▁고급	-9.23049
▁통신	-9.23051
충	-9.23058
▁가서	-9.23137
레이	-9.23206
으며	-9.23231
▁내려	-9.2325
하셨	-9.23252
업체	-9.23279
▁박	-9.23309
▁프레젠테이션	-9.2331
▁촬영	-9.23383
▁분들이	-9.23544
▁이상의	-9.2357
노	-9.23599
▁다음주	-9.23627
했는데	-9.237
▁넣	-9.23758
▁고기	-9.23812
▁교	-9.23822
▁안전하게	-9.23858
쪽	-9.23903
▁있어야	-9.23912
▁대량	-9.24035
▁맞습니다	-9.2412
▁계시	-9.24143
▁담당	-9.24185
▁용	-9.24263
드리도록	-9.24291
▁실제로	-9.24309
▁언제든	-9.24312
글	-9.24382
해주세요	-9.24417
청	-9.24467
▁내용을	-9.24585
▁모양	-9.24631
▁등의	-9.24773
▁특	-9.24798
▁완성	-9.2486
걸	-9.24871
▁무게	-9.24919
▁다만	-9.25128
▁M	-9.25186
▁말고	-9.25196
▁부족	-9.25287
▁솔루션	-9.2531
▁그걸	-9.25354
▁내용	-9.25375
칠	-9.25497
▁전화를	-9.25524
▁먹고	-9.25534
▁이어	-9.25602
▁자사	-9.25689
▁모르	-9.25693
▁업데이트	-9.2576
▁혼자	-9.25768
되기	-9.25824
▁반응	-9.2592
▁형이	-9.25932
▁엄청	-9.2605
말	-9.26121
▁받	-9.26164
▁근데	-9.26239
▁맛있	-9.26248
▁최소	-9.26265
▁드려	-9.26352
▁의미	-9.26371
▁돌	-9.26404
탕	-9.26438
▁합	-9.26494
▁향상	-9.26526
변	-9.2656
▁확보	-9.26573
d	-9.2661
▁조리	-9.26615
▁궁금하신	-9.26623
▁집에서	-9.26766
▁체	-9.26867
이기	-9.26901
▁부분이	-9.26984
머	-9.27012
▁먹을	-9.27122
▁보이	-9.27127
일이	-9.27182
자를	-9.27357
▁패키지	-9.27427
락	-9.27429
▁도매	-9.27454
▁코로나	-9.27734
메	-9.27754
▁관련된	-9.27786
라면	-9.27807
▁중입니다	-9.2794
▁손상	-9.27956
▁D	-9.28065
▁여전히	-9.28194
▁웹	-9.28214
이랑	-9.28268
▁덕분에	-9.28369
▁화면	-9.28536
하려면	-9.28547
▁그녀	-9.2868
▁비해	-9.28688
투	-9.28799
▁스마트폰	-9.28819
군	-9.28881
▁약속	-9.28912
▁도매가	-9.28953
▁고정	-9.29072
회사	-9.2908
▁외부	-9.29142
▁작	-9.29146
▁통화	-9.29239
▁인사	-9.29297
▁관련하여	-9.29352
▁지금은	-9.29392
▁창	-9.29394
▁주택	-9.29557
▁특별한	-9.2958
▁셋	-9.29628
▁파티	-9.29729
▁싶어	-9.29742
▁직원들	-9.29777
광	-9.2985
▁플라스틱	-9.29869
능	-9.29969
▁나라	-9.30007
킹	-9.30083
▁소스	-9.30119
▁자기	-9.30381
▁집중	-9.30401
▁목	-9.30402
▁가구	-9.30551
▁상황	-9.30604
▁완벽한	-9.30623
▁보니	-9.30663
▁연락드립니다	-9.30715
▁메	-9.30813
▁사용이	-9.30859
▁대출	-9.30863
▁배송을	-9.30883
함을	-9.30915
▁이미지	-9.30923
▁마무리	-9.30927
주시면	-9.30957
예	-9.30967
▁주소	-9.31047
▁TV	-9.3109
▁관계를	-9.31108
교	-9.31108
관리	-9.31112
▁R	-9.31139
▁적합합니다	-9.31188
사를	-9.31339
▁추	-9.3134
▁잠	-9.3138
▁자리	-9.31426
▁한국어	-9.31426
▁동물	-9.31484
▁자주	-9.31484
▁어머	-9.31538
클	-9.31539
▁환자	-9.31609
▁이용해	-9.31678
▁동시에	-9.31688
▁전문가	-9.31714
▁회사와	-9.31715
▁현지	-9.3172
▁많아	-9.31731
▁자세히	-9.31738
습	-9.31784
▁태	-9.31833
▁종류	-9.31899
▁그동안	-9.3192
편	-9.32007
▁느낌	-9.32016
▁이를	-9.32041
▁힘들	-9.32169
▁비교	-9.32208
▁말씀을	-9.32209
▁한다	-9.32217
▁있으신가요	-9.32448
▁분들	-9.32453
하기를	-9.32495
▁연장	-9.32588
억	-9.32712
▁순	-9.32777
▁마지막으로	-9.32899
F	-9.33092
▁있죠	-9.33168
▁못한	-9.33197
▁연기	-9.33232
▁의료	-9.33245
▁주는	-9.33265
▁계신	-9.33281
b	-9.3333
▁홈페이지	-9.33387
▁기준	-9.33396
▁모드	-9.33396
구요	-9.33429
▁그럴	-9.33522
▁거기	-9.33525
▁상황입니다	-9.33569
▁아이디어	-9.33589
혀	-9.33611
▁네가	-9.33651
▁케이블	-9.33655
▁조사	-9.3394
▁하실	-9.3394
만큼	-9.33962
외	-9.33988
▁추천해	-9.34021
▁커버	-9.34037
▁색	-9.34062
장을	-9.3407
▁분야	-9.34151
▁형님	-9.34206
▁천	-9.34266
▁제공하고	-9.34288
▁비용은	-9.34289
▁편안한	-9.34294
▁센터	-9.34306
▁대해서는	-9.34372
▁친환경	-9.34391
주는	-9.34515
▁밀	-9.34537
▁유형	-9.34537
▁어려운	-9.34553
▁되는데	-9.34621
▁세탁	-9.34667
▁원단	-9.34675
▁사용하기	-9.34694
▁작업을	-9.34951
▁즐길	-9.34964
▁목록	-9.34977
▁아니고	-9.34984
▁마음	-9.3505
▁길	-9.35065
는지	-9.35122
일까지	-9.35182
▁연구팀	-9.35279
▁실제	-9.35365
▁강화	-9.35366
▁혁신	-9.35378
달러입니다	-9.35412
▁판매하는	-9.35455
드리고	-9.35455
▁100%	-9.35481
▁매출	-9.35493
▁늦어	-9.35565
▁레스토랑	-9.35687
▁돈	-9.35712
▁영양	-9.35763
▁능력	-9.35805
▁언니	-9.35876
▁드리고자	-9.35884
▁벌써	-9.36044
▁가는	-9.36082
▁당신을	-9.36105
▁거지	-9.36123
▁열심히	-9.36125
▁알려드립니다	-9.36183
▁하시는	-9.36254
▁국	-9.36255
십시오	-9.3631
▁팬	-9.36406
▁보니까	-9.3645
▁사람들	-9.36485
▁이것	-9.36503
들도	-9.36522
▁계	-9.36668
물을	-9.36708
▁병원	-9.36714
h	-9.36736
▁기회를	-9.36746
▁나중에	-9.36863
▁있는데요	-9.3688
▁착	-9.36907
▁걸리	-9.37007
▁주변	-9.37062
▁미디어	-9.3713
▁겨울	-9.37131
▁휴대폰	-9.37133
▁24	-9.37274
▁시간에	-9.37402
▁목표	-9.37549
해주신	-9.37573
▁500	-9.37615
▁예약을	-9.37622
▁해도	-9.38006
▁40	-9.38049
처	-9.38079
사항	-9.38227
▁자동으로	-9.38259
▁바닥	-9.3833
▁결혼	-9.38348
▁가죽	-9.38356
▁병	-9.3837
▁기반	-9.38382
필	-9.38386
▁수분	-9.38393
▁노트북	-9.38401
겠다	-9.38457
▁배우	-9.38474
▁가격으로	-9.38484
▁않으면	-9.38572
으니	-9.38646
▁건데	-9.38739
▁앞으로도	-9.38746
▁연락드리겠습니다	-9.3882
▁폭	-9.38895
▁질문	-9.39025
▁비용이	-9.39324
▁상황을	-9.39348
▁파악	-9.39364
▁좋	-9.39524
키	-9.39723
드리겠습니다	-9.39766
없이	-9.39797
으니까	-9.39815
▁입력	-9.39889
▁소리	-9.39892
▁생각이	-9.39894
▁악	-9.39897
▁철	-9.3991
▁특징	-9.3991
▁통합	-9.39961
▁돌아	-9.40012
▁고객들	-9.4007
▁월	-9.40272
▁받았	-9.40306
▁대비	-9.4034
움	-9.40357
한다면	-9.40388
▁발견	-9.40407
년간	-9.40538
▁쪽	-9.4056
▁축하	-9.40561
▁도구	-9.40637
▁판	-9.40668
▁관광	-9.40832
▁진행할	-9.40875
해주시기	-9.40889
셔	-9.409
송	-9.40996
▁울	-9.41027
▁종	-9.41044
▁웹사이트	-9.41071
런	-9.41094
뿐만	-9.4121
▁연락처	-9.41257
N	-9.41281
▁보내드립니다	-9.41287
▁가격에	-9.41406
▁만들었습니다	-9.41418
명이	-9.4143
▁반드시	-9.41432
▁조치	-9.41449
▁19	-9.41531
▁유리	-9.41576
▁절대	-9.41593
▁채	-9.41628
▁그랬	-9.41745
▁됐어	-9.41778
▁평가	-9.41868
▁제한	-9.41995
▁괜찮습니다	-9.42079
준	-9.42119
▁확인하고	-9.42123
곡	-9.42132
▁양해	-9.42184
u	-9.42193
았	-9.422
입니까	-9.42268
▁장착	-9.42282
이지만	-9.42327
▁계산	-9.42358
▁활동	-9.42412
한다는	-9.42452
▁조명	-9.42468
▁건설	-9.42504
▁사이트	-9.42509
▁공정	-9.42696
▁당신	-9.42728
▁달에	-9.42794
딩	-9.42828
▁특허	-9.42853
기도	-9.42875
▁사진을	-9.42909
시킬	-9.42929
▁정확히	-9.42938
보험	-9.42994
었어요	-9.43068
▁골프	-9.43142
▁별	-9.43166
▁할인을	-9.43169
▁전통	-9.43216
▁최종	-9.43217
▁저의	-9.43219
축	-9.43262
▁전략	-9.4331
▁베	-9.43486
▁직원이	-9.43494
▁강력한	-9.4355
었어	-9.43585
▁어린이	-9.43613
▁수행	-9.43665
▁문제에	-9.43679
객	-9.43687
▁내구성	-9.4374
▁한다고	-9.43741
▁드	-9.43964
▁맞게	-9.44014
▁숙박	-9.44025
▁아침	-9.44062
▁보유하고	-9.44137
▁트	-9.44146
▁주의	-9.44168
▁일반적으로	-9.44181
▁앉아	-9.44195
▁얻을	-9.44195
▁중요합니다	-9.44199
▁사항	-9.44233
▁0	-9.44359
하지만	-9.44411
▁질	-9.44425
지지	-9.44432
▁음악	-9.44439
▁되었	-9.44462
▁슬	-9.4451
▁침	-9.44606
▁사람들은	-9.44676
▁이후	-9.44703
▁모바일	-9.44739
▁사용합니다	-9.44844
율	-9.44871
▁아이들	-9.44886
▁시즌	-9.44925
다니	-9.44935
▁상품이	-9.44989
막	-9.4512
용으로	-9.45281
▁적합한	-9.45334
▁집을	-9.45371
▁치즈	-9.45416
▁이것이	-9.45435
률	-9.45455
n	-9.4549
▁놀	-9.45563
올	-9.45711
▁협상	-9.45745
▁단가	-9.45805
kg	-9.45847
▁웃	-9.45854
▁제어	-9.45985
육	-9.4601
▁누나	-9.46026
드릴게요	-9.46071
▁법	-9.46106
▁주식	-9.46115
테	-9.46174
거든	-9.46217
▁생기	-9.4622
드리고자	-9.46231
▁대단히	-9.46236
▁도시	-9.46296
▁이야기를	-9.46363
▁표면	-9.46377
이죠	-9.46392
되었	-9.46468
하시나요	-9.46561
▁파이팅	-9.46573
▁요청하신	-9.46707
▁협업	-9.46851
▁차단	-9.46894
▁인쇄	-9.46951
▁여기에	-9.46952
▁실내	-9.47022
▁엔진	-9.47039
▁다리	-9.4705
▁냄새	-9.47122
▁들어오	-9.47164
▁밤	-9.47248
분이	-9.47342
지도	-9.47346
적이	-9.47356
▁공간을	-9.4737
▁벽	-9.47391
핑	-9.47405
W	-9.47442
▁밖에	-9.47509
▁사용하고	-9.47516
▁도와드릴까요	-9.47605
▁없음	-9.47707
▁사용하면	-9.47712
케	-9.47738
▁이름	-9.47777
▁없었습니다	-9.47807
▁귀하께서는	-9.47819
▁환	-9.47858
▁데이터를	-9.47921
▁중요하	-9.48029
환	-9.4804
▁가자	-9.48103
f	-9.48159
▁알았어	-9.48177
▁이벤트	-9.48342
으로부터	-9.48347
▁와인	-9.48372
로서	-9.484
▁기다리	-9.48406
았습니다	-9.48423
롭	-9.48441
슬	-9.48475
▁듯	-9.48515
▁드린	-9.48517
▁보상	-9.48532
담	-9.48615
▁아무래도	-9.4863
럽	-9.48636
▁설명을	-9.4872
x	-9.48724
▁가방	-9.48751
▁권	-9.48777
드린	-9.4879
보고	-9.48836
▁제품과	-9.48844
▁요금	-9.48964
사가	-9.48978
▁인원	-9.4901
해드리겠습니다	-9.49031
▁오픈	-9.49039
▁용량	-9.49093
▁원합니다	-9.49174
채	-9.49223
점을	-9.49257
독	-9.49381
▁쉬	-9.49383
▁콘텐츠	-9.49395
▁맛을	-9.49446
mm	-9.49458
었다	-9.49507
수록	-9.49586
▁모발	-9.49656
됐	-9.49707
▁천연	-9.49796
▁정도로	-9.49921
▁어우	-9.49962
▁됐	-9.50108
▁우수한	-9.50179
▁확인했습니다	-9.50272
▁결과를	-9.50274
▁저를	-9.50338
▁상품에	-9.50377
▁실수	-9.50426
거리	-9.50438
▁구독	-9.50473
▁좋지	-9.50482
▁가진	-9.50618
▁자료를	-9.50675
▁입고	-9.5071
▁방수	-9.50723
▁납부	-9.50731
▁나온	-9.50744
▁의자	-9.50842
▁바꾸	-9.50844
▁듣고	-9.50902
▁급	-9.50986
▁당신과	-9.51017
▁술	-9.51127
했고	-9.51134
닝	-9.51212
철	-9.51219
▁받는	-9.5123
▁느끼	-9.51254
▁민	-9.51262
▁소비자	-9.51389
▁견적서	-9.51464
▁신발	-9.51475
▁고객에게	-9.51511
돼	-9.51537
력이	-9.51568
▁가공	-9.51594
▁쓸	-9.51631
▁경우에는	-9.51671
▁일정이	-9.51772
▁계약서	-9.51848
▁냉장고	-9.51874
▁그들이	-9.51889
▁특징입니다	-9.51944
▁문서	-9.51961
▁대박	-9.51964
▁연락주세요	-9.51996
▁학	-9.52012
별로	-9.52041
▁찾을	-9.5209
자는	-9.52145
▁선수	-9.52168
술	-9.52169
▁필수	-9.52193
▁방금	-9.5224
▁제작되었습니다	-9.52264
밥	-9.52311
▁프로	-9.52415
▁임	-9.52431
▁살펴보	-9.52436
▁생각하고	-9.52441
▁계획입니다	-9.52474
▁고객이	-9.52504
▁300	-9.52551
▁블랙	-9.52773
▁여부	-9.52843
셔서	-9.52848
▁각종	-9.52852
▁완	-9.52854
취	-9.52947
▁동의	-9.52953
하셔도	-9.53008
▁준비가	-9.53008
▁클	-9.53076
▁보시면	-9.5312
▁유명	-9.53121
▁보입니다	-9.53131
하다고	-9.53164
▁붙	-9.53164
▁사항은	-9.5317
▁하려고	-9.53175
▁25	-9.5323
▁고객님께	-9.53264
하네	-9.5335
▁알려주시면	-9.53429
었는데	-9.53472
▁그것	-9.5349
▁고객의	-9.53496
▁미래	-9.53504
야지	-9.53513
▁씨가	-9.53759
▁빼	-9.53782
▁입장	-9.5385
셨어요	-9.53881
▁현	-9.53925
▁독	-9.53958
▁구매하고	-9.54101
▁문화	-9.54122
▁각각	-9.54317
▁맛있는	-9.54324
▁승인	-9.54366
▁일어나	-9.54469
▁표준	-9.54677
▁인정	-9.54806
▁회	-9.54834
▁같네요	-9.54845
▁싶다	-9.54856
셔야	-9.549
▁손님	-9.54991
론	-9.55003
▁육	-9.55058
▁나머지	-9.55069
▁근무	-9.55089
▁프로젝트를	-9.55105
▁제게	-9.5513
▁언어	-9.55173
▁튀	-9.5522
감을	-9.55265
▁아기	-9.55271
▁서울	-9.55464
▁L	-9.55504
▁빠	-9.5551
▁느껴	-9.55568
제를	-9.5557
▁이번주	-9.55581
▁이해해	-9.55666
▁날씨	-9.55682
협	-9.55717
훈	-9.55776
▁낮	-9.55785
▁말이	-9.55912
▁보내주시면	-9.55977
▁아시다시피	-9.55979
▁고객을	-9.56042
▁깨	-9.56056
▁뭐가	-9.56106
밀	-9.56157
언	-9.56252
▁남아	-9.56288
▁송장	-9.56289
▁내구성이	-9.56292
▁하하	-9.5632
김	-9.56345
트를	-9.56353
▁무엇입니까	-9.5639
▁시장에서	-9.56397
▁사이	-9.56408
▁몰랐	-9.56489
▁무조건	-9.56489
켓	-9.56669
려면	-9.567
▁살아	-9.56705
해주시면	-9.56803
▁충분한	-9.56964
▁이유는	-9.57005
▁방식으로	-9.57087
▁지급	-9.57109
▁전용	-9.57115
▁검색	-9.57116
▁물질	-9.57128
▁디자인으로	-9.57152
▁보여주	-9.57229
▁요	-9.57269
▁끼	-9.57306
▁인테리어	-9.5731
음을	-9.57317
▁영어	-9.57379
견	-9.57399
▁배송해	-9.57407
▁보는	-9.57594
▁찾는	-9.57619
돌	-9.57639
까지는	-9.57645
▁보낼	-9.57666
▁다릅니다	-9.57668
▁상품은	-9.57674
드리	-9.57704
시기	-9.57709
▁스테인리스	-9.57723
▁핏	-9.5773
▁반려동물	-9.57826
▁진행하고	-9.57834
했어	-9.57837
▁회사입니다	-9.57842
▁안전한	-9.57844
▁얘기를	-9.57998
▁김치	-9.5807
▁화학	-9.58078
▁센서	-9.58141
▁계좌	-9.58141
▁인식	-9.58189
▁보시고	-9.58227
▁출고	-9.58237
▁그림	-9.5828
▁문제는	-9.58305
시키	-9.58313
▁달러	-9.58394
▁반영	-9.58626
▁10%	-9.58714
▁하나요	-9.58721
▁게임을	-9.58737
▁그것에	-9.58768
량을	-9.58838
▁기회가	-9.58851
량이	-9.58922
▁쉬운	-9.5901
▁대표님	-9.59058
▁된다	-9.59107
▁도와	-9.59184
▁여유	-9.59248
▁저렴한	-9.59355
▁생각을	-9.59355
▁차이가	-9.59356
▁장점	-9.59381
빙	-9.59392
▁학교	-9.59402
▁길이	-9.5952
▁가치	-9.59577
스터	-9.59633
겠네요	-9.59798
▁침대	-9.59908
▁마감	-9.59918
▁외국	-9.59925
▁네트워크	-9.60131
▁흡수	-9.60133
▁연락드렸습니다	-9.60165
▁청구	-9.60241
▁나에게	-9.60329
▁경제	-9.60431
▁세미나	-9.60556
▁긍정적인	-9.60593
▁박스	-9.60644
▁당연히	-9.60684
▁부착	-9.6071
▁대형	-9.60726
▁테이블	-9.60769
▁규모	-9.60769
▁링크	-9.60771
▁목적	-9.60778
▁다음에	-9.60778
▁위에	-9.60783
해드립니다	-9.60931
한다고	-9.60934
▁수리	-9.60987
▁부탁드리겠습니다	-9.61003
족	-9.61037
k	-9.61059
▁걱정하지	-9.61088
▁그렇기	-9.6109
▁준비해	-9.61097
▁E	-9.61097
▁싸	-9.61175
▁사과드립니다	-9.61219
▁공부	-9.61323
▁알리	-9.61383
▁태양	-9.61427
▁장기	-9.61429
▁설립	-9.61519
▁소재로	-9.61543
▁소음	-9.61596
▁지점	-9.61632
▁여성	-9.61739
착	-9.61748
▁먼지	-9.61854
▁분리	-9.61913
▁홈	-9.61945
▁진짜로	-9.62008
▁기한	-9.6205
▁기술력	-9.62056
▁솔직히	-9.62057
▁우리에게	-9.62124
측	-9.62144
▁프리미엄	-9.62165
000	-9.62172
▁유명한	-9.62185
▁형태	-9.62232
▁품목	-9.62275
▁암	-9.62312
▁판매하고	-9.62313
▁나이	-9.62362
해줍니다	-9.62468
▁의견	-9.6248
▁비행기	-9.62586
으신	-9.62607
▁연구소	-9.62612
▁믿고	-9.62817
▁실패	-9.62843
▁무료로	-9.62856
해도	-9.62866
▁기름	-9.62893
▁않다	-9.62925
▁업그레이드	-9.62925
▁싶은데	-9.62942
▁개의	-9.62954
▁정보가	-9.63008
▁걸릴	-9.63022
▁바람	-9.63063
▁익	-9.63075
립니다	-9.63116
▁단순	-9.6316
▁비싸	-9.6316
er	-9.63188
▁기술이	-9.63201
▁했어요	-9.63249
▁렌즈	-9.63253
▁드리려고	-9.63279
▁지나	-9.6328
▁골	-9.63386
▁18	-9.63399
▁주문하고	-9.63474
줘	-9.63487
겠어요	-9.63491
▁AI	-9.63613
십	-9.6374
▁룸	-9.63747
▁포인트	-9.6377
▁지난번	-9.63796
▁소셜	-9.63809
▁팩	-9.63815
▁계정	-9.6388
▁답	-9.63909
▁어려움	-9.63911
▁협조	-9.63912
▁항	-9.63942
▁없다	-9.63984
리지	-9.64076
▁빛	-9.64146
하시길	-9.64152
▁공항	-9.6417
▁피해	-9.64243
▁선택할	-9.64264
주시길	-9.6428
▁시간은	-9.64319
▁요소	-9.64342
겠지만	-9.64342
V	-9.6435
▁없어서	-9.64437
▁스케줄	-9.64463
▁필요할	-9.64572
▁시장에	-9.64675
▁종이	-9.64768
▁O	-9.6482
▁금요일	-9.64862
▁오일	-9.64869
▁운전	-9.64875
드려	-9.64877
악	-9.6491
▁작품	-9.64937
▁실망	-9.64939
on	-9.64996
개가	-9.64999
▁글로벌	-9.65018
▁대화	-9.65056
▁공급업체	-9.65062
겠죠	-9.65079
▁사정	-9.65133
▁질문이	-9.6515
▁나오는	-9.65151
시나요	-9.65161
▁거리	-9.65192
분들	-9.65233
렌	-9.65235
범	-9.65236
▁휴가	-9.65241
▁닭	-9.65268
▁보았습니다	-9.65456
▁상당히	-9.65464
▁가정	-9.65476
▁곳이	-9.65557
▁방법이	-9.65586
▁혹은	-9.6559
쉬	-9.65622
▁느낌이	-9.65635
▁범위	-9.65693
▁그는	-9.65695
▁삼	-9.65769
남	-9.65773
▁성능을	-9.65849
▁가스	-9.65907
▁깊은	-9.65912
▁조금만	-9.66038
▁이곳	-9.66163
▁생성	-9.66191
▁효과가	-9.66224
▁넓은	-9.66363
▁죄송하지만	-9.66368
▁살짝	-9.66379
▁설명해	-9.66442
들에	-9.66496
▁디스플레이	-9.66588
항	-9.66601
▁의사	-9.66657
▁표현	-9.6672
▁올리	-9.6676
▁터	-9.66762
▁올라	-9.66768
단계	-9.66786
▁브	-9.668
▁새롭게	-9.66815
▁물류	-9.66833
▁주문이	-9.66865
▁물량	-9.66986
▁이전에	-9.67119
▁시험	-9.67155
▁결합	-9.67165
▁피부에	-9.67172
▁즐기	-9.67179
▁다르	-9.67182
▁삶	-9.67206
▁소식	-9.67332
▁달리	-9.67335
▁하자	-9.67341
금을	-9.67357
▁기대합니다	-9.67361
▁받으실	-9.67393
▁메일에	-9.67405
▁제조업체	-9.67418
▁구성되어	-9.67526
▁유럽	-9.67552
▁귀하와	-9.67563
▁주문에	-9.67576
▁휴대	-9.6758
▁윤	-9.67686
▁봐요	-9.6769
▁투	-9.67703
▁불만	-9.67844
▁아이템	-9.67846
▁금액을	-9.67854
보세요	-9.6786
드리는	-9.67947
▁사용하실	-9.68037
▁종국이	-9.68074
▁예산	-9.68117
▁팀장님	-9.68181
콘	-9.68184
▁가까운	-9.68184
▁T	-9.68215
셨나요	-9.68299
▁자금	-9.68302
▁지켜	-9.68315
▁선호	-9.68382
▁주시고	-9.68444
▁그룹	-9.68445
▁이용할	-9.68481
▁것이라	-9.68532
▁버전	-9.68542
▁재미있	-9.68569
▁보실	-9.68622
서요	-9.68658
▁올려	-9.68699
▁클라우드	-9.6876
▁컬럼	-9.6876
▁글	-9.68801
▁원인	-9.68896
▁일상	-9.68902
▁뚜껑	-9.68991
▁국물	-9.69009
▁코스	-9.69032
으실	-9.69102
▁재생	-9.69177
주신	-9.69181
▁원료	-9.69221
▁분명히	-9.69269
▁통해서	-9.69293
▁고품질	-9.69308
▁F	-9.69315
▁행복	-9.6932
▁말을	-9.69371
▁함유	-9.69521
▁알려주시기	-9.69604
▁학생들	-9.69642
▁이번에는	-9.69672
찌	-9.69689
▁없었	-9.6971
손	-9.69788
▁비타민	-9.69805
페	-9.69831
리고	-9.69835
▁정신	-9.69925
▁나서	-9.69928
▁판단	-9.6996
▁잠깐	-9.69963
▁상황에	-9.70026
▁쌀	-9.70139
▁수요일	-9.70158
▁절	-9.70173
사에서	-9.70252
수가	-9.70284
▁버튼	-9.7034
만원	-9.70484
▁빠르고	-9.70533
▁진정	-9.70545
사는	-9.70635
▁없고	-9.70654
▁응용	-9.70657
▁정부	-9.70709
▁충격	-9.70744
▁섬유	-9.70783
▁편안하게	-9.70805
▁절차	-9.70805
▁방법	-9.70806
▁구매를	-9.70854
▁중간	-9.70907
▁친	-9.70915
장이	-9.70948
▁음성	-9.70985
리스	-9.7099
▁확신합니다	-9.70994
▁인간	-9.71003
▁불량	-9.71005
찰	-9.71035
▁벌	-9.71045
▁곳에	-9.71068
▁갖추고	-9.71107
된다	-9.71142
시키는	-9.71232
▁언제나	-9.7125
▁특별히	-9.71268
▁식사를	-9.71312
▁특별	-9.71321
례	-9.71337
으세요	-9.71343
▁군	-9.71438
▁오랫동안	-9.71453
▁훌륭한	-9.71454
▁첨부해	-9.71473
균	-9.71477
▁긴	-9.71497
▁근	-9.71508
▁걸로	-9.71531
▁때까지	-9.71562
기간	-9.7158
▁와서	-9.71625
▁두고	-9.7163
▁자극	-9.7163
▁가야	-9.7167
H	-9.7169
이니	-9.71693
▁아빠	-9.71762
▁역할을	-9.71793
▁감소	-9.7182
▁수업	-9.7184
▁낮은	-9.71937
▁사용하지	-9.71941
▁가상	-9.71941
▁여름	-9.71974
팩	-9.72057
▁순간	-9.72088
▁부분에	-9.72096
했으면	-9.72191
▁과정에서	-9.72203
만의	-9.72266
하던	-9.72405
▁가면	-9.72405
▁번에	-9.72433
한데	-9.72446
▁프로그램을	-9.72475
원이	-9.72502
▁하시	-9.72598
▁픽업	-9.72648
▁헤드	-9.7269
▁어렵습니다	-9.72692
▁개발한	-9.72822
▁않기	-9.72888
▁어려울	-9.72888
▁예를	-9.72956
▁물을	-9.72961
하죠	-9.73135
▁내용은	-9.73157
▁변동	-9.73339
▁거래처	-9.73366
▁등이	-9.73378
했다고	-9.73538
▁현대	-9.73584
▁모터	-9.73662
▁않아요	-9.73673
▁기획	-9.73734
▁크리스마스	-9.73734
▁코팅	-9.73764
골	-9.73765
▁항공	-9.73782
▁위생	-9.73786
봉	-9.73843
▁나은	-9.73861
용품	-9.7388
▁PC	-9.73897
▁드리는	-9.73915
▁프로젝트에	-9.74034
▁조직	-9.74046
▁있었던	-9.74052
▁채널	-9.74106
▁전부	-9.7416
승	-9.74187
▁고무	-9.74191
▁제안서	-9.74206
▁대체	-9.74208
▁석진이	-9.74222
▁만들고	-9.74267
▁코드	-9.74331
▁비슷한	-9.74343
암	-9.74394
▁마스크	-9.74466
렸	-9.74612
▁(	-9.74632
▁연락해	-9.74668
▁사는	-9.74672
▁공식	-9.74739
▁기분	-9.7474
주시겠어요	-9.74746
▁중인	-9.74755
▁꽃	-9.74783
:	-9.74833
▁안녕하십니까	-9.74835
수를	-9.7488
▁마치	-9.74896
▁이내에	-9.74975
▁점점	-9.74989
▁인한	-9.75002
라이트	-9.75023
▁간편하게	-9.75031
▁미션	-9.75033
▁그러므로	-9.75086
▁가능할까요	-9.75091
▁그만	-9.75113
▁도착할	-9.75131
▁최상	-9.75193
▁보기	-9.75251
▁그리	-9.75329
적이고	-9.75384
▁앞에	-9.75446
시다	-9.75514
더라도	-9.75523
▁넣고	-9.75539
▁본인	-9.75562
▁기회	-9.75601
▁거라고	-9.75658
▁위해서는	-9.75784
▁경쟁	-9.75819
▁녹	-9.75991
님께서	-9.76012
▁주고	-9.76035
▁아웃	-9.76041
▁화물	-9.7606
롤	-9.76069
▁카페	-9.76082
▁헤어	-9.76086
▁세련	-9.76092
▁양식	-9.76227
▁되기	-9.7623
하시겠습니까	-9.76238
▁보겠습니다	-9.76245
▁이름은	-9.76258
▁오신	-9.76315
년에	-9.76373
▁별도	-9.76383
좌	-9.76431
▁남자	-9.76441
▁떨어지	-9.76442
▁용품	-9.76497
기술	-9.76535
▁어쨌든	-9.76567
▁게다가	-9.76594
▁세상	-9.76595
되며	-9.76629
▁로고	-9.76636
▁원하시면	-9.76652
▁분위기	-9.76654
▁매니저	-9.76692
▁탑재	-9.76753
▁하셨	-9.76772
▁편안함을	-9.76775
▁추적	-9.77063
▁상자	-9.77152
▁높아	-9.77173
낼	-9.7718
▁구현	-9.77259
▁왔다	-9.77319
▁택배	-9.77322
▁크림	-9.77339
▁부디	-9.77341
▁자리를	-9.77361
▁시계	-9.774
▁때마다	-9.77414
혈	-9.77442
▁좋고	-9.77513
▁올라가	-9.77548
▁찍어	-9.77571
해주실	-9.77631
트리	-9.77698
▁간단한	-9.77716
▁플레이	-9.77722
▁광수	-9.77774
▁존재	-9.77825
▁아예	-9.77867
할게요	-9.77923
따	-9.78003
▁반갑습니다	-9.78077
끼	-9.78101
▁동일한	-9.78163
▁맛있게	-9.78183
▁아직도	-9.78238
▁지효	-9.78266
▁갔	-9.78366
▁마련	-9.78409
더군요	-9.7842
▁것처럼	-9.78424
▁전송	-9.78456
▁않는다	-9.78459
▁최소화	-9.78469
인가	-9.78518
▁식물	-9.78556
▁덜	-9.78564
▁$	-9.78736
▁선명	-9.78744
▁건강한	-9.78774
▁드리	-9.78779
▁수요가	-9.78802
화를	-9.78819
▁전환	-9.7883
▁최적	-9.78897
이라도	-9.78922
▁공간이	-9.79012
▁싶지	-9.79097
▁준	-9.79101
▁결국	-9.79119
납	-9.79209
▁출발	-9.7926
▁점심	-9.7932
▁틀	-9.79345
낸	-9.79426
▁지식	-9.79512
▁화장품	-9.79629
▁나무	-9.79658
▁현장	-9.79678
▁내로	-9.79727
갑	-9.79759
▁극	-9.79763
▁출력	-9.79893
▁이유	-9.79989
득	-9.79991
▁페	-9.80012
▁정답	-9.80021
50	-9.80049
▁부인	-9.80164
▁사전	-9.80179
▁도입	-9.80184
▁에어	-9.80239
▁의견을	-9.80311
▁내년	-9.80325
▁분야에서	-9.804
▁기념	-9.80411
▁남편	-9.80414
▁망	-9.80427
▁폐	-9.80443
▁모니터링	-9.8053
▁캐	-9.80544
▁지지	-9.80631
톤	-9.80667
▁포함한	-9.80855
▁연출	-9.80887
▁스트레스	-9.80907
▁거절	-9.80923
▁풍부한	-9.81016
▁의해	-9.8103
동안	-9.81033
▁자랑합니다	-9.81136
▁드실	-9.81143
▁가벼운	-9.81168
▁60	-9.81249
▁14	-9.81422
▁포함된	-9.81426
▁소민이	-9.81436
▁생긴	-9.81477
▁감지	-9.81494
▁캐릭터	-9.81562
▁방향	-9.81565
▁부분은	-9.81575
▁싶어서	-9.81649
▁메모리	-9.81779
▁K	-9.81786
▁소매	-9.81791
▁꺼	-9.81804
▁갖	-9.81814
▁느낄	-9.81825
▁연습	-9.81874
이드	-9.81956
▁부드럽고	-9.81956
감이	-9.82011
▁청구서	-9.82049
▁자전거	-9.8209
10	-9.82186
▁근처에	-9.82219
대를	-9.8227
듯이	-9.82272
휴	-9.82276
▁괜찮은	-9.82305
▁공개	-9.8233
▁없다고	-9.8234
▁이틀	-9.82349
▁손잡이	-9.82353
▁분명	-9.82358
▁도움	-9.82401
▁재배	-9.82425
라인	-9.8243
▁핵심	-9.82485
▁있겠	-9.82495
▁털	-9.82545
▁캠핑	-9.82618
▁월요일	-9.82646
▁디자인이	-9.82649
귀	-9.82686
▁결	-9.82777
혜	-9.82883
▁스포츠	-9.82884
▁관해	-9.82889
▁요청을	-9.8292
더니	-9.82935
▁송	-9.82952
짐	-9.82975
▁중에서	-9.82979
▁과일	-9.83008
엄	-9.83014
▁이러	-9.83018
▁드론	-9.83029
▁측	-9.83212
▁마음을	-9.83248
욕	-9.83271
▁드리도록	-9.83319
▁환영합니다	-9.83364
▁미니	-9.83408
▁적절한	-9.83409
▁지난번에	-9.83446
▁수술	-9.83508
▁퍼	-9.83521
▁건축	-9.8361
▁혼	-9.83625
▁상승	-9.83724
▁시도	-9.83732
▁숙소	-9.83734
▁설계되었습니다	-9.83781
▁하였습니다	-9.8386
▁계속해서	-9.83907
▁가능한가요	-9.83934
▁오디오	-9.83954
드려요	-9.83972
▁냉동	-9.83979
▁금속	-9.83989
됐습니다	-9.84048
▁편집	-9.84051
보다는	-9.84075
▁구매할	-9.84077
▁여러분들	-9.84088
▁계약에	-9.84097
▁드릴게요	-9.84104
ic	-9.84105
▁적합	-9.84141
숙	-9.842
▁잃	-9.84225
▁소유	-9.84237
▁쉽지	-9.84242
중에	-9.84279
▁같다	-9.84302
▁통과	-9.84339
▁지난주에	-9.84371
▁다니	-9.84395
▁시기	-9.84413
▁넘어	-9.84426
▁만한	-9.84437
겼	-9.84469
▁언급	-9.84494
▁성과	-9.84507
▁서명	-9.84525
▁준비를	-9.84549
▁참조	-9.84582
▁목요일	-9.84634
시까지	-9.8466
전에	-9.84697
효	-9.84706
▁느	-9.84708
▁대량으로	-9.84714
세대	-9.84731
▁만듭니다	-9.84764
▁대상	-9.84837
▁실험	-9.84839
▁경쟁력	-9.84844
▁고장	-9.84871
▁할게요	-9.84971
▁휴	-9.85022
스러운	-9.85132
맥	-9.85168
w	-9.85172
▁패드	-9.85175
▁확정	-9.85193
▁허	-9.85223
▁강한	-9.85246
▁보고서	-9.85263
▁맛있어	-9.85313
▁사실을	-9.8545
임을	-9.85568
▁천천히	-9.85581
▁테스트를	-9.85716
▁따른	-9.85739
침	-9.85767
▁하시면	-9.85772
▁부분을	-9.85814
쳤	-9.85818
▁예방	-9.85822
십니다	-9.85824
▁업계	-9.85847
▁짜	-9.85898
▁긴장	-9.85952
▁의뢰	-9.85995
▁보내주세요	-9.86003
▁반품	-9.86004
센	-9.86096
고자	-9.86106
▁눈에	-9.8614
▁페이지	-9.86173
▁뇌	-9.86222
▁다양하	-9.86231
▁수집	-9.8628
▁마음이	-9.86284
▁향후	-9.86293
▁적은	-9.86405
▁기반으로	-9.86411
희	-9.86435
▁경험이	-9.86479
▁힘든	-9.86594
▁알려드리겠습니다	-9.86607
일부터	-9.86698
▁주제	-9.86713
▁맞춤형	-9.86715
▁대학	-9.86742
▁결정을	-9.86791
▁섭취	-9.86819
▁도와드리겠습니다	-9.86839
되어야	-9.86844
▁분들은	-9.86889
▁기관	-9.86924
▁위치한	-9.86949
▁I	-9.86959
리스트	-9.86972
▁맞추	-9.86984
▁바라	-9.87006
▁회전	-9.87044
▁황	-9.87055
▁멋진	-9.87096
▁믿습니다	-9.87096
▁체결	-9.87117
순	-9.87145
▁수익	-9.87225
▁바쁘	-9.87325
▁즐거운	-9.8739
져서	-9.87444
▁내역	-9.87446
▁저렇게	-9.87513
▁부장님	-9.87542
▁했어	-9.87576
▁용기	-9.87652
▁돌려	-9.87725
▁도전	-9.87748
▁그렇습니다	-9.87792
극	-9.87804
▁서버	-9.87828
r	-9.87889
▁사항에	-9.87931
▁지내	-9.87949
▁허리	-9.87953
▁과학	-9.87968
▁정확하게	-9.87978
▁가득	-9.88033
▁N	-9.88033
탈	-9.8804
▁모르겠습니다	-9.88046
▁역사	-9.88048
▁곳에서	-9.88084
▁포함됩니다	-9.88085
▁절약	-9.88096
▁봐봐	-9.88189
v	-9.88206
▁참가	-9.88227
▁현실	-9.88304
▁답장	-9.88396
애	-9.88405
▁준비되어	-9.88449
▁스피커	-9.88494
▁않게	-9.88635
▁단지	-9.88639
▁북미	-9.88655
▁빨	-9.88698
▁LED	-9.88776
▁동영상	-9.88776
▁헤	-9.88792
쯤	-9.88837
▁욕실	-9.88919
▁재질	-9.88992
▁말씀하신	-9.89145
▁머	-9.8915
▁뽑	-9.89201
▁빌	-9.89234
▁요리를	-9.89351
▁음식점	-9.89466
▁그럼요	-9.89473
▁하신	-9.895
▁사양	-9.89546
▁진출	-9.89556
황	-9.89611
▁연료	-9.89615
▁바탕으로	-9.89626
an	-9.89653
▁주셨	-9.89659
▁년	-9.89668
해보세요	-9.89691
▁자산	-9.89716
▁평소	-9.89734
▁이것을	-9.89759
▁13	-9.89813
▁16	-9.89843
▁하게	-9.89893
▁숙	-9.89914
째	-9.89923
▁계약서에	-9.89994
▁조심	-9.90041
▁규정	-9.90056
▁거기에	-9.9009
▁재석이	-9.90138
▁것보다	-9.90208
▁고객사	-9.90253
▁내용이	-9.90258
틀	-9.90354
갔	-9.90528
▁누구나	-9.90534
▁제출	-9.90546
▁먹었	-9.90569
▁해보	-9.906
▁시리즈	-9.90628
▁중심	-9.90638
▁주소를	-9.90638
▁빵	-9.90709
▁사회	-9.90711
▁찾으	-9.90749
▁부드럽게	-9.90771
▁마시고	-9.9078
▁않아서	-9.90831
▁석	-9.90841
▁생산하는	-9.90849
▁주차	-9.90984
주고	-9.91014
K	-9.91095
▁역	-9.91133
▁음식이	-9.91155
BBB	-9.91208
▁아유	-9.9121
▁가능할	-9.91222
▁알려주십시오	-9.91229
▁불러	-9.91269
▁문자	-9.91303
▁지원합니다	-9.9141
끄	-9.91494
▁너는	-9.91505
▁사람을	-9.91506
빈	-9.9156
▁거라	-9.91564
▁책상	-9.91636
▁접근	-9.91641
▁아버지	-9.91644
해주시길	-9.91661
주셨으면	-9.91683
램	-9.91783
처리	-9.91826
▁모니터	-9.91915
▁있음	-9.9193
▁그러니	-9.91937
▁맛있다	-9.91945
▁외에	-9.91963
▁즉	-9.91992
▁몰	-9.91993
▁시대	-9.92005
하다는	-9.92022
이므로	-9.92091
▁주말	-9.92109
람	-9.92212
▁액세서리	-9.92222
▁고대	-9.92319
▁탈	-9.92357
이라면	-9.92402
▁별로	-9.92489
▁G	-9.92514
▁젊은	-9.92514
▁쉽고	-9.92523
▁보이는	-9.92524
했지만	-9.92535
▁고생	-9.92557
지면	-9.92613
▁며칠	-9.92662
▁미세	-9.92791
하려	-9.92811
▁뭐라고	-9.92837
▁것과	-9.92851
▁주셔야	-9.92871
▁여기는	-9.92916
▁대단	-9.93044
▁가능하십니다	-9.93117
▁특수	-9.93137
▁단백질	-9.9325
▁바꿔	-9.93257
▁싶었	-9.9332
▁땅	-9.93333
▁꿈	-9.93341
▁돌아가	-9.93407
▁회계	-9.9344
▁구매해	-9.93499
▁괜찮아요	-9.93552
▁단체	-9.93681
혁	-9.93692
▁색깔	-9.93696
▁줘	-9.93703
▁공동	-9.93758
▁버튼을	-9.93763
▁손실	-9.93819
▁발주	-9.93876
드리면	-9.93885
▁학생	-9.93945
▁정책	-9.93956
▁편리한	-9.9399
▁대한민국	-9.93991
al	-9.94028
새	-9.94108
▁수요	-9.94155
▁들고	-9.9417
▁취급	-9.94193
or	-9.94212
▁솔	-9.94226
택	-9.94228
▁모습	-9.94264
▁온라인으로	-9.94329
▁귀사께서	-9.94381
혹	-9.94416
▁드라마	-9.94438
자에게	-9.94495
▁연말	-9.94497
30	-9.94501
▁아마도	-9.94539
▁따뜻한	-9.94737
▁그래픽	-9.94753
▁둘이	-9.94846
핀	-9.94887
▁뛰어	-9.94887
▁상관없	-9.94915
▁담당자님	-9.94932
▁지정	-9.94934
▁장난감	-9.94984
▁광고를	-9.95034
▁스틸	-9.9505
▁파손	-9.95069
▁합리적인	-9.95076
▁기술로	-9.95086
▁주행	-9.95091
▁대해서도	-9.95119
▁확대	-9.95171
▁우수	-9.95191
하니	-9.95191
▁몰라	-9.95249
▁이사	-9.95274
▁내리	-9.95313
▁상태입니다	-9.95397
주신다면	-9.95434
징	-9.95443
▁훈련	-9.95489
▁시트	-9.95527
▁켜	-9.95539
▁사이에	-9.95583
▁영역	-9.95667
▁추천합니다	-9.95703
녀	-9.95704
▁뭐예요	-9.95718
▁대리	-9.95724
500	-9.95768
▁점을	-9.95791
▁부위	-9.95791
▁배송비	-9.95859
▁듣	-9.95882
▁칼	-9.95917
▁그렇군요	-9.95942
▁애플리케이션	-9.95942
▁정밀	-9.96013
랜	-9.96093
▁마이크	-9.96173
세트	-9.96211
ar	-9.96288
▁자꾸	-9.96293
▁안녕	-9.9632
가루	-9.96345
▁운영하고	-9.96428
▁거는	-9.96455
▁기사	-9.96514
▁박람회	-9.96528
▁먹으면	-9.96551
▁패턴	-9.96551
in	-9.96572
▁이유가	-9.96661
▁작년	-9.9674
▁얘기해	-9.96799
▁알림	-9.96828
스럽	-9.9684
▁조립	-9.96922
▁녹음	-9.96952
▁고객님들께	-9.97009
쿠	-9.97009
▁체크	-9.97052
▁진단	-9.97109
▁사업에	-9.97139
▁현상	-9.97147
▁개최	-9.97166
▁하는데요	-9.97211
▁일반적인	-9.97224
▁됐다	-9.97246
▁어쩔	-9.97317
렸습니다	-9.97332
▁치아	-9.97334
▁저번에	-9.97335
더라고	-9.97338
▁주문해	-9.97345
▁가고	-9.9737
▁않아도	-9.97386
▁보증금	-9.97394
줘야	-9.97403
▁친구들	-9.97404
▁대기	-9.97439
▁초기	-9.97461
▁하셨습니다	-9.97464
▁CCTV	-9.9747
▁핸드폰	-9.97473
▁주시겠습니까	-9.97477
▁스파	-9.97484
▁끝나	-9.97514
▁옆에	-9.97531
▁수용	-9.97532
▁호환	-9.97578
볼게요	-9.97647
▁그에	-9.97706
▁라면	-9.97715
라서	-9.97778
▁싫어	-9.97779
▁알루미늄	-9.97779
▁H	-9.97911
▁높습니다	-9.97933
▁벌칙	-9.97938
슈	-9.97972
겠	-9.98
▁끌	-9.98013
▁같은데요	-9.9802
▁지방	-9.98113
▁떠	-9.98154
▁주목	-9.98163
▁받게	-9.98225
▁희망	-9.98235
▁화이트	-9.98246
▁끓	-9.98306
▁자재	-9.98354
규	-9.9836
▁신규	-9.98429
▁뒷	-9.98485
덕	-9.98519
▁채팅	-9.98575
▁해주	-9.98578
셨습니다	-9.9858
줬	-9.98619
▁이쪽	-9.98623
▁하이	-9.98632
▁소비	-9.98655
▁제발	-9.987
▁사운드	-9.9871
▁방문해	-9.98735
▁팀이	-9.98761
▁주시는	-9.98929
▁선배님	-9.98954
▁아침에	-9.98967
하기에	-9.98971
▁수령	-9.98987
▁갖춘	-9.99025
▁채워	-9.99069
▁얼마인가요	-9.99091
▁전력	-9.99112
▁알아보	-9.99122
▁여자	-9.99191
▁홈페이지에서	-9.99229
▁원하신다면	-9.99233
권을	-9.99248
▁모두에게	-9.99287
▁하나는	-9.9931
▁재료를	-9.99313
▁블루투스	-9.99335
▁쿠션	-9.99336
▁수수료	-9.99339
▁사람은	-9.9943
▁확신	-9.9945
▁가능성	-9.9947
알	-9.99479
▁영수증	-9.99492
▁텐데	-9.99512
▁양념	-9.99514
정도	-9.99538
▁주시	-9.99543
▁오염	-9.99596
▁보내드릴	-9.99701
▁도매로	-9.99805
▁가능하다면	-9.99884
해드릴	-9.99929
자마자	-9.99999
▁실행	-10.0005
▁편리하게	-10.0006
FFF	-10.0013
▁나올	-10.0015
▁매트	-10.0015
널	-10.0027
▁금융	-10.0028
셔도	-10.0036
▁기대하고	-10.0048
▁시작할	-10.005
▁희	-10.0052
▁통한	-10.0058
었던	-10.0064
▁인력	-10.0065
▁체험	-10.0076
봐야	-10.0077
▁때문	-10.008
▁원격	-10.0082
시부터	-10.0091
▁감사드리며	-10.0092
▁항목	-10.0094
▁외에도	-10.0094
▁얼마입니까	-10.0095
▁고객님이	-10.0099
▁도와주	-10.0099
▁봐야	-10.0102
▁제공하기	-10.0102
▁지역에서	-10.0106
▁있을지	-10.0107
턴	-10.0108
▁토요일	-10.0108
로운	-10.0109
▁축	-10.011
했기	-10.0116
주셔야	-10.0119
▁5%	-10.0121
▁구비	-10.0123
&	-10.0124
▁되도록	-10.0128
▁낼	-10.0134
▁강아지	-10.014
▁나의	-10.0142
▁아내	-10.0149
▁들었	-10.0151
▁투자를	-10.0155
▁않으셔	-10.0156
▁급한	-10.0156
▁배출	-10.0157
▁일정에	-10.0166
▁티	-10.0166
▁앞서	-10.0167
▁신호	-10.0168
▁조언	-10.0175
▁한다는	-10.018
▁클래식	-10.0188
▁된다면	-10.0192
▁보조	-10.0194
자리	-10.0195
▁만들기	-10.0195
▁알지	-10.0199
▁유해	-10.0202
▁다운로드	-10.0204
▁불구하고	-10.0204
▁바쁜	-10.0204
잡	-10.0204
▁사용되는	-10.0206
▁전해	-10.0207
▁노력하고	-10.0208
십니까	-10.021
▁옆	-10.0214
▁연구를	-10.0219
▁있던	-10.022
▁우리나라	-10.0221
룸	-10.0221
▁오는	-10.0222
▁안경	-10.0224
▁해외에서	-10.0233
▁쿠폰	-10.0236
▁미국에서	-10.0237
▁아이디어를	-10.0249
▁회복	-10.0255
▁보관할	-10.0258
▁추천드립니다	-10.0259
▁잠시	-10.0268
▁심지어	-10.0269
▁제안에	-10.0272
▁세포	-10.028
▁줄여	-10.028
하자	-10.0286
▁잡고	-10.0299
▁신선	-10.03
▁당시	-10.03
▁당장	-10.0309
짝	-10.0315
▁야외	-10.0315
▁뵙겠습니다	-10.0317
▁점검	-10.0319
명의	-10.0322
▁테니	-10.0325
▁공장을	-10.0328
▁점은	-10.0328
▁사원	-10.0332
▁사람들에게	-10.0334
▁대응	-10.0337
냐고	-10.0342
▁완벽하게	-10.0343
룰	-10.035
▁의류	-10.035
▁진행될	-10.0356
사와	-10.0358
▁타입	-10.0359
▁꼬	-10.0365
19	-10.0366
▁되는지	-10.0371
▁서비스는	-10.0371
하셨던	-10.0374
▁가능한지	-10.0374
쉽	-10.0377
시길	-10.0381
넷	-10.0383
▁고려해	-10.0386
▁바다	-10.0386
얼	-10.0387
▁최	-10.0392
님이	-10.0394
궁	-10.0395
▁기울	-10.0399
▁충족	-10.04
먼	-10.0402
▁찬	-10.0403
▁확인을	-10.0404
▁걸어	-10.0411
▁보장합니다	-10.0411
힌	-10.0413
▁그날	-10.0415
놨	-10.0416
▁클릭	-10.0416
베	-10.0416
▁평균	-10.0417
▁협의	-10.0421
받은	-10.0429
▁열어	-10.043
▁의논	-10.0432
▁기간은	-10.0438
▁대상으로	-10.0441
▁유감입니다	-10.0442
▁노력하겠습니다	-10.0444
폰	-10.0444
▁저와	-10.0449
▁주문했습니다	-10.0459
▁접수	-10.046
접	-10.0473
▁까	-10.048
▁스트리밍	-10.0482
센터	-10.0482
▁하나입니다	-10.0483
▁달려	-10.0484
▁보낸	-10.0489
정보	-10.0492
▁느낌을	-10.0495
▁금액은	-10.0497
▁깊이	-10.0498
▁영업사원	-10.0498
▁보내주실	-10.0504
▁안내해	-10.0508
▁주셨으면	-10.0515
▁마사지	-10.0515
함으로써	-10.0515
▁남겨	-10.0519
▁없다는	-10.052
▁관련해서	-10.0523
위를	-10.0524
▁개별	-10.0532
▁컵	-10.0534
▁있었다	-10.0536
▁처	-10.0544
하우스	-10.0549
▁우편	-10.0552
▁이제는	-10.0555
▁쓰고	-10.0559
적입니다	-10.0559
▁검	-10.056
▁못해	-10.0561
▁칫솔	-10.0565
▁물어보	-10.0571
▁고르	-10.0577
▁생일	-10.058
▁수명	-10.0589
▁에이	-10.0597
▁소형	-10.0597
▁늦게	-10.0598
▁반려견	-10.0598
▁아이들이	-10.06
▁간편	-10.0601
▁글을	-10.0603
▁디	-10.0603
▁할인이	-10.0604
▁프레임	-10.0615
▁출시된	-10.062
▁좋으	-10.0622
▁어머님	-10.0622
▁노출	-10.0624
▁상의	-10.0625
▁설명서	-10.0629
떨	-10.0631
톱	-10.0632
▁기준으로	-10.0643
▁알았	-10.0647
▁미안	-10.0653
▁성분이	-10.0654
▁우려	-10.0655
▁필	-10.0666
▁정말로	-10.0667
▁상태로	-10.0671
▁팩스	-10.0679
▁저한테	-10.068
▁차이	-10.0683
▁만나서	-10.0687
주시기	-10.0692
이네	-10.0695
텔	-10.0696
시킵니다	-10.0698
▁잘한다	-10.0712
▁지속적으로	-10.0712
▁X	-10.0717
▁자리에	-10.072
▁나아	-10.0728
▁비율	-10.0731
▁예약해	-10.0736
▁그다음에	-10.0737
▁만두	-10.0741
▁어디서	-10.0744
스럽게	-10.0745
▁이래	-10.0746
▁액세스	-10.075
▁인공지능	-10.075
▁이리	-10.0751
▁20%	-10.0758
▁워	-10.0758
겠어	-10.0761
▁IT	-10.0769
▁급하게	-10.077
아서	-10.0775
털	-10.0777
▁결함	-10.0779
▁부족한	-10.078
▁계약서를	-10.0781
▁성공적으로	-10.0782
▁어머니	-10.0783
▁안정성	-10.0786
▁바이러스	-10.0793
멀	-10.0799
▁자유롭게	-10.0801
▁편리합니다	-10.0802
▁손해	-10.0802
점이	-10.0804
▁말씀드리	-10.0805
▁갔다	-10.0805
품을	-10.0808
▁안심	-10.0812
했다는	-10.0813
▁소통	-10.0813
▁같아서	-10.0814
젤	-10.0818
▁뉴스	-10.0819
▁화장실	-10.0821
▁등급	-10.0828
▁하면서	-10.0832
▁프린터	-10.0836
▁적어	-10.0838
비를	-10.0839
▁발생한	-10.0839
▁물론입니다	-10.0839
▁모자	-10.0842
뿐	-10.0845
▁생겼	-10.0847
▁보습	-10.0848
듯	-10.085
▁유지합니다	-10.0854
맛	-10.0856
▁완벽	-10.0858
▁지역에	-10.0859
U	-10.0865
▁판매를	-10.0867
▁편리	-10.0867
▁인형	-10.087
▁자유	-10.087
답니다	-10.0872
이신가요	-10.0874
▁모르겠	-10.088
▁못할	-10.088
▁매물	-10.0883
▁재활용	-10.0887
▁냄새가	-10.0889
▁주문서	-10.0891
▁폼	-10.0891
▁회원	-10.0893
▁확인하실	-10.0896
틴	-10.0905
▁조작	-10.0911
▁많아서	-10.0914
컨	-10.0921
▁공사	-10.093
▁선정	-10.0932
▁수락	-10.0943
▁푸	-10.0945
▁저게	-10.0947
▁책을	-10.095
▁매운	-10.095
▁만약에	-10.0952
서비스	-10.0953
▁쓰는	-10.0956
▁디테일	-10.0957
▁바이오	-10.0957
▁지사	-10.0958
▁중단	-10.0962
▁차지	-10.0966
▁안심하고	-10.0967
▁담아	-10.0971
▁구매하실	-10.0973
▁대략	-10.0976
▁맞춤	-10.0987
▁휴대용	-10.0989
▁바디	-10.0991
▁베트남	-10.0991
년이	-10.0992
드려야	-10.1002
기만	-10.1005
▁저번	-10.1009
▁계신가요	-10.1012
▁드릴까요	-10.1016
▁회의에	-10.1019
▁부산	-10.1019
▁독특한	-10.1022
▁에어컨	-10.1027
▁인하	-10.1027
▁사부님	-10.1028
▁설비	-10.1028
▁원하십니까	-10.1031
▁고용	-10.1035
▁오케이	-10.1036
▁마십시오	-10.1038
쟁	-10.1042
▁팀은	-10.1043
▁제외	-10.1045
래요	-10.1045
기능	-10.1046
국수	-10.1053
▁단단	-10.1057
▁왔어	-10.106
▁취향	-10.1065
▁일로	-10.1067
▁작업이	-10.1069
▁선박	-10.1073
▁이익을	-10.1077
▁콘텐츠를	-10.1078
▁흥미	-10.1079
▁도매상	-10.1081
▁분은	-10.1083
▁때도	-10.1087
▁개발에	-10.1089
▁행동	-10.1097
▁의향이	-10.1098
▁동료	-10.1099
큐	-10.1114
▁마우스	-10.1114
▁첨가	-10.1116
▁세계적으로	-10.1118
▁방법은	-10.1118
▁사용하세요	-10.1119
▁우유	-10.1124
▁지구	-10.1129
미터	-10.1131
▁오히려	-10.1132
▁만에	-10.1135
주면	-10.1135
▁시스템이	-10.1138
▁있으니까	-10.1141
▁퇴	-10.1145
▁근처	-10.1151
▁했던	-10.1154
▁하니까	-10.1159
▁가이드	-10.1164
▁이미지를	-10.1166
▁어려워	-10.1167
▁들어간	-10.1172
▁사실은	-10.1172
▁갑니다	-10.1175
▁상상	-10.1179
▁경우가	-10.1183
▁패션	-10.1185
▁첫째	-10.1188
▁언제쯤	-10.1188
▁특성	-10.1197
▁딸	-10.1202
▁샴푸	-10.1203
▁탁월한	-10.1203
▁가능성이	-10.1205
▁생산하고	-10.1206
했는지	-10.1211
겠습니까	-10.1218
▁하나를	-10.122
▁프로모션	-10.1221
▁인공	-10.1221
▁제품들이	-10.1232
케이	-10.1236
▁너무나	-10.1236
▁봅니다	-10.1239
▁프로세스	-10.1239
▁근육	-10.124
▁출시한	-10.1241
허	-10.1244
▁들어가는	-10.1245
칭	-10.1256
▁연간	-10.1258
▁일은	-10.126
▁죄송	-10.1265
▁당일	-10.1272
벨	-10.1273
▁깨끗한	-10.1276
▁압력	-10.1277
박스	-10.1278
▁약속을	-10.1282
▁휴식	-10.1282
▁프리	-10.1283
보드	-10.1287
▁뿐	-10.1292
▁알아야	-10.1292
▁실리콘	-10.1292
▁스스로	-10.1293
▁소개하게	-10.1294
▁결과가	-10.1295
▁이후에	-10.1304
령	-10.1309
▁블루	-10.1311
▁고양이	-10.1311
▁판매합니다	-10.1312
▁화요일	-10.1312
▁배치	-10.1322
▁기본적으로	-10.1322
▁받으시	-10.1324
▁말해	-10.133
▁향이	-10.1331
▁집이	-10.1331
▁그것도	-10.1332
▁터치	-10.1341
▁디자이너	-10.1346
▁발생할	-10.135
▁피자	-10.1358
▁아닌데	-10.1364
▁등에	-10.1367
▁고속	-10.1367
해주는	-10.1368
▁이중	-10.1368
▁받기	-10.1372
하네요	-10.138
뉴	-10.1381
▁맞지	-10.1383
버스	-10.1384
▁품질이	-10.1391
▁이유로	-10.1394
▁공격	-10.1394
▁있잖아요	-10.14
▁70	-10.1402
▁손으로	-10.1406
▁주기	-10.141
▁나를	-10.1416
해왔습니다	-10.1419
▁핸들	-10.142
▁사본	-10.1426
▁치약	-10.1428
▁빈	-10.1428
▁세제	-10.1432
▁전시회	-10.144
▁측면	-10.1446
▁외국인	-10.1448
▁번역	-10.1455
▁아름다운	-10.1455
▁않았다	-10.1467
만한	-10.1469
▁구매하신	-10.147
▁가볍고	-10.1471
▁편의	-10.1471
▁어디에	-10.1472
▁차로	-10.1474
▁장점이	-10.1481
밝	-10.1485
▁있네	-10.1492
잎	-10.1492
▁라벨	-10.1492
인치	-10.1495
찬	-10.1501
▁처음에	-10.1506
▁드디어	-10.151
▁펜	-10.1516
▁예술	-10.1519
시장	-10.1519
▁호스	-10.1521
▁남은	-10.1522
▁현금	-10.1526
님께	-10.1528
▁검토해	-10.1529
▁신선한	-10.1541
▁캐나다	-10.1547
▁17	-10.1549
▁왕	-10.1551
겠네	-10.1554
▁다들	-10.156
써	-10.156
▁생각보다	-10.1563
옥	-10.1565
▁착용감	-10.1565
▁초콜릿	-10.1566
▁아시아	-10.1566
▁쪽에서	-10.1569
하러	-10.157
▁금액이	-10.1577
▁기존에	-10.1578
겁니다	-10.1583
▁훌륭	-10.1584
▁안타깝게도	-10.1584
▁쇼핑	-10.1585
▁있으시	-10.1587
▁발생하는	-10.159
▁궁금해	-10.1596
▁계시는	-10.1611
▁톤	-10.1618
▁타사	-10.1619
▁아무것도	-10.1621
▁증명	-10.1622
▁영국	-10.1627
하신다면	-10.1627
▁생명	-10.1632
드리려고	-10.1636
▁균형	-10.164
▁궁금하	-10.1643
보도록	-10.1652
▁분들께	-10.1653
▁뉴욕	-10.1658
▁둘째	-10.1661
▁번만	-10.1665
크림	-10.1669
끼리	-10.1671
▁의심	-10.1672
▁소민아	-10.1677
원입니다	-10.1678
▁승	-10.168
이라서	-10.1681
▁가끔	-10.1684
▁잘못된	-10.1684
▁가질	-10.1689
▁도와드릴	-10.1691
▁탄소	-10.1696
▁나한테	-10.1697
▁기술자	-10.1697
▁불가능	-10.1697
▁홀	-10.17
▁접속	-10.17
▁U	-10.17
▁떡	-10.1705
▁하나만	-10.1707
랩	-10.1714
▁눌러	-10.1715
▁일자	-10.1718
▁바라며	-10.1718
▁호텔에서	-10.1724
▁것인지	-10.1726
▁예정이	-10.1732
▁신용장	-10.1732
▁받아야	-10.1733
▁촉촉	-10.1733
잔	-10.1734
▁끈	-10.1734
▁셀	-10.1738
▁신뢰할	-10.174
▁많다	-10.1741
▁엔지니어	-10.1751
▁꾸준히	-10.1755
▁하세요	-10.176
▁예측	-10.176
니깐	-10.1767
주시고	-10.1768
▁시스템은	-10.1771
해보고	-10.1772
▁합성	-10.1775
확	-10.1776
▁시켜	-10.1777
▁머물	-10.1777
▁소비자들	-10.1779
▁가시	-10.1787
같	-10.1796
▁예전에	-10.18
▁있었는데	-10.18
5%	-10.18
▁직원들이	-10.1801
▁유용	-10.1805
▁다름이	-10.1809
▁관리자	-10.1815
▁투명	-10.1815
X	-10.1816
▁채소	-10.182
▁사용한	-10.1823
▁형은	-10.1828
▁있잖아	-10.1828
▁효율	-10.1829
▁씨는	-10.1835
▁정상	-10.1836
▁한식	-10.184
혔	-10.1847
▁첨단	-10.1847
▁드셔	-10.1847
▁왜요	-10.1849
받고	-10.1859
▁지키	-10.1862
▁이메일에	-10.1864
▁테	-10.187
▁나누	-10.1876
받을	-10.1878
든지	-10.1881
▁150	-10.1882
▁달성	-10.1883
▁드렸	-10.1888
▁수량은	-10.1893
▁독일	-10.1895
▁놀라	-10.1895
▁활	-10.1897
▁소중한	-10.1901
▁USB	-10.1904
▁세찬이	-10.1904
▁거주	-10.1907
▁추후	-10.1907
▁속도를	-10.1908
▁독점	-10.191
▁유선	-10.1911
▁해주시면	-10.1912
▁여행을	-10.1914
▁생각하는	-10.1915
▁무역	-10.1915
▁개당	-10.1917
▁냉	-10.1919
▁멀티	-10.1923
▁주문할	-10.1924
▁지도	-10.1931
▁그쪽	-10.1935
▁태블릿	-10.1942
▁어떠한	-10.1944
▁너희	-10.1947
▁손님들	-10.1953
▁탁	-10.1955
▁강력	-10.1959
▁정도면	-10.1959
▁일하고	-10.1959
▁있으실	-10.196
▁모두가	-10.1962
▁드라이브	-10.1962
▁굴	-10.1963
하십니다	-10.1965
▁키트	-10.1971
▁보냈습니다	-10.198
▁백신	-10.1982
▁있고요	-10.1986
▁사용됩니다	-10.1989
▁상대	-10.199
벌	-10.199
▁없는데	-10.1991
▁구매한	-10.1992
▁들어와	-10.2001
▁화상	-10.2012
▁잊지	-10.2019
▁드리게	-10.2022
▁비싼	-10.2022
▁초청	-10.2025
▁가격도	-10.2027
줘요	-10.2035
▁않으셨	-10.2038
▁짧은	-10.2038
▁만드	-10.2039
20	-10.2046
▁구체적	-10.2052
▁라이	-10.2059
▁1000	-10.206
▁하죠	-10.2062
▁대박이다	-10.2063
하나요	-10.2064
척	-10.2068
▁표정	-10.2075
▁값	-10.2076
▁패널	-10.2077
▁시스템에	-10.2079
at	-10.209
회사의	-10.2091
▁흐름	-10.2097
죽	-10.2098
▁업무에	-10.2114
▁있으신	-10.2115
▁두께	-10.2116
▁응답	-10.2117
표를	-10.2118
존	-10.2121
▁착오	-10.2123
▁투어	-10.2128
▁움직임	-10.2136
▁흰색	-10.2136
▁재미	-10.2138
▁상황에서	-10.2138
▁방문할	-10.2141
▁마침	-10.2144
▁필요하지	-10.2147
▁모델을	-10.2149
▁주인	-10.2149
▁원두	-10.215
▁유지할	-10.215
페이지	-10.2153
▁계약이	-10.2155
번째	-10.2156
▁사전에	-10.2157
▁오시면	-10.2164
참	-10.2171
▁놀라운	-10.2178
▁편안	-10.2187
▁신기	-10.2193
▁해결해	-10.2195
▁간단	-10.2195
으로서	-10.2196
▁살균	-10.2198
▁거기서	-10.22
▁상품들	-10.2211
로우	-10.2217
▁단점	-10.2223
▁인체	-10.2223
▁알려져	-10.2223
을까요	-10.2228
▁살고	-10.2228
▁작용	-10.2236
▁식기	-10.224
하셨나요	-10.2241
된다면	-10.2242
▁추출	-10.2244
▁싶으	-10.2246
▁손쉽	-10.2256
▁되겠습니다	-10.2261
▁불편함	-10.2264
▁개발을	-10.2266
▁하는지	-10.2266
으나	-10.2273
▁움직이	-10.2273
▁키보드	-10.2275
▁늘어	-10.2277
▁인도	-10.228
▁도울	-10.2282
▁자원	-10.2288
▁주셨습니다	-10.2295
▁좋겠	-10.2295
▁그렇지만	-10.2296
▁개념	-10.2297
하려는	-10.2298
▁혜택을	-10.2303
▁진행해	-10.2306
▁밑	-10.2312
▁쓰레기	-10.2313
갈비	-10.2315
프로	-10.2321
▁하니	-10.2322
성과	-10.2329
됩니까	-10.2333
세포	-10.2337
▁드시면	-10.2339
▁알려주	-10.234
짜리	-10.2341
▁저런	-10.2348
탁	-10.2349
▁측에서	-10.236
▁궁금	-10.2361
▁진행하는	-10.2369
▁멋있다	-10.2373
▁말할	-10.2373
▁베이스	-10.2374
여서	-10.2376
▁잘해	-10.2376
▁깔	-10.2377
▁중으로	-10.2381
▁가능하신	-10.2381
▁계획이	-10.2387
▁시장을	-10.2388
▁형성	-10.239
탐	-10.2392
▁싶은데요	-10.2392
▁회사로	-10.2394
▁관리할	-10.2398
▁신용	-10.2401
▁침실	-10.2407
▁이름을	-10.2409
▁읽어	-10.2425
▁수납	-10.2427
▁공학	-10.2433
▁유행	-10.244
▁미팅이	-10.2442
던데	-10.2443
▁애들	-10.2446
▁필요로	-10.2446
▁종료	-10.2459
▁조합	-10.246
▁필요하신	-10.2462
▁색상이	-10.2468
▁제작된	-10.2473
컬	-10.2473
▁개인적으로	-10.2474
▁조만간	-10.2474
▁첨부파일	-10.2474
▁모듈	-10.2474
▁예상됩니다	-10.2475
▁어떨까요	-10.2479
▁강도	-10.2479
▁문의해	-10.2482
▁기재	-10.2486
▁젖	-10.249
▁최초	-10.2491
▁방지합니다	-10.2491
▁됐습니다	-10.2492
▁스타	-10.2494
▁타이어	-10.2495
▁노력을	-10.2496
▁필요하다	-10.2498
▁보완	-10.2498
하면서도	-10.2498
▁성인	-10.2503
▁싶었습니다	-10.2504
▁매년	-10.2505
▁돈이	-10.2505
▁그들에게	-10.2506
▁아무리	-10.251
▁준수	-10.2512
▁권장	-10.2515
▁경영	-10.2517
▁거리에	-10.2518
▁다르게	-10.2519
▁들어갔	-10.2519
GB	-10.252
▁이용하실	-10.2523
▁물이	-10.2525
깃	-10.2534
▁멀리	-10.2535
▁만들어졌습니다	-10.2542
▁질문을	-10.2543
폴	-10.2551
롱	-10.2555
▁해주세요	-10.2556
▁실시간	-10.2558
▁이것도	-10.2561
▁지금부터	-10.2562
때문에	-10.2563
▁전망	-10.2563
▁영광입니다	-10.2565
▁마이크로	-10.2565
▁된다고	-10.2567
▁시작했습니다	-10.2567
▁쉽습니다	-10.2576
▁익숙	-10.2576
▁엄청난	-10.2578
▁장사	-10.2579
▁풍부	-10.2579
▁드시	-10.2582
▁봉	-10.2586
하라고	-10.2593
▁전합니다	-10.2594
캠	-10.2596
하므로	-10.2596
▁이용하여	-10.2596
▁사람들을	-10.2599
▁장갑	-10.2599
▁어깨	-10.2601
▁합의	-10.2602
풀	-10.2605
▁뒤로	-10.2607
분들이	-10.2612
▁임원	-10.2614
▁활동을	-10.2614
▁맞나요	-10.2616
▁기꺼이	-10.2616
▁잘했어	-10.2618
피스	-10.2619
ro	-10.2626
▁콜	-10.2628
▁호텔에	-10.2645
▁여기가	-10.2647
▁힘들어	-10.265
▁처리해	-10.2653
▁김종국	-10.2657
▁만들어진	-10.2658
▁절감	-10.2671
le	-10.2674
▁오세요	-10.2675
하니까	-10.2676
▁있으므로	-10.2678
▁타고	-10.2685
▁맞으	-10.2699
▁수밖에	-10.2699
▁더불어	-10.2699
▁팬츠	-10.2699
▁있었어요	-10.2703
▁춤	-10.2704
▁불량품	-10.271
▁좋았	-10.2714
▁뛰어나	-10.2715
엽	-10.2718
▁오셔서	-10.2719
▁사건	-10.2719
▁누군가	-10.2719
▁직장	-10.2724
했잖아	-10.2734
▁색상은	-10.2736
럼	-10.2739
▁할인해	-10.274
▁부모님	-10.2747
쓰	-10.2748
▁남았	-10.275
▁효율적인	-10.2753
▁생겨	-10.2754
▁개설	-10.2758
▁적극	-10.2759
겹	-10.2761
▁저녁에	-10.2761
▁장식	-10.2763
▁가치가	-10.2763
▁여기에서	-10.2768
▁과장님	-10.2773
맨	-10.2778
▁테이프	-10.2782
▁디자인과	-10.2784
▁80	-10.2785
▁일할	-10.2786
▁사용자가	-10.2789
▁한국으로	-10.2794
▁가정용	-10.2795
프레	-10.2797
하길	-10.2802
▁어렵	-10.2804
▁나오면	-10.2805
▁시행	-10.2807
▁경기	-10.2811
▁여러분이	-10.2812
북	-10.2819
▁얼	-10.2821
▁쇼	-10.2821
▁안정적인	-10.2824
▁환경에서	-10.2826
▁주소로	-10.2827
▁기간이	-10.2832
▁교통	-10.2832
▁반복	-10.2835
▁많지	-10.2844
▁유기농	-10.2844
▁보호합니다	-10.2845
▁평생	-10.285
▁직물	-10.285
▁기능은	-10.2851
▁하나로	-10.2855
▁진짜요	-10.2856
▁보험료	-10.2857
▁들어갈	-10.2858
▁예약이	-10.2858
▁모르는	-10.2861
▁이루어	-10.2862
▁오랜만에	-10.2866
줄게	-10.2867
▁전화번호	-10.2868
층에	-10.287
it	-10.2871
버리	-10.2873
▁그릇	-10.2873
받았습니다	-10.288
▁그것들을	-10.2883
더라구요	-10.2887
▁시청	-10.2888
▁명이	-10.289
번호	-10.289
▁브랜드를	-10.2893
촉	-10.2902
시설	-10.2904
▁나왔어	-10.2908
▁제조사	-10.2908
▁가능해	-10.2909
인분	-10.291
▁가져가	-10.2911
업자	-10.2914
▁좋게	-10.292
▁조식	-10.2923
없	-10.2925
굴	-10.2927
▁감자	-10.2928
▁무리	-10.2929
▁다행히	-10.2929
뷰	-10.2948
▁노하우	-10.295
▁단골	-10.2953
▁그것들	-10.2954
▁색상으로	-10.2954
▁생각했습니다	-10.2956
▁형태로	-10.2957
장에서	-10.296
▁손을	-10.2966
▁영향	-10.2966
▁오븐	-10.2973
해드리고	-10.2974
▁보유	-10.2978
▁이루어지	-10.2984
▁실시간으로	-10.2986
▁과거	-10.2988
▁소화	-10.2995
▁계실	-10.3009
상품	-10.301
▁유전자	-10.3014
▁조건에	-10.3017
함이	-10.3017
▁관리를	-10.3017
▁성함	-10.3026
주실	-10.3031
▁받아볼	-10.3033
▁방법에	-10.3035
값	-10.3037
▁무엇인지	-10.3037
▁처리할	-10.3046
곤	-10.3055
벤	-10.3056
Y	-10.3056
▁리모델링	-10.3056
▁요새	-10.3058
▁웹사이트에서	-10.3061
▁옷을	-10.3064
▁메인	-10.3065
자들이	-10.307
▁물에	-10.307
▁맛있어요	-10.3074
었으면	-10.3078
▁지내고	-10.308
▁상품입니다	-10.3081
▁곳으로	-10.3082
▁수량이	-10.3085
▁말아	-10.3086
▁교재	-10.3087
▁도착하지	-10.3088
▁마음으로	-10.309
츠	-10.3093
▁수익을	-10.3106
▁해결할	-10.3108
념	-10.311
▁각자	-10.3111
▁일단은	-10.3112
▁가능하며	-10.3113
▁전액	-10.3115
▁동일	-10.3116
▁보내드린	-10.3117
▁깜짝	-10.3118
▁회의실	-10.3119
▁듭니다	-10.3121
▁기기를	-10.3125
▁불안	-10.314
▁씁니다	-10.3143
▁몇몇	-10.3143
하겠다	-10.3147
▁빠져	-10.3149
렸어	-10.3158
▁V	-10.316
되나요	-10.3162
▁거실	-10.3162
▁문의드립니다	-10.3163
▁어린	-10.3164
컴	-10.3164
·	-10.3164
▁남성	-10.3167
▁그거는	-10.3168
▁상단	-10.317
▁위로	-10.3172
▁깔끔	-10.3172
시키고	-10.3177
▁기분이	-10.3177
▁공지	-10.3181
▁규칙	-10.3186
▁홈페이지에	-10.3186
▁쇼핑몰	-10.3186
▁감시	-10.3186
▁다섯	-10.3187
▁조사를	-10.3188
▁어렵다	-10.3192
장치	-10.3194
▁높여	-10.3208
▁밴드	-10.3208
▁깔끔한	-10.3212
호텔	-10.3217
▁없도록	-10.3219
응	-10.3228
꾸	-10.323
▁하단	-10.3238
▁꾸	-10.324
▁별도로	-10.3245
▁내장	-10.3248
힐	-10.3251
▁어차피	-10.3251
▁샤워	-10.3251
달라고	-10.3258
▁말씀드린	-10.3259
▁문제로	-10.3261
폐	-10.3262
▁내내	-10.3263
▁메시지를	-10.3265
▁기능으로	-10.3265
▁여기까지	-10.3266
▁작가	-10.3268
▁남성용	-10.3268
▁작년에	-10.3271
킬	-10.3274
▁때문이다	-10.3277
▁짐	-10.328
▁깔끔하게	-10.3284
▁금방	-10.3285
▁오후에	-10.3288
▁묵	-10.3293
▁2021	-10.3295
▁놔	-10.3297
▁형식	-10.3298
▁유연	-10.3301
▁직업	-10.3303
▁보내주시기	-10.3305
▁합니까	-10.3308
▁선사합니다	-10.3309
▁식감	-10.331
▁좋아합니다	-10.3311
▁받아보	-10.3312
▁완화	-10.3317
▁고맙습니다	-10.3317
▁워낙	-10.3317
▁경력	-10.3321
▁무엇보다	-10.3321
▁세정	-10.333
▁사료	-10.3334
▁발행	-10.3338
▁결정했습니다	-10.3342
텐	-10.3343
▁되세요	-10.3346
▁30%	-10.3349
스테	-10.3355
▁없으면	-10.3356
re	-10.3357
▁드리지	-10.3358
▁검증	-10.3364
▁50%	-10.3367
▁간단하게	-10.3373
▁진동	-10.3381
ing	-10.3385
▁분들에게	-10.3393
칙	-10.3398
삭	-10.3401
뼈	-10.3405
▁좋겠어요	-10.3411
▁말씀드렸	-10.3415
▁무엇	-10.3416
▁두피	-10.3418
갑니다	-10.3418
▁감동	-10.3422
▁전면	-10.3426
대요	-10.3426
▁회의가	-10.3433
▁설정할	-10.3434
▁깨끗하게	-10.3435
▁오시는	-10.3436
▁자체가	-10.3438
80	-10.3443
▁주말에	-10.3447
▁스트랩	-10.345
▁계십니다	-10.3451
▁어울리는	-10.3465
▁홍	-10.3465
▁상호	-10.347
▁독자	-10.3471
▁소식이	-10.3471
▁들어서	-10.3471
렉	-10.3472
▁나왔습니다	-10.3472
겠는데	-10.3472
▁좋겠다	-10.3473
▁할지	-10.3473
▁오늘날	-10.3478
▁이해합니다	-10.3481
▁걱정이	-10.3485
랄	-10.3495
▁부스	-10.3496
▁오래된	-10.3499
▁니트	-10.3499
▁아침입니다	-10.3502
▁메시지	-10.3503
▁지불할	-10.3508
▁400	-10.3508
럭	-10.3516
▁큽니다	-10.3517
▁품절	-10.3517
▁각도	-10.3528
▁일하는	-10.3529
▁공장에서	-10.3539
J	-10.354
▁북	-10.3541
▁대답	-10.3543
▁분야에	-10.3546
▁종일	-10.3551
▁장난	-10.3555
엘	-10.3562
주시겠습니까	-10.3563
▁분들도	-10.3564
▁환불해	-10.3568
▁납기	-10.3569
▁의미합니다	-10.3569
▁검사를	-10.357
▁그만큼	-10.3571
▁질환	-10.3572
▁잠금	-10.3574
▁넣었	-10.3575
▁반대	-10.3579
▁있거든요	-10.3585
▁가운데	-10.3585
▁흔들	-10.3585
▁그곳	-10.3585
▁시간과	-10.3588
▁팁	-10.3593
▁실수로	-10.3596
▁달라고	-10.36
▁아직까지	-10.3603
▁정보는	-10.3607
▁스튜디오	-10.3607
▁처음에는	-10.3613
▁나노	-10.3617
▁연동	-10.3618
▁실시	-10.3621
▁도로	-10.3622
▁방법입니다	-10.3638
▁외관	-10.3641
▁할까요	-10.3642
▁화재	-10.3647
▁주변에	-10.365
▁메이크업	-10.3653
▁발생하지	-10.3658
▁세금	-10.3663
웨어	-10.3665
짜	-10.3669
▁세탁기	-10.3672
▁효율성	-10.3674
▁사이즈는	-10.3674
기업	-10.3674
▁논	-10.3675
▁괜찮으시다면	-10.3676
▁강철	-10.3681
▁비행	-10.3688
▁부르	-10.3688
웨이	-10.3689
식품	-10.369
▁녹화	-10.3696
▁신문	-10.3698
▁떨어져	-10.3698
▁획득	-10.3698
▁레이저	-10.3699
▁없기	-10.3699
▁모델은	-10.3699
▁프로필	-10.37
▁감정	-10.3704
▁생각됩니다	-10.3704
▁걸립니다	-10.3706
▁공급자	-10.3716
해보겠습니다	-10.3719
▁자동화	-10.3722
▁되죠	-10.3724
▁맛있겠다	-10.3724
▁농업	-10.3729
▁좋았어	-10.3734
▁소금	-10.3739
흔	-10.3742
▁스위치	-10.3744
▁척	-10.3745
▁바입니다	-10.3747
▁못하고	-10.3749
준다	-10.375
▁얘가	-10.3763
▁신고	-10.3764
▁보자	-10.3765
되었다는	-10.3766
▁핸드	-10.3767
▁콩	-10.3769
드리기	-10.3774
▁손목	-10.3776
▁지불해야	-10.3784
▁쓴	-10.3785
신다면	-10.3787
첨	-10.3787
▁시공	-10.3788
▁나갈	-10.379
▁목소리	-10.379
▁최적화	-10.3798
하거든요	-10.38
▁잡지	-10.3801
▁시원	-10.3801
▁뜨	-10.3802
▁전국	-10.3802
▁출판	-10.3806
▁아우	-10.3813
▁매트리스	-10.3814
▁결론	-10.3815
▁시각	-10.3816
▁떠나	-10.3817
▁물론이죠	-10.382
▁사람의	-10.3831
▁예쁘다	-10.3834
▁끝내	-10.3836
▁압니다	-10.3837
돈	-10.384
▁자격	-10.3848
▁주거	-10.3859
▁챙겨	-10.386
▁내년에	-10.3863
▁여쭤봐	-10.3866
▁문의사항이	-10.3868
주일	-10.3869
▁보이지	-10.3875
▁절차를	-10.3879
스타	-10.3879
▁양세찬	-10.3883
▁사장님이	-10.3885
▁활용할	-10.3885
▁종합	-10.3886
▁먹어야	-10.3895
▁살펴	-10.3895
▁메뉴를	-10.3897
▁그래야	-10.39
▁재정	-10.3904
el	-10.3905
펌	-10.3906
렀	-10.3906
▁런닝맨	-10.3906
▁토지	-10.3912
▁유효	-10.3914
▁위하여	-10.3916
율이	-10.3916
▁비밀	-10.3917
▁무엇이	-10.3923
▁합리적	-10.3925
비용	-10.3926
샤	-10.3929
▁나쁜	-10.393
▁케어	-10.3931
▁힘을	-10.3932
았어요	-10.3936
▁관해서	-10.3944
▁팀장	-10.3949
▁프랑스	-10.3953
▁브러시	-10.3953
▁활성화	-10.3953
▁좋은데	-10.3954
▁수영장	-10.3954
▁조용	-10.3956
화된	-10.3957
▁기대가	-10.3965
았다	-10.3966
▁흑	-10.3969
▁자랑	-10.3975
곱	-10.3976
▁믿어	-10.3976
▁프로그래밍	-10.3976
▁환경에	-10.398
▁안전하고	-10.3986
▁떼	-10.3992
하셨어요	-10.3993
겠다고	-10.3997
탑	-10.4
▁라디오	-10.4
▁자연스럽게	-10.4001
▁이유를	-10.4004
▁컨트롤러	-10.4004
▁21	-10.4006
▁장애	-10.4007
▁그러시	-10.4008
되었다	-10.4012
▁인사를	-10.4019
▁하나씩	-10.4021
▁땀	-10.4022
묘	-10.4023
▁그렇고	-10.4024
되길	-10.4027
▁급여	-10.403
▁컬렉션	-10.4047
렬	-10.4047
▁브랜드가	-10.405
▁전시	-10.4052
▁다음달	-10.4054
▁일치	-10.4059
닥	-10.4067
▁전소민	-10.4071
▁조회	-10.4072
▁진행하기	-10.4086
▁조절이	-10.4088
▁둔	-10.4091
릿	-10.4095
▁매력	-10.4095
▁바르	-10.4101
▁매장에서	-10.4103
▁방법으로	-10.4107
▁고객과	-10.4108
▁않을까	-10.4111
▁정기	-10.4118
▁제주도	-10.412
▁내부에	-10.4123
▁캔	-10.4124
▁효율적으로	-10.4125
▁1,000	-10.4127
▁입주	-10.4129
▁극대화	-10.4142
▁숫자	-10.4143
▁사무실에	-10.4145
▁도달	-10.4151
▁대중	-10.4151
▁신체	-10.4151
텐데	-10.4153
▁문을	-10.4154
▁닦	-10.4157
▁파워	-10.4164
기관	-10.4165
▁지석진	-10.4166
▁하드웨어	-10.4166
▁맥주	-10.4167
▁파스타	-10.4169
▁복사	-10.417
주시는	-10.4177
▁잠시만	-10.4177
놀	-10.418
▁모습을	-10.4181
▁알아보고	-10.4182
칩	-10.4188
▁먹기	-10.419
▁봤는데	-10.419
▁치킨	-10.4191
▁비롯	-10.4192
버섯	-10.4193
▁못하는	-10.4201
▁진공	-10.4204
▁허용	-10.4205
▁협력사	-10.4208
+	-10.4214
▁반도체	-10.4214
▁이어폰	-10.4216
▁전달해	-10.4219
▁힘이	-10.4221
합시다	-10.4221
▁개발했습니다	-10.4223
▁물건이	-10.4223
▁기여	-10.4225
드렸습니다	-10.4226
▁됐어요	-10.4226
▁말하는	-10.4231
▁않나요	-10.4238
▁얻고	-10.4238
▁축하드립니다	-10.4242
▁적어도	-10.4254
▁날짜가	-10.4265
▁했었	-10.4276
스팅	-10.4276
▁그러네	-10.4277
캡	-10.428
▁인생	-10.4282
▁소개를	-10.4282
▁사이에서	-10.4284
▁있길	-10.4287
▁뛰어납니다	-10.4287
▁무상	-10.4288
▁누르	-10.429
▁친절	-10.429
▁거래가	-10.4292
▁선반	-10.4297
▁바지	-10.4305
▁가까이	-10.4312
▁혼합	-10.4313
▁이후로	-10.4313
▁분류	-10.4318
et	-10.4319
▁질문에	-10.4321
▁초점	-10.4322
▁조절할	-10.4324
이기도	-10.4327
▁많았	-10.4328
에다가	-10.4331
▁혜택	-10.4331
▁무서워	-10.4335
▁유일한	-10.4336
▁사이즈가	-10.4338
▁고객들에게	-10.4339
▁질병	-10.4339
▁만들었	-10.4343
▁하신다면	-10.4344
▁거쳐	-10.4344
▁보았	-10.4353
▁에너지를	-10.4354
왕	-10.4355
▁늘어나	-10.4355
▁떡볶이	-10.436
▁뿌리	-10.4361
▁지퍼	-10.4362
▁고객들이	-10.437
▁멤버	-10.437
▁어떠신가요	-10.4384
듬	-10.4384
▁개발하고	-10.4384
▁영업팀	-10.4385
▁브랜드의	-10.4387
▁유감	-10.4387
▁바꿀	-10.4387
▁넘어가	-10.4395
▁공연	-10.4405
▁강조	-10.4408
▁고성능	-10.4409
▁증가하고	-10.4409
▁상점	-10.4411
셨습니까	-10.4417
▁거에요	-10.4417
▁만날	-10.4418
▁것들이	-10.4419
▁취소해야	-10.4425
▁품질과	-10.4434
▁소독	-10.4441
없는	-10.4444
▁오류	-10.4447
▁임상	-10.445
▁설치할	-10.4452
찜	-10.4458
▁왼쪽	-10.4458
▁적응	-10.446
▁90	-10.4461
▁보내주십시오	-10.4464
▁글쎄	-10.4464
▁드시는	-10.4466
▁참고해	-10.4467
시킨	-10.447
스틱	-10.4475
야겠다	-10.4475
▁야채	-10.4476
▁금요일에	-10.4477
멘	-10.4482
▁승기	-10.4484
▁고급스러운	-10.4484
▁연락주시기	-10.4494
▁적용됩니다	-10.4499
▁연속	-10.4499
▁좋아할	-10.4503
▁사용했습니다	-10.4503
▁블로그	-10.4507
▁찾기	-10.4507
▁받으셨	-10.4508
▁구멍	-10.4509
▁바이어	-10.451
함께	-10.4511
▁보답	-10.4513
▁바라겠습니다	-10.4513
▁넣을	-10.4516
▁없나요	-10.4523
▁튼튼	-10.4523
600	-10.4523
▁성사	-10.4525
▁명의	-10.4525
▁충분	-10.4529
▁덮	-10.4532
▁라이브	-10.4534
▁본체	-10.4537
▁고품질의	-10.4539
▁빠르	-10.4544
▁설계된	-10.4551
끈	-10.4556
▁플랜	-10.4557
▁액체	-10.4557
▁맨	-10.456
▁당연	-10.4562
▁기억이	-10.4564
▁적당	-10.4565
▁알려주실	-10.457
▁소포	-10.4575
▁드는	-10.4584
려서	-10.4591
나무	-10.4597
버려	-10.4599
▁출판사	-10.46
개씩	-10.4602
▁않으시	-10.4607
▁하네요	-10.4607
▁받습니다	-10.4608
▁짓	-10.461
▁누락	-10.4611
▁장소를	-10.4624
▁고소	-10.4625
▁효과적으로	-10.4626
▁아파	-10.4627
▁원한다	-10.4629
했는데요	-10.4629
▁즐겨	-10.4631
▁커뮤니티	-10.4632
쌍	-10.4632
젠	-10.4632
▁돼지	-10.4632
▁방해	-10.4636
▁절단	-10.4638
▁발효	-10.4638
▁재산	-10.4641
▁지연되	-10.4648
▁쪽으로	-10.4649
았어	-10.4653
벽	-10.4656
믹	-10.4657
▁트레이	-10.4661
▁전문으로	-10.4661
▁내에서	-10.4662
▁청정	-10.4663
▁동네	-10.4664
▁드리기	-10.4672
▁회의에서	-10.4673
▁세팅	-10.4676
▁소리가	-10.4678
▁놓고	-10.4682
▁소요됩니다	-10.4682
▁파트너십	-10.4685
▁간단히	-10.4689
▁옛날	-10.4691
▁많아요	-10.4691
▁날짜에	-10.4695
▁식으로	-10.4695
카드	-10.4696
▁룩	-10.4701
▁크기가	-10.4702
건가요	-10.4707
▁늘리	-10.4708
▁마시	-10.4711
▁생기면	-10.4716
▁당사에서	-10.4719
▁제작되어	-10.4725
▁건조기	-10.4726
둥	-10.4733
▁자외선	-10.4733
▁설문	-10.4733
▁있네요	-10.4733
▁자세	-10.4734
▁관찰	-10.4735
▁영감을	-10.4736
▁번호로	-10.4741
련	-10.4743
▁지난주	-10.4748
▁그분	-10.4752
▁CCC	-10.4758
▁스캔	-10.4759
▁핫	-10.4762
▁연령	-10.4762
▁유익	-10.4763
▁어디에서	-10.4764
▁수확	-10.4772
▁피드백을	-10.4775
▁이해가	-10.4784
▁기다릴	-10.4784
▁케이크	-10.4784
▁바퀴	-10.4786
해주시는	-10.4792
▁놀이	-10.4793
▁되어서	-10.4793
▁기쁘게	-10.4794
▁가져주셔	-10.4797
▁전까지	-10.4802
▁압축	-10.4809
es	-10.4812
▁점수	-10.4814
▁녹차	-10.4817
하신다고	-10.4817
윤	-10.4818
▁가볍게	-10.482
었고	-10.4826
▁실적	-10.483
흡	-10.4833
Q	-10.4835
▁보내드렸습니다	-10.4843
▁친절하게	-10.4846
▁않는다면	-10.4847
▁연락처를	-10.4857
▁복구	-10.4857
▁이러면	-10.4858
칸	-10.486
▁배려	-10.4861
▁상태에서	-10.4861
▁심장	-10.4863
▁큰일	-10.4863
▁가능하다	-10.4864
▁피로	-10.4865
▁참고로	-10.4871
▁적당한	-10.4873
▁할인된	-10.4884
▁참석할	-10.4889
▁후에는	-10.4893
▁꽉	-10.4895
빵	-10.4897
▁종류가	-10.4901
▁제휴	-10.4903
▁원활	-10.4905
▁바뀌었	-10.4912
▁설탕	-10.4912
▁해야지	-10.4914
▁중앙	-10.4916
▁낙	-10.4919
▁안되	-10.4924
99	-10.4929
▁호주	-10.4932
▁끝까지	-10.4938
▁올바른	-10.4938
라운드	-10.4938
▁가격과	-10.4941
▁포켓	-10.4943
▁오전에	-10.4949
주셔도	-10.4951
▁안전성	-10.4953
▁어디서나	-10.4954
웃	-10.4959
흥	-10.4963
▁딸기	-10.4963
▁미래에	-10.4965
▁Mr	-10.4966
▁뽑아	-10.4967
▁복합	-10.4968
▁양측	-10.4971
▁시점	-10.4974
▁지침	-10.4977
▁아무도	-10.4978
▁구분	-10.498
▁용도	-10.4981
▁나이스	-10.4987
▁플래	-10.499
▁왔어요	-10.4991
▁냉각	-10.4992
▁승진	-10.4998
▁사이트에서	-10.5002
으려고	-10.5006
▁정식	-10.5006
▁분기	-10.5011
닉	-10.5016
▁예전	-10.5016
했었습니다	-10.5017
▁밝은	-10.5018
▁구매하시면	-10.5023
▁골라	-10.5027
▁심플	-10.5027
▁고객은	-10.5028
▁보드	-10.5031
▁온도를	-10.5034
0%	-10.5038
▁드라이	-10.5039
▁간식	-10.5044
▁23	-10.5046
▁음식은	-10.5048
▁찾아보	-10.5048
▁이점	-10.5049
40	-10.5051
▁신속하게	-10.5052
▁음악을	-10.5054
익	-10.5054
▁단일	-10.5056
▁이불	-10.5063
▁삶을	-10.5066
▁다이얼	-10.5068
▁벨트	-10.5069
▁기업입니다	-10.507
▁누구야	-10.5081
티브	-10.5082
▁고유	-10.5083
▁생각입니다	-10.5087
▁열정	-10.5088
답	-10.5091
릅니다	-10.5092
▁인보이스	-10.5094
▁아울러	-10.5094
▁이겨	-10.5095
▁다행입니다	-10.5095
▁포트	-10.5095
▁투자자	-10.5095
▁와이프	-10.5095
▁건지	-10.5097
▁반찬	-10.5098
▁좋겠네요	-10.5102
받아	-10.5106
▁아프	-10.5118
해주십시오	-10.5119
▁다행이	-10.512
샷	-10.5121
▁스탠드	-10.5121
▁도와줍니다	-10.5123
되도록	-10.5128
거죠	-10.5129
▁끝나면	-10.513
▁함유되어	-10.5132
▁생길	-10.5132
▁위치하고	-10.5132
▁받아들이	-10.5133
▁카드를	-10.5134
▁기본적인	-10.515
▁희망합니다	-10.515
느냐	-10.5152
▁똑같은	-10.5159
AS	-10.5161
끔	-10.5164
▁영광	-10.5164
▁없다면	-10.5164
셨다	-10.5172
▁그러고	-10.5172
▁슈퍼	-10.5173
▁운반	-10.5174
▁뭔지	-10.5174
▁친구가	-10.5176
▁확인하시고	-10.518
▁있었으면	-10.5188
▁사장님께서	-10.5189
▁버리	-10.5191
▁추진	-10.5194
▁생각하지	-10.5195
▁아니다	-10.5199
▁추억	-10.5203
▁말씀하시는	-10.5206
▁방향으로	-10.5216
▁식기세척기	-10.5226
▁연결할	-10.5227
▁기회에	-10.5236
되었으며	-10.5237
▁자녀	-10.5238
▁유지하는	-10.5241
하십니까	-10.5242
▁요청한	-10.5244
▁예쁘	-10.5245
▁배울	-10.5251
춘	-10.5253
▁전기차	-10.5253
▁어떻습니까	-10.5253
▁지났습니다	-10.5253
▁트렌드	-10.5253
▁행사에	-10.5253
▁되니까	-10.5253
관계	-10.5259
▁감각	-10.5261
▁생겼습니다	-10.5265
▁건강에	-10.5265
▁밑에	-10.5272
▁이럴	-10.5274
▁신속	-10.5276
▁주차장	-10.5278
해주시고	-10.5279
▁소문	-10.528
▁아이스크림	-10.528
▁받으신	-10.5282
▁기부	-10.5284
▁뭐냐	-10.529
▁동작	-10.5293
▁상업	-10.5295
▁22	-10.5299
▁심각한	-10.53
겠지	-10.5301
▁듣게	-10.5304
▁가져다	-10.5307
▁카달로그	-10.5307
▁쾌적	-10.5307
▁못해서	-10.5308
▁즐기실	-10.5321
▁상업용	-10.5321
▁거품	-10.533
▁대용량	-10.5334
▁이벤트를	-10.5335
▁좋다고	-10.5336
였어요	-10.5337
활성	-10.5338
▁서비스로	-10.5339
▁논의할	-10.534
했으며	-10.5346
▁말씀드리겠습니다	-10.5349
▁돈가스	-10.5361
▁들었는데	-10.5366
▁끌어	-10.5382
▁고객분들	-10.5382
▁채용	-10.5389
▁대접	-10.5394
▁이하	-10.5395
▁충전기	-10.54
▁축구	-10.5401
▁예능	-10.5403
▁사이즈로	-10.541
▁따뜻하게	-10.5415
▁싶으신가요	-10.5416
▁견고한	-10.542
▁정성	-10.542
▁관절	-10.5421
▁그러한	-10.5421
▁역할	-10.5428
▁와우	-10.5429
폭	-10.5439
▁퀄리티	-10.5442
▁기원합니다	-10.5442
▁헤드폰	-10.5443
▁이유입니다	-10.5444
▁만화	-10.5454
▁조금씩	-10.5458
▁앞에서	-10.5462
콤	-10.5464
▁오면	-10.5464
▁죄송하다	-10.5464
▁소유자	-10.5465
▁끝난	-10.5469
▁유재석	-10.5469
▁양말	-10.548
▁포함합니다	-10.5481
▁전문적인	-10.5487
▁재무	-10.5492
벼	-10.5496
으시면	-10.5497
둘	-10.5499
▁준비하고	-10.55
차원	-10.5505
▁분위기를	-10.5505
▁가능하게	-10.5516
▁미안해	-10.5517
▁납니다	-10.5517
▁필리핀	-10.5517
춰	-10.5523
▁대규모	-10.5524
▁실수를	-10.5524
▁처음으로	-10.5525
▁괜찮을까요	-10.5526
▁가슴	-10.5526
▁토론	-10.5527
▁신상품	-10.5528
▁내용에	-10.5528
▁게스트	-10.5532
▁입자	-10.5533
▁봤어	-10.5533
▁뛰	-10.554
▁동생	-10.5544
▁면역	-10.5546
주년	-10.5547
시스템	-10.5555
▁로션	-10.5558
시키기	-10.5562
▁이슈	-10.5572
▁빠지	-10.5572
800	-10.5573
▁다운	-10.5576
▁판매할	-10.5576
▁빨라	-10.5578
▁과장	-10.5582
▁투입	-10.5583
드렸던	-10.5591
▁보수	-10.5591
▁제공되는	-10.5595
5,000	-10.5604
3%	-10.5607
▁발견했습니다	-10.5607
▁이용한	-10.5608
▁비누	-10.561
▁고객센터	-10.5611
▁목표로	-10.5618
▁추가적으로	-10.5623
▁유감스럽게도	-10.5634
빔	-10.5634
삼	-10.5638
▁우주	-10.5638
▁귀하에게	-10.5639
▁처음부터	-10.5654
윈	-10.5661
▁비슷하	-10.5662
▁커뮤니케이션	-10.5662
꽂	-10.5662
▁견학	-10.5662
▁슬림	-10.5666
▁베개	-10.5668
▁임대료	-10.5671
is	-10.5675
▁추구	-10.568
▁똑같이	-10.5682
▁풀어	-10.5688
▁아닌가요	-10.5699
▁피드백	-10.5699
▁업체와	-10.5702
▁책정	-10.5707
▁등산	-10.571
▁월요일에	-10.5714
▁잉크	-10.5718
▁예쁜	-10.5718
▁갖추	-10.5718
▁행복한	-10.5723
▁효과적인	-10.5726
▁이뤄	-10.5726
▁세균	-10.5729
▁맛과	-10.5729
▁농장	-10.573
▁다녀	-10.5732
▁간편한	-10.5734
▁초안	-10.5735
▁걸쳐	-10.5738
▁부탁합니다	-10.5742
▁가겠습니다	-10.5744
▁인터뷰	-10.5746
▁전자레인지	-10.5746
▁유발	-10.5747
▁소리를	-10.5748
▁모릅니다	-10.575
▁아버님	-10.575
▁선사	-10.5755
같은	-10.5757
드릴까요	-10.5766
▁다소	-10.5769
▁왔는데	-10.5774
▁이탈리아	-10.5774
▁펌프	-10.5774
▁해상도	-10.5776
▁교수님	-10.5777
▁필리핀에서	-10.5781
▁번호는	-10.5781
솔	-10.5786
▁작가님	-10.5787
▁편안함	-10.5789
웨	-10.5797
▁변형	-10.58
학생	-10.58
▁귀여워	-10.5802
▁억제	-10.5803
▁의약품	-10.5804
거야	-10.5804
하잖아	-10.5821
▁말씀해주세요	-10.5825
▁상관	-10.5829
▁아무튼	-10.5831
▁먹어보	-10.5833
▁변환	-10.5835
en	-10.5842
떡	-10.5842
했네	-10.5842
▁간다	-10.5842
▁제기	-10.5844
▁컨트롤	-10.5853
쇠	-10.5855
▁있으신지	-10.5858
▁토마토	-10.5859
괄	-10.5859
▁헤드셋	-10.5859
▁변경할	-10.5861
▁가능하면	-10.5863
▁당근	-10.5864
▁세계에서	-10.587
▁붙어	-10.5873
▁기후	-10.5878
괴	-10.5884
되었는지	-10.5887
▁곤란	-10.5887
▁브라	-10.5888
▁매달	-10.5895
▁본사에서	-10.5896
▁최소한	-10.5902
린다	-10.5907
▁즐거	-10.5912
맵	-10.5915
▁페인트	-10.5916
보면	-10.5918
▁종종	-10.5923
▁단어	-10.5928
▁간장	-10.5929
▁전통적인	-10.5937
▁평가를	-10.5943
▁뜨거운	-10.5944
▁플러그	-10.5944
되어있습니다	-10.5944
▁조율	-10.595
▁급증	-10.5951
▁문의사항	-10.5952
▁나옵니다	-10.5954
빨	-10.5957
▁여러가지	-10.5963
▁서울에	-10.5963
▁기업들	-10.5968
▁염색	-10.5971
▁검정색	-10.5973
▁자율주행	-10.5973
셨으면	-10.5974
▁적극적으로	-10.5978
완	-10.5979
▁가게에서	-10.5983
▁감상	-10.5983
▁진실	-10.5988
▁위성	-10.5994
부분	-10.5995
▁저렴	-10.5997
▁소파	-10.5998
▁브레이크	-10.6001
▁폴리	-10.6006
▁단독	-10.6008
▁들리	-10.6009
▁전산	-10.601
▁줄일	-10.6012
▁성공적인	-10.6013
▁대여	-10.6017
▁구동	-10.6017
▁견고	-10.6027
▁장시간	-10.6029
시켰습니다	-10.603
▁널리	-10.6031
▁나라에서	-10.6031
▁그립	-10.6032
검	-10.6033
▁여보세요	-10.6038
▁순서	-10.6038
▁보시는	-10.6041
▁전문가들	-10.6043
▁자기가	-10.6045
▁손님이	-10.6046
▁모아	-10.6046
▁섬	-10.6048
붙	-10.605
▁내부적으로	-10.6058
▁놓치지	-10.6059
▁맞죠	-10.6059
십시요	-10.6059
▁이름이	-10.6065
▁종국	-10.6065
▁돌아오	-10.6065
▁2000	-10.6074
▁면에서	-10.6081
▁구체적으로	-10.6081
▁보면서	-10.6082
통신	-10.6083
섭	-10.6085
낭	-10.6088
▁납입	-10.6088
▁데일리	-10.6089
▁볼륨	-10.6089
▁겸	-10.6093
▁드세요	-10.6099
▁걸려	-10.6104
▁환영	-10.6105
▁구매자	-10.6107
▁그다음	-10.6111
▁대하여	-10.6111
밴	-10.6117
▁하드	-10.6118
▁통보	-10.6121
▁체크인	-10.6123
▁계세요	-10.6128
주셨는데	-10.6129
▁키우	-10.6135
▁봤어요	-10.6137
▁쥐	-10.6139
▁웹사이트에	-10.6143
▁견본	-10.6146
▁빚	-10.6147
▁면적	-10.6147
▁한옥	-10.6148
▁힌트	-10.6148
▁계란	-10.6152
학적	-10.6153
▁마찬가지로	-10.6154
니까요	-10.6156
▁비트	-10.6157
▁옛날에	-10.6166
▁청소기	-10.6167
▁되실	-10.6168
▁이때	-10.6168
▁듣기	-10.617
▁지능	-10.6172
밍	-10.6175
▁가져오	-10.6176
▁불가능합니다	-10.6176
▁주력	-10.6178
▁넣어서	-10.6183
▁기능성	-10.6191
였다	-10.6194
▁메모	-10.6195
▁민감	-10.62
컵	-10.62
벗	-10.6201
▁캠페인	-10.6205
하시죠	-10.6205
▁나타나	-10.6205
▁통기성	-10.6206
▁나랑	-10.6207
이어서	-10.6209
▁편입니다	-10.621
▁제안해	-10.621
되었음	-10.6211
▁뿐입니다	-10.6212
▁유지하고	-10.6215
신속한	-10.6217
▁첨부했습니다	-10.6219
▁복잡	-10.6221
▁250	-10.6223
2%	-10.6226
▁있어서요	-10.623
▁문의하신	-10.6231
▁단위	-10.6234
▁레시피	-10.6234
▁냄비	-10.6234
▁해산물	-10.6235
▁답답	-10.6235
거래	-10.6235
▁소모	-10.6236
▁막아	-10.6237
▁달콤	-10.6238
▁독립	-10.6238
▁길어	-10.6243
▁있나	-10.6245
▁조각	-10.6248
정된	-10.625
▁어때요	-10.6251
▁얼음	-10.6251
콩	-10.6261
뿌	-10.6262
▁발급	-10.6263
▁거짓말	-10.6264
▁촉진	-10.6264
▁발생합니다	-10.6265
▁꺼내	-10.6271
▁보일	-10.6278
▁복잡한	-10.6279
▁진행됩니다	-10.628
▁한계	-10.6282
▁잠시만요	-10.6287
▁생선	-10.6288
▁본인이	-10.629
장비	-10.6293
▁악기	-10.6295
▁탄력	-10.6296
ol	-10.6313
▁해봐	-10.6315
▁참석해	-10.6322
▁받아들일	-10.6323
▁인프라	-10.6323
▁편한	-10.6326
푸드	-10.6327
▁다하겠습니다	-10.6327
▁안감	-10.6328
▁이루어져	-10.6332
▁반송	-10.6333
▁갈아	-10.6335
▁양사	-10.634
▁당황	-10.6351
▁연락주시면	-10.6352
▁클럽	-10.6355
▁재료로	-10.6362
▁코어	-10.6365
▁오류가	-10.6367
▁생겨서	-10.6369
▁친절한	-10.6369
소스	-10.6377
▁붙여	-10.638
▁사용하시면	-10.6381
잉	-10.6383
▁높일	-10.6383
넥	-10.6383
▁차질이	-10.6384
▁말했습니다	-10.6387
▁하셨는데	-10.639
했으니	-10.6394
천만	-10.6398
▁연주	-10.6404
봐요	-10.6406
▁통제	-10.6408
▁이용료	-10.641
▁구성된	-10.641
껏	-10.6412
▁잇몸	-10.6413
렛	-10.6413
▁손가락	-10.6413
▁실례	-10.6417
▁진행합니다	-10.6417
▁감염	-10.6421
했었는데	-10.6422
▁사례	-10.6427
▁가격표	-10.6428
▁감성	-10.6429
픈	-10.6433
▁주스	-10.6435
▁배경	-10.6439
▁제약	-10.6441
▁입증	-10.6443
▁신축성	-10.6443
▁예뻐	-10.6444
ch	-10.6448
▁함량	-10.645
▁같아서요	-10.6451
▁싶다면	-10.6454
▁주름	-10.6456
▁좋아서	-10.6464
▁집안	-10.6466
▁제거합니다	-10.6469
픽	-10.647
▁연예인	-10.6473
▁자연스러운	-10.6475
깐	-10.6478
▁같고	-10.6489
▁현장에서	-10.6498
▁대리점	-10.6499
흘	-10.6499
였어	-10.6504
▁인정받	-10.6508
▁동봉	-10.6511
▁허가	-10.6514
▁문구	-10.6523
옵니다	-10.6523
싹	-10.6533
▁좌석	-10.6533
▁육수	-10.6534
했죠	-10.6535
▁뭔데	-10.6536
▁언제까지	-10.6538
▁안전합니다	-10.654
볼까요	-10.6543
▁생물	-10.6546
▁시작하는	-10.655
▁전화기	-10.6551
▁Wi	-10.6553
▁시스템으로	-10.6562
▁기초	-10.6562
휠	-10.6564
▁달걀	-10.6564
▁의료기기	-10.6565
▁오르	-10.6567
▁살려	-10.658
▁보셨	-10.6587
▁닦아	-10.6588
▁빼고	-10.659
깨	-10.6593
굽	-10.6594
▁얼룩	-10.6595
▁후보	-10.6596
▁귀엽	-10.6596
▁주문했었습니다	-10.6603
납니다	-10.6606
▁지난달	-10.6613
▁짜장	-10.6619
▁입어	-10.6629
▁최초로	-10.6633
▁개봉	-10.6634
보려고	-10.6635
900	-10.6638
▁결혼식	-10.6645
▁열리는	-10.665
공학	-10.6652
▁캐주얼	-10.6655
▁증상	-10.6657
▁가능하고	-10.6657
▁좋네요	-10.6658
칼	-10.6665
▁치과	-10.6667
코드	-10.6672
드렸는데	-10.6675
붕	-10.6686
▁패딩	-10.6686
▁이광수	-10.6686
므로	-10.6687
km	-10.6691
▁긴급	-10.6692
▁알았어요	-10.6698
▁요청드립니다	-10.6709
튼	-10.6712
멜	-10.6717
스러워	-10.6717
▁업계에서	-10.672
▁계절	-10.6722
▁보여줍니다	-10.6723
▁확인하기	-10.6731
▁개발자	-10.6734
스럽습니다	-10.6734
▁나와서	-10.6739
▁플레이어	-10.6742
▁어떠	-10.6743
▁말합니다	-10.6745
▁스크린	-10.6748
▁앤	-10.6749
▁간략	-10.675
▁필요하시면	-10.6753
▁게시	-10.6757
콜	-10.676
▁버터	-10.6763
▁맞춰서	-10.6763
더라	-10.6768
▁부여	-10.6771
▁상표	-10.6773
▁국내에서	-10.6774
▁유지하기	-10.6779
▁레벨	-10.6781
▁으아	-10.6782
▁없지만	-10.6786
▁단축	-10.6786
▁매번	-10.6795
▁조심해	-10.6798
▁무드	-10.6802
▁이해할	-10.6803
쿨	-10.681
▁끝났어	-10.681
▁어묵	-10.6814
볶음	-10.6815
▁진행되고	-10.682
▁튼튼한	-10.6822
▁가족들	-10.6822
▁안쪽	-10.6824
▁열고	-10.683
▁그릴	-10.6838
▁주머니	-10.6842
▁탄탄	-10.6842
랜드	-10.6852
▁돼서	-10.6857
뜨	-10.6857
▁봄	-10.6858
▁느끼실	-10.6861
▁분사	-10.6863
▁회수	-10.6865
▁깨끗하고	-10.6867
릭	-10.6872
▁끊임없	-10.6873
▁리조트	-10.6873
Fi	-10.6877
▁밀어	-10.6879
▁입맛	-10.6879
▁이외에	-10.688
▁배송될	-10.6881
보시길	-10.6887
▁드시고	-10.689
되었다고	-10.6891
▁구입할	-10.6897
졸	-10.6904
▁미네랄	-10.6904
▁HD	-10.6908
▁민감한	-10.6918
▁소개되어	-10.6922
▁한달	-10.6928
▁확실	-10.6929
▁순환	-10.6929
▁시청자	-10.6935
70	-10.6936
몽	-10.6936
▁않지만	-10.6936
▁최첨단	-10.6936
▁피아노	-10.6936
▁되잖아	-10.6936
▁다행이네요	-10.6941
▁파산	-10.6947
▁업체에서	-10.6947
▁항공기	-10.6963
▁잡았	-10.6964
굿	-10.6967
▁업로드	-10.6967
환경	-10.6968
▁가열	-10.697
▁그랬어	-10.6973
▁사진과	-10.6974
▁뻔	-10.6977
60	-10.6978
▁확인해야	-10.6983
▁장착되어	-10.6986
▁빗	-10.6995
다른	-10.6999
▁스프레이	-10.6999
▁둘러보	-10.7001
▁비닐	-10.7002
▁리뷰	-10.7002
▁레드	-10.7003
▁기구	-10.7011
▁경고	-10.7015
▁최적화된	-10.7016
▁있었어	-10.7019
▁거니까	-10.702
섬유	-10.7023
볶	-10.7025
▁예정되어	-10.703
▁않습니까	-10.7031
턱	-10.7031
▁검수	-10.7043
▁운전자	-10.7043
▁기대하겠습니다	-10.7049
▁필요해요	-10.7049
▁말씀드립니다	-10.705
▁사람에게	-10.7051
ml	-10.7058
▁저쪽	-10.7059
꿀	-10.7059
▁사망	-10.7061
흐	-10.7063
튜	-10.7063
▁데이터베이스	-10.7063
▁머리카락	-10.7063
오셨	-10.7073
▁영업부	-10.708
▁죄송하게	-10.7081
▁확실한	-10.7081
하더라도	-10.7083
▁혜택이	-10.7085
▁싶다고	-10.7087
▁찾았	-10.7087
▁미끄럼	-10.7095
▁듀얼	-10.7095
▁칭찬	-10.7095
▁넘게	-10.7097
▁와이어	-10.7099
▁실현	-10.7105
▁잠깐만요	-10.7105
▁소개시켜	-10.7106
▁평판	-10.7106
▁나온다	-10.711
▁LA	-10.7112
공간	-10.7112
▁공유할	-10.7117
주십시오	-10.7118
▁양파	-10.7121
▁눈물	-10.7126
▁펀드	-10.7127
▁차라리	-10.7127
▁필름	-10.713
▁위치해	-10.713
▁발라	-10.7131
▁타임	-10.7132
▁전부터	-10.7132
▁누르면	-10.7134
▁들었어요	-10.7141
▁긍정적으로	-10.7142
았는데	-10.7142
▁남기	-10.7144
▁가격대	-10.7146
활	-10.7155
▁놓으	-10.7159
▁어댑터	-10.7159
▁다이어트	-10.716
▁원자재	-10.716
▁호흡	-10.7161
▁않을까요	-10.7164
▁입술	-10.717
▁감사하다	-10.7175
▁수행할	-10.7177
▁엄격한	-10.7178
싸	-10.7179
▁줄이고	-10.7181
▁곳입니다	-10.7184
▁질감	-10.7187
▁여쭤보고	-10.7188
▁시작합니다	-10.719
▁웃기	-10.7192
딜	-10.7192
▁오른쪽	-10.7192
▁셔츠	-10.7192
▁애완	-10.7193
▁빨간색	-10.7193
▁절반	-10.7196
▁말씀드릴	-10.72
▁금지	-10.72
200	-10.721
▁귀사에게	-10.7213
▁된장	-10.7214
▁어때	-10.7216
▁특유의	-10.7224
▁좋네	-10.7225
생활	-10.7227
▁오실	-10.7229
▁낮아	-10.7239
▁활용해	-10.7249
빛	-10.7252
하잖아요	-10.7254
▁패스	-10.7255
▁식재료	-10.7257
잇	-10.7257
버렸	-10.726
▁없죠	-10.7262
었다고	-10.7266
▁넣으면	-10.7266
▁이익	-10.7266
▁플라	-10.7268
▁원활한	-10.7272
▁통계	-10.7273
▁내일까지	-10.7279
▁피규어	-10.729
▁비밀번호	-10.729
▁사항들	-10.7291
▁레이스	-10.7291
▁국내외	-10.7295
▁준비했습니다	-10.7296
▁페이스	-10.7297
배송	-10.7297
▁창출	-10.7299
▁포기	-10.7299
틱	-10.73
거라	-10.7302
▁효율적	-10.7303
▁사무용	-10.7309
해지는	-10.731
▁포함하여	-10.732
펴	-10.732
▁세라믹	-10.7322
▁밝혀	-10.7322
▁부부	-10.7323
▁27	-10.7325
▁구워	-10.7327
▁매진	-10.7329
▁그러지	-10.7334
▁편안하고	-10.7334
▁재미있는	-10.7338
▁글쎄요	-10.7347
AAA	-10.7349
일까요	-10.7349
▁팀원들	-10.7353
꾼	-10.7355
▁트럭	-10.7357
▁없네요	-10.7359
▁반면	-10.7362
▁유아	-10.7367
▁고마워	-10.737
▁준비하겠습니다	-10.7376
▁문제점	-10.7379
▁진행되는	-10.7379
▁제작하였습니다	-10.7379
▁추출물	-10.738
▁깨끗	-10.7381
되면서	-10.7382
▁인터페이스	-10.7388
쌈	-10.7388
▁치료제	-10.7389
▁증정	-10.739
▁보내세요	-10.7392
▁경찰	-10.7393
▁통관	-10.7403
▁심각	-10.7409
▁활용하여	-10.7419
땡	-10.7421
▁스킨	-10.7425
▁요인	-10.7431
▁역량	-10.7432
▁사기	-10.7436
▁만일	-10.7437
▁저랑	-10.7438
▁부채	-10.7438
▁사용될	-10.7443
탱	-10.7454
▁나타났	-10.7455
▁트랙	-10.7456
▁맨날	-10.7457
▁있으실까요	-10.7457
▁논의하고	-10.7458
▁만남	-10.746
하나	-10.7467
▁성격	-10.7467
ac	-10.7467
했거든요	-10.7468
▁정원	-10.7468
지역	-10.7472
▁가동	-10.7473
▁생체	-10.7478
▁비건	-10.7478
▁접시	-10.7479
st	-10.7483
▁28	-10.7486
▁자신감	-10.7487
▁오징어	-10.7488
▁적혀	-10.7496
▁부서에서	-10.7497
▁인재	-10.7498
▁알아요	-10.7501
▁송부	-10.7503
줘서	-10.7503
▁탑재되어	-10.7505
▁방문하여	-10.751
▁파란색	-10.7521
@	-10.7521
▁존경	-10.7521
▁전세계	-10.7521
▁담긴	-10.753
▁보존	-10.7531
▁놀랍	-10.7532
▁만들어서	-10.7533
해보시고	-10.7538
랍니다	-10.7539
▁제공하여	-10.7545
▁사랑하는	-10.7549
▁그린	-10.7551
▁있으세요	-10.7555
▁물어봐	-10.7557
▁하하하	-10.7562
▁확실하게	-10.7566
▁시작하기	-10.7571
▁부문	-10.7573
▁자본	-10.7576
▁음식물	-10.7577
즙	-10.7589
▁가르쳐	-10.7589
▁가급적	-10.7589
▁용이합니다	-10.759
▁사이드	-10.7591
▁면접	-10.7592
▁끝나고	-10.7601
▁최선	-10.7607
▁위기	-10.761
사업	-10.762
▁체크아웃	-10.7622
▁유닛	-10.7623
com	-10.7623
개국	-10.7625
▁박사님	-10.7627
▁즐겁게	-10.7627
▁모임	-10.7628
▁도서	-10.7629
▁시연	-10.7629
개발	-10.7633
▁가능하여	-10.7642
▁유연한	-10.7647
▁선호하는	-10.765
▁모여	-10.7653
▁신실한	-10.7657
▁소주	-10.7665
▁추세	-10.7666
▁참여할	-10.7666
▁감사드리겠습니다	-10.7668
▁회사들	-10.767
▁확인하십시오	-10.767
▁판매량	-10.7672
▁이익이	-10.7673
▁사무실에서	-10.7674
▁그러다	-10.7674
▁구역	-10.7675
▁적용했습니다	-10.7679
었죠	-10.7683
▁매력적	-10.7685
▁120	-10.7687
▁정비	-10.7689
촌	-10.769
▁가성비	-10.769
▁즉각적	-10.7691
▁아니죠	-10.7698
룩	-10.7699
▁쉬워	-10.77
▁원칙	-10.77
▁고려하여	-10.7705
▁가볍	-10.7716
▁넣으	-10.7718
리터	-10.7721
성분	-10.7722
▁시간대	-10.7723
▁높였습니다	-10.7724
▁않으신	-10.7724
▁저작권	-10.7724
▁떨어졌	-10.7724
▁어느정도	-10.7728
▁응원	-10.773
▁차이점	-10.7732
▁말이야	-10.7734
▁일부러	-10.7741
▁도착했	-10.7742
▁고추장	-10.7744
▁정교	-10.7745
▁담당하고	-10.7745
▁실력	-10.7749
꼴	-10.7759
▁컨테이너	-10.7759
▁클라이언트	-10.7759
▁스프링	-10.7759
▁차별화	-10.7759
▁출근	-10.7764
▁크고	-10.7768
▁태국	-10.7768
큼	-10.7768
▁장기간	-10.7774
▁불평	-10.7775
▁제품보다	-10.7778
싼	-10.7788
▁파우더	-10.7793
흠	-10.7793
▁태양광	-10.7796
▁거잖아요	-10.7801
농	-10.7802
팔	-10.7804
볼까	-10.7805
▁통증	-10.7808
곳	-10.7811
▁단위로	-10.7812
▁구강	-10.7813
▁요금제	-10.7818
깁니다	-10.7826
▁떨어진	-10.7828
▁미끄러	-10.7828
걷	-10.7828
▁불고기	-10.7833
▁테마	-10.7835
빠	-10.7836
▁전동	-10.7836
▁감독	-10.784
▁원하시나요	-10.7852
▁비전	-10.786
▁꼼꼼하게	-10.7862
덤	-10.7862
▁암호화폐	-10.7862
▁풍성	-10.7863
▁커튼	-10.7864
▁순수	-10.7864
▁선보이	-10.7865
레이션	-10.7868
▁날짜와	-10.7869
ra	-10.7875
꽃	-10.7876
▁월세	-10.788
▁습기	-10.7887
▁가능하도록	-10.7889
▁적용된	-10.7892
▁35	-10.7897
▁드레스	-10.7897
▁주파수	-10.7897
학년	-10.7897
무늬	-10.7901
▁갔어	-10.7905
▁더블	-10.7905
▁일요일	-10.7909
▁목재	-10.791
▁작동하지	-10.7923
짠	-10.7932
▁투숙	-10.7933
▁소고기	-10.7936
▁끼쳐	-10.7936
▁김밥	-10.7937
▁종사	-10.7937
▁내장되어	-10.794
▁부모	-10.794
▁미쳤	-10.7941
▁상처	-10.7946
냉	-10.7948
▁창업	-10.7954
OS	-10.7956
▁순위	-10.7962
즐	-10.7963
▁알아봐	-10.7964
▁속에서	-10.7966
▁서울에서	-10.7967
▁SNS	-10.7967
▁있답니다	-10.7967
▁봉투	-10.7968
▁해결하기	-10.7979
▁진심	-10.7982
머리	-10.7984
▁어떤가요	-10.7985
▁해킹	-10.7991
▁법적	-10.7995
▁원단으로	-10.7996
▁받아서	-10.7998
▁오늘부터	-10.8
▁스티커	-10.8002
▁풍미	-10.8002
▁자랑하는	-10.8002
▁친화적	-10.8005
▁싶으신	-10.8011
▁어울리	-10.8013
킨	-10.8013
▁여기다	-10.8014
몰	-10.802
▁같지	-10.8023
▁끓여	-10.8023
▁따르	-10.8034
놈	-10.8037
▁식탁	-10.8039
▁되나	-10.8043
▁모르겠어요	-10.8046
▁이동식	-10.8047
▁받으면	-10.8052
▁길게	-10.8054
▁사유	-10.8061
▁스토리지	-10.8065
▁곰팡이	-10.8072
▁컨설팅	-10.8072
▁지하철	-10.8072
▁검은색	-10.8072
▁아시겠지만	-10.8072
▁없으시	-10.8084
▁최고급	-10.8085
폼	-10.8101
주셨던	-10.8104
▁적용하여	-10.8104
▁공항에서	-10.8105
▁방안	-10.8108
▁염려	-10.8108
▁접착	-10.8111
▁결재	-10.8116
▁알려진	-10.8121
▁단열	-10.8124
▁대처	-10.8125
▁사람들과	-10.8128
▁맛집	-10.8129
▁제작했습니다	-10.813
▁가정에서	-10.8133
▁감독님	-10.8136
맹	-10.8143
▁나왔다	-10.8143
▁어려우	-10.8143
▁2022	-10.8143
▁최악	-10.8145
▁반죽	-10.8148
▁완료되면	-10.8155
▁제어할	-10.816
힘	-10.8162
▁저항	-10.8164
▁국가에서	-10.8165
펜	-10.8165
▁건강하게	-10.8168
▁목적으로	-10.8171
▁한국인들	-10.8175
됨	-10.8179
▁러시아	-10.8179
▁흥미로운	-10.818
▁없었다	-10.8186
▁계약금	-10.8186
▁재개	-10.8189
하긴	-10.819
▁장면	-10.8192
▁만들어져	-10.8194
▁기쁘	-10.8204
주시고요	-10.8212
하더라고요	-10.8213
▁불필요	-10.8215
▁텍스트	-10.8215
▁현황	-10.8217
▁곡물	-10.8217
▁무엇인가요	-10.8218
▁무섭	-10.8219
▁주위	-10.8221
▁창문	-10.8226
▁날아	-10.8226
되었고	-10.8239
▁주장	-10.8242
▁맞추어	-10.8244
겁	-10.8245
▁기대됩니다	-10.8247
▁열려	-10.8248
▁내용물	-10.8248
▁디저트	-10.8251
▁렌터카	-10.8251
▁아름답	-10.8251
▁액션	-10.8251
▁줄어들	-10.8251
▁이쪽으로	-10.826
분들께	-10.8265
▁저렴합니다	-10.8273
▁경량	-10.8276
홀	-10.8276
▁마찬가지	-10.8277
▁NFT	-10.8287
▁맞네	-10.8287
줌	-10.8287
▁소요될	-10.8287
▁들어가서	-10.8288
▁낮추	-10.8291
▁사용하였습니다	-10.8298
작업	-10.8302
▁사안	-10.8306
▁급히	-10.8308
▁노동	-10.832
▁밖에서	-10.8321
▁충돌	-10.8323
▁경비	-10.8324
▁신용카드	-10.8324
▁블랙박스	-10.8325
▁2~3	-10.8325
▁세부사항	-10.8328
닌	-10.8332
▁아니지만	-10.8348
▁없지	-10.8352
▁덜어	-10.8352
드리지	-10.8355
▁엉덩이	-10.836
▁판촉	-10.8361
56	-10.8363
▁대안	-10.8364
▁접근할	-10.8365
하셨다는	-10.8369
▁출입	-10.837
▁적절	-10.8374
nd	-10.8377
▁사내	-10.8384
밤	-10.8386
▁여성용	-10.8393
랙	-10.8395
헌	-10.8396
▁블레이드	-10.8396
▁싶으시다면	-10.8396
▁통조림	-10.8396
▁이상적	-10.8397
▁돕는	-10.8397
▁분산	-10.8404
▁음향	-10.8406
▁갈게요	-10.8409
▁양쪽	-10.8411
▁나누어	-10.8419
▁돌리	-10.8419
▁싱글	-10.8433
▁세계적인	-10.8434
▁사은품	-10.8434
▁포근	-10.8443
▁추운	-10.8449
분께	-10.8455
▁거친	-10.8456
▁26	-10.8457
▁오프라인	-10.8469
▁리더	-10.8471
▁확인하였습니다	-10.8473
▁코딩	-10.8476
▁오버	-10.8484
▁보신	-10.8487
▁구경	-10.8496
일간	-10.8499
핏	-10.8504
놔	-10.8504
▁메타버스	-10.8506
▁획기적	-10.8506
컷	-10.8506
▁청첩장	-10.8506
▁내주셔서	-10.8507
▁소량	-10.8509
▁재계약	-10.8509
▁혼란	-10.8511
▁없애	-10.8511
▁청결	-10.8512
▁사회적	-10.8512
▁도와주셔서	-10.8513
▁대기업	-10.8519
▁그곳에서	-10.8527
▁마련되어	-10.8529
듀	-10.8543
▁싶네요	-10.8543
▁와이파이	-10.8543
▁무거운	-10.8543
▁휴대전화	-10.8543
▁혈액	-10.8544
▁어떡해	-10.8544
▁되셨	-10.8544
▁몇가지	-10.8546
으므로	-10.8553
▁식별	-10.8554
▁차세대	-10.8554
▁야간	-10.8566
▁권장합니다	-10.8576
Z	-10.8581
▁난방	-10.8581
▁걸렸	-10.8581
▁부피	-10.8589
시겠어요	-10.8592
줬어	-10.8602
▁개발하였습니다	-10.8604
▁통하여	-10.8614
▁삼겹살	-10.8618
▁감싸	-10.862
겠지요	-10.862
▁습도	-10.8626
▁금일	-10.8627
▁없게	-10.8631
▁고객님에게	-10.8632
▁출시했습니다	-10.8638
▁상사	-10.8643
▁되겠다	-10.8645
▁어렵지	-10.865
▁필요하다고	-10.865
▁맞으신가요	-10.8655
▁맞출	-10.8655
▁알레르기	-10.8655
▁암호화	-10.8677
▁무대	-10.8692
껍	-10.8693
▁애완동물	-10.8693
▁트레일러	-10.8693
넌	-10.8693
▁적습니다	-10.8694
하셨다고	-10.8702
▁예상치	-10.8705
▁세우	-10.8706
▁주문번호	-10.8707
▁좋았습니다	-10.871
▁물리적	-10.8713
▁냉장	-10.8718
▁시작하겠습니다	-10.8722
띠	-10.8731
am	-10.8733
▁들어갑니다	-10.8736
65	-10.8737
▁사무용품	-10.8746
▁모시고	-10.8752
▁들면	-10.8755
▁설치되어	-10.8764
▁리모컨	-10.8769
쏘	-10.8769
쑥	-10.8769
헹	-10.8769
▁있을까	-10.8769
혼	-10.877
▁도어	-10.877
▁생존	-10.8772
▁맛보	-10.8773
큰	-10.8774
쌀	-10.8774
둔	-10.8774
▁받아보실	-10.8779
▁고온	-10.8781
▁시원한	-10.8785
렸다	-10.8796
▁뒷면	-10.8801
▁찢어	-10.8807
▁AA	-10.8807
▁노즐	-10.8809
으로써	-10.8813
▁레스토랑에서	-10.8816
▁입구	-10.8818
▁읽어보	-10.8822
▁전역	-10.8825
▁유명합니다	-10.8836
▁글자	-10.8839
▁배포	-10.884
▁봉지	-10.8841
▁ERP	-10.8845
▁송지효	-10.8845
▁이물질	-10.8845
▁재석	-10.8851
▁확인하겠습니다	-10.8852
▁무엇이든	-10.8858
▁향기	-10.8867
▁드려서	-10.887
▁들려	-10.8872
갓	-10.8883
▁채택	-10.8885
느라	-10.8887
▁명함	-10.8888
▁입찰	-10.8894
▁식물성	-10.8901
▁부탁드려요	-10.8902
▁개인적인	-10.8908
▁낙지	-10.8913
▁향수	-10.8916
▁지적	-10.8918
첩	-10.8921
▁출신	-10.8922
▁옮기	-10.8923
▁나누고	-10.8923
약품	-10.8925
▁해드려	-10.893
▁편의성	-10.8939
▁숙성	-10.8943
▁알아서	-10.8943
▁꾸준	-10.8956
텍	-10.896
▁접이식	-10.896
▁홍콩	-10.8961
▁구매하고자	-10.8972
▁불가능한	-10.8973
드릴테니	-10.8976
▁보온	-10.8988
▁비록	-10.899
▁용도로	-10.8995
▁막걸리	-10.8999
▁소개하겠습니다	-10.9001
▁초대장	-10.9001
▁광택	-10.9002
셨는지	-10.9003
부장	-10.9005
▁파견	-10.9008
▁귀하로부터	-10.9011
헤	-10.9012
▁안녕히	-10.9012
▁새우	-10.9014
하시다	-10.9018
▁귀사로부터	-10.9023
▁승리	-10.9035
▁컴팩트	-10.9038
푼	-10.9038
▁혈압	-10.9038
▁써야	-10.904
▁인삼	-10.9042
모델	-10.9051
▁매력적인	-10.9052
▁측면에서	-10.906
▁시내	-10.906
▁많다고	-10.9061
▁않았어요	-10.9062
금액	-10.9068
하시지	-10.9069
봇	-10.9075
하셨다면	-10.9077
▁괜찮으신가요	-10.9077
▁없으신가요	-10.9077
▁필요하시다면	-10.9077
샵	-10.9077
▁얻으	-10.9077
▁돼지고기	-10.9078
▁허브	-10.9081
▁전자용품	-10.9081
하시는데	-10.9081
▁도와드립니다	-10.9082
바랍니다	-10.9094
▁체계	-10.9103
▁넉넉한	-10.9116
▁초음파	-10.9116
▁규격	-10.9116
▁낭비	-10.9116
▁크리스	-10.912
▁소개해드리려고	-10.912
▁경제적	-10.9121
▁업체들	-10.9124
▁생각한다	-10.9128
ed	-10.9134
▁지갑	-10.9137
▁광학	-10.914
▁금요일까지	-10.9142
▁향상된	-10.9146
▁보내드릴게요	-10.9152
몬	-10.9154
멸	-10.9155
▁껍질	-10.9156
▁달력	-10.9156
▁차례	-10.9169
▁출연	-10.9169
셋	-10.9173
▁재발	-10.9178
밭	-10.9195
탭	-10.9195
▁로그인	-10.9195
▁의무	-10.9197
▁잡혀	-10.9205
▁저렴하	-10.9205
▁커플	-10.9207
다보니	-10.9229
▁주문하려고	-10.9234
▁밸브	-10.9235
▁텔레비전	-10.9235
솜	-10.9235
▁부사장님	-10.9235
▁탐색	-10.9235
▁삭제	-10.9235
▁핑크	-10.9235
▁연계	-10.9236
▁퇴근	-10.9237
▁전체적으로	-10.9237
▁어떠세요	-10.9238
▁박람회에서	-10.9241
▁지문	-10.9241
▁지나면	-10.9245
상태	-10.9255
▁조화	-10.9256
▁미루	-10.9274
▁솔직하게	-10.9274
▁인체공학적	-10.9275
▁상당한	-10.9275
▁상기시켜	-10.9275
▁품종	-10.9275
▁탄산	-10.9275
▁규제	-10.9275
▁재촉	-10.9279
▁360	-10.9281
▁국민	-10.9282
▁걸린	-10.9295
▁좋아해요	-10.9314
▁접촉	-10.9317
계약	-10.9318
▁무척	-10.9322
▁나눌	-10.9324
▁유연성	-10.9329
▁산소	-10.933
▁백업	-10.9331
▁감사해요	-10.9339
▁보충	-10.9344
▁소프트	-10.9354
▁리액션	-10.9355
▁최우선	-10.9355
쿼	-10.9355
▁어울립니다	-10.9355
쉐	-10.9355
▁재입고	-10.9355
▁효능	-10.9355
▁증권	-10.9356
▁회장님	-10.9357
▁싶으시면	-10.9358
▁약속드립니다	-10.9361
▁경향	-10.9367
하느라	-10.9392
▁잘됐네요	-10.9395
▁지효야	-10.9396
였는데	-10.9398
▁모기지	-10.9398
▁많았습니다	-10.9408
▁모르겠네요	-10.9408
▁추워	-10.9409
▁고려해야	-10.9424
▁상세히	-10.9426
▁지속되는	-10.9427
▁양질	-10.9428
에너지	-10.943
샌	-10.9435
▁돕습니다	-10.9436
▁갱신	-10.9436
▁죄송해요	-10.9439
▁명령	-10.9441
▁조항	-10.9444
▁연애	-10.9444
▁대표님께서	-10.9445
▁찾았습니다	-10.9445
▁계셨	-10.9454
▁어디서든	-10.9455
▁양치	-10.947
▁용어	-10.9471
▁난리	-10.9473
▁멋있어	-10.9476
▁미세먼지	-10.9476
▁옥수수	-10.9476
▁피트니스	-10.9476
▁백종원	-10.9476
▁안정적으로	-10.9476
▁불가피	-10.9476
▁직원분들	-10.9476
▁넣어야	-10.9481
▁전화드렸습니다	-10.9481
질환	-10.9482
▁어른	-10.9483
▁좋아한다	-10.9492
▁보여줄	-10.9497
▁진료	-10.9498
▁보시기	-10.9501
▁예정이니	-10.9502
▁과자	-10.9504
▁유아용	-10.9505
▁소설	-10.9505
▁나갔	-10.9506
렵	-10.9509
퀴	-10.9513
▁마모	-10.9513
▁철저한	-10.9517
▁습관	-10.9517
▁니즈	-10.9518
▁갖게	-10.9519
▁드라이버	-10.9519
▁법률	-10.9521
▁고추	-10.953
▁세워	-10.9547
효율	-10.9556
▁정품	-10.9557
ation	-10.9558
퓨	-10.9558
▁원재료	-10.9558
▁일어난	-10.9558
▁유사한	-10.9559
▁펜션	-10.9561
▁도시락	-10.9562
▁창립	-10.9565
▁연구원	-10.957
▁싸우	-10.9572
▁문제없	-10.9578
▁교정	-10.9589
캐	-10.959
슨	-10.9596
톡	-10.9599
▁놀랐어	-10.9599
▁알고리즘	-10.9599
▁이르기까지	-10.9599
솥	-10.9599
▁수도꼭지	-10.9599
퍼센트	-10.9599
▁유통기한	-10.96
▁램프	-10.96
▁가습기	-10.96
▁다용도	-10.9602
▁피곤	-10.9603
▁최저	-10.9603
ut	-10.9605
하시게	-10.9612
▁의학	-10.9617
▁여보	-10.9623
▁구매하시는	-10.9623
빅	-10.964
▁견딜	-10.964
▁고구마	-10.964
us	-10.9645
▁아이들에게	-10.9647
셨죠	-10.9648
벌레	-10.9653
▁없을까요	-10.9655
▁매치	-10.9655
▁매매	-10.9656
셨다고	-10.9657
▁와이드	-10.9659
th	-10.9661
▁벌어	-10.9665
▁실무	-10.9665
om	-10.9669
▁맞았어	-10.9673
▁구두	-10.9675
▁클렌징	-10.9682
깡	-10.9682
둑	-10.9682
▁방사선	-10.9682
했어야	-10.9683
▁팀원	-10.9684
▁높아지	-10.9689
▁텐데요	-10.9691
▁매월	-10.9692
▁광범위한	-10.97
▁각질	-10.9707
▁갖다	-10.9714
치료	-10.9719
▁모레	-10.972
▁순조롭	-10.9724
▁라이선스	-10.9724
▁명시되어	-10.9724
▁행운	-10.9725
▁균일	-10.9725
▁터빈	-10.9726
▁목욕	-10.9727
하시어	-10.9727
산업	-10.9727
▁몰라서	-10.9735
▁조달	-10.9742
▁똑같	-10.9745
▁영양소	-10.9749
▁주문했던	-10.9751
▁개방	-10.9756
▁광수야	-10.9766
하였고	-10.9768
▁시원하게	-10.9784
▁만료	-10.9788
▁무언가	-10.9808
▁베이비	-10.9808
▁운행	-10.9809
▁홍합	-10.9809
▁모르겠지만	-10.9817
조차	-10.9831
▁체중	-10.9834
▁들어온	-10.9843
▁전문적으로	-10.9849
▁그렇다고	-10.985
▁뷔페	-10.985
렁	-10.985
▁스팀	-10.9852
▁받아보고	-10.9853
▁화장	-10.9855
▁철강	-10.9856
▁대행	-10.9859
거에요	-10.9868
▁실용적	-10.9868
▁아닐	-10.9869
▁미칠	-10.987
▁공공	-10.9889
▁농산물	-10.9892
▁나쁘지	-10.9892
▁설마	-10.9893
▁분양	-10.9894
▁확인해보니	-10.9897
▁몰라요	-10.9902
▁들어올	-10.9908
▁정산	-10.9914
▁축적	-10.9919
▁선택하실	-10.9926
펫	-10.9933
▁끝날	-10.9935
▁말레이시아	-10.9935
뚫	-10.9935
▁미뤄	-10.9936
▁씨앗	-10.9936
▁사죄	-10.9938
▁줄이는	-10.9942
▁부츠	-10.9944
▁책자	-10.9944
포트	-10.9945
▁형이랑	-10.9946
베리	-10.9953
▁들여	-10.9967
▁정확하	-10.997
▁벗어	-10.9973
▁샌드위치	-10.9977
▁앉으세요	-10.9977
▁티셔츠	-10.9977
윙	-10.9977
삐	-10.9977
▁오렌지	-10.9978
▁중요성	-10.9985
▁정상적으로	-10.9987
▁잔디	-10.9988
▁바쁘신	-10.9996
하신다는	-10.9998
▁도와줄	-11.0002
▁15%	-11.0006
as	-11.0009
▁환기	-11.0014
▁흐르	-11.002
▁직원들에게	-11.0021
▁신경써	-11.0022
▁밀가루	-11.0023
셀	-11.0023
쇼	-11.0023
▁소매업체	-11.0023
▁극복	-11.0025
▁신중	-11.0029
▁강남	-11.0029
▁담배	-11.0032
▁직원에게	-11.0032
▁애매	-11.0033
▁즐기기	-11.0033
▁배워	-11.0035
랬	-11.0044
하셨죠	-11.005
쇄	-11.0055
▁생산량	-11.0056
▁알았습니다	-11.0062
▁염두에	-11.0063
▁권리	-11.0066
▁취득	-11.0067
9%	-11.007
▁차장님	-11.0072
냥	-11.0087
▁작아	-11.0098
▁인연	-11.0104
#	-11.0107
▁얻었습니다	-11.0107
▁포트폴리오	-11.0107
▁세찬아	-11.0107
눈	-11.0108
▁무겁	-11.0111
▁예정이라	-11.0114
▁머그	-11.0114
▁연락주십시오	-11.0117
▁채우	-11.0124
MS	-11.0127
▁김준호	-11.015
▁두꺼운	-11.015
▁프린트	-11.015
윗	-11.015
▁멈추	-11.015
▁나일론	-11.015
▁아저씨	-11.015
▁응대	-11.0154
▁찾으시는	-11.0157
▁과제	-11.0163
▁손질	-11.0164
▁특성상	-11.0166
하시겠어요	-11.0167
▁귀국	-11.017
▁원희	-11.017
▁동일하게	-11.0171
lo	-11.0184
팽	-11.0194
▁겁니까	-11.0194
▁든든	-11.0194
▁한잔	-11.0195
°	-11.02
▁의존	-11.0201
넘	-11.0201
1%	-11.0201
▁알았는데	-11.0201
▁알람	-11.0208
▁상환	-11.021
▁전문점	-11.0212
▁살았	-11.0212
▁대단하다	-11.0219
▁사용법	-11.0221
▁저축	-11.0225
▁제공한다	-11.0226
누	-11.0228
▁공구	-11.023
▁은우	-11.0233
▁앨범	-11.0238
웅	-11.0238
힙	-11.0238
▁느꼈	-11.0238
▁사우나	-11.0238
▁불가합니다	-11.0241
▁웃겨	-11.0243
▁가짜	-11.0255
▁현명	-11.0256
▁말했다	-11.026
▁선별	-11.0265
겠군요	-11.0272
피트	-11.0275
틸	-11.0278
틈	-11.0282
▁일으키	-11.0282
▁다양합니다	-11.0282
▁죄송한데	-11.0283
▁밀착	-11.0285
▁신뢰성	-11.0286
▁주인공	-11.0287
▁번거롭게	-11.0289
▁매주	-11.029
▁동반	-11.0309
정기적으로	-11.0323
▁투표	-11.0325
▁납기일	-11.0325
*	-11.0326
▁샐러드	-11.0326
얀	-11.0326
▁BB	-11.0331
▁화질	-11.0332
▁아뇨	-11.0342
234	-11.0343
▁참치	-11.0347
▁예쁘게	-11.0349
하셨는데	-11.0351
▁부합	-11.0357
검사	-11.036
▁특화	-11.0365
▁맛있는데	-11.0369
▁유튜브	-11.037
덴	-11.037
▁어두운	-11.037
▁주저하지	-11.037
▁어울려	-11.037
▁정해진	-11.0371
▁중요해	-11.0371
ter	-11.0372
▁일회용	-11.0373
▁통풍	-11.038
▁무궁	-11.038
▁먹었어	-11.0389
▁소중	-11.0393
▁고마워요	-11.0396
껴	-11.0414
▁캡슐	-11.0415
똥	-11.0415
▁입소문	-11.0415
▁세입자	-11.0416
▁증거	-11.0416
▁드림	-11.0422
▁문제들	-11.0444
쁘	-11.0447
▁맡겨	-11.046
▁소규모	-11.046
▁싶습니까	-11.046
댄	-11.046
▁주꾸미	-11.046
▁파우치	-11.046
▁뷰티	-11.046
▁돕기	-11.046
▁성형	-11.0462
▁루프	-11.0462
▁경쟁사	-11.0483
▁보내드리는	-11.0492
▁각국	-11.0495
넣	-11.0495
륙	-11.0505
▁흡입	-11.0505
▁혈관	-11.0506
▁주최	-11.0507
▁다닐	-11.0517
▁크레	-11.0523
총	-11.0523
▁불능	-11.0524
▁구성원	-11.0524
되었던	-11.0542
▁부득이하게	-11.055
▁숨겨	-11.055
▁여섯	-11.0551
▁요구사항	-11.0559
▁회의록	-11.0566
▁카레	-11.0569
뭔	-11.0585
▁장애인	-11.0589
▁정확도	-11.0596
▁가만히	-11.0596
▁건전지	-11.0597
▁짜증	-11.0603
▁여러분께	-11.061
▁CD	-11.0612
▁적립	-11.0612
▁위반	-11.0612
▁스키	-11.0616
였으면	-11.0617
사이즈	-11.0618
느	-11.0639
▁골목식당	-11.0641
▁기숙사	-11.0641
▁어렸을	-11.0642
▁초보자	-11.0642
▁디젤	-11.0643
▁명확하	-11.0646
▁다녀오	-11.0656
▁경보	-11.0658
▁원룸	-11.066
였던	-11.0665
욱	-11.0666
관련	-11.0669
▁덕분	-11.0676
▁초래	-11.0682
▁셰프	-11.0687
▁중개인	-11.0688
▁택시	-11.0689
▁도와드리	-11.0692
▁새벽	-11.0692
▁폭발	-11.0696
▁맞았	-11.0697
▁미술	-11.0704
▁동업	-11.0712
▁선두	-11.0713
▁자율	-11.0721
id	-11.0723
했었	-11.0731
▁리뉴얼	-11.0733
▁철저히	-11.0733
▁프로세서	-11.0733
▁칼슘	-11.0733
▁좌우	-11.0734
▁밑창	-11.0736
▁바삭	-11.0741
▁재미있게	-11.0742
▁실외	-11.0743
테크	-11.0745
▁경영진	-11.0747
▁충분하지	-11.076
칼국수	-11.0761
▁영업시간	-11.0765
눌	-11.0769
▁정리해서	-11.0775
킷	-11.0777
핵	-11.0779
▁GPS	-11.0779
▁SEO	-11.0779
▁클레임	-11.0779
▁백화점	-11.0779
▁집주인	-11.078
▁서랍	-11.0781
▁항균	-11.0782
▁단맛	-11.0785
▁호환됩니다	-11.0796
팬	-11.0807
AR	-11.081
▁소속	-11.0811
▁실크	-11.0817
멈	-11.0826
▁매뉴얼	-11.0826
▁하이브리드	-11.0826
긋	-11.0826
▁욕조	-11.0826
▁용접	-11.0829
▁절연	-11.0835
▁스토리	-11.0836
▁정상적인	-11.0843
▁기사님	-11.0844
부탁드립니다	-11.0855
▁대결	-11.0855
▁공통	-11.0856
▁출시하였습니다	-11.087
▁가위바위보	-11.0873
▁아프리카	-11.0873
▁햇빛	-11.0873
릉	-11.0873
뱅	-11.0873
툴	-11.0873
▁쿠키	-11.0873
▁코튼	-11.0875
▁빌딩	-11.0875
▁빨간	-11.088
▁이사님	-11.0881
▁2020	-11.0881
여행	-11.0884
방법	-11.0892
되었어요	-11.0895
▁발열	-11.0907
▁출시되었습니다	-11.0919
▁매끄러운	-11.092
▁애니메이션	-11.092
웰	-11.092
▁흘러	-11.092
▁다시한번	-11.092
켜	-11.0924
▁골목	-11.0925
▁열쇠	-11.0926
▁면도기	-11.0928
▁보인다	-11.0938
시쯤	-11.0939
▁데리고	-11.0946
▁발달	-11.095
▁테니까	-11.0955
▁표시됩니다	-11.0958
되므로	-11.0963
랭	-11.0967
뭉	-11.0967
▁귀여운	-11.0967
▁범죄	-11.0967
▁튜브	-11.0967
▁졸업	-11.0967
▁다가오는	-11.0967
▁항공편	-11.097
▁검출	-11.0973
▁지향	-11.0974
▁상징	-11.0978
▁갈색	-11.0994
98	-11.0995
▁충분합니다	-11.1
▁유용합니다	-11.1011
셜	-11.1011
젓	-11.1014
▁디럭스	-11.1014
딥	-11.1014
▁으악	-11.1015
▁진지하게	-11.1015
▁히터	-11.1017
▁없으며	-11.1025
▁누워	-11.1033
▁취미	-11.104
▁다르다	-11.1046
▁어렵게	-11.1046
▁보십시오	-11.1046
▁OOO	-11.1051
흰	-11.1062
▁퀴즈	-11.1062
▁대리님	-11.1064
▁잠재적	-11.1065
▁담겨	-11.1069
▁사이버	-11.107
▁워터	-11.1071
▁칼라	-11.1074
▁올릴	-11.1083
▁발표회	-11.1084
▁편하신	-11.1094
하실까요	-11.1105
▁엔터테인먼트	-11.111
귤	-11.111
▁할머니	-11.111
▁전지판	-11.111
▁곡선	-11.111
▁티켓	-11.1112
▁브라운	-11.1115
▁라이프	-11.1117
씨에게	-11.1125
90	-11.113
▁실험실	-11.1131
▁여쭤보	-11.1132
▁조속	-11.1133
▁골드	-11.1135
▁과실	-11.1153
▁가벼워	-11.1158
▁선글라스	-11.1158
▁얼른	-11.116
▁몰입	-11.1164
▁넘겨	-11.1165
닐	-11.1168
하셨는지	-11.117
▁똑같아	-11.1173
▁비교적	-11.1183
받침	-11.1197
하든	-11.12
융	-11.1205
▁숟가락	-11.1206
▁기쁜	-11.1207
▁복귀	-11.1211
▁멀지	-11.1212
▁부탁드릴게요	-11.1214
▁영업팀장	-11.1225
▁예정인데	-11.1237
▁선배	-11.1243
▁구성품	-11.1247
짓	-11.1248
▁박테리아	-11.1255
▁콩나물	-11.1255
▁실장님	-11.1256
▁직관적	-11.1259
▁레이어	-11.1259
▁먹어봐	-11.1259
▁엑스	-11.1265
ent	-11.1267
셨는데	-11.1274
▁걸음	-11.1276
▁하나하나	-11.1282
▁체형	-11.1285
▁빌려	-11.1287
▁저렴하게	-11.1289
▁내장된	-11.1297
꺼	-11.1298
홍	-11.1298
▁보였습니다	-11.13
▁아닙니까	-11.1303
▁오리지널	-11.1303
딴	-11.1303
▁바뀐	-11.1303
▁폐쇄	-11.1304
▁받았다	-11.1304
▁텐트	-11.1305
▁VR	-11.1306
좋	-11.1339
▁늦어진	-11.1339
▁받았는데	-11.1346
▁실루엣	-11.1352
▁캐비닛	-11.1352
▁프리젠테이션	-11.1352
뚝	-11.1352
▁디스크	-11.1352
▁볶아	-11.1355
▁연구개발	-11.1357
▁70%	-11.1358
▁만나보세요	-11.136
▁만난	-11.1365
▁독특	-11.1366
▁시각적	-11.1372
▁채권	-11.1376
▁일시적	-11.1391
▁괜찮은데	-11.1395
▁브러쉬	-11.1402
▁탈부착	-11.1402
▁농기계	-11.1402
▁촉감	-11.1404
▁근거	-11.1404
▁말이죠	-11.1404
▁계십니까	-11.1404
▁호환성	-11.1406
▁베스트	-11.1409
▁탈모	-11.141
해드렸습니다	-11.141
▁전자책	-11.1412
▁벗어나	-11.1414
▁매입	-11.1418
▁제안하신	-11.142
주택	-11.1427
78	-11.1429
먼트	-11.1436
z	-11.145
▁유모차	-11.1451
▁미생물	-11.1451
▁탄생	-11.1452
▁밀봉	-11.1455
▁바빠	-11.1457
▁우승	-11.1459
▁급격	-11.146
▁자세하게	-11.1471
▁암호	-11.148
▁매체	-11.1482
김치	-11.1484
▁공기청정기	-11.1501
▁불행히도	-11.1501
겐	-11.1501
▁선보입니다	-11.1501
▁드셨	-11.1504
▁방출	-11.1504
▁허락	-11.1504
▁걱정되	-11.1505
▁운용	-11.1506
버린	-11.1542
▁고춧가루	-11.1551
▁워크숍	-11.1551
▁때때로	-11.1551
▁카펫	-11.1552
▁장벽	-11.1556
▁건축물	-11.1557
해주셨습니다	-11.1558
▁대폭	-11.1559
▁캡처	-11.1565
▁외출	-11.1573
했습니까	-11.1577
▁토크	-11.158
▁까다로운	-11.1601
췄	-11.1601
퀵	-11.1601
둬	-11.1601
▁전반적인	-11.1601
▁수익률	-11.1604
▁담았습니다	-11.1607
▁되겠습니까	-11.161
▁대충	-11.1631
▁가능하니	-11.1634
▁추정	-11.1635
▁알려주셔서	-11.1645
멍	-11.1649
ul	-11.1652
흙	-11.1652
▁라운지	-11.1652
▁괜찮으시	-11.1658
▁클립	-11.1659
▁감안	-11.1673
략	-11.1687
▁그랬는데	-11.1688
▁게시물	-11.169
썰	-11.1693
엉	-11.1702
뚜	-11.1702
▁스테이크	-11.1702
▁메신저	-11.1702
▁설득	-11.1703
Hz	-11.1704
▁뿌려	-11.1704
가능한	-11.1709
▁지닌	-11.1712
▁도난	-11.1716
100	-11.172
▁있겠네요	-11.172
▁워치	-11.1727
▁없었어요	-11.1728
내역	-11.174
▁너그러	-11.1753
▁탑승	-11.1753
▁부작용	-11.1754
▁딱딱	-11.1755
▁소요되	-11.1755
활동	-11.1765
▁책임감	-11.1769
▁스타일링	-11.177
되거나	-11.1779
릇	-11.1785
▁부탁드려	-11.1794
커버	-11.18
▁기저귀	-11.1805
▁디비디비딥	-11.1805
▁의사소통	-11.1805
▁일어났	-11.1805
▁있으십니까	-11.1805
▁설문조사	-11.1805
▁소진되었	-11.1811
▁결코	-11.1811
▁처음이라	-11.1827
▁됐는데	-11.1832
▁색감	-11.1846
▁스타트업	-11.1856
▁어려웠	-11.1856
▁포뮬러	-11.1856
▁햄버거	-11.1856
덩	-11.1856
▁삼각대	-11.1856
▁삽입	-11.1856
▁머무를	-11.1856
▁풍력	-11.1857
▁은퇴	-11.1858
▁런던	-11.1859
▁홀더	-11.1861
▁석유	-11.1865
▁40%	-11.1868
▁협력업체	-11.1875
쿵	-11.1908
▁가전제품	-11.1908
▁이끌어	-11.1908
▁잠재력	-11.1908
▁게이밍	-11.1908
▁유지보수	-11.1908
드릴께요	-11.191
▁신혼	-11.1912
▁준호	-11.1916
▁위협	-11.1917
▁장담	-11.1921
쥐	-11.1922
ine	-11.194
▁남녀노소	-11.196
▁이산화탄소	-11.196
▁캘리포니아	-11.196
▁콘솔	-11.196
▁아티스트	-11.196
▁엄청나게	-11.196
▁비대면	-11.1961
▁즐겨보세요	-11.1961
▁드럼	-11.1963
▁깜짝이야	-11.1967
가능합니다	-11.1973
▁과연	-11.1976
▁계단	-11.1977
▁영화관	-11.1982
▁도심	-11.1982
▁어디든	-11.1987
▁인도네시아	-11.2013
▁키워드	-11.2013
▁활발	-11.2017
갤	-11.2065
맘	-11.2065
럴	-11.2163
햄	-11.2225
흉	-11.2225
잠	-11.2303
또	-11.2304
헉	-11.2387
푸	-11.2471
뒤	-11.2473
칫	-11.2496
앙	-11.2543
딘	-11.2552
펄	-11.2607
갖	-11.2693
짚	-11.2719
짱	-11.2719
삽	-11.2776
댁	-11.2776
뇨	-11.2812
닭	-11.2817
끌	-11.2873
썩	-11.289
웬	-11.289
$	-11.2937
팟	-11.2947
템	-11.3296
펀	-11.348
꼬	-11.3486
썬	-11.3541
룡	-11.3541
특	-11.3542
셰	-11.3602
쭈	-11.3602
낮	-11.3617
옮	-11.3662
쉴	-11.3664
붓	-11.3726
쩍	-11.3726
퇴	-11.3738
넨	-11.3789
숍	-11.3789
옹	-11.3915
뇌	-11.4
켈	-11.4043
잭	-11.4043
햇	-11.4172
땅	-11.42
튀	-11.4204
풋	-11.4303
앵	-11.4369
}	-11.4436
낀	-11.4436
텀	-11.4503
갱	-11.4571
툭	-11.4571
왁	-11.4639
둡	-11.4707
뮤	-11.4776
콧	-11.4846
팍	-11.4846
춤	-11.4897
룬	-11.4916
씰	-11.4916
옷	-11.4965
깔	-11.4969
썹	-11.4986
룹	-11.5037
즘	-11.5056
뚱	-11.5057
깅	-11.5128
잼	-11.5128
탠	-11.52
렐	-11.52
팝	-11.5273
곰	-11.5273
덟	-11.5273
톨	-11.5273
낙	-11.534
랍	-11.5341
옵	-11.5418
갯	-11.5419
숭	-11.5419
엑	-11.5478
씬	-11.5493
걔	-11.5568
땐	-11.5568
랫	-11.5643
덥	-11.5643
탔	-11.5643
롯	-11.5713
묵	-11.5717
숯	-11.5719
짤	-11.5719
빌	-11.5722
륨	-11.5792
뒀	-11.5795
툰	-11.5795
뜰	-11.5872
깜	-11.595
벅	-11.595
꼭	-11.6048
깍	-11.6107
웁	-11.6107
죄	-11.618
핸	-11.6181
늄	-11.6186
궈	-11.6186
j	-11.6186
딱	-11.6205
숫	-11.6264
퉁	-11.6347
섰	-11.6347
좀	-11.6373
꿈	-11.6378
섹	-11.6428
찔	-11.6428
꿔	-11.6506
슐	-11.6845
맷	-11.6845
밋	-11.6845
찼	-11.6845
츄	-11.6845
톰	-11.6845
낱	-11.7103
붐	-11.7103
쪄	-11.7103
홉	-11.7191
팁	-11.7247
킥	-11.728
킴	-11.7369
냄	-11.7459
%	-11.7539
텨	-11.755
앗	-11.7731
셈	-11.7734
잘	-11.781
팥	-11.7828
못	-11.7892
븐	-11.7912
륜	-11.7922
겔	-11.8017
뽀	-11.8017
쓱	-11.8017
앰	-11.8113
앤	-11.8207
덱	-11.8308
뜬	-11.8308
툼	-11.8308
샘	-11.8407
빡	-11.8407
쉘	-11.8407
엣	-11.8407
탓	-11.8407
홈	-11.8408
돔	-11.8507
됬	-11.8507
샐	-11.8507
젯	-11.8507
렴	-11.8602
델	-11.8603
팜	-11.8608
돕	-11.9338
앞	-11.9375
섬	-11.9487
엇	-11.9563
떼	-11.9605
찢	-11.9677
덜	-11.9721
앱	-11.9721
봄	-12.0078
슴	-12.0132
셉	-12.0503
킵	-12.0503
캘	-12.0626
므	-12.0832
녹	-12.0833
뢰	-12.0872
씀	-12.0873
쓸	-12.1098
캔	-12.1366
롬	-12.14
걱	-12.1401
렷	-12.1536
팡	-12.1536
뤄	-12.1766
걀	-12.2092
듣	-12.2226
뻐	-12.2232
뭐	-12.2385
즌	-12.2529
딸	-12.2854
잖	-12.2991
댓	-12.2999
닙	-12.2999
엠	-12.3157
샴	-12.3319
논	-12.3343
덮	-12.3346
몇	-12.3682
최	-12.4029
섯	-12.4129
흑	-12.4224
얘	-12.4982
뛰	-12.539
꼈	-12.5489
및	-12.5812
낄	-12.5901
겟	-12.6329
쎄	-12.6553
왈	-12.6554
뻔	-12.6711
짬	-12.7014
뱃	-12.7496
겸	-12.7699
쨌	-12.7746
뽕	-12.7746
왜	-12.7963
슘	-12.8535
훌	-12.8536
옆	-12.9086
빼	-12.909
녁	-12.9093
춧	-12.9099
쁜	-12.937
닛	-12.9389
릅	-12.9391
녕	-12.9678
땀	-13.0028
훼	-13.0331
빗	-13.0706
끗	-13.1366
젖	-13.1817
쓴	-13.1819
칵	-13.2122
찹	-13.2522
밑	-13.2635
곧	-13.2635
멕	-13.2938
듈	-13.337
떠	-13.3516
댑	-13.4304
샹	-13.533
껑	-13.533
늬	-13.6406
깁	-13.6472
떤	-13.7091
쁨	-13.7762
즉	-13.8177
뒷	-13.8177
됩	-13.8475
닦	-13.8946
꽉	-13.9779
삶	-13.978
쥴	-14.1992
웹	-14.2799
볍	-14.3093
뿍	-14.4353
쩔	-14.5773
뽑	-14.9144
첫	-14.9145
핫	-14.9145
쿄	-14.9446
뀐	-15.1944
쭤	-15.1946
뭘	-15.9983
뺐	-16.9809
텝	-16.981
뻥	-16.9811
눴	-16.9812
뺄	-16.9813
씌	-16.9814
훔	-16.9815
빕	-16.9816
찻	-16.9817
땠	-16.9818
윷	-16.9819
큘	-16.982
늙	-16.9821
짭	-16.9822
낵	-16.9823
쩐	-16.9824
꽝	-16.9825
쏴	-16.9826
쏠	-16.9827
뻗	-16.9828
잦	-16.9829
펠	-16.983
얄	-16.9831
챔	-16.9832
왠	-16.9833
깻	-16.9834
빴	-16.9835
꿨	-16.9836
헐	-16.9837
얹	-16.9838
렙	-16.9839
쫓	-16.984
숲	-16.9841
닷	-16.9842
깥	-16.9843
궤	-16.9844
녔	-16.9845
섀	-16.9846
뉘	-16.9847
엎	-16.9848
딪	-16.9849
붉	-16.985
쏙	-16.9851
벳	-16.9852
쫙	-16.9853
뵈	-16.9854
컸	-16.9855
뺏	-16.9856
횟	-16.9857
찐	-16.9858
꺾	-16.9859
굵	-16.986
옳	-16.9861
꼽	-16.9862
춥	-16.9863
곁	-16.9864
곽	-16.9865
늑	-16.9866
뻤	-16.9867
쁠	-16.9868
낯	-16.9869
촘	-16.987
엌	-16.9871
쏟	-16.9872
쌉	-16.9873
멧	-16.9874
낳	-16.9875
켤	-16.9876
헷	-16.9877
덧	-16.9878
팸	-16.9879
밟	-16.988
깎	-16.9881
쩌	-16.9882
갚	-16.9883
넛	-16.9884
쭙	-16.9885
튬	-16.9886
맑	-16.9887
앨	-16.9888
쫀	-16.9889
쫄	-16.989
푹	-16.9891
긁	-16.9892
숟	-16.9893
낚	-16.9894
닮	-16.9895
밌	-16.9896
뵐	-16.9897
쪼	-16.9898
릎	-16.9899
펼	-16.99
씹	-16.9901
묶	-16.9902
뷔	-16.9903
펙	-16.9904
돋	-16.9905
띄	-16.9906
뮬	-16.9907
퀄	-16.9908
큽	-16.9909
좁	-16.991
겉	-16.9911
굳	-16.9912
씁	-16.9913
씻	-16.9914
샀	-16.9915
눠	-16.9916
낫	-16.9917
왼	-16.9918
썼	-16.9919
멤	-16.992
밸	-16.9921
뜯	-16.9922
쟤	-16.9923
헬	-16.9924
얇	-16.9925
챙	-16.9926
쭉	-16.9927
켰	-16.9928
휘	-16.9929
옛	-16.993
닫	-16.9931
닿	-16.9932
맙	-16.9933
섞	-16.9934
젊	-16.9935
묻	-16.9936
쌓	-16.9937
겪	-16.9938
뀌	-16.9939
싫	-16.994
짧	-16.9941
끊	-16.9942
숨	-16.9943
봅	-16.9944
쾌	-16.9945
넉	-16.9946
잊	-16.9947
맺	-16.9948
깝	-16.9949
꼼	-16.995
륭	-16.9951
촬	-16.9952
긍	-16.9953
맡	-16.9954
슷	-16.9955
듭	-16.9956
똑	-16.9957
웠	-16.9958
훨	-16.9959
굉	-16.996
냈	-16.9961
뵙	-16.9962
넓	-16.9963
앉	-16.9964
깊	-16.9965
냅	-16.9966
읽	-16.9967
랐	-16.9968
쁩	-16.9969
멋	-16.997
뜻	-16.9971
몸	-16.9972
찍	-16.9973
낌	-16.9974
늦	-16.9975
밖	-16.9976
믿	-16.9977
얻	-16.9978
났	-16.9979
봤	-16.998
젝	-16.9981
놓	-16.9982
졌	-16.9983
끝	-16.9984
줍	-16.9985
획	-16.9986
괜	-16.9987
찮	-16.9988
높	-16.9989
왔	-16.999
찾	-16.9991
떻	-16.9992
먹	-16.9993
험	-16.9994
늘	-16.9995
맞	-16.9996
끓	-16.9996
싶	-16.9997
렇	-16.9998
많	-16.9999
않	-17
빚	-17.0001
잃	-17.0001
꽤	-17.0001
있	-17.0001
